e n</w>
d e</w>
e r
i n
c h
e r</w>
e n
a n
u n
t h
t i
i s
r e
o n</w>
o r
o n
a r
i t
e s
i e</w>
e s</w>
r o
i n</w>
th e</w>
a l
e l
i s</w>
c h</w>
s t
l i
s i
o m
T h
a t
a s</w>
a u
d er</w>
o u
a ti
e d</w>
i l
o f</w>
a t</w>
r a
o r</w>
t o</w>
a n</w>
an d</w>
e in
un g</w>
e i
a s
o l
in g</w>
r i
t e</w>
un d</w>
d i
d en</w>
u s
e m
a b
u r
e h
e t
s ch
en t</w>
om m
a l</w>
is t</w>
d ie</w>
Th e</w>
a c
g en</w>
i ch
v er
d e
f ü
n o
g e</w>
t er
a m
l e</w>
w i
t en</w>
l e
l o
f or
t er</w>
f or</w>
b e
ati on</w>
t e
ro p
er e</w>
v e</w>
en t
re s
e c
fü r</w>
i t</w>
g e
u rop
S ie</w>
I n
2 0
D ie</w>
s p
E urop
ch e</w>
e it
ar e</w>
omm is
A n
f f
a k
o u</w>
v i
c e</w>
a h
n e
S t
a r</w>
si on</w>
u l
p ro
d er
ti on</w>
t s</w>
ich t</w>
b e</w>
s e
l y</w>
z u</w>
c on
u m</w>
o p
R e
m m
i g
for m
ein e</w>
g en
y ou</w>
v on</w>
ati on
b er</w>
V er
h a
s e</w>
g i
M in
th is</w>
a d
ch en</w>
i r
D as</w>
20 0
w er
ou r</w>
d es</w>
a y</w>
a g
b er
u t
i ch</w>
ommis sion</w>
w e
p o
h at</w>
no t</w>
d as</w>
s t</w>
in d</w>
U n
e in</w>
c i
E R
ei t</w>
n icht</w>
p l
D i
e l</w>
U N
g es
q u
il l</w>
Min is
s u
an d
au f</w>
H o
M r</w>
s en</w>
l d</w>
u r</w>
s h
a ch
al l</w>
at e</w>
un gen</w>
di es
i r</w>
i m</w>
w ill</w>
p or
w it
s o</w>
S ch
h r
A N
th at</w>
r u
E N
el l
wi r
r an
P ro
o t
e m</w>
c k
e d
W e</w>
H er
n en</w>
e b
E U</w>
ou ld</w>
e x
Minis ter</w>
ä n
w as</w>
Th is</w>
w or
c o
P res
a p
u m
s ind</w>
ha ve</w>
li ch</w>
a f
E n
wit h</w>
un g
I ch</w>
si d
I N
wi r</w>
as e</w>
an n</w>
ti on
f in
e t</w>
u s</w>
c om
i m
on t
t o
e an</w>
g r
m it</w>
a ge</w>
0 0</w>
C H
wer den</w>
z i
R O
h o
or e</w>
it y</w>
w e</w>
W ir</w>
A u
T I
f ol
T E
ä r
k e</w>
l u
b es
i c
te l</w>
A l
in g
m ent</w>
d o
m a
h ab
u t</w>
d u
is che</w>
s it
s ti
b y</w>
o o
l and</w>
Europ ean</w>
D er</w>
E r
a m</w>
si ch</w>
in e</w>
ou r
form ation</w>
eh r</w>
R E
sid ent</w>
A r
wir d</w>
e g
in ter
3 2</w>
r ä
al l
on e</w>
m e</w>
s er
g ro
ou t</w>
A b
p ar
c an</w>
I t</w>
es e</w>
A us
m o
t u
t ra
a ch</w>
Her r</w>
e p
si on
E R</w>
d o</w>
h as</w>
et z
K ommission</w>
S p
C ommission</w>
ur e</w>
an k</w>
ab le</w>
th er</w>
us t</w>
is t
p er
I n</w>
P re
l a
s el
ö n
E N</w>
de m</w>
i a</w>
ent s</w>
1 0</w>
B er
Europ ä
u b
au s
h i
ro m</w>
g ra
C o
E s</w>
s sen</w>
m ore</w>
ation en</w>
w h
au ch</w>
ung s
P ar
ol l
B e
a v
E U
g el
m ö
por t</w>
O N
d s</w>
ch t</w>
ah r
y our</w>
ac k
al so</w>
in formation</w>
er s</w>
i el
F in
ü ber</w>
v o
F ra
e u
W h
v er</w>
f rom</w>
es t
sch af
ge b
i en</w>
O N</w>
1 9
e y</w>
an t</w>
g h
A R
In form
m en</w>
con t
ver y</w>
M ar
al s</w>
M a
re c
Th at</w>
hab en</w>
m an
er t</w>
I S
ak e</w>
m e
w ould</w>
i e
au s</w>
r ü
es s</w>
eit ere</w>
t ed</w>
a il
en d
eh en</w>
s o
s a
le ase</w>
i on</w>
un d
Inform ationen</w>
g er
g t</w>
li ke</w>
ar y</w>
w el
ü r
c k</w>
f i
g u
k t</w>
r it
h al
Pres s</w>
d a
te il
1 2</w>
R A
k omm
b t</w>
k l
ein en</w>
un s</w>
F or</w>
W hat</w>
c lu
g an
f t</w>
o b
en d</w>
m ar
T H
ges ch
U S
re s</w>
mö ch
ü ber
w ar
is e</w>
M it
es t</w>
V or
t s
re t
sit e</w>
w en
eh t</w>
Ho tel</w>
C h
w s</w>
t z
is chen</w>
l an
n e</w>
k ön
no w</w>
li che</w>
E S
i d</w>
h r</w>
E in
A L
eit en</w>
li ch
ation s</w>
v or
p p
em ent</w>
1 1</w>
C O
em ber</w>
Europä ische</w>
t r
p res
as t</w>
m en
an ce</w>
W eitere</w>
es s
a d</w>
Pre sident</w>
li ti
gro und</w>
er en</w>
D e
O R
t h</w>
de t</w>
st e</w>
tion s</w>
ont ak
t re
p e
sti mm
as s
I T
s ie</w>
g l
ac e</w>
Co un
ack ground</w>
ti ve</w>
P rä
k ann</w>
ab out</w>
z ur</w>
EU RO
In ter
En t
i l</w>
b r
H inter
N e
b u
no ch</w>
at es</w>
st r
d ay</w>
m in
g er</w>
Hinter gr
m ust</w>
f re
p ri
c y</w>
w ur
a in
e ch
us s</w>
ub li
al ly</w>
f er
am e</w>
n ah
B ackground</w>
i mm
u e</w>
o h
b et
or t</w>
0 0
st at
en s</w>
o s
a y
kön nen</w>
o k
f en</w>
z u
F ran
L I
m ü
w eit
li e
Th ere</w>
a ir
u p</w>
ommis sion
m u
I hr
ö r
ti ge</w>
ci l</w>
vo te</w>
D E
Y ou</w>
be en</w>
e ar
dies e</w>
Coun cil</w>
du c
S T
as s</w>
be i</w>
2 9</w>
an n
b l
h ere</w>
vi e
k eit</w>
se in</w>
Hintergr und</w>
d is
e k
1 3</w>
d en
T E</w>
ac t</w>
ec t</w>
a in</w>
3 0</w>
it ä
s ol
th er
G e
sh ould</w>
or d
W as</w>
ein er</w>
t al
n o</w>
l in
schaf t</w>
gh t</w>
w hat</w>
komm en</w>
C I
s ed</w>
W el
t w
N o
ti g
m it
ontak t</w>
st ell
G es
st en</w>
1 5</w>
m p
z um</w>
z en</w>
b i
er ung</w>
E A
t el
ar d</w>
c es</w>
ne w</w>
teil ung</w>
mü ssen</w>
P o
ati ve</w>
at ed</w>
s em
19 9
EURO P
ü n
2 9
W ie</w>
C ommission
F or
n ach
n er</w>
E M
oo d</w>
m an</w>
hi er</w>
de b
om e</w>
f ra
p ubli
ti g</w>
o der</w>
c lo
th ere</w>
2 0</w>
d ar
gi bt</w>
G er
w ar</w>
k s</w>
o ff
be it
P er
s ehr</w>
y st
en ce</w>
f ahr
n ur</w>
se e</w>
I L
o s</w>
o re
al e</w>
c omm
er n</w>
sp ra
Di es</w>
n eh
g re
au f
G en
f u
Q u
Un ter
L u
ac ts</w>
S o
Ab stimm
ä h
ti me</w>
il l
un ter</w>
ing s</w>
Di ese</w>
el y</w>
ul t
s se
p h
B el
am ent</w>
t ung</w>
fin den</w>
por t
th ing</w>
h eit</w>
t ake</w>
di es</w>
etz t</w>
g em
Pres sem
V i
deb ate</w>
an y</w>
is ch
for e</w>
Pressem it
un ter
a at
com e</w>
e v
w är
b le</w>
K ontakt</w>
e i</w>
ci al</w>
C ont
r on
g o
w ie</w>
re port</w>
it s</w>
UN G</w>
Un ion</w>
C on
Commission er</w>
B es
Ber icht</w>
W eb
an t
a re
air s</w>
S u
te t</w>
ou s</w>
ne t</w>
gra mm
kl är
i k
us ti
Fin an
ail able</w>
E I
1 0
ac c
l en</w>
lo ssen</w>
B ut</w>
L A
I h
po in
lo w
Prä sident</w>
re ich</w>
ommis s
m ehr</w>
Ho w</w>
re lease</w>
ne ed</w>
E S</w>
f e</w>
w n</w>
ff airs</w>
n ung</w>
av ailable</w>
s er</w>
ig n</w>
spra che</w>
p re
E x
o c
Pressemit teilung</w>
ig h
le m</w>
co un
Th ank</w>
n ach</w>
TH E</w>
h er
p r
on s</w>
i c</w>
Europ e</w>
Wh en</w>
m y</w>
b o
gesch lossen</w>
b en</w>
st ay</w>
ä l
b il
Aus sprache</w>
M e
E L
F ü
Abstimm ung</w>
i ti
b en
d ass</w>
I ON</w>
ei ch
B u
c re
A ffairs</w>
o m</w>
en ti
v ot
w ay</w>
s oll
p rop
v or</w>
wor k</w>
v es</w>
dies er</w>
U m
in a</w>
G r
qu i
P O
s ec
1 4</w>
P RO
möch ten</w>
M M
k en</w>
S CH
l ä
g li
b ar</w>
g ar
wur de</w>
k eine</w>
pl ace</w>
t ing</w>
D ER</w>
S ec
eh r
B r
d es
ti c
au se</w>
C omm
v en
h eiten</w>
n i
S o</w>
f e
o ch</w>
2 29</w>
V iel
st el
u n</w>
fü hr
v el
t ri
Ihr e</w>
com p
u res</w>
ch an
Z u
ein em</w>
s ere</w>
v ed</w>
f ir
man y</w>
B ei
I tal
d ur
v is
k ing</w>
ar i
W ann</w>
t en
n is
un k
I I</w>
ü tz
T ER
e gen
al le</w>
qu es
clo sed</w>
K on
Re gi
E C
d a</w>
er n
fin det</w>
l ung</w>
L i
A L</w>
ge t</w>
D ank</w>
ur ther</w>
t or</w>
S e
N o</w>
Europ a</w>
pro c
m uss</w>
l ine</w>
P ri
Au f
Fra u</w>
IS CH
us s
m er
on ly</w>
sa id</w>
5 0</w>
O F</w>
b lem</w>
j e
si ch
ri c
is h</w>
der n</w>
ti mm
ri ch
imm er</w>
dies em</w>
S S
n ation
y p
nach ten</w>
Ih nen</w>
st ru
th ese</w>
re e</w>
A p
ä ch
hab e</w>
it e</w>
it te</w>
An gel
co m</w>
h e</w>
re i
po liti
o ther</w>
an s</w>
U hr</w>
über nachten</w>
200 9</w>
b is</w>
z e</w>
sch en</w>
c tion</w>
An t
w ich
re ch
su p
er g
or s</w>
e f
s on
itä t</w>
J usti
wi ck
möch te</w>
Di es
publi c</w>
Web site</w>
op er
s k
W ir
el le</w>
par t
eh e</w>
K ommiss
A d
3 5
m on
ei l</w>
D at
ff ent
o g
x t</w>
D I
R I
i el</w>
m ents</w>
E in</w>
E H
0 00</w>
st ar
Fü r</w>
b el
as sen</w>
Angel egen
y s</w>
2 5</w>
P RE
w ere</w>
il e</w>
d ung</w>
sion s</w>
Mit gli
Re ch
c le
s en
am p
ra l</w>
and el
S it
mu ch</w>
sp e
ec i
et t
Un d</w>
200 7</w>
us am
fahr en</w>
H i
g ood</w>
f f</w>
h el
F ore
0 3</w>
a st
u ation</w>
em b
a u</w>
we ver</w>
1 4
pro duc
T S</w>
Sch l
at eg
vel op
li chen</w>
er al</w>
T ra
un kt</w>
neh men</w>
n t</w>
do es</w>
u p
UN G
UN ION</w>
p er</w>
ge w
fol gen
tw o</w>
d ed</w>
V I
yst em</w>
f all</w>
sch e</w>
1 7</w>
b eit</w>
än di
t es</w>
in k</w>
A F
Viel en</w>
ab er</w>
im port
S er
1 6</w>
E D</w>
ran sp
Lu x
ich t
an der
eu te</w>
m m</w>
M S</w>
A ber</w>
r e</w>
Angelegen heiten</w>
ri ght</w>
a g</w>
Th ey</w>
M o
il li
mar k
h e
r is
e fore</w>
br au
un ser
ac k</w>
nah men</w>
on g</w>
R at</w>
n er
Ü ber
M ember</w>
U R
m is
fir st</w>
i ge</w>
al is
re g
A TI
lie ß
d el
stat t</w>
w er</w>
e urop
sel s</w>
ü ck
d ing</w>
l au
Bel gi
1 8</w>
Fore ign</w>
i es</w>
ur r
et s</w>
An d</w>
gramm e</w>
vi ce</w>
Al l</w>
sse l</w>
D es
d re
l and
Cont acts</w>
c al</w>
20 10</w>
f o
I R
W or
j ec
g eh
vie ws</w>
B rü
M s</w>
m ich</w>
fu l</w>
M en
w ei
st ri
Lux emb
we b
li ck</w>
for m</w>
B et
ut es</w>
m at
fi ed</w>
G re
ah r</w>
ap p
a b</w>
W ar
W e
pres ent
or y</w>
d et
ho tel</w>
th ey</w>
is ch</w>
I P</w>
w ant</w>
Par l
we i</w>
Br us
c an
D en
s ame</w>
usam men
res p
prop os
AN D</w>
is h
O r
C om
P ol
st ütz
V ER
M i
ach t</w>
wel l</w>
Brus sels</w>
f t
j ust</w>
s ch</w>
1 9</w>
g ung</w>
2 1</w>
eg t</w>
ne ue</w>
import ant</w>
T el</w>
S P
t schaft</w>
ut z
lo w</w>
dies en</w>
li cy</w>
c ri
g h</w>
is su
ol l</w>
tra g</w>
g lich</w>
sh o
b ar
R es
G EN
d r
l es</w>
4 0</w>
i ce</w>
g eht</w>
en s
P l
geb en</w>
Brü ssel</w>
j o
St aat
op le</w>
200 8</w>
ne u
Z eit</w>
de l</w>
us e</w>
th em</w>
au en</w>
2 2</w>
B A
em p
ff en</w>
d at
v en</w>
Minis ter
D E</w>
em s</w>
S lo
ti gen</w>
ein f
I TE
m ake</w>
EA N</w>
con clu
l l</w>
in v
b eh
Fra ge</w>
j ect</w>
d an
Vor sch
h in
ge gen</w>
H au
I m</w>
o k</w>
c ase</w>
St ate</w>
B il
E ine</w>
Ent wick
poin t</w>
er h
re d</w>
g ab
TE IL
eit e</w>
F ol
re ich
s si
cont act</w>
pl ause</w>
T o
n is</w>
D a
M ore</w>
en de</w>
un sere</w>
ä hr
Bei fall</w>
g o</w>
K o
m al</w>
l ar
2 4</w>
k on
l a</w>
b ei
eb en</w>
to o</w>
i er
Par li
di ff
fol low
k o
le g
ur o</w>
Hi er</w>
Europä ischen</w>
B ar
s etz
web site</w>
con c
th an</w>
po si
we den</w>
at z</w>
R o
wär tige</w>
z wei</w>
Ho stel
tu n</w>
z ei
UN D</w>
ro om</w>
ay s</w>
J ahr
ß nahmen</w>
In formation</w>
UN K
re ad
ter s</w>
ck en</w>
gra mm</w>
ther efore</w>
M on
EUROP EAN</w>
sch ließ
vie w</w>
hal b</w>
Th ese</w>
ti m
0 9</w>
Ä ISCH
vi el
l t</w>
st er
EUROP ÄISCH
er klär
f urther</w>
ST A
in n
G i
pe ople</w>
P UNK
k t
p age</w>
O p
f ri
de c
g et
u tion</w>
De ut
0 2</w>
i hr
ges t
F A
lich keit</w>
j etzt</w>
Ar beit
i h
f ind</w>
ITE MS</w>
M an
Parli ament</w>
velop ment</w>
vi ron
A P
PUNK TE</w>
ei r</w>
su b
E r</w>
aus wärtige</w>
follow ing</w>
tr y</w>
an g</w>
wit ter</w>
ha pp
Ap plause</w>
Her r
m or
k now</w>
vi el</w>
vo m</w>
4 3
ag es</w>
S I
c c
bes t
M A
Z usammen
P or
ail s</w>
d em
T witter</w>
at er</w>
T A
ß e</w>
sup port</w>
be g
ar beit
PO LI
en n
re l
J u
in s</w>
l er</w>
am en</w>
Me di
A m
j ed
as si
t om
b re
tion en</w>
p lease</w>
en g
ei ch</w>
wir k
s ome</w>
TI G
nis se</w>
mo st</w>
d u</w>
z ep
fol ger
K O
Ges ch
ur g</w>
Kommiss ar</w>
W er
om e
A k
1 6
ad op
ap pro
Parl ament</w>
200 1</w>
it ed</w>
ti k
s on</w>
et er</w>
2 3</w>
res s</w>
l ast</w>
em ents</w>
R el
dies es</w>
U r
St r
al ity</w>
ques tion</w>
Au ch</w>
e ar</w>
b ut</w>
om ic</w>
un der
th ink</w>
CO UN
B E
M I
T e
c our
A g
G u
Sec ret
N or
in to</w>
M EN
t ak
ent r
Gen eral</w>
dur ch</w>
G em
z eu
er i
ie der
v al
9 9</w>
st er</w>
Ä n
200 0</w>
un den</w>
li c
ult ure</w>
G ro
h er</w>
di rec
ON S
St ell
om s</w>
M r
vot es</w>
jed och</w>
D ar
z w
Bes ch
am it</w>
w n
bes t</w>
O L
ß en</w>
n un</w>
J ahr</w>
h eute</w>
in clu
en e</w>
I r
b itte</w>
Um wel
m s</w>
e ff
ro l
oo k</w>
L and
t schaf
w al
ho w</w>
f ic
der ung</w>
g ehen</w>
ber eit
g s</w>
Wh y</w>
chan ge</w>
Re present
wi th
sp eci
th eir</w>
sh i
t y</w>
COUN CI
en z</w>
f ten</w>
Justi ce</w>
7 5</w>
f all
COUNCI L</w>
s m
et was</w>
n at
ein es</w>
w eitere</w>
sch ei
ä tz
Sp an
Fran k
j a</w>
s ystem</w>
es ti
fra ge</w>
Pri or
5 4
A s
ON S</w>
Deut sch
et en</w>
fin an
il t</w>
J o
ear s</w>
can not</w>
on d</w>
0 1</w>
E st
ex p
hal ten</w>
po licy</w>
th o
ah l</w>
J un
igh t</w>
I N</w>
f ul
k ret
P lease</w>
b an
g ut</w>
S i
wh ich</w>
L e
P AR
S E</w>
Secret ary</w>
folger ungen</w>
R u
es en</w>
oper ation</w>
wen n</w>
ö s
wi e
I hr</w>
Th em
ma il</w>
po ssi
gan z</w>
ff t</w>
an s
K ön
UNG EN</w>
ain st</w>
Ger many</w>
w oll
man ent</w>
a z
ent ly</w>
Ver tre
ma in</w>
m ir</w>
ol og
S S</w>
Fra gen</w>
Inter net</w>
Schl uss
i ert</w>
ä f
ag re
sch i
ne ed
lo b
omm en</w>
w a
ah er</w>
O ur</w>
ä u
ar t
c a</w>
er k
read y</w>
li egt</w>
N r</w>
Ma ßnahmen</w>
re gi
F r
al o
nah me</w>
v ing</w>
th en</w>
m er</w>
2 7</w>
un de</w>
lo c
nation al</w>
200 5</w>
da zu</w>
35 2</w>
st u
ein ig
ich ts</w>
c urr
land s</w>
Fran ce</w>
A US
F re
o ver</w>
ma de</w>
b ri
en den</w>
Sit z
L an
ol d</w>
Represent ative</w>
1 8
adop ted</w>
il fe</w>
E uro</w>
s ome
ab il
ver st
der s</w>
c ar
Di rec
ver k
t able</w>
E D
ag ainst</w>
ä r</w>
te ch
l än
ATI ON</w>
cle ar</w>
st aat
ne xt</w>
i z
fre e</w>
no v
Per manent</w>
y ears</w>
F l
ro w</w>
Ant wor
Deutsch land</w>
Ho wever</w>
E con
f ac
la g</w>
L in
clu b</w>
Ö ffent
em e</w>
J an
w ays</w>
sti ll</w>
pro blem</w>
St ändi
is p
k un
on d
e p</w>
ord nung</w>
Pro to
Pro du
Gem ein
w is
as ed</w>
on line</w>
Er geb
T o</w>
me as
EU R</w>
soll te</w>
D o
el l</w>
1 5
europ ä
E u
ran s
A f
s ay</w>
wh y</w>
iti es</w>
9 8</w>
I s</w>
an ia</w>
4 5</w>
m i
einf ach</w>
st and
An d
a x</w>
Rech ts
3 1</w>
y ear</w>
P D
m eine</w>
Regi on
viron ment</w>
War um</w>
F all</w>
wur den</w>
In v
ro u
en z
erg y</w>
N ach
l etz
2 8</w>
R om
S ich
Er klär
soll ten</w>
Qu es
st and</w>
ü ck</w>
ver y
2 6</w>
200 6</w>
erklär te</w>
res ul
O n</w>
k te</w>
N at
b ot
ab ei</w>
Entwick lung</w>
C E</w>
Schluss folgerungen</w>
s ehen</w>
gu age</w>
M AR
si ehe</w>
b in</w>
Mitgli ed</w>
sit uation</w>
R ates</w>
au m</w>
G el
Pro blem</w>
lo y
ci p
n um
det ails</w>
2 5
R AN
en cy</w>
ou se</w>
S te
pro gramme</w>
stell en</w>
diff er
b in
to day</w>
F ir
n al</w>
fol gt</w>
i g</w>
I f</w>
at ing</w>
H e
C ON
D ok
s ur
B ul
c er
ot al</w>
ul ar</w>
ra p
Frank reich</w>
ge f
re as
cour se</w>
s c
9 7</w>
op e</w>
Pro gramm</w>
Än der
d one</w>
Ital y</w>
h ar
ver n
TH ER</w>
w ür
be wer
Proto k
P unkt</w>
G l
f ast</w>
conclu sions</w>
N E
C ar
J ul
al ten</w>
ma chen</w>
is ter</w>
ar beit</w>
T O</w>
O n
T O
timm t</w>
T ech
9 6</w>
de ut
al en</w>
te e</w>
g es</w>
tri es</w>
lin ie</w>
der t</w>
G ri
di d</w>
k ein</w>
st eht</w>
ti es</w>
L et</w>
Dok um
Sp ain</w>
Ar tik
29 5</w>
sse kret
S ub
f l
wir tschaft</w>
ell en</w>
a si
th ree</w>
Ch ina</w>
or der</w>
Al le</w>
possi ble</w>
per i
p s</w>
ein g</w>
ar in</w>
issu e</w>
H e</w>
r ati
o ff</w>
s club</w>
Comm un
1 00</w>
iel e</w>
f eh
ti gt</w>
Hostel sclub</w>
acc ep
Ital ien</w>
Ma il</w>
G eb
t ur
ha d</w>
ges am
D o</w>
mm er</w>
C hr
7 0</w>
I C
n äch
are a</w>
our g</w>
2 8
U S</w>
p f
D an
M ob
R icht
bes ch
cont in
L is
m illi
wh en</w>
war d</w>
resp on
ol ution</w>
c ol
B o
proc ed
g s
gre at</w>
S ONS
rit te</w>
0 7</w>
ou gh</w>
ß er
SONS TIG
ec e</w>
us in
ac tion</w>
a k</w>
z eit</w>
sp re
M ich
ie ve</w>
isch er</w>
L E
m ay</w>
S k
O THER</w>
n ec
i f</w>
K in
ah l
sel f</w>
Span ien</w>
wen den</w>
ransp ort</w>
Finan zen</w>
I s
wor ld</w>
sh all</w>
da ys</w>
M it</w>
TE N</w>
MM EN
c or
a ir</w>
T er
c o</w>
dre i</w>
IN G</w>
W OR
Staat ssekret
Mitgli ed
O ff
ic al</w>
k ey</w>
3 5</w>
t ly</w>
d ann</w>
pe ti
d ate</w>
Bul gar
Au stri
or row</w>
Po liti
ut ure</w>
tech n
par t</w>
Artik el</w>
is ion</w>
EUROPÄISCH EN</w>
A M
C our
Minister in</w>
ut y</w>
an del</w>
ti c</w>
h is</w>
at t
L age</w>
unter stütz
ec k</w>
u st
lo ok</w>
sa gen</w>
si mp
W ort</w>
bl ei
wh ere</w>
ti v
o l</w>
200 2</w>
Se e</w>
S eite</w>
produc ts</w>
mar k</w>
Un ited</w>
ri es</w>
D is
M ER</w>
l age</w>
f er</w>
m a</w>
gen ommen</w>
kun ft</w>
D ec
I m
K ro
w in
ver s
RA T</w>
3 3</w>
zi eh
c ould</w>
Fin ance</w>
z eich
ch ar
ex c
gan g</w>
coun tries</w>
U L
en th
en land</w>
Por tu
milli on</w>
ro oms</w>
Z I
Ver k
B en
si g
200 3</w>
mor gen</w>
vi ces</w>
D em
z ur
M ad
gh ts</w>
z el
L at
N ieder
woll en</w>
K ar
sti tu
wn lo
mark et</w>
tom orrow</w>
al t</w>
PRO C
Tech n
Dies er</w>
ut z</w>
Be isp
8 0</w>
l ong</w>
K li
folgen de</w>
e z</w>
te xt</w>
Par t
N eu
pro te
A N</w>
ul es</w>
all es</w>
as es</w>
sch n
vi a</w>
Ne w</w>
Gri ech
ant wor
ungs an
weit er</w>
C ol
M EM
i de
it al</w>
D ep
PD F</w>
ul ation</w>
sch ri
l ei
ES S
6 0</w>
sch on</w>
H in
gem ein
du str
F e
as k</w>
Re d
unk te</w>
Au f</w>
I re
S a
d y</w>
i erung</w>
lo s</w>
ür lich</w>
Prä sid
su ch</w>
St ates</w>
pres s</w>
publi k</w>
er heit</w>
Min utes</w>
sel ec
ö l
B ER
C Y</w>
3 4</w>
B ür
L än
ver tre
brau chen</w>
er ste</w>
di c
al ready</w>
be gr
meas ures</w>
L a
A G
ges timmt</w>
s es</w>
P AN
DE BA
tion al</w>
us ed</w>
be d
Wel t</w>
0 4</w>
r o</w>
le x
we ise</w>
ein ige</w>
shi p</w>
en en</w>
ru e</w>
ch er</w>
Dies es</w>
Protok oll</w>
en st
200 4</w>
en te</w>
Ar beit</w>
Ver einig
at te</w>
al i
f av
por ts</w>
ri fft</w>
sp o
Z immer</w>
Kön ig
W en
Ques tion</w>
ec on
O P
ru pp
E mp
ter n</w>
n et
t lich</w>
w oh
Luxemb ourg</w>
Al l
Portu g
Antwor t</w>
1 7
E C</w>
st ehen</w>
o wn</w>
TE D</w>
some thing</w>
mö glich</w>
E IN
g ilt</w>
Gre ece</w>
ver fü
es ts</w>
em ar
qu e</w>
M al
Austri a</w>
cont acts</w>
Wel che</w>
at s</w>
k ur
et y</w>
B eit
K ing
T S
u al</w>
B i
Ö ster
usin ess</w>
a ff
Medi en</w>
h ol
le v
An frage</w>
Staatssekret är</w>
N EH
j ek
p ack
Cour t</w>
Ire land</w>
L EA
an c
re ally</w>
ag ain</w>
I I
k a</w>
ho wever</w>
rit t</w>
W in
ö ffent
ent al</w>
da für</w>
and ere</w>
Eu ro
g ent
L o
in t</w>
vot ed</w>
conc ern
Griech enland</w>
D eb
P h
gi ve</w>
Belgi um</w>
un der</w>
i eren</w>
EI B</w>
ett bewer
z e
s in
t ure</w>
Mr s</w>
Men schen</w>
ihr e</w>
y n
in s
M ö
neu en</w>
v oll
bereit s</w>
S O
St ra
se k
stell t</w>
S on
do m</w>
Zusammen arbeit</w>
c ent
c l
ver fahren</w>
r y</w>
propos al</w>
Richt linie</w>
b st</w>
ex t</w>
bu d
k eiten</w>
0 5</w>
staat en</w>
con s
Sitz ung</w>
Re publik</w>
h and
Comm it
AN D
mo di
lich er</w>
en ing</w>
viel e</w>
ou t
No v
n ing</w>
a id</w>
in st
ric ulture</w>
Belgi en</w>
Ö R
Ne ther
gen da</w>
ag t</w>
Econ omic</w>
s am
F IN
f uture</w>
rit ten</w>
SCH AF
num ber</w>
A C
b ack</w>
p ra
al th</w>
em ber
Z iel</w>
A S</w>
TI CI
E l
fo und</w>
Luxemb urg</w>
A n</w>
G rü
k ann
h andel
ques tions</w>
Pres se</w>
Des halb</w>
NEH MER</w>
pro vi
B itte</w>
geb o
ö ff
en ten</w>
ungsan trag</w>
G o
el s</w>
Re g
Dep uty</w>
Re public</w>
zw ischen</w>
PAR TICI
43 03</w>
it t
t ain
Öffent lichkeit</w>
Nieder lan
MEM O</w>
gan is
Unter nehmen</w>
Portug al</w>
y ing</w>
h ei
at ely</w>
TEIL NEHMER</w>
sit ting</w>
PRE SS
PAN TS</w>
D och</w>
Herr n</w>
T ur
unser er</w>
PARTICI PANTS</w>
ont rol
Them a</w>
e k</w>
h ope</w>
Mar k
Land wirtschaft</w>
MEN T</w>
r a</w>
F O
e very
n te</w>
ti eren</w>
b eing</w>
dat a</w>
ation s
ad d
Ir land</w>
is m</w>
ar ly</w>
de u
t sch
al ität</w>
si ve</w>
ol le</w>
PRE SS</w>
d ra
star t</w>
is ten</w>
ig h</w>
se t</w>
F urther</w>
Öster reich</w>
Ar e</w>
wie der</w>
si de</w>
ad t</w>
Nether lands</w>
wich tig</w>
is l
w at
l assen</w>
Fin n
enti n</w>
al ways</w>
em ent
sp ro
bes ten</w>
0 6</w>
m ak
A c
su cc
or en</w>
K om
re qu
B O
bil ity</w>
spe ak
k m</w>
ander en</w>
li es</w>
T a
Wir tschaf
GEN O
bes ser
King dom</w>
f r
Pro bl
T re
stru c
st o
p unkt</w>
ou s
k ed</w>
Mi o</w>
20 13</w>
S weden</w>
h um
AN GENO
ear ch</w>
A pri
n ichts</w>
r ation</w>
b al
op en</w>
Jan u
N I
D än
I V</w>
ser vice</w>
go ing</w>
E T</w>
a il</w>
s atz</w>
Wen n</w>
m us</w>
Apri l</w>
T ag
ß t</w>
st s</w>
amp le</w>
W ettbewer
a ve</w>
König reich</w>
TEIL UNG</w>
wirk lich</w>
W o
wär e</w>
En gl
Vorsch lag</w>
0 8</w>
A t</w>
poin ts</w>
v a</w>
ah len</w>
Justi z</w>
ur ity</w>
politi k</w>
LEA SE</w>
Dän emar
H AL
L eb
da ß</w>
Ser vice</w>
f ung</w>
gab en</w>
f lo
en der</w>
G I
a th
si cht</w>
Sch weden</w>
ANGENO MMEN
Jahr e</w>
A s</w>
C C
An to
Ar t</w>
mu ß</w>
setz ung</w>
war en</w>
spre chen</w>
de velopment</w>
IT TEILUNG</w>
sol l</w>
Fin land</w>
zieh ungen</w>
Finan z
I st</w>
RE LEASE</w>
sp rech
1 3
f il
gest ell
dan ke</w>
Anto ine</w>
S E
L E</w>
sec ond</w>
ri e
H ere</w>
Niederlan de</w>
T i
d i</w>
or ity</w>
t on</w>
el t</w>
ri bu
c um
St and
st ändi
af f</w>
u te</w>
komm t</w>
dar f</w>
ven tion</w>
Den mark</w>
need s</w>
ER ÖR
ERÖR TER
d ings</w>
n ame</w>
En vironment</w>
en nen</w>
führ t</w>
geh ör
loy ment</w>
M E
DE S</w>
gab e</w>
ans wer</w>
hi er
Per son
an ge
ANGENOMMEN E</w>
f ig
ro l</w>
at en</w>
ou th</w>
ERÖRTER TE</w>
el ie</w>
E G</w>
Mitglied staaten</w>
K omm
b ro
ation al</w>
T ag</w>
pl an
with out</w>
p t
tu ral</w>
POLI TI
fall s</w>
P al
yp e</w>
zi al
ic s</w>
par tic
differ ent</w>
ag ement</w>
Ge or
N A
i ons</w>
t eil</w>
St u
Ne elie</w>
es sion</w>
C or
re qui
on t</w>
No w</w>
D ur
th ank</w>
ra g</w>
2 7
f ar</w>
Com p
P i
et ing</w>
gl au
hel p</w>
s s</w>
B al
k om
la gen</w>
Dänemar k</w>
pro bl
ob jec
ist ance</w>
w ä
p ass
ol s</w>
ev en</w>
Z eit
Finn land</w>
rec ei
er te</w>
s or
el ec
PROC ESS
S h
g ar</w>
Ent schließ
op p
WOR D</w>
L O
M y</w>
ko st
ei gen
bel ieve</w>
PROCESS ED</w>
Gr und
T EN
re st
au ran
Aus sch
per son
8 6</w>
tig ung</w>
in form
F u
F isch
4 5
e u</w>
g ed</w>
all en</w>
cri p
H ilfe</w>
for t
Unter stütz
pr in
for der
r ules</w>
ol e</w>
fav our</w>
J e
modi fied</w>
n or
di re
wh o</w>
D amit</w>
for t</w>
am il
ff e</w>
pr o</w>
for ward</w>
l ist</w>
Grü n
A U
th ings</w>
fe w</w>
M O
bet ter</w>
Ag riculture</w>
mat ter</w>
e very</w>
De velopment</w>
p ut</w>
20 15</w>
dis c
i o</w>
wel come</w>
pl ement
V ED</w>
w o</w>
TER N
S ep
ab l
Vereinig tes</w>
on ds</w>
Ergeb nisse</w>
an o</w>
wis sen</w>
Commit tee</w>
We g</w>
Ber ich
d abei</w>
En de</w>
Kro es</w>
Pro gramme</w>
A mer
abil ity</w>
is en</w>
F lu
agre ement</w>
ch il
em en</w>
Ho tel
Str ateg
at e
St ar
k ra
s eine</w>
to ber</w>
rä ge</w>
ü s
pl ay
b ung</w>
sch l
gr ö
our s</w>
c ap
c ity</w>
in gen</w>
ein mal</w>
qui ries</w>
Hau sh
k e
gra ph
am end
Zu kunft</w>
DI E</w>
oh ne</w>
f tw
t ro
th rou
schi ed
f un
p i
AP PRO
H ung
p rü
di g
B an
Ihr en</w>
nov ation</w>
wnlo ad</w>
F rü
L ös
t rans
an ti
stell ung</w>
AF FA
IR S</w>
FIN AN
ri ghts</w>
AFFA IRS</w>
im p
T RAN
s af
di a</w>
ar o
Un sere</w>
ch t
W IR
i an</w>
pri v
Kommiss arin</w>
off er</w>
si a</w>
no on</w>
Ent schei
2 4
en ed</w>
E W
tak en</w>
posi tion</w>
TI ON</w>
acc ess</w>
er gi
I ra
APPRO VED</w>
gen d</w>
mer k
in o</w>
lo ok
v al</w>
p ur
C A
at h</w>
O ne</w>
in ing</w>
de o</w>
we en</w>
imm t</w>
DEBA TED</w>
be z
as st</w>
ge l</w>
jec ts</w>
R at
f te</w>
un ser</w>
res olution</w>
ut zen</w>
Direc tive</w>
B ook</w>
199 9</w>
Wir tschaft</w>
M u
Z u</w>
c li
Sit uation</w>
m el
C an</w>
W es
in cre
G ra
ph one</w>
ransp ar
n immt</w>
Unterstütz ung</w>
W i
Umwel t</w>
G U
Be i</w>
L and</w>
P ubli
fra gen</w>
vis it</w>
V or</w>
W oh
qu ality</w>
k no
an y
ex ample</w>
9 0</w>
m il
do wn</w>
H O
ti l</w>
en ter</w>
en ds</w>
Sich erheit</w>
T SCHAF
ig er</w>
f äl
F OR
0 4
POLITI K</w>
K l
t a</w>
te gr
WIR TSCHAF
H AN
ru s</w>
O b
t liche</w>
z er
i ci
as y</w>
mon ey</w>
D u</w>
l ungen</w>
B re
T U
ser vices</w>
So cial</w>
K ur
b ank</w>
folgen den</w>
n a</w>
S ystem</w>
W er</w>
resul ts</w>
proc ess</w>
d g
do cum
m ig
Gen er
tim es</w>
mit tel
G EM
z a</w>
Ges und
B ed
m acht</w>
a de</w>
POLI CY</w>
ro s</w>
t ä
w ish</w>
ftw are</w>
en e
wer de</w>
S A</w>
ak fast</w>
com pl
w äh
ar s</w>
W ill
fer ence</w>
G RA
af ter</w>
M an</w>
en ough</w>
Pro jek
Pol and</w>
c el
s ing</w>
reich en</w>
in nen</w>
N O
h än
um p
Pol en</w>
t a
sel bst</w>
pl ay</w>
A ut
an a</w>
unk tion
STA T</w>
begr ü
ful l</w>
ver sion</w>
H andel
M ay</w>
x im
gesam t</w>
E T
europ a</w>
9 5
D el
an den</w>
ö h
iti ative</w>
Fol low</w>
Inv esti
K ol
M er
ti ves</w>
E L</w>
wor den</w>
U M
d ür
t ungen</w>
peti tion</w>
Ber eich</w>
Pres sek
ish ed</w>
in quiries</w>
C as
part ner</w>
ES S</w>
bet ween</w>
coun try</w>
6 5</w>
do ch</w>
gu te</w>
pri ce</w>
gestell t</w>
I S</w>
on en</w>
pl an</w>
Tra de</w>
Stell vertre
k tion</w>
f el
on ia</w>
be fore</w>
Sep t
T im
bei m</w>
b usiness</w>
ä mp
TE S</w>
R est
un i
E X
i hr</w>
MAR K
issu es</w>
R us
TERN AL</w>
ir d</w>
R ich
T sch
w end
TI ONS</w>
str ateg
Sept ember</w>
M il
ember s</w>
O U
re al</w>
i li
sch ein
20 11</w>
so ci
Y our</w>
h ear
S timm
dec ision</w>
g lob
est ment</w>
coun t</w>
ol o
s ure</w>
or i
de p
Mob il
f und
er halten</w>
di vi
lo t</w>
D ann</w>
Z y
le c
ig keit</w>
äl t</w>
Nov ember</w>
h ang</w>
l ess</w>
de fin
n ed</w>
at or</w>
F ahr
T el
dur ch
Bes u
Hau pt
d amit</w>
min ister</w>
G ar
6 7</w>
9 3
G rupp
sm all</w>
6 4</w>
L assen</w>
54 6</w>
t ain</w>
at ten</w>
par ti
P la
En ergi
at z
pl es</w>
spo liti
c ut</w>
Ver fahren</w>
proced ure</w>
st aff</w>
ir e</w>
ag ree</w>
B ot
ok rati
L it
le ar
CO MM
M E</w>
bot h</w>
re icht</w>
li fe</w>
M ont
Rel e
d aher</w>
sp iel
F er
es sen</w>
weit e</w>
Dokum ent</w>
EURO STAT</w>
Th er
qu ite</w>
rä sident</w>
di o</w>
EN T
For sch
wich tig
ei chen</w>
eit s
Si ehe</w>
di g</w>
ic a</w>
leg isl
Lan guage</w>
Z w
n s</w>
en ergy</w>
Ein zel
Beisp iel</w>
d ri
A K
p le
ch es</w>
im pro
lie gen</w>
dr en</w>
y er</w>
gu e</w>
grö ß
g ri
st ain
con si
Präsid entin</w>
H el
N ach</w>
l in</w>
re m</w>
20 0</w>
Jul y</w>
is ter
om ent</w>
en zen</w>
CH E</w>
Jahr en</w>
no ti
Un i
Erklär ungen</w>
P unkte</w>
Un gar
So zial
ing le</w>
Ständi gen</w>
Jun e</w>
SONSTIG E</w>
B und
s z
P e
9 3</w>
k ün
M eine</w>
l er
o d</w>
S TE
g ress</w>
Wh o</w>
D aher</w>
US A</w>
h igh</w>
so zi
f iel
w ün
K re
h igh
UNG S
b oo
Re cht</w>
o ver
le gen</w>
tra de</w>
fi c</w>
Vertre ters</w>
M är
e ach</w>
stel s</w>
prote ction</w>
C ase</w>
s yst
ho stels</w>
Dat en</w>
Prior itä
TRAN SP
G E</w>
I ts</w>
b lo
Te il
T otal</w>
P ak
K ult
20 12</w>
eb en
f ile</w>
europä ische</w>
com es</w>
Er fol
t rue</w>
c all
et et</w>
ab sol
ul t</w>
per s
A D
T eil</w>
Mit tel
R U
p ic
isch es</w>
I II</w>
Mar ia</w>
Col om
d ge</w>
k er</w>
ze ch</w>
ei che</w>
tho se</w>
V assi
ch o
le t</w>
ci es</w>
S EN
g ing</w>
re ad</w>
am er
Slo ven
Off ice</w>
C zech</w>
a vi
c s</w>
d ist
v öl
di tion</w>
G et</w>
S in
m b
um f
weit er
Vertre ter</w>
C yp
sp l
wür de</w>
Bund es
lev el</w>
probl ems</w>
l et
loc ation</w>
throu gh</w>
Cyp rus</w>
st ra
di t</w>
h il
Ver brau
ri cht</w>
ak tu
ord in
Publi c</w>
Zy per
d ru
is ti
li ght</w>
Wh ere</w>
Hung ary</w>
C urr
d ou
pro jects</w>
respon si
M ehr</w>
wor d</w>
Ungar n</w>
W ich
k ämp
ep s</w>
F eb
b or
P ra
ß en
T r
ed it
Ger icht
Besch äf
bu il
best eht</w>
S y
s ag
an ts</w>
In n
ad v
requ est</w>
da von</w>
speak er</w>
A B
th u
z us
le it
C H</w>
k re
r ate</w>
ä t
ar ds</w>
mit tel</w>
w eit</w>
3 9</w>
5 2</w>
T RA
ati sti
i or</w>
Probl eme</w>
B est
S ol
w ach
is a</w>
Pre is</w>
M or
s ser</w>
ti vi
are as</w>
8 9</w>
c ou
Bu cht</w>
A t
S U
li g</w>
e asy</w>
Z um</w>
al es</w>
as is</w>
Feb ru
B ro
F rei
m as</w>
selec tor</w>
aro und</w>
M illi
i um</w>
ec ted</w>
ü h
verfü g
A genda</w>
Ch ar
S el
om y</w>
zei gt</w>
R um
en ces</w>
sp ek
glau be</w>
res er
S ome</w>
o d
m et
ti n</w>
nat ürlich</w>
B ra
c all</w>
rec omm
lich es</w>
Ver fü
lä u
ribu tion</w>
Hotel s</w>
A T
J US
d it
ad ded</w>
Be wer
Zyper n</w>
do ws</w>
Li thu
unser en</w>
Slo v
itt le</w>
olo gi
er dings</w>
St ru
C lick</w>
r or
Sp iel
Wel come</w>
Re port</w>
Fir st</w>
C a
IN N
d ates</w>
politi cal</w>
5 1</w>
i gen</w>
3 6</w>
E IT
P eter</w>
Sp ra
pro ject</w>
Vassi li
in ge</w>
Chr ist
nec ess
R ück
än de</w>
US S
ing t</w>
sa che</w>
4 9</w>
f unktion
auran t</w>
6 1</w>
y et</w>
ond ere</w>
aus ge
pres ent</w>
3 7</w>
j u
n ess</w>
is mus</w>
re cht</w>
A 4</w>
Z iele</w>
Slo wen
W o</w>
r ise</w>
al er</w>
Sch ri
curr ent</w>
Hostel s</w>
arbeit en</w>
c ust
w rit
st re
Gro up</w>
O per
UR E</w>
c lick</w>
ges agt</w>
oo l</w>
Tsch ech
J oh
w es
For tsch
enti al</w>
9 2</w>
ec ts</w>
Vi ce</w>
g te</w>
k ti
om en</w>
appro ach</w>
PRESS EM
F ax</w>
V on</w>
bi etet</w>
29 6</w>
H ER
ter n
Dat en
F o
S low
b urg</w>
ass ung</w>
fic ation</w>
wor ks</w>
war ds</w>
Da zu</w>
PRESSEM ITTEILUNG</w>
P r
me ans</w>
Ständi ger</w>
Frü h
A gre
L a</w>
l at
Wettbewer b
T ransport</w>
we gen</w>
Be ziehungen</w>
V I</w>
ad a</w>
ck t</w>
29 9</w>
p ay
le ben</w>
Arbeit s
Sloven ia</w>
H ome</w>
v o</w>
co operation</w>
ef on
näch sten</w>
L ei
R ec
f act</w>
w th</w>
gen au</w>
so cial</w>
4 1</w>
In dustr
B em
ges etzt</w>
H ouse</w>
ist an</w>
Ihr er</w>
inn en
Kin der</w>
wat ers</w>
d est
kost en
J etzt</w>
in es</w>
fol gen</w>
H ar
Ab kommen</w>
finan cial</w>
F Ü
on a</w>
alo g</w>
Stellvertre ter</w>
i d
v ari
w w
Ma i</w>
Erklär ung</w>
O c
no thing</w>
B ES
O ther</w>
s eit</w>
y l
an other</w>
4 4</w>
in c
fü l
N un</w>
k einen</w>
ul tural</w>
10 40</w>
4 8</w>
re p
econ omic</w>
wor ds</w>
8 5</w>
Commun ity</w>
F il
Z ur</w>
w ater</w>
7 9</w>
L ie
l ungs
contin ue</w>
an genommen</w>
Gr und</w>
lä ge</w>
Slow ak
Al so</w>
per f
ww w</w>
W al
S T</w>
h ör
su chen</w>
wir tschaf
ban i</w>
olog y</w>
4 3</w>
F ör
la w</w>
ill a</w>
F ISCH
Re gel
Sp e
ap pe
I G
N E</w>
lan guage</w>
Colom bani</w>
it em</w>
än d
comm it
JUS TI
gro ße</w>
Finan cial</w>
Änder ungsantrag</w>
W I
our ce</w>
CI AL</w>
A us</w>
C ro
a way</w>
gro up</w>
A 5</w>
H andel</w>
l ittle</w>
EI T</w>
F eh
do ing</w>
ris is</w>
L ett
le ist
sh of</w>
En ergy</w>
cont rol</w>
teil e</w>
lin ks</w>
Fisch er
Lithu ania</w>
5 3</w>
H um
curr ently</w>
h ist
o w</w>
li ve</w>
ck s</w>
comm ents</w>
dür fen</w>
un til</w>
Slowen ien</w>
Co st
Al s</w>
our ces</w>
führ en</w>
Lis te</w>
Fe der
b ut
An ne
b au</w>
is her
Rum än
Ste u
t otal</w>
Ges am
Est onia</w>
spoliti k</w>
5 00</w>
it h</w>
dar auf</w>
Herr en</w>
Vi zep
Pressek ontakt</w>
3 8</w>
Mar ch</w>
res t</w>
ft liche</w>
ec tive</w>
ei cht</w>
us e
ei en</w>
V al
as h</w>
Ge wä
inclu de</w>
st eps</w>
B ri
i k</w>
partic ular</w>
eh mig
li dar
go vern
ZI EH
or ganis
Rom ania</w>
D amen</w>
20 14</w>
M P
er war
jo y</w>
5 5</w>
U kra
au th
M ein
lo ws</w>
Lat via</w>
bud get</w>
Lös ung</w>
I de
ex tre
C ent
Pro gramm
ful ly</w>
Est land</w>
A m</w>
di tional</w>
vi er</w>
comm un
än dern</w>
end ed</w>
op in
bes on
kl ar</w>
Lit auen</w>
be come</w>
RE LA
min utes</w>
t ungs
ge gen
oc us</w>
Flu g
comp any</w>
Gel d</w>
p rä
ü l
Th en</w>
ent fer
BE ZIEH
disc us
7 3</w>
z ens</w>
R ed</w>
flo or</w>
Entschei dung</w>
Lett land</w>
F i
O f</w>
v e
ti ger</w>
F ig
Engl ish</w>
8 1</w>
be deu
Geor gi
sag te</w>
m ess
th ird</w>
bes ondere</w>
4 2</w>
gr at
8 8</w>
t ransport</w>
comp le
pra c
l on
gen eral</w>
Sch ritte</w>
ma j
mar kt</w>
den ke</w>
Mich a
St adt</w>
än dert</w>
Po licy</w>
Bu g
BEZIEH UNGEN</w>
K ra
du stri
E G
es se</w>
B innen
del i
cor rec
verfüg bar</w>
A cc
or ities</w>
m ehr
u es</w>
bet rifft</w>
speci al</w>
Politi k</w>
9 5</w>
ch ten</w>
Ru le</w>
1 2
R i
ich te</w>
ser i
kön nte</w>
Jun i</w>
C an
g lich
Gi bt</w>
Af ter</w>
Ma in</w>
off ers</w>
Slov ak
re ma
Ver tra
ho ffe</w>
Produ kte</w>
Leb ens
ent schei
A T</w>
R ah
wor king</w>
er sten</w>
ach st
hal te</w>
199 8</w>
ne ver</w>
ot os</w>
Tag es
K ann</w>
K ontak
no t
i as</w>
Verk ehr</w>
concern s</w>
p en
si eht</w>
fer enz</w>
ih n</w>
reas on</w>
y a</w>
er stellt</w>
an z</w>
Europ as</w>
I D</w>
setz en</w>
Tschech ische</w>
D a</w>
Di enst
sec tor</w>
Umwel t
blei bt</w>
öff net</w>
bi eten</w>
gro ß
14 2</w>
Län der</w>
Haush al
ten tion</w>
je kt</w>
All gem
J ap
Bulgar ia</w>
f est
RELA TIONS</w>
v ol
St at
Gewä sser</w>
0 3
Her z
Win dows</w>
Strateg ie</w>
G ä
T ür
val ue</w>
Rumän ien</w>
An gebo
Re form</w>
Bel li
chil dren</w>
Q U
Pro z
to ols</w>
pri ces</w>
R a
sp ä
ul ti
W is
am es</w>
gen d
loc ated</w>
h au
gen er
rit er
8 4</w>
H aus</w>
H eute</w>
S al
j e</w>
st ep</w>
M ag
m ä
Gesch äf
Belli ard</w>
ak zep
erg ie</w>
Region en</w>
add ress</w>
leg al</w>
regi on
WIRTSCHAF T</w>
di en
Ver t
ger n</w>
Dem okrati
V ol
F ar
H and
u ten</w>
Slovak ia</w>
B eh
n u
app lic
Part ner
look ing</w>
o se</w>
necess ary</w>
8 3</w>
S an
b ab
sch en
nation ale</w>
lan ge</w>
Verfü gung</w>
re form</w>
h im</w>
O MI
R olle</w>
f al
un t</w>
B ank</w>
D inge</w>
W ritten</w>
4 6</w>
P ap
is ts</w>
rei bung</w>
z es</w>
IT Y</w>
G lob
B l
m ate</w>
tra c
ous ly</w>
divi du
tu res</w>
Bulgar ien</w>
A S
k ung</w>
ei li
sec urity</w>
Bar ro
blei ben</w>
e f</w>
ge ther</w>
Sch ul
C re
ent wick
ci ti
ic ation</w>
wh ole</w>
7 4</w>
E F
v an</w>
port un
diff ic
t or
z weite</w>
ex peri
G ol
w a</w>
w are</w>
zi eht</w>
Wor ld</w>
Anne x</w>
com ing</w>
i zi
k i</w>
ab el</w>
tic al</w>
Curr ent</w>
R O</w>
den ti
parti cip
L AND
In novation</w>
le ft</w>
D et
be findet</w>
gl eich
Ukra ine</w>
s f
l emen</w>
Jul i</w>
O S</w>
T our
simp ly</w>
amil y</w>
Schri ftliche</w>
Am end
Slowak ei</w>
E ra
Z entr
th ers</w>
Pre ise</w>
A part
N ot
Sch i
man agement</w>
Rele ase</w>
ver s</w>
Bu d
5 8</w>
ur y</w>
se l</w>
sin ce</w>
N ur</w>
v ement</w>
unterstütz en</w>
D ER
IN HAL
zi erung</w>
No t</w>
Erfol g</w>
go t</w>
ra cy</w>
se qu
ätz e</w>
GEM EIN
B US
S ek
le in</w>
Au g
sich er</w>
c ing</w>
qu is</w>
un ik
al y
tel efon
Ben utz
AL L
K at
all er</w>
W TO</w>
gen cy</w>
woh l</w>
h ö
r aum</w>
emp loyment</w>
f es
fin al</w>
bi g</w>
ch all
Inter national</w>
pro du
zi ert</w>
He alth</w>
a h</w>
s am</w>
we is</w>
to p</w>
B lo
L eben</w>
g ement</w>
l ing</w>
er reichen</w>
um s</w>
gehör t</w>
In st
sol ution</w>
tic le</w>
Bil dung</w>
N i
ah n
ges ehen</w>
ger ne</w>
need ed</w>
CON TEN
lex i
h en</w>
an it
T ex
U T
e qui
th s</w>
F ri
resul t</w>
J a</w>
är e</w>
k li
alo gue</w>
ver schied
F rom</w>
am o
Ver sion</w>
s eite</w>
ru f
6 2</w>
ell ent</w>
compl et
ro le</w>
ter nal</w>
S K
bre akfast</w>
Agre ement</w>
E duc
E ben
k ind</w>
vi ous</w>
6 8</w>
con su
Zu gang</w>
SONSTIG ES</w>
g lie
fre u
OR T</w>
Aug ust</w>
N amen</w>
R ue</w>
w s
ach ie
mit ted</w>
D on
W achst
por te
Sub ject</w>
9 1</w>
gi ven</w>
R is
V is
it ing</w>
To day</w>
et te</w>
dem oc
K ap
comm on</w>
hier zu</w>
fort un
DE L
li cht</w>
gen de</w>
ron g</w>
succ ess</w>
W ith</w>
Vor sit
Micha el</w>
E V
In s
ik a</w>
Dur ch
entfer nt</w>
ver al</w>
FO R</w>
Wich tig
f our</w>
r än
ur en</w>
be kann
Ver wal
ges pro
ult ation</w>
u el</w>
res se</w>
Minis try</w>
Beit rag</w>
Z i
p ay</w>
on es</w>
po se</w>
ih nen</w>
pack age</w>
nah m</w>
D e</w>
G ER
L U
S ü
AN NE
ass istance</w>
ge führt</w>
propos als</w>
N ext</w>
de velop
W EL
s s
Or t</w>
tur n</w>
schri ften</w>
telefon isch</w>
gen u
Gener al
7 1</w>
P f
lar ge</w>
c ar</w>
en a</w>
W ill</w>
9 4</w>
f ang</w>
Mit tel</w>
zur ück</w>
h ome</w>
in i</w>
il s</w>
mit t
K L
c ause</w>
ch er
gel egt</w>
co sts</w>
TE R</w>
cer tain
Pre sid
happ en</w>
BUS IN
M any</w>
re gel
pro gramm
ni ce</w>
wei ß</w>
with in</w>
pf lich
S ti
pro gress</w>
Mär z</w>
Educ ation</w>
m in</w>
199 7</w>
B eg
t est</w>
ch i
en det</w>
us ing</w>
ben ö
rich tig</w>
ateg or
Gesund heit</w>
gu ests</w>
Da vi
a ffen</w>
ex am
6 3</w>
d au
m ein</w>
in f
Pro c
G ES
sh ort</w>
Ur teil</w>
handel t</w>
Feder al</w>
c risis</w>
ver t
gre i
T rans
Au ßen
posi tive</w>
sch ie
v oll</w>
hel p
Geschäf ts
Z us
me eting</w>
Bür ger</w>
F RA
H ab
14 9</w>
Aussch uss</w>
BUSIN ESS</w>
S li
s ha
as p
Regi on</w>
ßer dem</w>
op portun
accep table</w>
De z
dg ment</w>
bedeu tet</w>
Sch utz</w>
Ih rem</w>
get an</w>
Janu ary</w>
F ac
tion s
Be fore</w>
Bet rifft</w>
Rus sia</w>
Früh st
B oo
b st
zeu g
Fr auen</w>
spl an</w>
produc t</w>
U p
m ot
w ill
an der</w>
liti es</w>
EC U</w>
dire kt</w>
N et
P u
m einer</w>
er ungs
führ ung</w>
unser em</w>
g ame</w>
m oment</w>
er st</w>
hal t</w>
bil li
Fig ures</w>
C UL
ur s
wer t</w>
ap art
bes ser</w>
Ger man</w>
Kli cken</w>
gemein same</w>
P H
l ed</w>
n ie</w>
K enn
h ouse</w>
ati ves</w>
N äh
B au
O H
ell eicht</w>
Tür k
ck e</w>
Ein ige</w>
Su mm
ben ef
Barro so</w>
7 7</w>
ter stat
ung sp
stu ff</w>
ad s</w>
ck er</w>
y o
in stitu
as ch
am ents</w>
Sp iel</w>
Rel ations</w>
simp le</w>
4 7</w>
G A
sch utz</w>
to gether</w>
rit t
Bem erk
För derung</w>
J ah
R uss
En ergie</w>
rä gt</w>
graph ics</w>
FÜ R</w>
D S</w>
inter national</w>
je den</w>
h atte</w>
au fen</w>
Ver besser
clo se</w>
VER K
Dec ember</w>
strateg y</w>
mä ß
G rap
be w
An sprech
93 96</w>
D EN
T ext</w>
Dan ke</w>
Tim e</w>
z un
P at
Hintergr und
noti fied</w>
A ction</w>
C li
H al
n on</w>
ANNE X</w>
h and</w>
ell es</w>
Sp eci
Inter ior</w>
wend ung</w>
Mein ung</w>
wer s</w>
ruf bar</w>
D om
J an</w>
stat ements</w>
Region al</w>
c ed</w>
an ks</w>
An hang</w>
schein t</w>
M ig
or ig
CH T</w>
rech te</w>
F ree</w>
V OR
me work</w>
Gericht shof</w>
D abei</w>
str ö
europä ischen</w>
cust om
b ased</w>
zur ück
EX TERNAL</w>
N u
Un ser</w>
bei den</w>
T ab
n ten</w>
eben falls</w>
Grap hi
I T</w>
t ar
pl ac
Person en</w>
M at
i et</w>
t ors</w>
vis ion</w>
Türk ei</w>
G on
is ed</w>
vor schriften</w>
hum an</w>
tegr ation</w>
6 6</w>
m ental</w>
ei g
ho ws</w>
it self</w>
ag ung</w>
ell er</w>
VERK EH
7 6</w>
P ER
b ook</w>
d ungen</w>
stimm en</w>
Pri v
p op
in e
h es
s ingle</w>
po li
gespro chen</w>
O l
ab rufbar</w>
ing ungen</w>
Bewer tung</w>
D A
a den</w>
ho li
Co operation</w>
ann t</w>
fiel d</w>
Davi d</w>
ch te</w>
ti ert</w>
not wen
As s
u li
inv ol
Ko sten</w>
a p</w>
gem acht</w>
Lin ks</w>
R ei
T it
bes timm
Commission s</w>
priv ate</w>
let ter</w>
C lu
F OL
f ood</w>
sel ves</w>
K ommission
L IN
est ed</w>
proced ures</w>
I A</w>
Z ahl
er o</w>
in dustr
ri d</w>
ad ds</w>
ben ach
Wichtig ste</w>
h ot
con di
Tur key</w>
at tention</w>
Kult ur</w>
S am
in dividu
sub ject</w>
pri ority</w>
duc tion</w>
Entschließ ung</w>
f ar
ar an
at y</w>
au t</w>
C op
Ber lin</w>
gl eich</w>
igh ts</w>
mak es</w>
Mu si
Ansprech partner</w>
S t</w>
T ri
b lick</w>
35 5</w>
S or
k o</w>
m ean</w>
RO N
Mark et</w>
P ot
B IL
el n</w>
P A
Con clu
Af ric
Emp feh
Berich terstat
br ingen</w>
Projek te</w>
C ap
D ig
dar über</w>
reas ons</w>
an g
ah n</w>
der zeit</w>
Er weit
Mad am</w>
Oc tober</w>
co ver</w>
Gon z
M y
ge geben</w>
s y
an im
Nat ürlich</w>
Grupp e</w>
m ers</w>
im plement
den n</w>
char ge</w>
d ump
an ies</w>
mo ve</w>
On ly</w>
A ir
H or
tig keit</w>
or g</w>
Dez ember</w>
e ad</w>
l o</w>
l ag
ad ur
mar quis</w>
neh mer</w>
bel ow</w>
AUS SEN
F el
J A
b ed</w>
ur g
Be deut
Vorsch läge</w>
isher ies</w>
5 9</w>
c u
ou ght</w>
ret ur
lan g</w>
Vi deo</w>
M ehr
P au
re f
sch ul
de ed</w>
end ly</w>
Wer de</w>
Janu ar</w>
E K
h or
gro wth</w>
li mit
lo se</w>
äch st</w>
Hi er
up s</w>
On line</w>
lon ger</w>
L ou
e uro</w>
n ei
sp ok
co de</w>
p assi
st a
Pro te
S A
re ly</w>
us ers</w>
fortun ately</w>
C l
ommiss ar</w>
kämp fung</w>
H u
ä d
er y</w>
29 7</w>
citi zens</w>
in t
m ach
ain s</w>
P hi
rei ben</w>
Bil d</w>
opin ion</w>
d ort</w>
es si
de al</w>
Sch ritt</w>
25 5</w>
freu en</w>
Graphi k</w>
b asi
di gung</w>
7 2</w>
T V</w>
h ät
w rong</w>
as se</w>
Pro jekt</w>
ed u
tion ed</w>
Ther efore</w>
Beschäf tigung</w>
8 2</w>
D P</w>
O k
Men schen
A fri
ar t</w>
F ER
Auf gabe</w>
ish ing</w>
Dis k
Erweit erung</w>
D EN</w>
K ontrol
P S</w>
f ör
w ing</w>
Rechts sache</w>
cent re</w>
o ve</w>
ti v</w>
co st</w>
schaf ten</w>
benach rich
Sli des
as ser
verk ehr</w>
A v
z äh
en vironment</w>
ro ad</w>
syst ems</w>
PRO GRA
Milli onen</w>
Christ op
T age</w>
W eit
fol lows</w>
per son</w>
bo ard</w>
Sa che</w>
C K
or d</w>
Min uten</w>
ber eit</w>
sion en</w>
aus sch
ass er</w>
spe zi
sto p</w>
Will kommen</w>
M IT
res earch</w>
S ar
r en
And ro
Bedeut ung</w>
I K
k en
de f
Amend ment</w>
benachrich tigt</w>
D O
e di
sch er</w>
ges t</w>
hr en</w>
cle an</w>
Is ra
C L
L ab
ub l
me di
so on</w>
3 00</w>
S c
ch e
G R
H a
f ace</w>
s se</w>
min ist
For m
inv estment</w>
Tages ordnung</w>
D er
tra ining</w>
resp ect</w>
Ver ordnung</w>
Par is</w>
Mit teilung</w>
pp e</w>
rel ations</w>
Red ner</w>
kur z</w>
No te</w>
lar gement</w>
unterstütz t</w>
95 86</w>
D en</w>
is es</w>
st ate</w>
CH ER
Ergeb nis</w>
M is
al lem</w>
ol a</w>
zi ehen</w>
k an
st ag</w>
as h
20 20</w>
Ch in
viel en</w>
em and</w>
AN G
den ce</w>
are d</w>
spe ak</w>
accep t</w>
objec tives</w>
Phi li
d ont</w>
o v
ac tions</w>
ord n
consi der
Slides hows</w>
L oc
f amily</w>
z entr
er reicht</w>
Mich el</w>
G O
EN ER
ell schaft</w>
fr ing
inform ationen</w>
8 7</w>
E B
b an</w>
dur ing</w>
Jap an</w>
po wer</w>
Inn ern</w>
z o
Gl eich
M c
I ONS</w>
U B
k ar
p t</w>
Re f</w>
we b</w>
Demokrati e</w>
eh men</w>
Forsch ung</w>
C D</w>
M et
wichtig sten</w>
m ember</w>
on ce</w>
ei gent
St o
VERKEH R</w>
A pp
p a
Europ e
An ti
conclu des</w>
Ju dgment</w>
ac count</w>
ic k</w>
ES C</w>
Da für</w>
rema ins</w>
EC ON
jo int</w>
Mad rid</w>
Gä ste</w>
L eit
w an
el e</w>
L eg
p u
it a</w>
do wnload</w>
go ti
KO MM
H ol
con nec
he alth</w>
Gesam t
AUSSEN BEZIEHUNGEN</w>
ber t</w>
every thing</w>
diffic ult</w>
D G</w>
d am
u x</w>
ber eich</w>
Her aus
Hin weis</w>
T or
W ant</w>
c at
ach ten</w>
IS S
erh in</w>
regi on</w>
Vertra gs
0 6
g um
Sch wer
Rich tung</w>
völ lig</w>
t yp
au ti
K op
b us</w>
f ron
un ds</w>
and s</w>
eg ation</w>
wich tige</w>
Afric a</w>
I gl
n ight</w>
u ter</w>
speci fic</w>
L ink</w>
m ut</w>
In di
An dre
ne goti
se veral</w>
gr und
Deb atte</w>
writ ing</w>
A id</w>
s ab
ep tion</w>
Mob ile</w>
exc ellent</w>
ul l</w>
um e</w>
ins gesamt</w>
t ype</w>
wen ig</w>
stru kt
f y</w>
schn ell</w>
stain able</w>
L sz
tr a</w>
Do wnload</w>
certain ly</w>
B us
G EN</w>
s end</w>
ul la</w>
zi mmer</w>
Wh ich</w>
Pl an</w>
T H</w>
no te</w>
sp richt</w>
est ing</w>
oc c
vot ing</w>
BES CH
in ten
po ol</w>
Kon s
call ed</w>
st e
mo tion</w>
ungs verfahren</w>
glich keiten</w>
5 4</w>
e ver</w>
si tion</w>
Er st
Gonz al
ch eck</w>
re co
me tho
teil en</w>
10 00</w>
Lsz l</w>
p at
st off
ne ws</w>
Ver antwor
prin cip
Regi ons</w>
all gem
Neu e</w>
prote c
N ein</w>
S eiten</w>
ver sch
Su p
ess es</w>
00 352</w>
U m</w>
re main</w>
extre m
en ch</w>
dump ing</w>
Igl es
T on
en ter
an st
chan ges</w>
k or
x is</w>
for table</w>
tr on
str eng
Investi tionen</w>
ti sche</w>
Sch lu
genu g</w>
Gonzal ez</w>
ter m</w>
An trag</w>
Er n
teil t</w>
bo dy</w>
direc tive</w>
B AR
N icht</w>
Mar isa</w>
So ftware</w>
Ad resse</w>
i de</w>
s ession</w>
fri endly</w>
z en
wi de</w>
fre i
soll en</w>
Ko so
3 355</w>
c e
au tom
sit es</w>
bil dung</w>
sho w</w>
voll ständi
kom p
porte ur</w>
Igles ias</w>
S ehr</w>
d ly</w>
t ranspar
7 8</w>
F E</w>
I M</w>
h on
Ü ber</w>
sp r
vi l</w>
sh are</w>
wen det</w>
app lies</w>
T URE</w>
un ver
ach ed</w>
arbeit et</w>
Allgem eine</w>
D ru
h eu
chan ged</w>
enth alten</w>
mo der
d liche</w>
y our
mu si
B ER</w>
f air</w>
r ates</w>
am ent
sam keit</w>
struc ture</w>
Andro ulla</w>
h ours</w>
st är
li g
fol low</w>
Cont act</w>
maj or</w>
L L
c al
h eit
inter est</w>
proc e
Feh ler</w>
us er</w>
EN N
unik ation</w>
G al
R au
o ften</w>
La dies</w>
experi ence</w>
S yst
h u
l ab
ih m</w>
K an
T u
üs sel
funktion iert</w>
es day</w>
199 6</w>
jo b</w>
P an
S he</w>
st an
üs se</w>
TRA DE</w>
B U
p ol
fil es</w>
Christop her</w>
T ranspar
W ieder
zu g</w>
Um setzung</w>
hel fen</w>
m einen</w>
ot o
Prior ity</w>
Go vern
J ean</w>
T ro
in itiative</w>
Rech te</w>
1 1
l i</w>
kann st</w>
t our
er es</w>
ver letz
be l</w>
Minister ium</w>
ihr en</w>
strö m</w>
N utz
W ähr
e e</w>
g än
in stru
ander s</w>
grat ul
K ri
li a</w>
res ources</w>
Sch wei
Fr ench</w>
FINAN Z
beson ders</w>
mis sion</w>
kli cken</w>
ECON OMI
extrem ely</w>
K or
p e</w>
v ely</w>
th em
fü n
fall en</w>
wie der
we is
mon ths</w>
up dates</w>
docum ents</w>
sch wi
ne l</w>
gi c</w>
gesch ehen</w>
inclu ded</w>
EW SA</w>
Koso vo</w>
Europä ischer</w>
letz ten</w>
ECONOMI C</w>
3 255</w>
V E</w>
f a
b on</w>
l ater</w>
gr ün
Ak tion
person al</w>
Kontak t
s einer</w>
ver ed</w>
So lidar
requi red</w>
amend ment</w>
F IS
z er</w>
en ge</w>
Ver hand
ran ge</w>
all erdings</w>
politi sche</w>
We b</w>
M ON
U K</w>
W ei
f ran
ati s
oo ds</w>
De f
je der</w>
Bil der</w>
E ESC</w>
a im</w>
m embers</w>
ein bar
F I
J os</w>
o b</w>
er forder
ess ment</w>
om ep
su ff
su mm
fre i</w>
den ken</w>
6 9</w>
f an</w>
is te</w>
ent ed</w>
ak tion</w>
to wn</w>
M AN
n ers</w>
g ab</w>
in fring
fe el</w>
Com petition</w>
fü h
Tre aty</w>
Y es</w>
b asis</w>
ac tu
se ar
Mit glie
comm ent</w>
5 6</w>
E ig
V ON</w>
e y
ish er</w>
Wirtschaf ts
f ris
t nis</w>
E P
K al
c ard</w>
de ci
Ver y</w>
29 8</w>
propos ed</w>
saf ety</w>
Presid ency</w>
notwen dig</w>
S port</w>
am ili
alis ierung</w>
happ y</w>
tivi ties</w>
Russ land</w>
t es
sh e
mat eri
hei ßt</w>
B AL
S ind</w>
le y</w>
ma ßnahmen</w>
An n
est abl
brau cht</w>
viron mental</w>
Ok tober</w>
sol che</w>
For um</w>
schri ft
omep age</w>
S EN</w>
reg ul
Entschließ ungsantrag</w>
Industr ie</w>
L am
ris k</w>
cer tain</w>
Reg ulation</w>
b it</w>
ob en</w>
b ur
for ce</w>
vers ity</w>
ke ep</w>
inn ing</w>
F ak
w ahr
ar ri
le ast</w>
form s</w>
ST RA
gent lemen</w>
provi de</w>
c ases</w>
ag o</w>
ber icht</w>
lin k</w>
appro ved</w>
D V
c op
j usti
wor k
Qu alität</w>
Res earch</w>
under stand</w>
o t</w>
fe at
happ ened</w>
mb H</w>
Ris ik
CUL TURE</w>
c ation</w>
z ü
ru n</w>
ex pl
schaf ts
usti mm
pers ön
Vizep räsident</w>
A G</w>
J ac
at ory</w>
st ation</w>
ck ing</w>
end ing</w>
men tioned</w>
recei ved</w>
buil ding</w>
Hintergrund informationen</w>
K oh
po st
P R
z ahl</w>
In stitu
ad ing</w>
Beisp iele</w>
prac ti
so ftware</w>
reg ard</w>
recei ve</w>
legisl ation</w>
B a
Ein w
P lan
l ö
w omen</w>
lo g
pro mis
app ly</w>
Fol gen
Part ner</w>
Z U
sch t</w>
B on
f ur
wen iger</w>
Vorsch ri
L AND</w>
S af
Z ahlen</w>
er le
Par k</w>
des ign</w>
hin zu</w>
D u
H am
P C</w>
se a</w>
Di alog</w>
EU s</w>
m ind</w>
it es</w>
ne u</w>
ber g</w>
tra g
ob s</w>
reg ist
bot t</w>
F T
S an</w>
a im
St re
mess age</w>
G UNG</w>
sch ön
im age</w>
ma xim
mo bil
pri orities</w>
199 5</w>
G mbH</w>
K amp
p ap
ti sch</w>
cle arly</w>
d le</w>
Ver f
forder ungen</w>
e te</w>
al low
el ess</w>
pro gra
ihr er</w>
f ore
Ab bott</w>
ep t</w>
bet re
Ter ror
hot els</w>
ä here</w>
Mar i
Inter esse</w>
dan ken</w>
Wis sen
1 50</w>
v ation</w>
an gen</w>
IN S
glob al</w>
E I</w>
d om
p rec
is ions</w>
ent zieht</w>
pl atz</w>
En g
gesch i
Vertrags verletz
g ül
z t</w>
Ä R
un a</w>
su pp
Gesch ichte</w>
äu ßer
ins besondere</w>
OU T</w>
v el</w>
TRANSP ORT</w>
z ul
Er k
Unter neh
Wachst um</w>
princip le</w>
C ha
b are</w>
r i</w>
in iti
te te</w>
la den</w>
olog ie</w>
B IP</w>
K unden</w>
N ame</w>
dr in
verst änd
spiel en</w>
u ral</w>
ch oo
th e
Bu ch
M embers</w>
V II</w>
j our
In itiative</w>
St atisti
por ted</w>
peri od</w>
respon se</w>
ide a</w>
F unk
K rise</w>
c ame</w>
ati ven</w>
28 5</w>
DEL S
S il
h a</w>
re le
st eh
we ek</w>
da gegen</w>
I ES</w>
z usammen
si ze</w>
Europ es</w>
tr au
äh igkeit</w>
Emp loyment</w>
cou ra
auti ful</w>
N ational</w>
d on
Th e
In fra
Ab ge
sho p</w>
e qu
h ard</w>
u tions</w>
er wäh
et wa</w>
com petition</w>
Ar ticle</w>
B R
at s
ac tive</w>
ail ed</w>
Prioritä ts
Angebo t</w>
in al</w>
sch ö
tak es</w>
eigen en</w>
Prioritäts ach
6 5
7 45
a der</w>
ri ch</w>
be ach</w>
ed om</w>
me isten</w>
ari an</w>
Änder ungen</w>
Ge gen
SP RA
U C
n es</w>
ac tiv
Au ßerdem</w>
ic ations</w>
help ful</w>
t op
st agung</w>
E very
F äl
h ne</w>
seri ous</w>
Vert ei
N äch
be finden</w>
lin es</w>
lin ien</w>
ik an
ta x
Lei der</w>
schrift lich</w>
C ulture</w>
h ilfe</w>
complet ely</w>
t ory</w>
gu aran
cre ate</w>
S ci
b ad</w>
c ro
be endet</w>
sm us</w>
M ac
m y
w ahl</w>
ch s</w>
li eren</w>
ut ely</w>
Bür ger
K are
b it
m us
oo m</w>
gan ze</w>
hör en</w>
Hab en</w>
ISS ION</w>
t on
schaf t
komm e</w>
spok es
B os
D A</w>
am a</w>
EUROPÄISCH E</w>
responsi bility</w>
Benutz er</w>
M ol
a gi
Viel e</w>
hist or
B y</w>
an ge</w>
Un fortunately</w>
sk i</w>
M el
t ax</w>
IN G
Lu ft
comple te</w>
B e</w>
vi deo</w>
Ver trag</w>
usam men</w>
Febru ary</w>
bekann t</w>
for dert</w>
vi c
qu es</w>
teil ungen</w>
Stru kt
o te</w>
it y
st ly</w>
ad d</w>
ag er</w>
cont ent</w>
Res er
Entwick lungs
verk ehr
Joh n</w>
J ust</w>
a genda</w>
c ally</w>
ac i
ter in</w>
Or ganis
Do es</w>
programm es</w>
industr y</w>
L AN
W äh
Ge f
EI TEN</w>
WI TH
D re
I X</w>
P a
ad ditional</w>
AR EN
rich tige</w>
mak ing</w>
cho ice</w>
Eben e</w>
o de</w>
t ut</w>
x ed</w>
Kon ferenz</w>
Kli ma
SPRA CHE</w>
G D</w>
N etz
d rü
l ist
sp ace</w>
fi ve</w>
ev ent</w>
sen se</w>
Ira n</w>
Rat stagung</w>
Rah men</w>
ws letter</w>
H ave</w>
Mar kt</w>
Jo e</w>
G Y</w>
W IC
b ra
re fer
ell ing</w>
zei gen</w>
Ins gesamt</w>
Vorschri ften</w>
6 4
I mm
f lexi
w ähr
ei ther</w>
CO M</w>
Frühst ück</w>
D or
eff ect</w>
AUS SPRACHE</w>
erforder lich</w>
r at</w>
s h</w>
fü r
itä ten</w>
EC spokes
zeich net</w>
FISCH ER
poli cies</w>
WITH OUT</w>
A lex
ati c</w>
rep ly</w>
B ur
E mail</w>
M al</w>
ra gen</w>
ric ultural</w>
Amer ic
lear n</w>
Kare l</w>
E le
F ret
S im
S EC
f onds</w>
g le</w>
as ked</w>
Inform ations
fig ures</w>
Verbesser ung</w>
G DP</w>
H R
p on
ä t</w>
al ia</w>
am s</w>
Di re
tra gen</w>
crip t</w>
Rest aurant</w>
Pr in
condi tions</w>
Verantwor tung</w>
F R</w>
F und</w>
S outh</w>
ha ps</w>
we isen</w>
Fra ktion</w>
T ake</w>
V O
z ös
er ten</w>
men sion</w>
er folgt</w>
it en</w>
In stru
Län dern</w>
OH NE</w>
Z weit
com fortable</w>
enth ält</w>
T wo</w>
weit erhin</w>
Wel t
Staat en</w>
Prioritä ten</w>
J av
U se</w>
g ets</w>
ein zel
Wo che</w>
P rü
it or
än der
F ern
er fol
Besch l
AG RI
MARK ET</w>
Fret well</w>
C al
c ra
r au
v il
en joy</w>
Besu ch</w>
E ach</w>
E ast</w>
f li
p unkte</w>
In ner
se en</w>
Dat ei</w>
FINAN CIAL</w>
avi g
Isra el</w>
P ay
s einen</w>
EN VI
eigent lich</w>
F F
G eg
R IS
V EL
em ail</w>
ER UNG</w>
so gar</w>
Sec urity</w>
Auf merk
Parl aments</w>
b ia</w>
d or
k ommissar</w>
St abil
VI I
wirk ungen</w>
Sich erh
Lat est</w>
gehör en</w>
er ing</w>
sch le
ver besser
lo ve</w>
ag ing</w>
EN T</w>
stel le</w>
Haushal ts
M IN
ab ove</w>
gro ups</w>
ie te</w>
Bar cel
UM WEL
i en
ch en
ti ven</w>
ci a</w>
Ho ch
ev a</w>
Fortsch ritte</w>
D ra
L es
we ek
min ister
Dar über</w>
Aufmerk samkeit</w>
4 75</w>
W a
f est</w>
un acceptable</w>
stimm e</w>
LA N</w>
spro gramm</w>
Vassili ou</w>
leist ungen</w>
achie ved</w>
B lick</w>
S ho
s b
z usammen</w>
ent sprech
ungs st
stand ards</w>
ENVI RON
3 0
re alis
ter en</w>
Ma ß
Gre en</w>
amend ments</w>
TRANSP AREN
V ot
In n</w>
ber u
eff ici
anst al
G ood</w>
b a
b s</w>
we g</w>
Sch en
gel ten</w>
Z ahl</w>
ru ch</w>
conc ern</w>
HAN DELS
Binnen markt</w>
S M
al lein</w>
cont ribution</w>
F RE
un ion</w>
di ent</w>
An gaben</w>
se ems</w>
vor h
b a</w>
am bi
In f
dar an</w>
utz t</w>
Pl atz</w>
schl uss</w>
B I
V illa</w>
h en
h of</w>
t i</w>
at ors</w>
ein deu
ru p
nation alen</w>
d ro
z wei
und ed</w>
wes ent
FIS HER
5 7</w>
r ing
or gan
ac tly</w>
ac tivities</w>
te u
off en</w>
go es</w>
ni fic
gew äh
K ü
i tion</w>
z z
pre vious</w>
her z
Lin ux</w>
D ritt
P P
S eit</w>
ri k</w>
ma in
tel l</w>
wäh len</w>
perf ect</w>
democ racy</w>
g n
n utzen</w>
Ne ws</w>
Comm on</w>
K un
O r</w>
s etzt</w>
si di
di alogue</w>
Ver pflich
nat ure</w>
Prote ction</w>
w ser</w>
ein ander</w>
ER N
econ omy</w>
amo unt</w>
Schlu ß
us es</w>
te x
our c
ger ade</w>
produc tion</w>
Gi pf
Gro ß
Them en</w>
Grün de</w>
Phili ppe</w>
p ubl
or t
ar d
Man uel</w>
Techn ical</w>
hum anit
imp act</w>
Einzel heiten</w>
Barcel ona</w>
s a</w>
w ise</w>
an e</w>
SCH L
kon kre
any thing</w>
Z imm
ra ble</w>
des ig
MEN TS</w>
fes sion
FISHER IES</w>
O m
l eh
at er
00 0
direc tion</w>
Mal ta</w>
W ahr
b em
v ent</w>
mo dern</w>
Wel l</w>
gef unden</w>
kno wn</w>
o thers</w>
gro ßen</w>
Fol gen</w>
rap porteur</w>
applic ation</w>
L og
P en
f ish</w>
w le
ne te</w>
bin dung</w>
choo se</w>
B usiness</w>
W A
d est</w>
ro r</w>
ver wendet</w>
ide al</w>
ANG EL
fron t</w>
f rü
ne ar</w>
bo x</w>
beh andel
tak ing</w>
th anks</w>
le ge</w>
Mar kt
Con su
LA GE</w>
Vertragsverletz ungsverfahren</w>
se par
Ex ternal</w>
pur pose</w>
F ocus</w>
in ed</w>
Th urs
IN T
lau b</w>
erh äl
SI CHER
net work</w>
l esen</w>
au d</w>
F ood</w>
K ern
er ungen</w>
al one</w>
po t
bes u
opp el
Disk us
A gr
m ise</w>
ä m
W ahl</w>
UN D
inter net</w>
gu ages</w>
fund ing</w>
Febru ar</w>
k u
p an
au lt</w>
prop er
ari at</w>
every one</w>
A I
s st</w>
w on
as ur</w>
be kommen</w>
te am</w>
In dustri
op tion</w>
Wir d</w>
Or d
Engl isch</w>
Näh e</w>
D ub
E l</w>
H ans</w>
W ould</w>
ab les</w>
be autiful</w>
An fang</w>
finan zi
i denti
m al
z one</w>
in dic
be cause</w>
stat ement</w>
äch lich</w>
Op en</w>
Energi e
Folgen des</w>
S omm
T RI
g yp
g lichkeit</w>
th ough</w>
op s</w>
handel n</w>
Bal k
Fischer ei</w>
h y
si l
le ave</w>
ach ieve</w>
Er fahr
Gel d
Def ence</w>
H and</w>
om eter</w>
lo s
schließ lich</w>
letz te</w>
con gratul
Web seite</w>
Bil d
MARK T</w>
sozi ale</w>
holi day</w>
E ff
U K
a i</w>
o ft</w>
s amen</w>
au er</w>
ER ES</w>
Di mas</w>
wh e
tal king</w>
hear t</w>
Thurs day</w>
P rop
W il
r und</w>
ge k
ge öffnet</w>
An merk
wel che</w>
tal k</w>
Erst ens</w>
s ent</w>
en k</w>
Staat s
Verk ehr
E GEN
m einem</w>
is on</w>
JUSTI CE</w>
P ass
St and</w>
mat ters</w>
wa ste</w>
C i
S Minister</w>
y le</w>
ein gehen</w>
ex actly</w>
prop ri
inst all
Komm ent
Je der</w>
745 13</w>
in ation</w>
mark ets</w>
Te am</w>
Inv estment</w>
Bundes minister</w>
RA TES</w>
DE VEL
antwor ten</w>
region al</w>
Era smus</w>
fün f</w>
c amp
s al
ra cht</w>
apart ment</w>
DEVEL OP
L e</w>
P et
t ran
Al les</w>
RA U
rich ten</w>
Commun ication</w>
Mitglie der</w>
c are</w>
l d
en k
li ed</w>
ex clu
We ise</w>
kosten los</w>
discus sion</w>
R oom</w>
Y et</w>
z ahl
St av
gen ehmig
fra mework</w>
ven ess</w>
Ser ver</w>
einf ach
contin u
II a</w>
sear ch</w>
ENVIRON MENT</w>
h eits
el ements</w>
Abstimm ungsst
län d
Don ner
musi c</w>
Abstimmungsst unde</w>
L ond
c are
s ei
th eless</w>
con ference</w>
str on
hel d</w>
0 5
f s</w>
lo cal</w>
ent ation</w>
Op tion</w>
lei der</w>
concern ed</w>
Cost asur</w>
T ar
b ath
re ality</w>
199 4</w>
incre ase</w>
Handel s
dep end
ENT WIC
S H
d am</w>
t em
st eu
st adt</w>
pl ant</w>
su g
ess ential</w>
ommiss arin</w>
pic ture</w>
INN EN
A M</w>
er zi
ff et</w>
to ok</w>
rä sid
min im
For m</w>
Ant i</w>
Spra che</w>
allow ed</w>
F est
y r
ri eben</w>
eb al
ob ser
Ch eck</w>
ant räge</w>
Antwor ten</w>
Chr isti
hes ion</w>
AGRI CULTURE</w>
ENTWIC KL
K M
P as
ac y</w>
Re form
bet rägt</w>
present ed</w>
dou ble</w>
exam ples</w>
D em</w>
D ok</w>
s ale</w>
for derung</w>
reg ulation</w>
neu es</w>
direc tly</w>
Bi o
rest aurant</w>
Zw eck</w>
H ei
M ITTEILUNG</w>
i lities</w>
et t</w>
ig keiten</w>
sh e</w>
ex plan
absol utely</w>
Geschäfts ordnung</w>
B ar</w>
B INNEN
D IS
N ation
Ber at
war um</w>
Po li
sich erheit</w>
Le ist
Wettbewer b</w>
G eh
St a
ck et</w>
fi g</w>
tig es</w>
ler nen</w>
recomm end
LAND WIRTSCHAFT</w>
grei fen</w>
2 2
ch ise</w>
fre und
off en
uss es</w>
rie g</w>
Sup port</w>
Zweit ens</w>
F isheries</w>
H EITEN</w>
M ot
W asser</w>
e asi
i er</w>
op po
gen e</w>
Verhand lungen</w>
Inner es</w>
be ziehungen</w>
PRESS E</w>
Pi ebal
Det ails</w>
C hi
c le</w>
ap poin
lu e</w>
ateg ory</w>
HO ME</w>
Steu er
G oo
W ES
d dle</w>
ul arly</w>
ex t
lä tz
comp anies</w>
requi re
Piebal gs</w>
B est</w>
w in</w>
en se</w>
di o
ges p
Aus wirkungen</w>
Su ch</w>
exp ected</w>
Kap it
W asser
st atisti
ab hän
su ch
Mar tin</w>
Stell ung
Bot h</w>
Cent ral</w>
Stav ros</w>
H ö
H af
L au
ges sen</w>
RE N</w>
fu n</w>
Wor te</w>
Sü d
c m</w>
in nt</w>
crip tion</w>
A spek
H on
K ategor
in novation</w>
sch re
Di en
sa chen</w>
Änder ungs
tern ative</w>
Cro ati
mehr ere</w>
hät te</w>
SICHER H
C ity</w>
O ver
li ert</w>
ter ms</w>
Gen ehmig
Se a</w>
je dem</w>
star ted</w>
prü fen</w>
adv ant
JUSTI Z</w>
opportun ity</w>
autom ati
erhäl tlich</w>
Donner stag</w>
4 00</w>
a che</w>
ge ändert</w>
IN TER
zu fri
Grün den</w>
geschi eht</w>
O der</w>
gan gen</w>
Inter nal</w>
S om
W all
un sch</w>
beh al
lei cht</w>
T un
b y
o p</w>
an gebo
St ad
Ab out</w>
bu ch</w>
Verbrau cher
will kommen</w>
b auen</w>
vor gesch
docum ent</w>
retur n</w>
d lich</w>
k ri
nach hal
Vi elleicht</w>
cre ated</w>
wün schen</w>
ECspokes Antoine</w>
anc ed</w>
zeug nisse</w>
B ec
K eine</w>
pr ise</w>
Sec ur
J on
O ri
l ate</w>
eh ic
ent eil</w>
vi r
par k</w>
Par k
me dia</w>
Ex c
Bei hil
Mo d
Wes tern</w>
G ün
in deed</w>
wi esen</w>
sit u
Po st
gef ähr
Techn ische</w>
DEVELOP MENT</w>
5 7
r un
ti l
An sicht</w>
gen en</w>
zi ge</w>
Af gh
V an</w>
l eich
er fül
el se</w>
sich tlich</w>
umf asst</w>
UMWEL T</w>
O LA
m ulti
p ages</w>
t ot
y right</w>
er weise</w>
An satz</w>
ne y</w>
pro mise</w>
Zeit punkt</w>
0 7
G ed
L im
z ah
en largement</w>
ap propri
Fin ally</w>
pay ment</w>
correc t</w>
W ert</w>
ch ing</w>
eh n</w>
wor t</w>
zeich nung</w>
n ö
p ath</w>
ra ce</w>
ad or</w>
wer k</w>
lä sst</w>
amil ie</w>
g ran
p le</w>
Europä isches</w>
Be kämpfung</w>
Gemein same</w>
govern ment</w>
actu ally</w>
FISCHER EI</w>
G et
R et
S at
m es</w>
sch utz
ex ist
ST R
Fl ash</w>
begrü ße</w>
läu ft</w>
infring ement</w>
Geg enteil</w>
H il
d an</w>
p ment</w>
ti veness</w>
re ports</w>
ver b
sp ec
Sec ond
yo ung</w>
ANGEL EGEN
ANGELEGEN HEITEN</w>
A ra
C amp
G ent
m als</w>
er ster</w>
ch ed</w>
str ong</w>
bri ef</w>
legisl ative</w>
vert ret
passi ert</w>
Agr ar
t le</w>
er ran
ha f
Fra gest
me chan
so li
Pressemit teilungen</w>
provi ded</w>
soci ation</w>
j obs</w>
t ag</w>
ü b
or g
In tegration</w>
An dr
dat en</w>
ko sten</w>
inclu des</w>
cli mate</w>
erwar ten</w>
Clu b</w>
W IT
Z iel
te m</w>
br ingt</w>
dat ab
INN ERES</w>
ver öffent
Gr and</w>
Fragest unde</w>
L ehr
c ul
t ask</w>
Re de</w>
wich tiger</w>
näch ste</w>
ple as
wün sche</w>
8 7
Z un
d eine</w>
in ner
vi ert</w>
fahr t</w>
And ere</w>
Präsid enten</w>
K A
ma p</w>
Än derung</w>
col le
Berichterstat ter</w>
your self</w>
P RI
am ental</w>
qu ot
all s</w>
emp feh
Kro ati
Kra ft</w>
Lond on</w>
O U</w>
O hne</w>
s ätze</w>
tic s</w>
Mo st</w>
techn ology</w>
add res
partic ularly</w>
Transpar enz</w>
H omepage</w>
an no
st or
DEBA TE</w>
Sy ri
edu cation</w>
Z oll
c ru
Ü SS
en or
St är
ep h
LI CH
benö tigen</w>
adur ch</w>
M ein</w>
M ann</w>
T ä
m ann</w>
LI CHE</w>
Gemein schaft</w>
prü ft</w>
R IT
t ou
il y</w>
fü gte</w>
An fragen</w>
mo d
rit ts
kl eine</w>
ill s</w>
Finan zi
pre p
INHAL T</w>
s av
ol f</w>
Econ omy</w>
Bug tra
wle dge</w>
imm edi
ore a</w>
sich er
Rech n
read ing</w>
Komm unikation</w>
Del egation</w>
Speci al</w>
progra m</w>
0 2
M ak
k ennen</w>
re lev
ati v</w>
ich tet</w>
ho ch</w>
Aus wahl</w>
28 2</w>
Bugtra q</w>
D ro
it t</w>
par ts</w>
Co de</w>
ess ed</w>
direc t</w>
Stimm e</w>
kün fte</w>
5 9
I M
M ex
k ten</w>
ar en</w>
pl ann
IN TERNAL</w>
bes te</w>
Regi erung</w>
objec tive</w>
chall enge</w>
ourc en</w>
BINNEN MARKT</w>
G E
ri but
la v</w>
war ten</w>
tr auen</w>
Ak tu
deut lich</w>
OP ER
Glob al</w>
Jah res
Kommission s
Secur ity
B OR
O li
al most</w>
ag s</w>
fin de</w>
Con vention</w>
Tra q</w>
kün f
Bug Traq</w>
Security Focus</w>
G H
g as</w>
Kol legen</w>
k es
m et</w>
am m
to wards</w>
bu y</w>
ev ents</w>
edit erran
T Z
k tionen</w>
sp rü
fer n</w>
stand ing</w>
sig nific
cap ital</w>
Verbrau cher</w>
SCHL USS
T AL</w>
Z wei
s atis
z ent
re la
de x</w>
An nahme</w>
su mmer</w>
man u
C o</w>
I l
k am</w>
ab kommen</w>
ac ity</w>
ver l
AR B
Des ign</w>
dec isions</w>
Proz ess</w>
verschied ene</w>
strukt ur</w>
0 8
K ey</w>
S wit
ver ti
av o
wur f</w>
cri min
TA C</w>
Prior ität</w>
char ac
she et</w>
KM U</w>
Afgh an
F R
S ig
n y</w>
es tig
20 2</w>
ast er</w>
zep t</w>
Programm s</w>
wan ted</w>
C A</w>
K a
f ocus</w>
g oods</w>
o il</w>
ent ur</w>
In halt</w>
ck ets</w>
iz ed</w>
riter ia</w>
Aspek te</w>
Second ly</w>
b ly</w>
ut h</w>
and a</w>
Nor th</w>
Sub mitted</w>
Bed ingungen</w>
use um</w>
C am
E very</w>
H igh</w>
e ch</w>
s agt</w>
Pro duc
men tion</w>
tre ten</w>
up on</w>
GI E</w>
eigen e</w>
Haush alt</w>
zus ätz
groß er</w>
3 7
Z US
di gen</w>
Sch n
wh ile</w>
ast rop
agre ed</w>
Deb ian</w>
E mis
G ot
M ün
b li
ri ed</w>
St unden</w>
geb racht</w>
Dar um</w>
Jan ez</w>
pa ar</w>
practi ce</w>
A F</w>
f ru
h t</w>
Con ference</w>
Nat ur
II I
Son der
bor n</w>
riter ien</w>
CL US
Croati a</w>
D O</w>
K r
R ot
ro ffen</w>
ein ger
gu i
Qu elle</w>
eff ective</w>
Sk ype</w>
implement ation</w>
negoti ations</w>
mobil e</w>
h atten</w>
m ist
an aly
ver wenden</w>
ter ror
Ver anstal
AN LAGE</w>
ho to</w>
inter nationale</w>
off ice</w>
stru ction</w>
lat est</w>
PROGRA MM
Schen gen</w>
eindeu tig</w>
b all</w>
c or</w>
itä ts
ple ased</w>
dru ck</w>
V IS
V AL
d ar</w>
Fü hr
happ ens</w>
best ehen</w>
öffent liche</w>
NA H
individu al</w>
C er
ti k</w>
ra ther</w>
ur s</w>
ed s</w>
d in
Gr ö
fun ds</w>
m ont
in tro
mo del</w>
gu ten</w>
men u</w>
alis ation</w>
EUROPÄISCH ER</w>
Sel bst
Not es</w>
T T
wor th</w>
verst ehen</w>
fl ation</w>
All erdings</w>
bal d</w>
Afri ka</w>
c ir
in dustri
op ened</w>
ag ed</w>
ing ly</w>
Sp a
dar um</w>
Per son</w>
des halb</w>
Kur z
CONTEN TS</w>
O ber
g st</w>
k ontrol
sch affen</w>
Dokum enten</w>
Kar te</w>
Fu sion
FOL GER
OLA F</w>
i cial</w>
l ing
m ight</w>
v ehic
Pres se
etz en</w>
so fort</w>
hal tung</w>
ther ine</w>
Ex p
he ar</w>
Cost a</w>
FINANZ EN</w>
B as
F amilie</w>
O st</w>
R aum</w>
S ource</w>
T 1</w>
T at
en nung</w>
an te</w>
st ei
RE CH
par king</w>
duc ed</w>
acc ord
sk ontrol
beh ind</w>
wal k</w>
Amer ica</w>
Vertei digung</w>
datab ase</w>
F ind</w>
V b</w>
f el</w>
u g
sp räsident</w>
Über ein
consi der</w>
Verwal tungs
erfol gre
G RE
R ad
T R
m ing</w>
ri eren</w>
In iti
stand ard</w>
C le
D ay</w>
S AM
it able</w>
su cht</w>
ell a</w>
ser ver</w>
mo un
ther n</w>
wür den</w>
Geb iet</w>
Star t</w>
FOR M
a i
f lu
limit ed</w>
N ord
U N</w>
b ien</w>
s age</w>
in k
ig ung</w>
gi g</w>
beh alten</w>
pers ons</w>
verständ lich</w>
V AT</w>
en vironmental</w>
be darf</w>
An wendung</w>
con fir
cont rol
wel tw
stimm t</w>
sol utions</w>
qui ck
fri ends</w>
Ju gend
län der</w>
CON CLUS
besch reibung</w>
techn ical</w>
fal sch</w>
Zentr um</w>
Unterneh men
SCHLUSS FOLGER
p ret
ic o</w>
asp ects</w>
ERN ENN
genehmig t</w>
Afghan istan</w>
c y
o va</w>
s atz
er a</w>
st en
ein igen</w>
pe ace</w>
verfü gt</w>
Blo g</w>
itor ing</w>
C O</w>
s is</w>
re ached</w>
es p
at o</w>
ung s</w>
do w</w>
min ute</w>
je de</w>
Gesch enk</w>
Bre akfast</w>
Ca therine</w>
D oc
E is
P E
P ina</w>
h old</w>
in fra
TS 1</w>
chall eng
PH P</w>
H y
d ent</w>
i p</w>
st es</w>
Is land</w>
Mag st</w>
billi on</w>
Kroati en</w>
in nov
st ein</w>
sch reiben</w>
An na</w>
ha fen</w>
EN CE</w>
KO M</w>
Str and</w>
accep ted</w>
Mal m
bal ance</w>
begrü ßen</w>
S ER
m ed</w>
o w
on ik</w>
it ure</w>
di enen</w>
Lab our</w>
Sci ence</w>
sp ective</w>
Ber n
air port</w>
succ ess
Mobil tel</w>
Hum an</w>
hau pt</w>
CONTEN TS1</w>
HANDELS POLITIK</w>
Goo gle</w>
s cre
coun ts</w>
val ues</w>
Fl ü
g rupp
ic ro
Ge win
6 00</w>
B is</w>
F otos</w>
M au
M editerran
Y outh</w>
l ess
sp i
fi k
Me tho
fun ction</w>
T A</w>
T RE
b ack
m ar</w>
t lichen</w>
w esen</w>
gel e
cont ains</w>
Ch ance</w>
pp ed</w>
saf e</w>
Bemerk ungen</w>
re view</w>
hin zu
gegen über</w>
W ed
emp loy
nat ural</w>
Apart ment</w>
äußer st</w>
Wäh len</w>
avig ation</w>
f assen</w>
st age</w>
as ing</w>
br ing</w>
Ser vices</w>
ATI ONS</w>
Arbeit sp
Mö glichkeit</w>
COMM UN
Rei he</w>
B ru
H art
tu al</w>
he ad</w>
lau fen</w>
N acht</w>
N ähere</w>
a ware</w>
c enter</w>
in n</w>
si ble</w>
ver gessen</w>
EN Minister</w>
inter nal</w>
UR ITY</w>
C ho
K u
o o</w>
ü bri
ah ead</w>
St elle</w>
Sch u
mar ks</w>
unter nehmen</w>
pic tures</w>
Fischer ei
invol ved</w>
Conclu sions</w>
E A</w>
K ON
R ights</w>
S en
l ie</w>
DE C
Gr enzen</w>
Wir k
ück sich
sho ws</w>
verst anden</w>
Strateg y</w>
F amili
y es</w>
ff er</w>
oll en</w>
hal f</w>
tre ffen</w>
Vi de
Bet eili
hin aus</w>
exp ect</w>
A SS
e o</w>
m ent
Ch anc
Stru c
Bud get</w>
Pot onik</w>
Christi an</w>
A sh
B ü
H en
I EN</w>
V EN
un ch</w>
su stainable</w>
our selves</w>
Finan zierung</w>
öffent lichen</w>
cent ral</w>
hist ory</w>
Fusion skontrol
O st
S imp
f le
s au
re ach</w>
ex tra</w>
do or</w>
vor sch
Cas ino</w>
Daten bank</w>
Erk ki</w>
3 3
K e
R ess
T ran
d ated</w>
li en</w>
Ch il
inv estig
SEC URITY</w>
R os
S har
i eb
ul a</w>
con f
po st</w>
um in
fin e</w>
so ft</w>
fre edom</w>
up date</w>
rati c</w>
out side</w>
pur ch
INHAL T1</w>
proce ed</w>
quick ly</w>
SCHLUSSFOLGER UNGEN</w>
1 st</w>
f am
r ent</w>
en coura
li gh
vi ol
Re is
ann ual</w>
iz ation</w>
spä ter</w>
hö ch
M än
g liche</w>
th y</w>
Li ber
rech ts</w>
import ance</w>
erh eb
V ie
is ation</w>
et c</w>
pl us</w>
sel n</w>
Fran z</w>
ill ed</w>
wa it</w>
bri cht</w>
Dem oc
Mer ger</w>
Pak et</w>
Empfeh lung</w>
D G
E v
Z wei</w>
b isher</w>
es ter
lan g
Den n</w>
eff izi
Jo int</w>
Nat ur</w>
Wirtschaf ts</w>
ange zeigt</w>
Wal d
Om bud
O S
ges ellschaft</w>
gli chen</w>
politi schen</w>
ander es</w>
ATI ON
Ph one</w>
F ull</w>
M EN</w>
n ungen</w>
ro und</w>
wi mm
zi g</w>
tz dem</w>
Per spek
Bei de</w>
part ners</w>
Nor way</w>
cons ultation</w>
ME DI
völ k
b ein
ul ts</w>
ber s</w>
bet ra
her r
ner in</w>
az za</w>
Lis sab
fel d</w>
C AR
stat t
PO INT
neu er</w>
lar ation</w>
AP POINT
play ed</w>
sidi ar
Mediterran ean</w>
R ub
S m
is tet</w>
Th ose</w>
em ente</w>
B ir
D T</w>
p ast</w>
z eit
ex per
co vered</w>
end lich</w>
ain t</w>
Produ kt</w>
soci ety</w>
lätz e</w>
ZUS A
5 0
er fahren</w>
tre at
Industr y</w>
custom ers</w>
ats ächlich</w>
ZUSA MMEN
M ER
c riteria</w>
e c</w>
re a</w>
re gar
per form
über haupt</w>
Den noch</w>
SI DEN
responsi ble</w>
Swit zer
L A</w>
stat ed</w>
VI II</w>
Geor ge</w>
Chin as</w>
I mp
ac comm
ail y</w>
Lis bon</w>
Wed n
2 50</w>
n ennen</w>
ver age</w>
TE I
etz ung</w>
sk ommissarin</w>
gew is
edit ors</w>
6 8
e den</w>
en h
ran k
Pro di</w>
Bel ar
sec tion</w>
Im plement
Mittel me
Flug hafen</w>
DV D</w>
C EC
T at</w>
f assung</w>
Ä N
ar a</w>
em is
Europ ol</w>
LI FE</w>
pre is</w>
sup ported</w>
Tag ung</w>
S ingle</w>
f ight</w>
si mil
ati v
ter t</w>
Al ban
schließ en</w>
Ques tions</w>
amer a</w>
Kenn tnis</w>
Wedn esday</w>
A ir</w>
gl eichen</w>
bu ffet</w>
weit eren</w>
Fir stly</w>
bez ü
Govern ment</w>
Funk tion</w>
WIT H</w>
M L</w>
R em
V ir
m ei
zi p</w>
Dat eien</w>
Öffent liche</w>
benef it</w>
Dig ital</w>
C ust
M ess
f it</w>
f lä
x es</w>
vi ously</w>
Ch em
lau b
Mon ate</w>
CC I</w>
Stand ard</w>
Vis it</w>
V o
W EI
f s
k tor</w>
s ett
pro gramm</w>
Genehmig ung</w>
li k
de te</w>
for ts</w>
ge eig
sa ys</w>
men te</w>
rich tung</w>
Gre at</w>
Ur laub</w>
größ te</w>
CONCLUS IONS</w>
9 9
S ant
se i</w>
and lung</w>
Vor bereit
Man agement</w>
Regel n</w>
E CH
m ag
ber to</w>
um en</w>
Ber u
Dat a</w>
lau tet</w>
beg innen</w>
Pap er</w>
1 00
V AN</w>
W at
b ig
au ßer
sch lä
ad minist
com peti
ier te</w>
8 00</w>
con fi
gr ü
ie ßen</w>
Con s
Im pro
provi des</w>
mittel n</w>
P I
b order</w>
le isten</w>
ge kommen</w>
Vor teile</w>
Por t
hear d</w>
B ad</w>
st el</w>
Re ad</w>
hi g</w>
ün sti
bo t</w>
sen den</w>
bar ometer</w>
agre ements</w>
commun ication</w>
GEMEIN SAM
Consu mer</w>
B or
V oll
u re
w o
de cken</w>
ad dition</w>
lan guages</w>
Gen au</w>
leit ung</w>
Bemerk ung</w>
Air port</w>
Lou is</w>
Schwei z</w>
A gency</w>
l s</w>
s et
th us</w>
ab ly</w>
fü gen</w>
ni k</w>
del l</w>
trans l
Jac ques</w>
P ier
P AP
kön nten</w>
Fran zös
ann er</w>
Bes timm
Mo der
näch ster</w>
dien st</w>
a ther</w>
u fen</w>
un ge</w>
An zahl</w>
differ ence</w>
Beschäf tig
equi pment</w>
Summ ary</w>
K S</w>
K rieg</w>
f acts</w>
n en
ne g
ear ly</w>
ther wise</w>
Po sition</w>
eci lia</w>
Den nis</w>
rel ated</w>
benef its</w>
C ecilia</w>
D r</w>
S Y
b and</w>
v in
z ustimm
un e</w>
th in
on i</w>
st ory</w>
res ol
tra vel</w>
Schl uss</w>
wal t</w>
akzep t
G as
S P</w>
r at
ing er</w>
GES AM
publ ished</w>
s us
der en</w>
Au th
du e</w>
SK I</w>
BESCH L
9 4
K ir
v a
ou rable</w>
sa w</w>
bu ilt</w>
schließ end</w>
Bos n
Strukt ur
Switzer land</w>
C E
ti s</w>
reg ister</w>
auran ts</w>
STR Ö
Belar us</w>
C S</w>
E lec
s einem</w>
u ally</w>
ri t</w>
for dern</w>
äh n
Ap pro
zeu g</w>
eri ode</w>
bed au
Sicherh eits
c ent</w>
er sch
ti schen</w>
Po st</w>
ill age</w>
sek tor</w>
rest ric
Hart mut</w>
1 20</w>
F an</w>
Y ear</w>
h ält</w>
w ed</w>
y m
er ed</w>
th re
or al</w>
Ver einbar
Pre is
Mit tw
inst al
Fer r
Teil nehmer</w>
Regel ung</w>
Cent re</w>
veröffent licht</w>
K riterien</w>
L esen</w>
M oment</w>
Z e
f än
k g</w>
om as</w>
qu ali
ach es</w>
No ch</w>
cre dit</w>
bei de</w>
Ta gen</w>
Pe ople</w>
V A</w>
b on
c ulture</w>
en ha
re jec
pro fession
gr enz
TI ON
tra ff
Mit arbeit
stell ungen</w>
ün f
Gi ft</w>
inclu ding</w>
materi al</w>
sug ges
h in</w>
k aufen</w>
li ving</w>
il en</w>
me et</w>
mü n
Wor k</w>
Medi a</w>
woll te</w>
uni que</w>
Fri ed
Vorsit zes</w>
require ments</w>
A si
N um
U l
AN HAN
ex ist</w>
par ties</w>
Am ster
regi ons</w>
Mö glichkeiten</w>
bez o
Sin ce</w>
Kontrol le</w>
inner halb</w>
ERNENN UNGEN</w>
CEC AF</w>
C lo
L auf
M ass
W H
e es
f r</w>
h äu
pl at
Di mit
Sch w
mo sp
aus ch</w>
Inter net
Zusammen hang</w>
Berich te</w>
Fusionskontrol l
C D
S au
op tions</w>
Re fer
form at</w>
gh b
Me er</w>
cri be</w>
beh ör
Kön nen</w>
FRA GEN</w>
Cop yright</w>
basi c</w>
räsid entin</w>
C s</w>
K AN
c on</w>
p ass</w>
beg innt</w>
As sociation</w>
yn am
dou bt</w>
ungsp eriode</w>
Tit el</w>
transpar ency</w>
Zun ächst</w>
Mittw och</w>
W ol
f as
o is</w>
ar gum
Aus künfte</w>
beg inning</w>
zeu ge</w>
val id</w>
Cli mate</w>
Menschen rechte</w>
STRA TE
D N
S Q
i i</w>
s mo
en ster</w>
unter bricht</w>
best ä
finan cing</w>
Ta x
Änderungs anträge</w>
G ran
M and
n äh
di r</w>
ser ved</w>
Sitz ungsperiode</w>
Wettbewerb skommissarin</w>
relev ant</w>
G RO
c ategory</w>
g ten</w>
r ing</w>
tra in</w>
fo unded</w>
Gl ück
Euro barometer</w>
Boo king</w>
Musi k</w>
pap er</w>
Diskus sion</w>
P ok
ro ck</w>
al te</w>
se kret
geb ung</w>
erwar tet</w>
Mig ration</w>
DEC IS
F eri
G N
N utzen</w>
f ishing</w>
00 00
199 2</w>
vis i
Ant on
Rah men
währ end</w>
Lissab on</w>
C lau
m o</w>
is ing</w>
al a</w>
di ch</w>
EN S
En joy</w>
des sen</w>
gest at
abl ed</w>
congratul ate</w>
weltw eit</w>
akzept abel</w>
B EL
M os
T al
in en</w>
on nen</w>
ag ricultural</w>
del ines</w>
Lös ungen</w>
Ide e</w>
Proc ess</w>
Verpflich tungen</w>
zufri eden</w>
challeng es</w>
E ing
k at
w ine</w>
In nov
con trac
Re alität</w>
Sch ließ
ger ung</w>
ph otos</w>
vis ions</w>
Mr d</w>
aktu elle</w>
At lan
ANHAN G</w>
0 1
G A</w>
G AN
f air
k er
p m</w>
gro ß</w>
äu ß
Red nerin</w>
Son sti
dit ors</w>
Fil m</w>
Europe Aid</w>
Leg al</w>
E K</w>
P L</w>
P ed
k ein
it ems</w>
sch es</w>
sch ätz
ex change</w>
Ne wsletter</w>
Per haps</w>
nis sen</w>
Stell vertret
bed ingt</w>
Stand punkt</w>
Solidar ität</w>
Kamp f</w>
2 3
7 53</w>
H E
b um</w>
ei b</w>
ge worden</w>
TE LE
sa ve</w>
pre ci
ef on</w>
ständi g</w>
Uni ver
Zahl ungen</w>
Somm er</w>
H A
W est</w>
b ahn
h andel</w>
z ig
sp an
con ven
Re ding</w>
ütz t</w>
car ds</w>
Wettbewerb sf
zustimm en</w>
C at
H T
j an
di glich</w>
ex ten
im ages</w>
ob o
ain ed</w>
199 3</w>
kon nte</w>
cht ens</w>
mil it
fund amental</w>
Frei heit</w>
ologi cal</w>
ENER GY</w>
Koh ä
behal f</w>
ARB EIT</w>
simil ar</w>
O R</w>
ad ed</w>
De fin
wa iting</w>
Tre ffen</w>
feat ures</w>
Einw ände</w>
mont h</w>
B SE</w>
C K</w>
F ron
M ik
e cht</w>
com promise</w>
SS ON</w>
alis m</w>
Direc tor</w>
Geb äu
wirtschaf tliche</w>
Av ra
Nutz ung</w>
Prioritätsach se</w>
j ahr</w>
k n
th ought</w>
es ter</w>
ver theless</w>
lo st</w>
so wie</w>
vor gesehen</w>
comp uter</w>
erh öh
fun c
Era chtens</w>
treat ment</w>
C ES</w>
G est
W est
e g</w>
k s
z ed</w>
z ahlen</w>
Th eir</w>
we g
la st
Reg ist
Les ung</w>
Amster dam</w>
D oppel
y si
ci ples</w>
ru le</w>
inter ess
00 1</w>
stand s</w>
Lie fer
OPER ATION</w>
G AL
M M</w>
V ene
W E
a de
l it
is ierung</w>
ge gangen</w>
ber ücksich
aus es</w>
19 25</w>
vertre ten</w>
Person al</w>
requi res</w>
Heraus forderung</w>
stoff e</w>
APPOINT MENTS</w>
d t</w>
f ill</w>
s ou
s ci
u ri
Ü BER
er lau
en des</w>
at t</w>
ad o</w>
qui et</w>
out come</w>
AU F</w>
Spra chen</w>
establ ished</w>
Maß nahme</w>
D ina</w>
H AUS
M ulti
g a</w>
g utes</w>
re ise</w>
ein zige</w>
par ag
Pl en
And or</w>
Grupp en</w>
C ard</w>
D I</w>
m and
or ts</w>
ra h
port ing</w>
Gr enz
happ ening</w>
L ER</w>
V inc
re pe
ver ty</w>
ver folgt</w>
inter ested</w>
mo te</w>
pp ing</w>
tr uth</w>
verschied enen</w>
reco g
Aktion splan</w>
h äl
eit s</w>
do wnlo
GEN ER
Ko ordin
blo g</w>
Best ell
General sekret
schwi eri
PROGRAMM E</w>
H enn
K I</w>
t ransp
t ritt</w>
un ten</w>
ti er
ar ran
Ber ichts</w>
av ing</w>
ann es</w>
vorh anden</w>
H an
N ice</w>
sp ruch</w>
gi r
Di am
su r</w>
oll s</w>
so lidar
war m</w>
Unter such
part y</w>
ish es</w>
reich e</w>
sta at</w>
connec tion</w>
Avra am</w>
w ritten</w>
ß er</w>
sch ool</w>
wer t
des er
geh alten</w>
zeu gen</w>
ZI AL
opp ing</w>
kost et</w>
schie den</w>
H is</w>
M icro
S ur
m ine</w>
op ti
Ver trauen</w>
ges tal
Au to</w>
ie f
part ner
stu dy</w>
rap h</w>
Investi tions
Pau l</w>
SICHERH EIT
A vi
t d</w>
ar i</w>
li ance</w>
li ves</w>
at ure</w>
ac ro
sp ort</w>
tion ing</w>
RE P
Dar auf</w>
cl ari
Gesund heits
fiel ds</w>
Wieder auf
S em
X II</w>
v olution</w>
ff er
gl eiche</w>
ant as
cap acity</w>
impro ve</w>
ees c</w>
S ach
b ir
d aily</w>
s ource</w>
y ed</w>
re in
ar tige</w>
IN FORM
dis ku
Su che</w>
folgen der</w>
Fir ma</w>
gemein sam</w>
Oper ational</w>
inf o</w>
institu tions</w>
mäß ig</w>
Wissen schaft</w>
Abge ordn
Zimm er
K am
N ah
S wis
e th
m ati
ge ehr
con text</w>
tu rel
Mar g
ben utzen</w>
Gu i
K ris
P os
S ou
S ome
h under
le ad</w>
pl ans</w>
inter esting</w>
eu ch</w>
bi o
vis it
Se e
gew ähr
pass word</w>
vari ous</w>
kar te</w>
schö n</w>
Sho p</w>
ribut ed</w>
K orea</w>
P ro</w>
b au
gen den</w>
Wer den</w>
Schwer punkt</w>
B M
O K</w>
i al</w>
An lage</w>
gel ö
ari o</w>
Hin sicht</w>
Beihil fen</w>
Wettbewerbsf ähigkeit</w>
C r
I A
O ut
S hi
k ul
m 2</w>
ch ec
St äd
ber ech
selec tion</w>
Will st</w>
high er</w>
Wahr heit</w>
T ier
Z eichen</w>
b is
me an
ts eite</w>
gl ück
ni er</w>
esti val</w>
chil d</w>
od ation</w>
comple x</w>
HAUS HAL
F TIG
p aid</w>
t our</w>
en er</w>
al t
AN T
SO CIAL</w>
S IT
gan zen</w>
bet eili
Ges etz
Mi ddle</w>
Ira q</w>
Pla yer</w>
Stat ement</w>
Heraus forderungen</w>
s om
er r
in tegr
si x</w>
as on</w>
mo ved</w>
Vi vi
her vor
bar en</w>
elec tri
Ira k</w>
Zentr al
Doc um
gestat tet</w>
E ur
F ur
F rie
L etz
N ehmen</w>
k tive</w>
gen s</w>
ex ternal</w>
Par ti
so und</w>
Ap part
geh end</w>
Region al
Kom promis
Hier zu</w>
typ es</w>
erle i</w>
5 1925</w>
B ol
N L</w>
eh er</w>
Er war
IS T
Angelegen heit</w>
bre it
zw eiten</w>
Mö chten</w>
play er</w>
Näch ste</w>
week s</w>
Ord nung</w>
bath room</w>
Malm ström</w>
u tive</w>
an gem
al low</w>
vi elleicht</w>
ün det</w>
Auf enth
ef forts</w>
erklär t</w>
Woh nung</w>
Conclu sion</w>
urg ent</w>
E ven</w>
K ab
c as
v olle</w>
St ar</w>
we ch
Ar gum
vel s</w>
je des</w>
arbeit ung</w>
ide as</w>
FO RE
signific ant</w>
g igkeit</w>
es te</w>
di enst
Be völk
pres ents</w>
bel ieb
dem and</w>
WOR K</w>
ate gi
Pra xis</w>
maxim um</w>
B RO
ol o</w>
pr ises</w>
Gl ück</w>
Dec ision</w>
CC CC
kno wledge</w>
UNGS POLITIK</w>
rup tion</w>
Ash ton</w>
s ehe</w>
re den</w>
An aly
recomm end</w>
General dire
Ass essment</w>
einzel nen</w>
Kategor ie</w>
6 7
J O
L td</w>
W ar</w>
w ent</w>
re fer</w>
re agi
ak es</w>
Aus wär
Wir kung</w>
Des wegen</w>
Res ort</w>
bed ingungen</w>
spiel t</w>
K ont
S ter
m ut
re li
ab geschlossen</w>
am ing</w>
wi der
Re view</w>
Ma c</w>
Kon zept</w>
folger ung</w>
Ak tiv
absol ut</w>
H IN
k es</w>
s al</w>
ch mal</w>
fü gt</w>
In dia</w>
200 7
Kin der
Red aktion</w>
SO ZIAL
fig ure</w>
Partner schaft</w>
Verwal tung</w>
SQ L</w>
C RE
c la
ch it
re du
li er</w>
et z</w>
appro x</w>
ans wers</w>
Car lo</w>
dig keit</w>
Dienst leistungen</w>
them selves</w>
SM Es</w>
Bec ause</w>
Perspek tiven</w>
al ien</w>
wi d
ell s</w>
Ar ten</w>
ni em
Rus si
Gericht sho
consu mer</w>
Gef ahr</w>
Anmerk ungen</w>
L ear
c r
v ac
an zu
al ong</w>
le diglich</w>
ak tivi
po sed</w>
ser ies</w>
Pri me</w>
Besch reibung</w>
Umwelt kommissar</w>
orig inal</w>
S OL
an gen
be k
rec eption</w>
ger ä
AL M
ST O
bar keit</w>
Wer te</w>
Woh n
rejec ted</w>
B ut
R en
S AN
U M</w>
V O</w>
Z er
j ähr
ver se</w>
eu ros</w>
go al</w>
ari es</w>
selec ted</w>
aff ung</w>
Gol f</w>
opportun ities</w>
custom er</w>
Empfeh lungen</w>
R A</w>
ar ia</w>
et a</w>
be ds</w>
An y</w>
pro fi
Er öff
Ma y
ev al
ütz liche</w>
Ad minist
fl ü
Anti dumping</w>
pot ential</w>
DIS C
success ful</w>
Französ isch</w>
GENER AL</w>
Henn on</w>
L eute</w>
m bo
w andel</w>
ung spro
ho ch
Ber eiche</w>
star ting</w>
ander er</w>
work ers</w>
Spa ß</w>
esp eci
Frie den</w>
D ou
H U</w>
i j
s an
t oren</w>
in te
li ber
inn ers</w>
As yl
mel den</w>
Wi th
drin gend</w>
minim um</w>
Andr is</w>
prep ared</w>
Sm all</w>
C y
m eines</w>
v es
st ausch</w>
mm ern</w>
CO 2</w>
rich tigen</w>
kom pl
Pak istan</w>
zo gen</w>
Alex and
p hoto</w>
v ements</w>
ver suchen</w>
am ong</w>
sel ect</w>
beg in</w>
pra kti
Vizep räsidentin</w>
akzep tieren</w>
dien ste</w>
gewäh lt</w>
ÜSS E</w>
a ret
g ames</w>
gi ves</w>
we der</w>
su per
mo vement</w>
CO OPERATION</w>
fre ue</w>
gew esen</w>
fäl le</w>
call s</w>
aktu ellen</w>
MIT TE
F T</w>
O V</w>
d ents</w>
h eb
z y</w>
un bedingt</w>
st yle</w>
hi bi
cont ribu
fi z
kl einen</w>
ore d</w>
Nach bar
particip ants</w>
Gipf el</w>
Komment are</w>
eph one</w>
s ätz
em ph
et ary</w>
con tra
Re al</w>
oll ar</w>
tri fft</w>
zei chen</w>
ih rem</w>
wis sen
stan ces</w>
7 00</w>
A no
W EIT
c ement</w>
l auf</w>
er ne
et ten</w>
ag ne</w>
geb aut</w>
ass essment</w>
dis e
Op ening</w>
fac ilities</w>
gesam te</w>
wieder hol
Ombud s
ZUSAMMEN ARBEIT</w>
8 5
H ist
t an
ant i</w>
reich end</w>
Gemein schafts
sig n</w>
Aut om
Sin n</w>
Kons ultation</w>
erwäh nt</w>
situ ated</w>
BESCHL ÜSSE</w>
E t
F und
K ür
M B</w>
Y or
ri ffen</w>
con sequ
ger ech
br ings</w>
Fusionskontroll vorschriften</w>
A sia</w>
c ultural</w>
n am
y e</w>
Re ise</w>
Ho ff
com b
ger ous</w>
ob lig
tr ust</w>
Ge walt</w>
Ges ellschaft</w>
col lec
04 75</w>
explan ations</w>
Anton io</w>
n ern</w>
n ommen</w>
Ein satz</w>
comm ented</w>
äh ri
rich t
son dern</w>
lar gest</w>
zeu gt</w>
fic ations</w>
verk auf</w>
Kom p
Kult ur
Acc ess</w>
guaran tee</w>
Americ an</w>
G O</w>
w under
ü t
in tegration</w>
an gesprochen</w>
sch wer</w>
con struction</w>
and o</w>
ho ffen</w>
auf bauen</w>
dra w</w>
dri ve</w>
ordin ation</w>
buil d</w>
discus sed</w>
oppo site</w>
statisti cs</w>
immedi ately</w>
Vorbereit ung</w>
Mitarbeit er</w>
H at</w>
K AL
L y
N ik
d ritte</w>
er öffnet</w>
ch em
Ver bindung</w>
än derung</w>
tra ck</w>
CO M
OR S</w>
VER FA
Apart ments</w>
Dig it
aim s</w>
Organis ation</w>
proper ty</w>
won der
F ach
O J</w>
S we
z ehn</w>
er s
ar ti
st at</w>
ap plause</w>
Ber eichen</w>
stat us</w>
itä t
reg ister
sho wn</w>
appro val</w>
kur ze</w>
consu mers</w>
tar get</w>
appropri ate</w>
wel chen</w>
gu ter</w>
Qu ality</w>
Schl üssel
can c
Ano ther</w>
B UR
K er
R ou
k aum</w>
l en
ol er
In sel</w>
su s</w>
Al p
Wh ite</w>
her unter
folgen des</w>
VER H
nor mal</w>
Binnen mark
dau ert</w>
my self</w>
cru cial</w>
DISC USS
T en
U se
a gen</w>
m em
y p</w>
al d</w>
An pass
Di mension</w>
Sp a</w>
sel be</w>
end gül
spe kt</w>
Men ge</w>
inv est
schi ed</w>
fäl lt</w>
Uni versity</w>
Sto ck
hu ge</w>
STRÖ M</w>
Stellvertret ender</w>
8 8
er ie</w>
gr und</w>
ob ach
star k</w>
Über wach
Politi cal</w>
incre ased</w>
Bundes minister
Herz eg
Num ber</w>
especi ally</w>
R SS</w>
V A
l auf
t sheet</w>
ei ra</w>
lo ss</w>
ad ly</w>
bes sere</w>
EM P
Techn ologi
fig ur
prü fung</w>
Vie w</w>
solidar ity</w>
en heit</w>
st ab
ent spricht</w>
DI G
Tra ining</w>
län dern</w>
reas on
win dow</w>
concern ing</w>
Rele ases</w>
Ann ual</w>
manu fac
bezü glich</w>
B ab
G o</w>
K A</w>
N ic
lo ad</w>
mor ning</w>
play ing</w>
ALL GEMEIN
3 4
A b</w>
B AN
M ut
a fft</w>
j ähri
ri eb
for um</w>
bes it
Indi en</w>
enha gen</w>
5 6
C S
J A</w>
R ap
j ust
s le
sch w
ver gen
am eter</w>
te es</w>
Mon ica</w>
Ju gend</w>
Fl or
tä tig</w>
tä glich</w>
hän gt</w>
Spe zi
entwick elt</w>
plac ed</w>
Mat eri
herz lich</w>
Implement ation</w>
M em
P er</w>
S yn
T ari
c ast
an gel
ver bin
gi ge</w>
STA A
fil m</w>
lö sen</w>
Überein kommen</w>
Pier re</w>
thin king</w>
erne ut</w>
B Y</w>
L ast</w>
S eine</w>
at trac
le b
ir gend
IN E</w>
Vor haben</w>
No thing</w>
comm er
Dat um</w>
Rom a</w>
Comp uter</w>
Fisch ler</w>
Partner ship</w>
Eig ent
9 00</w>
A R</w>
F IN</w>
L AR
a than</w>
e en</w>
t ests</w>
an z
di gt</w>
em a</w>
Aus bildung</w>
komm ens</w>
lan gen</w>
tri p</w>
ier ten</w>
Dokum ente</w>
Cor azza</w>
Star tseite</w>
suff ici
schlä gt</w>
M A</w>
W ik
d or</w>
i ds</w>
k ehr
Ü BER</w>
in d
an de</w>
Ar chi
gra de</w>
Dies en</w>
TO TAL</w>
besch äf
Stu dio</w>
Up date</w>
UB LI
GEMEINSAM E</w>
parag raph</w>
D ist
F uture</w>
Z U</w>
in der
AR E</w>
AR Y</w>
ant ly</w>
43 79</w>
Lin ie</w>
feh lt</w>
Tab elle</w>
Priv at
deci ded</w>
D ol
F RI
f a</w>
ab ri
le gt</w>
St aff</w>
af ri
Aus gaben</w>
ist a</w>
zieh ung</w>
schn itt</w>
Wi der
Forsch ungs
IG N</w>
addres sed</w>
F lexi
S TI
W AL
on e
vo ice</w>
geb oren</w>
Ma xim
10 7</w>
person en</w>
Zw isch
depend ent</w>
M ake</w>
O sten</w>
V ari
W unsch</w>
h om
i ze</w>
s qu
w ants</w>
er c
in di
An ca</w>
ex pres
unter schied
acc ession</w>
alis mus</w>
Stu di
mel dung</w>
Mobil ität</w>
use ful</w>
entschei den
terror ism</w>
8 0
K no
M useum</w>
S he
z in
at ur</w>
En ter
IN D
Co hesion</w>
US D</w>
So ci
Auf gaben</w>
erg än
hin ter</w>
Sin ne</w>
Inst all
Ern ähr
DECIS IONS</w>
M asch
P A</w>
y ester
Th omas</w>
res h</w>
pre par
MI T</w>
Gro wth</w>
Neu es</w>
Beit ritts
stain ed</w>
rele ases</w>
nö tig</w>
Use ful</w>
er ter</w>
en gl
al ing</w>
el a</w>
Sch utz
ens ure</w>
inv esti
Euro stat</w>
Woh l
Angebo te</w>
apart ments</w>
Arbeitsp lätze</w>
W ür
d d</w>
un t
Au str
Fran c
Or der</w>
get ting</w>
kno ws</w>
Fak ten</w>
äm lich</w>
easi ly</w>
Wall ström</w>
Ress ourcen</w>
B ahn
S cript</w>
b ackground</w>
h aus</w>
l ad
t rägt</w>
w ann</w>
w eil</w>
ig ration</w>
wer ed</w>
ach ing</w>
ap s</w>
ho od</w>
enti re</w>
rou ght</w>
Wirtschaf t
Cas a</w>
justi ce</w>
Erfahr ung</w>
run ning</w>
BM W</w>
3 D</w>
G AR
G eben</w>
en jo
Un ter</w>
RE S</w>
Be ach</w>
ack s</w>
vo c
acc o</w>
enti rely</w>
val u
lab our</w>
empfeh len</w>
E m
H ause</w>
L ag
L ev
M ill
T est</w>
W ater</w>
g res
y ou
it ation</w>
ver teilt</w>
lo k
ak ing</w>
ic es</w>
geb iet</w>
her aus
Li ve</w>
bri ef
ori al</w>
dist ributed</w>
PROGRA MM</w>
schwieri g</w>
1 10</w>
M eg
a di
us st</w>
Fin al</w>
Fra mework</w>
Je de</w>
COMM ON</w>
impro ved</w>
equi pped</w>
Vorsit z
plac es</w>
BU DG
WEI S</w>
A ch
F lo
G I</w>
R am
W ur
s yn
Ä FTIG
en ger</w>
il le</w>
ab gel
An der
10 1</w>
tic les</w>
ern st</w>
unser es</w>
Arbeit en</w>
Am b
Nach hal
dra ft</w>
Pu er
supp ly</w>
Prop os
ALLGEMEIN E</w>
K ein</w>
S O</w>
b rech
Th ree</w>
se chs</w>
ation elles</w>
to ol</w>
oo t</w>
Aus führ
199 0</w>
app lied</w>
Mon at</w>
bro wser</w>
prin ciples</w>
bab we</w>
benö tigt</w>
pop ulation</w>
KOMM ISSION</w>
Reform en</w>
anno un
u ß</w>
v ent
al ternative</w>
Ver fahr
bi lities</w>
mon itoring</w>
sub s
Kar ten</w>
AD OP
Loc al</w>
2 1
f alt</w>
ch ance</w>
an ces</w>
ar u</w>
ver wal
le vels</w>
ck er
Mar t
Vor lage</w>
det ailed</w>
16 0</w>
Ag entur</w>
unterstütz e</w>
Bot schaf
Herz lich</w>
Zi vil
rele ased</w>
acro ss</w>
C iti
J U
a qu
li o</w>
em ati
le gung</w>
for d</w>
gen au
wer te</w>
zi eren</w>
eg et
gra p
Ex per
Li z
PRE SIDEN
entr y</w>
Jo se
Rechts vorschriften</w>
Go d</w>
nor m
sozi alen</w>
writ e</w>
Außen beziehungen</w>
Summ it</w>
Yor k</w>
X IV</w>
b ase</w>
en sive</w>
re ten</w>
Ver s
ber eiche</w>
inter ests</w>
EU RO</w>
Ch ange</w>
Su stainable</w>
Zu dem</w>
VI II
ember ship</w>
NO TE</w>
Stimm en</w>
Bot schaft</w>
metho d</w>
separ ate</w>
Ferr ero</w>
Kohä sion
register ed</w>
n ämlich</w>
t ru
as ks</w>
se em</w>
po or</w>
Ho li
inter essi
Op fer</w>
Dec laration</w>
pop ular</w>
Fel der</w>
behandel t</w>
camp a
Ged an
H igh
T our</w>
a is</w>
m är
m lung</w>
ti sh</w>
on te</w>
st ar</w>
ver antwor
le ben
ed ri
ma x</w>
Me er
gar anti
Or gan
Protok olls</w>
PROC ED
begr enz
Wo chen</w>
ME ET
Dur ch</w>
Je des</w>
CA P</w>
Kat astrop
Leit linien</w>
INS GESAM
Vot ing</w>
humanit arian</w>
Jon athan</w>
Zwei fel</w>
Struc tural</w>
STAA TEN</w>
A spekt</w>
S ite</w>
d ungs
v ations</w>
z ung</w>
ou EU</w>
ent y</w>
ell o</w>
est elle</w>
Ein fu
To p</w>
kon ferenz</w>
sig keit</w>
erlau bt</w>
HIN WEIS</w>
f ische</w>
p al
il d</w>
be deut
ub a</w>
Vassili ouEU</w>
but ton</w>
zäh len</w>
erfül lt</w>
j o</w>
s un
ar chi
im pres
kl are</w>
SI S</w>
Dimit ri
H REN</w>
N ützliche</w>
P adur
W ord
e a</w>
s i</w>
er scheint</w>
ter e</w>
ec k
ad verti
Au gen</w>
mö glichkeiten</w>
off icial</w>
10 2</w>
Li fe</w>
part ment</w>
gew öh
det ail</w>
BE IT
Stell en</w>
meas ure</w>
develop ed</w>
zäh lt</w>
grün det</w>
Klima wandel</w>
Eis en
Wald ner</w>
behör de</w>
Ped ro</w>
Padur aru</w>
W ahl
s ets</w>
el ek
me dic
Ne vertheless</w>
auf ge
sen si
mark ed</w>
voll kommen</w>
Ob jec
anim als</w>
schön e</w>
Ele k
3 6
K E
P il
o ber
be t</w>
se x
Her zen</w>
gr o</w>
gan gs
Wel ches</w>
unk ten</w>
Bet ru
cer ti
Commun ications</w>
Tel e
appe ar</w>
Hor iz
Gal il
Eröff nung</w>
D adurch</w>
N iel
T em
t ag
ar ticle</w>
eh nt</w>
sch eme</w>
ver ab
ec kt</w>
ap e</w>
Vor aus
ontak te</w>
os la
Fran k</w>
emp f
setz ungen</w>
zei tig</w>
Nor wegen</w>
entwick lung</w>
ine a</w>
TRANSPAREN CY</w>
nachhal tige</w>
tot ally</w>
S n
n etz
r ative</w>
St ano</w>
to s</w>
la un
la dies</w>
str y</w>
requ ire</w>
auth or
prac tical</w>
Saf ety</w>
Cha ir
Stellung nahme</w>
Gent lemen</w>
E EC</w>
F le
K OR
a c</w>
c ore</w>
be kämpfung</w>
Ar mut</w>
ser viert</w>
ass ador</w>
det er
Pal ace</w>
umf ass
Terror ismus</w>
änder ungen</w>
Pass wort</w>
Got t</w>
Schließ lich</w>
FORE IGN</w>
D UC
G an
H üb
g ünsti
m om
p ati
ü ssel</w>
ag ue</w>
neh m
ph ase</w>
ütz en</w>
har mon
Beit ritt</w>
Hum anit
Kra ft
Fac tsheet</w>
initi atives</w>
ld wide</w>
Stad t
L ar
P ool</w>
w ood</w>
er ror</w>
us ch
IN A</w>
ssi g</w>
Gebäu de</w>
A li
C ONS
M acht</w>
g la
h our</w>
s inn
u a</w>
le a
ge d
ge m</w>
Ver wendung</w>
Min ute</w>
pl om
är in</w>
rec ord</w>
sa ying</w>
DE F
dis p
Sec ond</w>
Ant eil</w>
Ter ra
EW G</w>
Haushal t
Dom in
Tor res</w>
Fäl len</w>
W ER
en ze</w>
ar ing</w>
al ter</w>
st ör
ver einbar
de ath</w>
Un it</w>
ho t</w>
IT Ä
ev ening</w>
EL L
spe ech</w>
jo in</w>
dan gerous</w>
mi um</w>
techn ische</w>
BESCH ÄFTIG
instru ments</w>
betre ff
whe ther</w>
Berat ung</w>
vehic les</w>
I TI
P LA
o x
v illage</w>
z y
ra d</w>
ra ised</w>
as selbe</w>
sch li
lo sigkeit</w>
op tim
ap preci
IN S</w>
geb ü
wen ige</w>
Res i
Ro y
Wes teren</w>
Gar anti
Kre dit
Bra si
Lie be</w>
bab y</w>
erfolgre ich</w>
T ru
b es</w>
m ier
er reich
au ft</w>
et er
Sch war
wel t
sup ports</w>
Ad R</w>
Pl ace</w>
verst är
län ger</w>
Spiel er</w>
Bri an</w>
grat uli
Net z</w>
Europe ans</w>
activ ity</w>
Beschl üsse</w>
TRANSPAREN Z</w>
infra structure</w>
Swis s</w>
2 6
D ort</w>
U p</w>
Y ou
i ens</w>
n or</w>
re form
In flation</w>
än den</w>
fre qu
199 1</w>
Res ults</w>
Te ile</w>
shi ps</w>
Fre u
Wis sen</w>
D R
N a
S how</w>
k eits
n d</w>
li mit</w>
de ad
for get</w>
sol chen</w>
Bar nier</w>
enn a</w>
olog ische</w>
win ter</w>
asp ect</w>
K all
L IS
e vi
Th us</w>
Re gel</w>
qu ar
ni o</w>
vollständi ge</w>
Univer sit
T ype</w>
d uty</w>
e es</w>
re t</w>
st ability</w>
et ings</w>
ec utive</w>
ig es</w>
gre en</w>
igh t
Über blick</w>
dem okrati
TIG E</w>
Prior ities</w>
exp end
Produ k
antwor tet</w>
net works</w>
cht est</w>
Pressek ontakte</w>
MEDI A</w>
R ules</w>
k it
l ack</w>
t rä
el ia</w>
In deed</w>
An im
ad em
gre ater</w>
resp ond</w>
Span ish</w>
Produ kt
rie b</w>
COMM ISSION</w>
tron ic</w>
J our
M ore
o graph
at or
sch wer
sh or
ot h</w>
wor ked</w>
lan gs
off izi
cre te</w>
je derzeit</w>
VER TEI
25 8</w>
gemein samen</w>
LO Y
bez ahlen</w>
dest ens</w>
Tour ismus</w>
Geld bu
tou ch</w>
k ontak
t räge</w>
an ten</w>
at ter
ru fen</w>
IN I</w>
eg el
sel t</w>
vor bei</w>
Ak tion</w>
verfü gen</w>
Tel efon</w>
Mont i</w>
reser ved</w>
Ra dio</w>
Proc ed
Näh eres</w>
Jah res</w>
protec t</w>
Tu esday</w>
Verf asst</w>
Kü che</w>
Pas cal</w>
Hö he</w>
vorgesch lagen</w>
Gün ter</w>
L ad
O therwise</w>
k lu
re forms</w>
es ien</w>
al ist</w>
ff ee</w>
lu x
rec ent</w>
hal ten
War en
cri tic
schl üssel
ene w
commit tee</w>
Zahl ungs
för dern</w>
Währ ungs
Lam y</w>
Infra struktur</w>
B RAU
F enster</w>
H Y
K ör
L oo
M lag
P ack
f oc
l isten</w>
en zi
li t</w>
si t</w>
si des</w>
su itable</w>
ru f</w>
ru fe</w>
sti eg</w>
gh out</w>
den en</w>
nach steh
gew innen</w>
Am t</w>
Do c</w>
syst eme</w>
funktion ieren</w>
Beh ör
Form at</w>
tes ten</w>
C enter</w>
E gyp
S and
f es</w>
k ü
l ung
t un
z ess</w>
en g</w>
an e
ak et</w>
gen ann
ad ap
la h</w>
fra gt</w>
Nach richt</w>
On ce</w>
Geb iete</w>
col or</w>
Mö chtest</w>
AC P</w>
elec tions</w>
strateg ie</w>
AK P</w>
Ass istance</w>
expl ain</w>
EMP LOY
Botschaf ter</w>
Mlag a</w>
G F
K en
d istance</w>
p assen</w>
gen annt</w>
ha ving</w>
än e</w>
Sp eich
bel ie
spe ed</w>
To dd</w>
posi tiv</w>
tim s</w>
TA GUNG</w>
El emente</w>
ate gic</w>
commun ity</w>
Grö ße</w>
E TI
f isheries</w>
o wn
s eh
t au
v ey</w>
ein zig
ter race</w>
qu alität</w>
pres sure</w>
bu chen</w>
Ges prä
low er</w>
STA GUNG</w>
Dar an</w>
sur ance</w>
BER EIT
AC H</w>
Wirtschaf tliche</w>
ate ful</w>
aktu alis
GA P</w>
grund le
Ton nen</w>
jour n
Fäl le</w>
geeig net</w>
t atsächlich</w>
Ü N
or a</w>
di mension</w>
be achten</w>
Un der</w>
ex erc
Inter nationale</w>
Cont rol</w>
Su dan</w>
PRE PAR
Wor t
Gu te</w>
entr um</w>
Comp anies</w>
lear ning</w>
adv ance</w>
reser vation</w>
zun ächst</w>
orig in</w>
bestimm te</w>
bit ten</w>
Prü fung</w>
Appro val</w>
C ould</w>
H N</w>
W ün
r ary</w>
s ales</w>
es ten</w>
ver folgen</w>
se ason</w>
Au ff
Ger icht</w>
Kon fli
tur ing</w>
öff nen</w>
consider ed</w>
fore ign</w>
Schluß folgerungen</w>
continu ed</w>
conf lic
ghb our
Hüb ner</w>
G anz</w>
P ur
P atten</w>
T au
tu de</w>
ger ufen</w>
Bet ter</w>
Gel egen
TO R</w>
Stra ß
inst all</w>
any one</w>
maj ority</w>
bab ly</w>
Weit er
effici ent</w>
Feri en
ADOP TED</w>
Tele komm
G az
J er
i a
l ass</w>
y ond</w>
is land</w>
ul y</w>
ag riculture</w>
qu ote</w>
Su per
As sozi
look s</w>
Der zeit</w>
Syst ems</w>
Schluß folgerung</w>
Verkehr s
Ori g
exist ing</w>
viol ence</w>
accomm odation</w>
Galil eo</w>
M as
V en
f ro
f ers</w>
z war</w>
Ö ff
er folgen</w>
be für
co l</w>
zi ele</w>
Er ste</w>
pre hen
Res olution</w>
Ro bert</w>
Char lie</w>
fül len</w>
perform ance</w>
N OR
c ategor
n ames</w>
s li
it or</w>
di tion
ver i
le bt</w>
res s
Pres ser
oc co</w>
Ir ina</w>
succ e
summ it</w>
dor f</w>
Chil dren</w>
Bestimm ungen</w>
richt linie</w>
A rea</w>
S eb
p il
ch em</w>
ro b
us h
ab sur
20 16</w>
gr ateful</w>
Al t
Er d
Ch am
spra chen</w>
gar den</w>
Geb ü
Hin weise</w>
Sh ould</w>
pen sion</w>
VOR BEREIT
ENER GIE</w>
schwi er
MIN IS
konkre te</w>
recommend ation</w>
mist ake</w>
grupp e</w>
gelö st</w>
hibi tion</w>
VERTEI DIG
D UNG</w>
M eter</w>
S ev
o v</w>
p asst</w>
v ie</w>
er weit
en falls</w>
it ely</w>
ich ten</w>
ver ändert</w>
ge gründet</w>
ad vice</w>
ges etz
all ery</w>
Unter schied</w>
nation aler</w>
ris ks</w>
alis ed</w>
Umwel tsch
rou te</w>
sto ck</w>
Rat s
complet ed</w>
desig ned</w>
emis sions</w>
Docum ents</w>
mbo l</w>
F rit
S icht</w>
y mp
in side</w>
at a</w>
us h</w>
sch ung</w>
am t</w>
ak tiv</w>
ed ing</w>
Sp iele</w>
Abstimm ungen</w>
Con c
führ te</w>
stre et</w>
regel ung</w>
Kontakt personen</w>
B us</w>
ti ous</w>
ein heit
Ver st
Pres s
Ar gent
fi zierung</w>
bil d</w>
ben utzt</w>
cri me</w>
Ak tionen</w>
Ru ral</w>
aussch uss</w>
Stär kung</w>
confi dence</w>
B E</w>
B ou
C ur
L as</w>
u d</w>
tra ding</w>
RA T
kl ar
vor zu
DE L</w>
Rech t
gesam ten</w>
aff ected</w>
TU OMI
Bro wser</w>
nu clear</w>
regel n</w>
Pat ri
investig ation</w>
Puer to</w>
TUOMI O
M IL
m t</w>
in tel
ro s
ati n</w>
ra il
be isp
ge plant</w>
eb ook</w>
um n</w>
mo bility</w>
Europä er</w>
mit gli
lau t</w>
bre chen</w>
car ried</w>
Win ter</w>
cons ist
Nov ak
gri ff</w>
Oper ationelles</w>
Frühst ück
mot ing</w>
conven i
w ho
ein zu
ol z</w>
ent schieden</w>
En largement</w>
är en</w>
nis Abbott</w>
cle an
Den nisAbbott</w>
Zusammen setzung</w>
Ju l</w>
Fre unde</w>
car s</w>
PD O</w>
Fu ß</w>
Kl ein
schein lich</w>
Fo to</w>
Steu ern</w>
zentr ale</w>
Andre as</w>
protec ted</w>
Beteili gung</w>
wonder ful</w>
BUDG ET</w>
H ä
W ahlen</w>
Z ur
c ils</w>
k in
w ahr</w>
ch ten
an sprechen</w>
es nt</w>
em er
In don
sich ten</w>
Mo dell</w>
pack ages</w>
WIRTSCHAF TS
fran chise</w>
effici ency</w>
Staats minister</w>
ENTWICKL UNGS
purch ase</w>
visit ors</w>
D D
d oll</w>
k enn
w an</w>
en ken</w>
is ely</w>
on str
el en</w>
et h</w>
sp ir
Sch ön
19 89</w>
Cont ribution</w>
Jahr hunder
Gu inea</w>
erk ennen</w>
techn ologi
met ers</w>
develop ments</w>
BAL KAN
vir tu
suffici ent</w>
5 30</w>
B anner</w>
K AS</w>
T ob
V ic
re present
es a</w>
li eben</w>
am p</w>
op h
we ist</w>
du le</w>
AR D</w>
end or
ST RU
No ti
kon om
Gesch ä
Gu ide</w>
Direc t</w>
hand s</w>
begrü ßt</w>
Mont ene
pay ments</w>
hät ten</w>
Ba de
partner ship</w>
DEF ENCE</w>
A RE
K rank
f ä
n ights</w>
t z</w>
ge fügt</w>
sp art
Ver einfach
ir y</w>
ci vil</w>
fol ge</w>
la di
vor gelegt</w>
ess ing</w>
Me as
sec onds</w>
Des ig
throu ghout</w>
Rich ard</w>
Zus atz
Ol li</w>
Eig en
ZU R</w>
wimm ing</w>
SICHERHEIT S</w>
EMPLOY MENT</w>
Novak ova</w>
N ichts</w>
Z ustimm
i Phone</w>
ü r</w>
be auf
sh ops</w>
Au gen
ik o</w>
num bers</w>
Stu die</w>
cel eb
high ly</w>
beru f
besu chen</w>
länd lichen</w>
Untersuch ung</w>
Abgeordn eten</w>
Chair man</w>
0 9
A le
I cel
P op
b rought</w>
l as</w>
v i</w>
ä ß</w>
ch mals</w>
st ates</w>
ra y</w>
ec t
Di ffer
sel bst
Ad op
ast ern</w>
Ko oper
Mitglied staat</w>
stitu tion</w>
Stra sb
Bra zi
appe ars</w>
regist ration</w>
cro ss</w>
Dritt ens</w>
schre it
Shar rock</w>
4 7
D ont</w>
l ös
m asch
lo g</w>
ge wiesen</w>
An wend
po verty</w>
fin ally</w>
do esnt</w>
ma g</w>
Mar got</w>
stat tung</w>
Wer k
Pe ti
Tro tzdem</w>
innov ative</w>
Investitions bank</w>
VERTEIDIG UNGSPOLITIK</w>
B is
B rit
E du
O thers</w>
f isch</w>
s weise</w>
ri min
pl ätze</w>
sh opping</w>
bes timmt</w>
do s</w>
Ma il
Ein führung</w>
br e</w>
lie fer
ord nete</w>
best ellen</w>
Rom ano</w>
Every thing</w>
Montene gro</w>
B lue</w>
M Ä
M us
a f</w>
e x</w>
g ei
g one</w>
k an</w>
l eng
t ari
as ti
Re zep
Ver änderung</w>
Fran chise</w>
cl assi
Comp any</w>
dig it
dig ital</w>
Bre ak
Pla za</w>
Sozial es</w>
boo king</w>
Durch führung</w>
scre en</w>
Vereinbar ung</w>
More over</w>
VORBEREIT UNG</w>
Strasb ourg</w>
K ind</w>
s ort</w>
al og
ri gi
di ge</w>
te in</w>
po ses</w>
com bin
fre ie</w>
ph oto
SCH RI
wich tigen</w>
ef fort</w>
produc ed</w>
tim ate</w>
bre ak</w>
cons ists</w>
disc uss</w>
Entschei dungen</w>
Sel ect</w>
fest gelegt</w>
Stat us</w>
Instru ment</w>
verl oren</w>
flä che</w>
gewöh n
Zustimm ung</w>
N ahr
V ia</w>
V IT
s ü
z ö
Min dest
Di d</w>
über all</w>
min destens</w>
Wor k
Da von</w>
BER G</w>
Form ular</w>
Mis sion</w>
instru ment</w>
cop y</w>
advant age</w>
angebo ten</w>
F al
M ech
f ail
er neu
ha ft</w>
lu ß</w>
Ab end</w>
aus gestattet</w>
Bei hilfe</w>
Schl af
del s</w>
del egation</w>
conc ept</w>
sub st
Am elia</w>
art a</w>
NE W</w>
cons ult
sam er</w>
auth orities</w>
Ide en</w>
Lebens mittel
Prioritätsach sen</w>
ton nes</w>
list ed</w>
recommend ations</w>
recog ni
Amb assador</w>
mitgli ed</w>
A B</w>
B Y
M einer</w>
T UR
a gen
b z
f i</w>
g a
au ßer</w>
ad just
ho l</w>
Ab schließend</w>
ehr t</w>
We ge</w>
erh ält</w>
Staatssekret ärin</w>
play ers</w>
transpar ent</w>
equ al</w>
Ci vil</w>
ure ment</w>
PROCED URE</w>
I P
V om</w>
v it
re duction</w>
on s
au ßerdem</w>
ein s</w>
omm un
gen heit</w>
sel y</w>
bet t</w>
Vi et
rich tungen</w>
ander ung</w>
ish ment</w>
Sub sidiar
trans fer</w>
implement ed</w>
mach ine</w>
vic tims</w>
K lar
R E</w>
S po
S ir</w>
S earch</w>
S aint</w>
d ynam
p as
w ishes</w>
z eiten</w>
an as</w>
ti cket</w>
re d
wh ite</w>
av es</w>
IS O</w>
comp on
sich t
ric t</w>
BE I</w>
Secret ariat</w>
LE B
glau ben</w>
commit ment</w>
Can ada</w>
Beh andlung</w>
particip ation</w>
Every one</w>
verkehr s
refer red</w>
verbesser t</w>
consequ ences</w>
Zwisch en
C c
J es
T RO
f are</w>
i x</w>
In c</w>
An gst</w>
ff s</w>
ed ings</w>
rei b
star ts</w>
gew ün
As sem
Sk i
Ph ase</w>
Komm un
crip tive</w>
Georgi eva</w>
Sant a</w>
traff ic</w>
Pok er</w>
Bevölk erung</w>
Holi day</w>
4 6
S ehen</w>
T om</w>
re member</w>
sch auen</w>
le ading</w>
eit et</w>
su ite</w>
to m</w>
Ma ja</w>
CO ST</w>
dis crimin
tig keiten</w>
Ser bia</w>
sho wer</w>
bar a</w>
cl ass</w>
Beg ri
allgem einen</w>
Ham burg</w>
Ret ur
industri al</w>
kul turel
Aufenth alt</w>
S D
S ein</w>
T ON
f ach</w>
f antas
h äre</w>
k al
er nen</w>
th i
th ening</w>
be ar</w>
RE C
Mar ie</w>
War en</w>
cri tical</w>
Man aging</w>
sc ale</w>
jek te</w>
Kol lege</w>
Nu mmer</w>
def ault</w>
Wei ß
persön lich</w>
Rechn ung
inte gri
C ome</w>
F onds</w>
I denti
re presented</w>
con duc
op ou
Pro spective</w>
AR I
Mit te</w>
Me eting</w>
SCH UT
Über prüfung</w>
exp lo
xim ately</w>
durch aus</w>
over all</w>
opin ions</w>
Dienst ag</w>
Bl ack</w>
prec isely</w>
Dre i</w>
haf ter</w>
Initi ativen</w>
Micro soft</w>
Kall as</w>
3 9
E ar
G L</w>
Z eiten</w>
f it
k bar</w>
l ds</w>
ra c
ra ise</w>
ri ert</w>
sp ann
gen der</w>
af ter
AR CH</w>
ob vious</w>
vor lie
Ent wurf</w>
bet roffen</w>
sol e</w>
stell er</w>
wär en</w>
EI CH
star ten</w>
verbesser n</w>
erzi elt</w>
BOR G</w>
Kurz beschreibung</w>
statt finden</w>
set ting</w>
rah men</w>
Proced ure</w>
Cc ile</w>
B la
L ist</w>
P L
W ell
k ap
s th
w all</w>
Ä gyp
il lu
An ne</w>
gro wing</w>
Coun cils</w>
pr int</w>
Wor ten</w>
fac il
Grund lage</w>
perf ec
applic ations</w>
tour ism</w>
Clau de</w>
VERFA HREN</w>
F RAN
P lu
ä st
ur ban</w>
sch lagen</w>
Vor gehen</w>
CO UR
Dar in</w>
Ir ish</w>
att le</w>
voll er</w>
wat ch</w>
speak ing</w>
durch geführt</w>
leist ungs
PP E</w>
satis fac
som it</w>
PREPAR ATION</w>
W ien</w>
r as</w>
t ack
un er
on ien</w>
di versity</w>
be antworten</w>
pro visions</w>
der zei
RA L</w>
vor behalten</w>
gre at
Minister s</w>
Zusammen fassung</w>
besch rän
vers or
Cor por
Star doll</w>
seri ously</w>
groß es</w>
Far be</w>
Sek unden</w>
Ni emand</w>
aci ous</w>
WES TER
HE AL
B asis</w>
E CO
H OL
N ER</w>
N icht
c in
d end</w>
i eten</w>
t y
it i</w>
il er</w>
ent lich</w>
ak t</w>
su che</w>
ck ed</w>
zi p
TI TU
eg u
eg er</w>
Be zug</w>
Ur mas</w>
exp ensive</w>
Eu ch</w>
Kar l</w>
Pu tin</w>
drü ck
kes tein</w>
Cust oms</w>
sus p
häu fig</w>
opti mis
Bol kestein</w>
B ased</w>
T om
T ir
o x</w>
s k</w>
Re volution</w>
we gs</w>
EN S</w>
ap est</w>
im possible</w>
str ing</w>
bil ität</w>
Bo ard</w>
sor ry</w>
wichtig ste</w>
deli very</w>
Dru ck</w>
pleas ant</w>
Ausführ ungen</w>
A GEN
D am
H EIT</w>
g keit</w>
j ün
k ür
in akzeptabel</w>
ch ter</w>
an ne</w>
re presents</w>
ar ticles</w>
st ets</w>
pro mote</w>
to b
zi em
Ber g
gh ter</w>
Fran co</w>
ther more</w>
Lu ft</w>
Kon z
kon zent
Ro ad</w>
vern ünf
Techn ologie</w>
SE ARCH</w>
Fi re
spä t</w>
PA ET</w>
Pay ments</w>
mün dliche</w>
Überwach ung</w>
kontak tieren</w>
D ring
H IL
R y
z ut
it ate</w>
ri erung</w>
di ed</w>
us ual</w>
sch o
de ckt</w>
wi er
gan genen</w>
Ge w
Vi el</w>
he ad
Com peti
Am ts
eff ects</w>
esti c</w>
curr ency</w>
mi eten</w>
sc ope</w>
Stra ßen
Reg ul
Besu chen</w>
Besu cher</w>
Tex ti
Reser vi
Beschl uss</w>
Dien st</w>
analy sis</w>
Cho ose</w>
Gelegen heit</w>
E n</w>
T elec
y l</w>
or ca</w>
con st
De fiz
ech te</w>
off ered</w>
Car l</w>
Rat spräsident</w>
Mär kte</w>
amo un
tar gets</w>
Cap ital</w>
che ap</w>
dam age</w>
entsprech end</w>
Kun st</w>
T est
c am</w>
c ant</w>
is i
ei m
di d
sp ar
gen ü
our th</w>
gu est</w>
Po wer</w>
sup er</w>
Fore stry</w>
get ary</w>
Arbeit nehmer</w>
bereit et</w>
pi ece</w>
wichtig es</w>
Bem üh
entschei den</w>
Herz lichen</w>
Zi ffer</w>
Beg inn</w>
weis ung</w>
Moder nis
HT ML</w>
Ernähr ung</w>
5 5
B ess
K Ä
M un
P O</w>
S C</w>
W ein</w>
ti ckets</w>
re marks</w>
ra di
fi xed</w>
nah e</w>
dar in</w>
sec ure</w>
Ital ian</w>
ander em</w>
Dan iel</w>
dep ends</w>
weiter es</w>
inf lu
gewäh l
accord ing</w>
Bern ard</w>
B lu
E hr
G ER</w>
P ort</w>
W ollen</w>
g ers</w>
j emand</w>
s enti
Th anks</w>
ac counts</w>
de bt</w>
op ening</w>
ru ral</w>
co ok
fin dings</w>
Al ger
gel aden</w>
Inter vention</w>
pre vention</w>
gew o
Fol gende</w>
OL L
Is l
Son n
NA TO</w>
Zeit raum</w>
Pf lan
Zus ch
Hal tung</w>
Schwer punkte</w>
arri val</w>
feat ure</w>
Jav a</w>
Dien ste</w>
einger ichtet</w>
ade qu
Icel and</w>
Brazi l</w>
A do
a ffairs</w>
c i</w>
f and</w>
l iste</w>
n i</w>
re ig
ver dient</w>
for ums</w>
be qu
wir ken</w>
über prüft</w>
fu ge
ni edri
Des criptive</w>
La w</w>
FOR SCH
Wal ter</w>
Bri tish</w>
democ ratic</w>
ref lec
betre ffen</w>
plann ed</w>
Kompromis s</w>
Mech an
F ei
b usin
f amili
er in</w>
we gung</w>
ER WEIT
RE SEARCH</w>
ts etzung</w>
ST A</w>
dar aus</w>
fu er</w>
Ro ger</w>
get e
Vereinig ten</w>
tain s</w>
Bal tic</w>
Stimm erklär
defin itely</w>
amer ikan
wach sen
EG F</w>
deli ber
Wachst um
develop ing</w>
anim al</w>
deci de</w>
INS TITU
care fully</w>
Kür ze</w>
brief ly</w>
bz w</w>
HEAL TH</w>
B ay</w>
M andel
Z ü
k ont
re duced</w>
it z</w>
es sions</w>
ou l
ver lieren</w>
In tro
inter nationalen</w>
und en
gu li
gesch rieben</w>
war ded</w>
EA ST</w>
Bes on
vel op</w>
car ry</w>
Nach richten</w>
Fu ß
nu mmer</w>
Fac ebook</w>
holi days</w>
limit s</w>
Syst eme</w>
Institu tionen</w>
Statisti ken</w>
zahl reiche</w>
WH O</w>
Adop ted</w>
A qu
D ollar</w>
E dit
H ence</w>
I o
e fer
f an
i us</w>
th ous
al ities</w>
EN LAR
auf genommen</w>
Unter kunft</w>
10 6</w>
acc essed</w>
Ant nio</w>
Ser bien</w>
RAN DE</w>
kur z
jour ney</w>
advant ages</w>
Auswär tigen</w>
With out</w>
8 6
P ic
P AL
a j
r d</w>
w inners</w>
ein ig</w>
ein verstanden</w>
ter rit
qu ick</w>
Ab satz</w>
iel t</w>
fi zi
Bu ch</w>
Ad ditional</w>
follow ed</w>
Stra ße</w>
Kol leg
Stellvertre terin</w>
Lie chten
govern ance</w>
Abge ordnete</w>
COMMUN IC
Port al</w>
ziem lich</w>
B A</w>
H as</w>
I V
S ie
a verage</w>
r en</w>
ar do</w>
sch u
ver hin
pro file</w>
gen utzt</w>
ut a</w>
co vers</w>
um gesetzt</w>
me at</w>
Ch ile</w>
Vi enna</w>
EL LE</w>
he al
Wor um</w>
propos es</w>
sur ro
gef ör
LE G
Beit räge</w>
Teil nahme</w>
Zus ätz
Net work</w>
Lou d</w>
LICH EN</w>
gui delines</w>
INSGESAM T</w>
4 0
D ri
R h
R ome</w>
S und
g ol
w om
ö l</w>
re ference</w>
st ood</w>
ver si
ges tri
and t</w>
tu red</w>
CO STA</w>
IT AL
up dated</w>
fr aud</w>
cou ple</w>
Vassili ous</w>
region ale</w>
San ktionen</w>
KL ÄR
bew usst</w>
Leg isl
Risik en</w>
profession al</w>
näh er</w>
Hoff nung</w>
Frit s</w>
G old</w>
I E</w>
I RA
N avigation</w>
ER S</w>
AR BEIT
cont rary</w>
tr ying</w>
fre ien</w>
wär tig</w>
enti fic</w>
rech ts
SP E
einf ache</w>
Bar bara</w>
MA N</w>
contin ues</w>
plement ary</w>
Sek tor</w>
fur t</w>
ikan en</w>
bem erk
Vide os</w>
Koordin ierung</w>
Bestell ung</w>
campa ign</w>
absur d</w>
ommun ications</w>
COUR T</w>
A h
B ran
C AM
F lä
N one</w>
b lue</w>
f la
k ept</w>
w illi
ati s</w>
be comes</w>
sp aren</w>
An y
ci c</w>
Sch ad
RE G
ob ili
Ger ä
So zi
Viel falt</w>
Pri ces</w>
Des cription</w>
sub mitted</w>
54 530</w>
erk ennung</w>
He ad</w>
Commit ments</w>
Frü here</w>
Joh annes</w>
Acc ession</w>
GES UND
füh len</w>
behandel n</w>
Dub lin</w>
sicher lich</w>
control s</w>
fam ous</w>
lik ely</w>
Brasi lien</w>
C F
D U
G ir
N AF
R ü
a x
f ei
be an
ne wsletter</w>
pro sp
wor ldwide</w>
IN EN</w>
ho he</w>
Co R</w>
gel eitet</w>
US S</w>
Ch an
br auch</w>
Qu al
spo ke</w>
tain ed</w>
cho sen</w>
Best and
Milli ar
Tour ism</w>
BAR NI
schle cht</w>
Balk ans</w>
automati sch</w>
Generaldire ktion</w>
expend iture</w>
B yr
F estival</w>
H ein
T ransp
f resh</w>
h op
n am</w>
on al</w>
st ore</w>
ac ci
sh ilfe</w>
ed back</w>
Au ditors</w>
rä ger</w>
par ad
wel cher</w>
tr e</w>
stru k
VI S</w>
UR L</w>
Op tionen</w>
beg riffen</w>
18 0</w>
MAR G
anc tions</w>
Ta i
Gra n</w>
Bed enken</w>
eben so</w>
Vol k</w>
Ol ymp
far mers</w>
occ a
komp li
ambi tious</w>
AI DS</w>
Kapit el</w>
Stellung nahmen</w>
colle ction</w>
FRI ED
gla d</w>
C ra
M ed
R est</w>
h an
st opp
eh m
be came</w>
ge zogen</w>
pro bably</w>
con crete</w>
sh ort
sel l</w>
Mar io</w>
Ein igung</w>
For tsetzung</w>
comp ati
Li ikanen</w>
oper ations</w>
Ad d</w>
GU B</w>
appe al</w>
Schi ff
yo to</w>
Instru mente</w>
Dro gen
plann ing</w>
satis fied</w>
Egyp t</w>
Ado be</w>
F unktion
G M
J ord
K yoto</w>
M ur
N eg
P T</w>
S ing
T able</w>
f illed</w>
g ave</w>
k op
m l</w>
s at
s eiten</w>
er stellen</w>
li ge</w>
li ghts</w>
Th ail
us ually</w>
no s</w>
St unde</w>
ER KLÄR
Sch affung</w>
to days</w>
RO M</w>
wel chem</w>
gu ide</w>
Ein en</w>
Po si
Um gebung</w>
des i
fo rec
Wor king</w>
utz ung</w>
Inv est
bal con
Wes halb</w>
fund ed</w>
absol ute</w>
Mig uel</w>
allgem ein</w>
vollständi g</w>
cra ft</w>
appoin ted</w>
Bundesminister in</w>
reason able</w>
ENLAR GEM
6 67</w>
i ed</w>
r is</w>
ti tle</w>
Th ir
ein gesch
lo sen</w>
ec ken</w>
ru h
ep ing</w>
lich erweise</w>
ann is</w>
Su ites</w>
Bei m</w>
Mon aten</w>
tiv ely</w>
Schi ffe</w>
mitt lung</w>
Kan ada</w>
Mex ico</w>
avo id</w>
hervor ra
Assem bly</w>
B 5</w>
E O</w>
U P</w>
a o</w>
h ast</w>
k um
ur ch</w>
et ter</w>
lu ck</w>
Schl üssel</w>
Pe ace</w>
Far ben</w>
Kop f</w>
ste el</w>
heu tige</w>
Over view</w>
Som alia</w>
Fur thermore</w>
eval uation</w>
commer cial</w>
Stimmerklär ungen</w>
K lage</w>
L atin</w>
V el
W ech
l l
z ed
er fordert</w>
or ah</w>
st ake</w>
si m
lo ts</w>
In halte</w>
ig i
ha m</w>
ci ties</w>
pl ement</w>
Pro ject</w>
Pro gress</w>
Er zeugnisse</w>
rä ume</w>
ser ve</w>
geb iete</w>
Ma j
ek te</w>
Bu il
ques ts</w>
Bet rag</w>
fri end</w>
NE T</w>
sor g
impro vement</w>
zah lung</w>
Auth ority</w>
Regional politik</w>
Straß burg</w>
RAT STAGUNG</w>
Liechten stein</w>
1 30</w>
F as
F ast</w>
M w
h öh
un employment</w>
Th ats</w>
at mosp
be antwortet</w>
ne in</w>
ci jan
ho stel</w>
Al low</w>
hab it
hi ge</w>
Cont in
BA N</w>
Dur ing</w>
Rec omm
Har mon
Sal z
Sar a</w>
Loc ation</w>
Kons ult
frei heit</w>
Veranstal tung</w>
milit ary</w>
Aktiv itäten</w>
Presser efer
ERWEIT ERUNG</w>
ENLARGEM ENT</w>
cijan cic</w>
C Z
E sp
N am
P unkten</w>
V ladi
h ung</w>
v eget
er er</w>
ar m
as king</w>
ver pflich
lo h
ci de</w>
com fort</w>
mo de</w>
Wh e
fi l</w>
gesch ützt</w>
über ra
ess or</w>
ek t
auf merk
fe kt</w>
dre am</w>
Res pon
TA Cs</w>
Techn ology</w>
Deb orah</w>
Probl ems</w>
Mil it
defin ed</w>
Fortsch ritt</w>
Georgi a</w>
My SQL</w>
heu tigen</w>
Sta at</w>
Defin ition</w>
ghbour hood</w>
C ou
F eu
a chen</w>
c amera</w>
g in</w>
p our</w>
th ly</w>
al p
ver mei
de fic
te ure</w>
ul ed</w>
Min der
pl ays</w>
Sch wier
mo ving</w>
iel d</w>
10 5</w>
Comm er
ni emand</w>
Mi ros
Ko sten
Ko cijancic</w>
Fre m
zeich nen</w>
Bür o</w>
cent ury</w>
divi ded</w>
bor ders</w>
Mor gen</w>
materi als</w>
flexi ble</w>
Prü f
RIT TEN</w>
Flü cht
Gewin ner</w>
SCHUT Z</w>
C I</w>
C oo
D H
D un
D us
K ün
L icht</w>
N ei
a w
er st
er läu
ti ef
on y</w>
al bum</w>
el eg
am tier
po wer
ic ally</w>
oo d
sion s
00 00</w>
air e</w>
Unter brech
Web sites</w>
comp an
14 0</w>
ück e</w>
Bet rieb
Hau p
Ag ricultural</w>
nat ür
erk annt</w>
sig ned</w>
Ti ere</w>
Pal est
Chin ese</w>
kor re
gül tig</w>
Jav a
teu er</w>
install ation</w>
Ka is
Russi an</w>
Ägyp ten</w>
3 50</w>
A ward</w>
E reig
L ernen</w>
o ti
s wimming</w>
er inn
ati vely</w>
be yond</w>
pro ud</w>
Sch re
com par
me etings</w>
über nehmen</w>
OR GAN
bl ack</w>
gem ents</w>
fir e</w>
Auf bau</w>
he av
MA SS
regi me</w>
15 5</w>
dra wn</w>
Stand ards</w>
Projek t
weiter er</w>
QU ES
enor m
umin dest</w>
Beschäftig ungs
niem als</w>
B ay
D AS</w>
E d
M ach
N ich
S et</w>
S LA
W ein
W omen</w>
f ailed</w>
r on</w>
in os</w>
on ym
el ement</w>
ge ber</w>
ne w
ig aret
wor lds</w>
co hesion</w>
all o</w>
ser v
per haps</w>
Ex ecutive</w>
oper ate</w>
speci es</w>
fac ing</w>
Produ ktion</w>
Zeit plan</w>
grei f
My an
Verf assung</w>
Schu le</w>
Enter prise</w>
BESCHÄFTIG UNG</w>
Bemüh ungen</w>
6 0
C anc
F act</w>
T I</w>
V il
Y I</w>
c ur
le gi
ge fallen</w>
An erkennung</w>
gen er</w>
En vironmental</w>
Par t</w>
Ges etz</w>
mp tion</w>
ISCH E</w>
Men ü</w>
appro ximately</w>
wa gen</w>
Dis cover</w>
vari ety</w>
Risik o</w>
los sen
abhän gig</w>
zusätz liche</w>
übri gen</w>
Wol f
Ombuds man</w>
Rezep tion</w>
B EI
N on</w>
T yp
c ast</w>
u 00
om et
ge prüft</w>
20 7</w>
vi er
der ed</w>
Sch we
Al ternative</w>
Ab fall
aus reichend</w>
und ation</w>
acc essi
andel t</w>
dan ach</w>
fac tor</w>
sc en
exc ep
mehr eren</w>
Kab el
Vorsitz ender</w>
abgel ehnt</w>
Vereinfach ung</w>
NAF O</w>
D ING</w>
F ru
G B</w>
K aff
L ong</w>
P ati
V ision</w>
W aff
b ul
c oll
s n
w en</w>
ver ur
sp acious</w>
wer ke</w>
En d
IN VI
For en</w>
EM ENT</w>
Entwick lungen</w>
beg onnen</w>
Le on
NI S</w>
Ban ken</w>
Aut ob
less ons</w>
Anpass ung</w>
Viet nam</w>
D IT
F unds</w>
R io</w>
S w
Z ul
s ent
ch ez</w>
it z
ent schaft</w>
gen ießen</w>
ut ting</w>
su n</w>
com prehen
Aus fu
end ung</w>
tr uly</w>
Su ch
pr ene
dat e
woh ner</w>
wirtschaf tlichen</w>
Bud apest</w>
zun ehmen</w>
Produc t</w>
Democ racy</w>
Word Press</w>
F un
F UNG</w>
G LI
G ast
L ook</w>
T rop
T UNG</w>
W E</w>
W AR
l ake</w>
o ten</w>
s ources</w>
v ital</w>
w ind</w>
er lich</w>
ter ung</w>
for cement</w>
In tegr
An liegen</w>
ig a</w>
wir kt</w>
ex port</w>
RE GI
rü st
wel comes</w>
pp er</w>
PO UL
fe ed</w>
fe ar</w>
rich tet</w>
sam mlung</w>
mil k</w>
Hel ene</w>
aussch usses</w>
She et</w>
Auff assung</w>
Myan mar</w>
3 8
4 50</w>
E ssen</w>
K UL
k einer</w>
r t</w>
an o
or ies</w>
no se</w>
sp orts</w>
St ück</w>
ER SU
IN DI
eg o</w>
gel angen</w>
CO R
br and</w>
Ne ws
pri m
tel ephone</w>
pr e</w>
chan ging</w>
get roffen</w>
kämp fen</w>
Sol che</w>
deli vered</w>
top ic</w>
afri ka</w>
gewün sch
INVI TES</w>
2 nd</w>
F ab
K AR
S ON
k rise</w>
ro m
el ing</w>
as che</w>
Ver heu
Ver änderungen</w>
co s</w>
per s</w>
zu gän
Ih res</w>
pre sid
star s</w>
kon nten</w>
ier ungs
STA BIL
deut sche</w>
Is lands</w>
simp li
leit en</w>
int ended</w>
Kun st
sau ber</w>
profi tieren</w>
befür wor
leng th</w>
Java Script</w>
G S</w>
O ld</w>
P M</w>
r uns</w>
re ject</w>
ak tionen</w>
im ports</w>
inter vention</w>
Mar ok
RA H
Ex plan
Gr unde</w>
erklär en</w>
Wer bung</w>
Str eng
wal king</w>
tiv ity</w>
Amer ika</w>
boo ks</w>
hil ft</w>
particip ate</w>
medi um</w>
occ up
wahr scheinlich</w>
Pos selt</w>
integr ated</w>
Dou ble</w>
6 64
A 6</w>
K K
K il
P in
k am
w äl
re sid
In tel
fi ziert</w>
Coun try</w>
beg an</w>
ban ks</w>
rest aurants</w>
FOR M</w>
ump tion</w>
glob ale</w>
Pra kti
Kommission spräsident</w>
Hon ourable</w>
reagi eren</w>
Roy al</w>
exerc ise</w>
Mw St</w>
Verheu gen</w>
3 10</w>
L T</w>
S K</w>
T aten</w>
Z ES</w>
a res</w>
ar ms</w>
as k
Re aktion</w>
Ver gan
RE V</w>
tra v
gel assen</w>
Ad ri
mis s</w>
VER BRAU
rel ates</w>
Lan g
Kur s</w>
Handel n</w>
Vol ks
GEMEIN SCHAF
Presse dienst</w>
herunter laden</w>
IND US
schlüssel ung</w>
Kooper ations
ECO FIN</w>
Unterbrech ung</w>
X P</w>
k ers</w>
p el
s um</w>
ac qu
sp iel</w>
wor se</w>
gr enzen</w>
CH F</w>
Al tern
aus zu
schaf tliche</w>
fre ut</w>
weit erg
pre ise</w>
fe e</w>
mis sing</w>
Pl us</w>
verst ehe</w>
Dan ach</w>
Kli ma</w>
schri ft</w>
27 31</w>
inform ed</w>
pur su
größ ten</w>
commit ted</w>
Priv ate</w>
Jahres bericht</w>
Mittelme er
Vinc ent</w>
Wiederauf nahme</w>
Umweltsch utz</w>
busin esses</w>
Thail and</w>
1 12</w>
C ast
G ü
V ista</w>
e at</w>
e gen</w>
o th
p ain
s outh</w>
er zeugnisse</w>
al le
ol der</w>
ur a</w>
lo u</w>
ent ing</w>
sp p</w>
An schluss</w>
Ver wenden</w>
su m
En d</w>
Mar co</w>
hal t
mar t</w>
lan ce</w>
FA Q</w>
europä ischer</w>
spre che</w>
Vorsit z</w>
KOMM UN
metho ds</w>
Kri tik</w>
Pen sion</w>
visi ble</w>
Flexi bilität</w>
Citi zens</w>
deter min
technologi es</w>
E P</w>
G ut
J ed
K DE</w>
O D</w>
T isch</w>
Y N
en ced</w>
ar m</w>
at ti
di um</w>
de velop</w>
sp unkt</w>
se eing</w>
Sch atz
sit z</w>
rä fte</w>
Pre isen</w>
AL E</w>
conclu sion</w>
get reten</w>
MI DD
Gar ten</w>
AD D</w>
organis ation</w>
LIN K</w>
offen sichtlich</w>
Verwaltungs behörde</w>
Sonsti ge</w>
Tir oni</w>
u00 27
MIDD LE</w>
B asi
M ar</w>
V W</w>
Y o
c ot
g ly</w>
k ungen</w>
t ours</w>
ar f</w>
Th ird</w>
au t
ra n</w>
por ary</w>
co ffee</w>
Vor gesch
br ary</w>
comp lic
reich s</w>
Arbeit sprogramm</w>
under standing</w>
vers al</w>
zeich nis</w>
hol m</w>
Mor occo</w>
auth ority</w>
Glob alisierung</w>
allgem eine</w>
freund lich</w>
dio vis
vorgesch la
Syri a</w>
Metho de</w>
Wirk lichkeit</w>
contribu te</w>
Install ation</w>
categor ies</w>
beisp iel
FORSCH UNG</w>
MARG INS</w>
6 21</w>
C TION</w>
E M</w>
F alls</w>
G ut</w>
H ahn</w>
P AC
V IL
m ass
n ähere</w>
s we
on ed</w>
it o</w>
st olz</w>
au dit</w>
ver trau
de ep
for g
vi de
Ver bin
pl en
ex ter
fin ance</w>
par li
gesch affen</w>
clo sely</w>
neh me</w>
Ad d
ens wert</w>
eigen es</w>
ke y
EW R</w>
Ob ama</w>
Ide al</w>
Erfahr ungen</w>
Syri en</w>
SER VI
neg ative</w>
Alexand re</w>
Soci ety</w>
Press estelle</w>
Break down</w>
perfec tly</w>
2 10</w>
C all</w>
F I</w>
I MP
J e</w>
S Z
T an
i ck
r aten</w>
t um</w>
ö konom
sp end</w>
op les</w>
end g</w>
ger echt</w>
son st</w>
cli ent</w>
zus ch
gener ation</w>
entwick eln</w>
sequ ently</w>
mot or
ey e</w>
Kommissions mitglied</w>
SY STE
Asi en</w>
MITTE L
ENTWICKLUNGS ZUSAMMENARBEIT</w>
aufmerk sam</w>
9 8
C U
T emp
V öl
V isa</w>
er ör
ich e</w>
En ter</w>
ung spolitik</w>
im ag
sel ben</w>
aus führ
Ma chen</w>
gan g
Ch amp
vor an
10 4</w>
cre ation</w>
comp et
Über nahme</w>
Entwick lung
Arbeit splan</w>
adop tion</w>
Kin dern</w>
cli ents</w>
Cro ss</w>
Sor ge</w>
Weit er</w>
Anmerk ung</w>
fru it</w>
Tax ation</w>
Lear n</w>
u0027 s</w>
E b
L EM
S oll
S IL
S port
b ran
k el
n avigation</w>
p p</w>
er leben</w>
ig n
ru hig</w>
ed ed</w>
ic er</w>
Be wegung</w>
man s</w>
ill ing</w>
führ er</w>
Zu g</w>
hel l</w>
Op in
dem onstr
ED ER
Politi k
hier für</w>
incre asing</w>
boo t</w>
amer ika</w>
produ ce</w>
Av ailable</w>
KOMM EN</w>
realis tic</w>
gele istet</w>
transl ation</w>
argum ent</w>
ves sels</w>
heb ung</w>
elek tron
Nahr ungs
B ahn</w>
V AN
W ie
W ÄR
f ur</w>
m ly</w>
y m</w>
er ia</w>
ch ap
sch ützen</w>
St off
rec ord
alis ts</w>
get ragen</w>
Deut sch</w>
Nor thern</w>
Finanz mittel</w>
elec tion</w>
STE LL
met res</w>
schie de</w>
int end</w>
Stabil ität</w>
Som it</w>
Sat ell
verb unden</w>
gele gen</w>
Bosn ia</w>
MINIS TER
Vergan genheit</w>
C ru
E astern</w>
F C</w>
J n</w>
M ir</w>
S ha
w unsch</w>
y outh</w>
ti ll</w>
ro ll</w>
il ing</w>
con struc
ag ues</w>
spra ch</w>
Su chen</w>
ern t</w>
politi cs</w>
bal anced</w>
sor gen</w>
dist ribution</w>
wirtschaf t
VOR SIT
Tit le</w>
Alex ander</w>
Bur ma</w>
Vot es</w>
teu erung</w>
steu er</w>
automati cally</w>
Sat ur
Finanzi erungs
lang fris
Impro ving</w>
Bosn ien</w>
invest ments</w>
Meer es
gete ilt</w>
Intro duction</w>
Marok ko</w>
1 15</w>
B S
C ab
I l</w>
d adurch</w>
f ts
k top</w>
t old</w>
er mö
re al
st ing</w>
ou d</w>
ac io</w>
be vor</w>
dis count</w>
Qu ar
Kom pon
Leb hafter</w>
Stand ard
ständi ge</w>
Verbrau ch
Gol f
Dub ois</w>
pleas ure</w>
Gerichtsho fs</w>
adverti sing</w>
INSTITU TION
ERSU CHT</w>
A l</w>
D s</w>
K az
O t
g osla
w on</w>
ch in
is cal</w>
es o</w>
ver lä
de in</w>
form er</w>
Sch ool</w>
ho hen</w>
Al lah</w>
Pre mier
Be zeichnung</w>
da d</w>
Ein richtung</w>
CO MP
TER RO
Kon text</w>
je we
Men sch</w>
can di
To des
Ro oms</w>
Ter min
cons ult</w>
dür fte</w>
mess ages</w>
zwei fel
regar ding</w>
UBLI C</w>
5 8
B ack
F our</w>
n eten</w>
t asks</w>
u red</w>
w est
ch tet</w>
al tung</w>
st ück</w>
do wn
LI N</w>
dis po
gem äß</w>
EI RA</w>
dre j
Pl at
Man ager</w>
Str ategi
Car los</w>
bed room</w>
Aussch uß</w>
Wes ent
Berichterstat terin</w>
Mittelme er</w>
Clo sure</w>
adequ ate</w>
atmosp here</w>
C ent</w>
J ür
a xis</w>
h inter
l or
l ehen</w>
m äch
n ect</w>
St ability</w>
Aus nahme</w>
Mar c</w>
Pri ce</w>
AF RI
Res umption</w>
hier bei</w>
App lic
ING S</w>
leh nt</w>
ENTWICKL UNG</w>
Tat sache</w>
Gest atten</w>
erreich bar</w>
langs am</w>
Frühstück s
Competi tiveness</w>
4 4
D ON
M erk
R ä
W RITTEN</w>
f ax</w>
n a
w asser</w>
ein gesetzt</w>
as soci
do c</w>
Ar z
hal tet</w>
Ent decken</w>
ech n
DE M</w>
sk in</w>
Pl ay</w>
cour t</w>
Fre edom</w>
Gemein samen</w>
spo t</w>
AC TION</w>
struc tures</w>
Rest ric
noti ce</w>
Georgi en</w>
pen al
FRA TT
Hal b
industr ie</w>
ey es</w>
Dire kt
install ed</w>
thre at</w>
äuß ern</w>
Niel son</w>
Ferien woh
BARNI ER</w>
balcon y</w>
Wolf gang</w>
KOMMUN IK
I Z
P IN
R ab
R ob
S eit
T LICHE</w>
U R</w>
h es</w>
i lies</w>
o ds</w>
s son</w>
ti que</w>
di alog</w>
no ted</w>
hi c</w>
fer tig</w>
sol ve</w>
dru ck
lag s</w>
kar ten</w>
reco very</w>
Kapit al
verab schie
Bess ere</w>
ERKLÄR UNG</w>
B s</w>
E Z
I CH
T op
b c
d oll
f elt</w>
l ement</w>
n ation</w>
v inc
ß te</w>
st äd
ver sich
ver lassen</w>
ha i</w>
ob ject</w>
US B</w>
Ex change</w>
oper ational</w>
rel ativ</w>
And ors</w>
num er
hear ing</w>
Arbeits losigkeit</w>
kor rigi
proce edings</w>
fran zös
erfül len</w>
rela x
Analy se</w>
appreci ate</w>
Loo king</w>
conflic t</w>
discrimin ation</w>
amoun ts</w>
Thir dly</w>
B ig</w>
B isher</w>
C te</w>
K Y
f angen</w>
i que</w>
t nisse</w>
y cl
re gre
ver w
le ads</w>
sp eich
An spruch</w>
vi g
ut ter
ap p</w>
Be grü
cont ain</w>
ear lier</w>
dis play</w>
sol cher</w>
tig ungen</w>
For d</w>
des cri
sk a</w>
reg ular</w>
sur pr
begr ündet</w>
hol ung</w>
sha red</w>
zah lt</w>
RECH N
Famili en
Generalsekret ariat</w>
mean ing</w>
mär kte</w>
B ON
C US
D oh
F F</w>
F amily</w>
O ver</w>
R oh
S MS</w>
V ill
n ungs
er o
ab or
ab stained</w>
sch ir
de part
for d
ER N</w>
Aus gabe</w>
port al</w>
PRO TE
Br ut
vis ed</w>
oper ating</w>
bar er</w>
eff ec
exc eption</w>
high est</w>
recomm ended</w>
För der
Eng land</w>
flexi bility</w>
easi er</w>
big gest</w>
berücksich tigt</w>
geehr te</w>
Städ te</w>
selbst verständlich</w>
Milliar den</w>
B RI
M uss</w>
O V
R ein
Z OLL
b o</w>
f ying</w>
s anctions</w>
st ress</w>
as en</w>
wer k
ex ists</w>
rü ck
SCH E</w>
Ital ien
inv ite</w>
dan kbar</w>
posi t</w>
Mon etary</w>
Grün buch</w>
defin ition</w>
RU P
cust oms</w>
Hum an
Lebens mittel</w>
Govern ance</w>
Solidar ity</w>
Gün ther</w>
quot as</w>
Mex iko</w>
TRE FF
Alban ia</w>
resol ved</w>
Byr ne</w>
1 25</w>
C Z</w>
Z A
f asst</w>
i p
n it
o li
ö st
re quests</w>
st ay
as su
An hör
ir a</w>
we ap
Sch auen</w>
ex isti
Sp ace</w>
For ce</w>
Kon to</w>
rel ation
Ju an</w>
gef äl
sam es</w>
Grund sätze</w>
Prin zip</w>
contrac t</w>
mand ate</w>
repe at</w>
cla im
Lev el</w>
Gaz a</w>
enorm ous</w>
A D</w>
A th
B C</w>
G RU
H OF</w>
R s</w>
R ight</w>
S tig</w>
i b
i cking</w>
k lein</w>
in dependent</w>
al tern
gi gen</w>
AN CE</w>
Aus bau</w>
la w
men sch
Qu ali
her aus</w>
ven ue</w>
Gi uli
some one</w>
Gemein schaften</w>
schn eller</w>
ze ß</w>
TU R</w>
Char ter</w>
FISCH LER</w>
commit ments</w>
akzep tiert</w>
Mehr heit</w>
finanzi elle</w>
tem per
Agrar politik</w>
Emis sionen</w>
hinzu fügen</w>
Chanc ell
aktivi ert</w>
DISCUSS ED</w>
kit chen</w>
C risis</w>
E qu
F ein
H aving</w>
K ern</w>
L es</w>
N or</w>
g ä
n ut
v ar</w>
y s
ri ers</w>
ver bo
ex ec
IN T</w>
fin ished</w>
rec ently</w>
oh n</w>
dis h</w>
mit einander</w>
ph ysi
ast s</w>
dec or
cour ses</w>
eff ek
Frank furt</w>
finan ziert</w>
Geb ur
Ban k
GU CHT</w>
Schul z</w>
grund sätz
regul ations</w>
Mot or
moun tain</w>
Bru x
SCHRI FT
Premier minister</w>
TERRO RIS
CUS TO
5 35
K y
L ets</w>
d ah
t te</w>
w inning</w>
y o</w>
es ia</w>
st able</w>
ur ing</w>
gi er</w>
gi ving</w>
com ed</w>
TI VE</w>
rä gen</w>
Be obach
gu es</w>
De velop
lie be</w>
10 9</w>
bil den</w>
Sec tion</w>
gestell te</w>
AU DIT
Rest aurants</w>
high light</w>
Pak ete</w>
Proz ent</w>
Sor gen</w>
Inf os</w>
Leist ung</w>
Reis e
bon us</w>
Vivi ane</w>
electri city</w>
Bahn hof</w>
verantwor tlich</w>
garanti ert</w>
compati ble</w>
Recomm end
B 6</w>
B EN
N ationen</w>
V ES
b ath</w>
f und</w>
f unk
f light</w>
g ste</w>
p g</w>
an lage</w>
st off</w>
au stausch</w>
am en
be ge
ge fragt</w>
pro motion</w>
AN N
af e</w>
Ab end
pri ze</w>
Wel chen</w>
ehr gei
des k</w>
Pol ack</w>
Ur spr
shi pping</w>
AUS WÄR
some times</w>
Chr is
mig ration</w>
impro ving</w>
dru gs</w>
entschei dung</w>
füh l</w>
Industri al</w>
vorsch lag</w>
reli gi
Terra sse</w>
opou lou</w>
1 11</w>
A post
B oh
C lan
E rik</w>
K as
Z ah
d ens</w>
d lichen</w>
n om
t ment</w>
y ers</w>
in ner</w>
ou ses</w>
ra sch</w>
de gre
no ck</w>
be ziehen</w>
te ed</w>
ent tä
St ation</w>
con ver
sti tut</w>
par a</w>
tra gs
Mar y</w>
Ent last
Ex pl
PO L
tic ally</w>
Bet rieb</w>
ED PS</w>
Leb an
leist ung</w>
Acc ord
hö her</w>
EV A</w>
Kontrol len</w>
sab kommen</w>
Gent oo</w>
kein erlei</w>
INFORM ATION</w>
Telekomm unikation</w>
Seb asti
BY R
Buil ding</w>
Miros lav</w>
Brux elles</w>
CUSTO MS</w>
F i</w>
L ö
M LL
a ine</w>
b s
t oler
in zwischen</w>
ar ten</w>
el te</w>
at eral</w>
de ep</w>
be coming</w>
ent ries</w>
An ders</w>
Ver bot</w>
Ver häl
ho sp
Al ter</w>
Ab sch
mo dels</w>
fi ci
fer ences</w>
deb ates</w>
Mon day</w>
best eh
cor por
Verk auf</w>
organis ed</w>
MIT GLI
tes te</w>
Mol da
charac ter</w>
employ ees</w>
angen eh
dise ase</w>
Verfahr ens</w>
Freu de</w>
Mandel son</w>
Doh a</w>
5 3
O M</w>
W F</w>
d den</w>
th in</w>
em al
ver dienen</w>
de ck
de vice</w>
ne ut
St or
we ak
do va</w>
Pre par
so wohl</w>
wel comed</w>
Ein stellung</w>
prop ose</w>
ni eren</w>
gew icht</w>
Vorsch lags</w>
conc entr
Jo aqu
schi cken</w>
Fre qu
Ste ph
Ben ita</w>
Ac t</w>
requ ested</w>
spä teren</w>
Sc ot
pol lu
stron gly</w>
stor age</w>
Glück wunsch</w>
Universit ät</w>
enew able</w>
nachsteh enden</w>
versor gung</w>
WESTER N</w>
tob acco</w>
dispo sal</w>
Begrü ß
L ast
O P</w>
b ür
l y
z te</w>
er t
ch st
is s
is ms</w>
li gen
li eb
An kunft</w>
St ei
Re guli
ad es</w>
co ordination</w>
ho st</w>
Mar ke</w>
pre vent</w>
Do wnlo
kra ft
ju dge</w>
Daten schutz
Fri day</w>
inten si
Rau m
Rau ms</w>
Infra structure</w>
Unternehmen s
Alban ien</w>
GAL IL
Dimitri j</w>
Eisen bahn
Objec tive</w>
Cham ber</w>
rail way</w>
GESUND HEIT</w>
K I
N ig
b ist</w>
f ähigkeit</w>
f oot</w>
u si
be wegen</w>
In seln</w>
Ver sammlung</w>
ER D
co unter
aus gewo
ass es</w>
Ser ie</w>
wei ght</w>
ali en
Sh ir
Kontak te</w>
Nu clear</w>
Inf o</w>
humanit äre</w>
Bild ungs
spi rit</w>
competi tiveness</w>
Parti cip
beruf liche</w>
PROTE CTION</w>
GALIL EO</w>
2 20</w>
6 9
7 7
J ens</w>
R en</w>
R om</w>
S ON</w>
b ahn</w>
g an</w>
t esting</w>
re isen</w>
il os
di ction</w>
ber gen</w>
pl ate</w>
ung alo
ing ton</w>
Er de</w>
RE ACH</w>
Fran s</w>
dis played</w>
29 2</w>
Ro berto</w>
zei ge</w>
Jo b</w>
sur vey</w>
vertre ter</w>
Wo chen
Kap az
BIL DT</w>
passi eren</w>
pret ty</w>
Schwier igkeiten</w>
B lan
L os</w>
M in</w>
S z
S eg
f em
f isch
m p</w>
r ying</w>
en ess</w>
th eme</w>
ri gh
ver sions</w>
no chmals</w>
ter min
ent ran
TI S</w>
Aus druck</w>
Fin den</w>
kl ein
AL O
lin ge</w>
Gen ießen</w>
Su ite</w>
Ak ti
Represent atives</w>
struc tural</w>
plan ts</w>
STE IN
änd nis</w>
tor ate</w>
Cop enhagen</w>
histor ic</w>
STRATE GIE</w>
disku tieren</w>
Kris en
Appart ement</w>
yester day</w>
MEET ING</w>
Behör den</w>
who m</w>
Kommun al
RECHN UNGS
AUDIT ORS</w>
E mer</w>
H äl
O EC
P F
P E</w>
T L
f ab
k oh
s q
u cht</w>
w ettbewer
in struc
it age</w>
li gen</w>
au x</w>
ig nor
we ather</w>
Ent fer
EUROP A</w>
Ex press</w>
igh ting</w>
Pri ze</w>
gew al
Deut sche</w>
stu dents</w>
sc ape</w>
look ed</w>
blo ck</w>
ve au</w>
PER LINK</w>
SA P</w>
CL AR
sil ence</w>
59 667</w>
rela x</w>
Män ner</w>
Some times</w>
BUR G</w>
shor tly</w>
HY PERLINK</w>
drück lich</w>
COMMUNIC ATIONS</w>
zugän glich</w>
5 00
B and</w>
C ir
Y Minister</w>
p ack</w>
t les</w>
u elle</w>
ou l</w>
il legal</w>
ber ge</w>
ER E</w>
su gar</w>
Er wachsen
Ar men
ser s</w>
mar i
Ein leitung</w>
tr end</w>
pre fer</w>
Zu stand</w>
gef ä
Kin nock</w>
pass ed</w>
Pla ya</w>
deli ver</w>
Not wen
bestimm ten</w>
Mis s
Sto ck</w>
strukt uren</w>
Park platz</w>
59 258</w>
Mün chen</w>
emph as
mom ent
fail ure</w>
agen cies</w>
deliber ation</w>
AUSWÄR TIGE</w>
4 84</w>
S V</w>
T ief
b ts</w>
h et</w>
p es</w>
p aket</w>
w asser
in ter</w>
in ary</w>
re present</w>
st ände</w>
at ures</w>
et es</w>
lo go</w>
ent wurf</w>
se ven</w>
con dition</w>
con figur
Pro f</w>
zi a</w>
Er wä
Ar chit
Par ty</w>
ann a</w>
10 8</w>
bo at</w>
Li ban
sk o
DI O
Sit z</w>
Über setzung</w>
lau ten</w>
lic ense</w>
Chr is</w>
Fer ner</w>
dest ro
Afri can</w>
top ics</w>
Mol dova</w>
Americ as</w>
entsprech ende</w>
Komment ar</w>
III a</w>
bestä tigt</w>
Atlan tic</w>
span nen</w>
laun ched</w>
beauf trag
photo graph
535 93</w>
OEC D</w>
B S</w>
F oto
I van</w>
N ep
W andel</w>
Z im
b ruch</w>
h l</w>
i res</w>
li z
au p
no w
for th
Un s</w>
Di r</w>
mo vie</w>
str ategic</w>
For sten</w>
DI EN
STA TES</w>
Wer ner</w>
Gl eiche</w>
größ ere</w>
edit or</w>
orig in
spezi elle</w>
Ha iti</w>
vollständi gen</w>
bem üh
explan ation</w>
Famili en</w>
Ost see</w>
kein es
Erwar tete</w>
Stock holm</w>
C P</w>
J ames</w>
L ake</w>
M ah
P le
Y ug
b or</w>
m i</w>
n one</w>
th res
ti le</w>
re in</w>
at tra
ent re
ec ke</w>
Ver stär
ach er</w>
ru b
TE L</w>
do g</w>
ma ßen</w>
so zial
De partment</w>
PO 00
des cription</w>
rei ber</w>
Tra yn
sub sidiar
TA X
Sitz ungen</w>
iz za</w>
Bür gern</w>
Reg ister</w>
fäl tig</w>
ordin ary</w>
sf onds</w>
för derung</w>
aim e</w>
Buch ung</w>
tax ation</w>
Schn ell
stei gen</w>
höch ste</w>
ECH O</w>
berücksich tigen</w>
endgül tigen</w>
Kabel j
Trayn or</w>
8 81</w>
A V
B ö
B lau
F it
K UK
M all
b ü
b rit
e quality</w>
h omepage</w>
k il
m ung</w>
v ous</w>
z o</w>
ro t
pro f
Min im
Un der
hi gen</w>
Mar k</w>
end ar</w>
vor an</w>
Inter essen</w>
Regi erungen</w>
present ation</w>
TA N</w>
beg ann</w>
beg ins</w>
bre ak
Rel ated</w>
Ag ain</w>
zeu gung</w>
pur poses</w>
bew ahr
spok en</w>
connec ted</w>
arri ved</w>
Mari time</w>
gesp ielt</w>
gran ted</w>
pret ation</w>
Hen ri</w>
STRATE GY</w>
SOZIAL POLITIK</w>
you ll</w>
emer gency</w>
thi op
B ah
L ob
g ain</w>
p ure</w>
re m
et ed</w>
we ar</w>
and al</w>
EN TS</w>
Ab kommens</w>
zu dem</w>
EUROP E</w>
nis ch</w>
ans wered</w>
econ om
Mittel punkt</w>
stra ight</w>
Trans fer</w>
FOL GEN
Musi c</w>
hor iz
your e</w>
cal cul
zü gigkeit</w>
FRE I
main ly</w>
Over all</w>
sprü n
NAH MEN</w>
encoura ge</w>
redu ce</w>
Zer ti
regre t</w>
gefä hr</w>
subsidiar ity</w>
J ar
b us
c ents</w>
c ash</w>
m ale</w>
r ental</w>
Ö l
in begriffen</w>
li ft</w>
no tes</w>
be zieht</w>
EN Z</w>
co ol</w>
um p</w>
Wh ats</w>
est a</w>
war tet</w>
sec tors</w>
Li eb
ähr t</w>
Gem ü
exp ect
Ru he</w>
Bo den</w>
Tur k
ke ys</w>
Mil ch
beson der
gleich heit</w>
Fel d</w>
Währ ung</w>
Balk on</w>
Finanzi elle</w>
COMMUN ITY</w>
Beru fs
prepar ation</w>
Assozi ations
Tai wan</w>
vide os</w>
Stoff e</w>
D RO
G ord
K EN</w>
K unde</w>
M om
W itt
Z E</w>
g l</w>
h ou</w>
k el</w>
s wit
on to</w>
di er</w>
ab e</w>
An meldung</w>
vi eren</w>
ag entur</w>
qu in</w>
ran k</w>
Aus stellung</w>
hi on</w>
über zeugt</w>
zu vor</w>
ann i</w>
vie wed</w>
fra g
comm and</w>
cre di
ffent lich</w>
Com position</w>
Man chmal</w>
Ur ban</w>
Nor we
Econ om
fac tors</w>
Teil en</w>
Verbesser ungen</w>
länd ische</w>
Aktu elle</w>
sugges tions</w>
arran gements</w>
Ster ne</w>
vac ation</w>
Arz nei
S ier
T ax</w>
U ser</w>
a rest</w>
c old</w>
f at</w>
v on
x e</w>
Ö N
en ni
ro se</w>
ro ads</w>
al lows</w>
sch war
An forderungen</w>
se g
pl enty</w>
qu anti
dies bezüglich</w>
Sch reiben</w>
hr t</w>
est ate</w>
ie gen</w>
sol d</w>
Per s
ev as</w>
go als</w>
10 3</w>
emb ar
alis ten</w>
sub stances</w>
fl at</w>
17 2</w>
tro tzdem</w>
bez ah
let ters</w>
Curr ently</w>
Wich tige</w>
UT C</w>
dau ern</w>
kan z
Währ end</w>
FRE E</w>
Industri e
charac ters</w>
exten sion</w>
erhöh t</w>
Komp et
Begrüß ung</w>
1 17</w>
3 60</w>
9 7
F ang
G RI
X I</w>
ra in</w>
ra id</w>
as yl
be we
ge fordert</w>
se at</w>
po sts</w>
ell en
fin ish</w>
RE FORM</w>
kl einer</w>
vor ange
Coun tries</w>
Ne w
Ex am
Land wir
possi bility</w>
Öffent licher</w>
Ph ysi
Pal äst
Aut o
streng ungen</w>
Ern st</w>
Pan or
Informations gesellschaft</w>
Zimm ern</w>
fam ilies</w>
TELE KOMMUNIK
Technologi en</w>
Meas ures</w>
Mun ich</w>
Coo k
Kün st
2 29
7 0
C U</w>
D ich</w>
J aime</w>
L ord</w>
N H</w>
N et</w>
R ay</w>
R ate</w>
T AL
n ütz
er greifen</w>
in y</w>
et able</w>
gi cal</w>
ex it</w>
ex ports</w>
man aged</w>
spra ch
Unter schiede</w>
Lu c</w>
EI N</w>
Ex tre
Se veral</w>
rei bt</w>
sk y</w>
dem ands</w>
contin uation</w>
Präsid entschaft</w>
net z</w>
Mu ch</w>
fäl lig</w>
pop ul
Cl assi
persön lichen</w>
zusammen arbeit</w>
Simp ly</w>
außer halb</w>
Struktur fonds</w>
Hist ory</w>
critic ism</w>
TUOMIO JA</w>
Io annis</w>
VORSIT ZES</w>
chin es
Häl fte</w>
asyl um</w>
J ak
K EIT</w>
O bst</w>
Y S</w>
c ure</w>
g olf</w>
s low</w>
re fuge
or ders</w>
ar tig</w>
el ten</w>
li ked</w>
si ght</w>
et ter
de vices</w>
ul ly</w>
con vinc
qu iry</w>
co unter</w>
zi gen</w>
du l</w>
per fekt</w>
ob viously</w>
vor her
bi ke</w>
Su per</w>
16 15</w>
Fr dri
Politi sche</w>
inst ead</w>
Del eg
Mil an</w>
discus sions</w>
consu mption</w>
Tab ak
Kri min
Funk tionen</w>
wesent lich</w>
ext ent</w>
colle agues</w>
cir cum
fän ger</w>
Kont in
begrenz t</w>
Garanti e</w>
Wün sche</w>
weiterg ehen</w>
jewe ils</w>
Liban on</w>
1 16</w>
B LA
C lose</w>
D AR
D auer</w>
T ür</w>
W IL
c au
e ur</w>
f th</w>
g ert</w>
h it</w>
m g</w>
n un
r uss
an ges
un mittel
si ert</w>
il em
di cial</w>
no ise</w>
In dic
se kt
gi an</w>
Pro f
Pro fession
Co Rs</w>
Vor teil</w>
lan gt</w>
ES F</w>
tre i
prop er</w>
web sites</w>
To d</w>
val uation</w>
Commun ities</w>
La den</w>
Kom fort</w>
Sh are</w>
Kl asse</w>
Hel p</w>
Har d
ken nt</w>
infring ements</w>
won der</w>
RAU M</w>
vehic le</w>
PRESIDEN CY</w>
Kör per</w>
journ ment</w>
Verst ändnis</w>
AGEN DA</w>
Opin ion</w>
Molda u</w>
A ik
C ot
G 20</w>
G VO</w>
I ON
J un</w>
N ero</w>
O L</w>
f ts</w>
g k
m embership</w>
ti erung</w>
al tet</w>
st ers</w>
si erung</w>
ver sucht</w>
gi o</w>
ci ans</w>
por te</w>
Qu ite</w>
ult i</w>
ehr lich</w>
Auf schlüsselung</w>
Ad journment</w>
14 5</w>
app e</w>
rel ation</w>
under stood</w>
Richt linien</w>
Off icial</w>
Ti ckets</w>
Bed arf</w>
OU Minister</w>
Georgi evas</w>
ov ina</w>
gesp eich
Tä tigkeit</w>
herr scht</w>
Rechnung shof</w>
bequ em</w>
heal thy</w>
Sund ay</w>
complic ated</w>
H tel</w>
M ED
S qu
S av
T ot
c auses</w>
f ourth</w>
j em
in ser
ri er</w>
di plom
am b
te x</w>
rop s</w>
sp lan
Ver pack
Ver öffent
ach s</w>
tion ary</w>
cont ents</w>
CO W
Bes te</w>
fir m</w>
nis h
EC H</w>
sk ills</w>
land s
dem ar
Gesch m
Ru ß
bot tom</w>
char ges</w>
urg ently</w>
Disk rimin
dam als</w>
Stabil ität
Diam ant
Cr ist
dienst leistungen</w>
Nic ol
verbo ten</w>
Leban on</w>
RECHNUNGS HOF</w>
brit ann
D K</w>
D res
E mm
G as</w>
G ad
K E</w>
W O
W ind</w>
W inter
j ah
k y</w>
o gra
z ub
ti scher</w>
au sh
us w</w>
An strengungen</w>
pro to
form al</w>
Di alogue</w>
do ors</w>
Ab schluss</w>
über schreit
zu erst</w>
Po int</w>
Ger man
fe es</w>
Rech nung</w>
fo ot
16 6</w>
einig es</w>
Produ kten</w>
har dly</w>
tur ned</w>
Hin der
speak ers</w>
Rest ri
uni cip
Tel efon
STE U
institu tion
Mehr wert
enter ed</w>
Unterneh mer
schö nen</w>
Mak ing</w>
Produc ts</w>
ÄN DER
CRE EV
Herzeg ovina</w>
Kohäsion spolitik</w>
betreff end</w>
ARE A</w>
presid ency</w>
beispiel sweise</w>
B ack</w>
H imm
N obo
W SKI</w>
e kt</w>
t ut
is ters</w>
re moved</w>
it ze</w>
sch m
te k</w>
res pe
ut t
ot ten</w>
gro w</w>
AL S</w>
lich ung</w>
Ger ne</w>
Con si
Comm ents</w>
Dar lehen</w>
Fre und</w>
verk aufen</w>
sig ns</w>
BO T</w>
Aussch usses</w>
beson deren</w>
LU FT
mot or</w>
tax es</w>
oppo sed</w>
bezo gen</w>
ief ert</w>
Nah en</w>
Materi al</w>
interessi ert</w>
Sev illa</w>
BALKAN S</w>
did nt</w>
struk tu
comprehen sive</w>
mari time</w>
1 21</w>
E i
E EA</w>
H U
I L</w>
T SP
V N</w>
l us
p ed</w>
an ien</w>
al is</w>
st anden</w>
ein geführt</w>
ab stimmen</w>
UN TER
ach te</w>
Pro vin
co w</w>
ic als</w>
do kum
ma ster</w>
Er wer
eg elt</w>
tra dition</w>
mö gen</w>
man age</w>
ür f
fi es</w>
wen igen</w>
sol ches</w>
Per f
low ing</w>
rech t
rech ten</w>
son g</w>
star ke</w>
MEM BER</w>
elec tronic</w>
Einzel nen</w>
over view</w>
SU MM
Frei zügigkeit</w>
fal sche</w>
App le</w>
Institu te</w>
guaran teed</w>
tex ts</w>
frü her</w>
Tun is
Fried en
disku tiert</w>
Administ ration</w>
kompl ett</w>
empf oh
accessi ble</w>
Clan cy</w>
G S
H ü
I z
W C</w>
p en</w>
z ing</w>
al i</w>
sch ed
be glück
An lass</w>
Re ader</w>
TI MM
RE HN</w>
ob il
her gestellt</w>
prop or
dr ink</w>
adop t</w>
IC H</w>
spre ad</w>
AND RE
Pal acio</w>
Mobil ity</w>
lat ter</w>
Wettbewerb s
Feh ler
mitt ag</w>
Kamp agne</w>
dom ain</w>
Gipf el
din ner</w>
Sem in
Zimmer beschreibung</w>
evi dence</w>
rüst ung</w>
Restric tive</w>
Entlast ung</w>
Gord on</w>
Nobo dy</w>
E ri
H of</w>
J UN
J nos</w>
M ul
f ert</w>
h n
m es
p a</w>
s y</w>
z umindest</w>
en cia</w>
ro ot</w>
au ber
ab ilities</w>
per i</w>
mö glich
Ein wohner</w>
ain ing</w>
mark eting</w>
del ay</w>
MA Y
kun fts
Sa ve</w>
person ally</w>
ta ste</w>
Mont ag</w>
ren ov
hon est</w>
vorh eben</w>
besu cht</w>
Geh eim
künf tige</w>
Veranstal tungen</w>
bein haltet</w>
administ ration</w>
administ rative</w>
interess ant</w>
CONS U
Wort laut</w>
compon ents</w>
Modernis ierung</w>
QUES TIONS</w>
Norwe gian</w>
D rit
H IV</w>
I K</w>
K i
M ALM
P I</w>
S F</w>
a e</w>
t t
ö r</w>
al ization</w>
li an</w>
am i</w>
ge geb
ge arbeitet</w>
po t</w>
do c
la ws</w>
man ager</w>
wel t</w>
über prüfen</w>
bl att</w>
No v</w>
For t
Ex port</w>
her vorheben</w>
bo y</w>
proc urement</w>
sich tig</w>
RI CH
conclu de</w>
fic ally</w>
Fre it
mi d
And or
bin ding</w>
att form</w>
hol ds</w>
Stra f
inform iert</w>
Spra ch
tor al</w>
enter prises</w>
PR Ä
Groß britann
Eff izi
Leist ungs
Rechn ungs
deser ve</w>
one theless</w>
sinn voll</w>
ress ourcen</w>
succe ed</w>
Begri ff</w>
fantas tic</w>
2 40</w>
C el
L as
P re</w>
P AT
T or</w>
d I
d ges</w>
h ous
j unge</w>
k le
l es
m assi
p ul
t ables</w>
v ar
er tes</w>
ar ch
ar chit
au ty</w>
di tions</w>
sch lag</w>
En h
Au ge</w>
end um</w>
teil nehmen</w>
war ning</w>
nah me
dis charge</w>
So weit</w>
Pl äne</w>
Staat liche</w>
Fol ge</w>
Rom pu
gesam t
Ph oto
sin n</w>
ET Y</w>
umf assen</w>
San chez</w>
Bus quin</w>
Wa ite</w>
finanzi ellen</w>
Berat ungen</w>
TZ UNG</w>
vergen ce</w>
Gedan ken</w>
lös ung</w>
depart ure</w>
Anhör ung</w>
ilem ma</w>
Restri ktive</w>
H EL
J ur
K RE
L ap
S I</w>
S par
S AT
T ests</w>
p is
or gt</w>
ra dio</w>
di z</w>
der ship</w>
con dem
Ver gleich</w>
fer tigt</w>
clo ck</w>
EI CH</w>
Um fang</w>
verk auft</w>
har t</w>
col our</w>
Part eien</w>
Son ne</w>
ange geben</w>
AU F
fäl len</w>
zer stör
Agre ements</w>
Gol d
Mc CREEV
Bus h</w>
ament ary</w>
Netz e</w>
realis tisch</w>
ext ended</w>
bli oth
OS TEN</w>
BEL GI
cast le</w>
subs cribe</w>
grap hic</w>
Betru gs
ged acht</w>
ARBEIT S
defic it</w>
existi ert</w>
1 70</w>
8 4
E s
E asy</w>
F alle</w>
K unden
L ul
L eu
S ab
T yp</w>
W W
j en
un gefähr</w>
st one</w>
ei ght</w>
ne ben</w>
im plement</w>
gl ass</w>
ST ATI
vis ory</w>
sk ommissar</w>
mat ch</w>
KO V
fac es</w>
dire kte</w>
saf egu
Hel en</w>
Inn en
At mosp
Oper ation</w>
Dienst leistungs
LU X
poli ce</w>
Cl aus</w>
Eng agement</w>
Dritt ländern</w>
ater ini</w>
Exc ellent</w>
Get rän
PRI AN
sav ed</w>
intro duced</w>
TELE COMMUNICATIONS</w>
wiederhol en</w>
vermei den</w>
Explan ations</w>
ZOLL UNION</w>
Apost ola</w>
MITGLI ED
Aik aterini</w>
CONSU MER</w>
D ES
G 8</w>
H OR
K m</w>
L Y</w>
L en
Y OU
d ritten</w>
e ful</w>
g ins</w>
v is</w>
ü ssen</w>
in ts</w>
in ci
un fortunately</w>
st a</w>
sch ä
An s
ak is</w>
AN A</w>
af raid</w>
Ab sol
IS T</w>
Fran ois</w>
fu sion</w>
sec ret</w>
Ant ar
gew onnen</w>
Mo un
ließ en</w>
Den ken</w>
emp ty</w>
54 6
hol en</w>
anc ing</w>
yn n</w>
amend ed</w>
produ kte</w>
GR UND
consider ation</w>
grund lage</w>
summ ary</w>
Imm obili
Haf en</w>
Verbraucher schutz</w>
Gas peri</w>
bestä tigen</w>
HAUSHAL T</w>
Resi dence</w>
own ed</w>
Jahrhunder t</w>
eingesch rän
Schre yer</w>
plen ary</w>
Satur day</w>
FRATT INI</w>
Frdri c</w>
STATI STI
B au</w>
M ut</w>
P ut
T y
V P</w>
c ris
d al</w>
e b</w>
m ir
n iture</w>
o sition</w>
er ung
ch ter
si eben</w>
de ad</w>
te i</w>
In clu
gen e
ges tern</w>
IN I
Al cide</w>
ger ichtet</w>
Vor aus</w>
Lu is</w>
Kon sequ
eng ine</w>
BE KÄ
Rom an
feh l
bro ad
Grund satz</w>
Ob viously</w>
ausge zeich
vert ei
nei ther</w>
GO SLA
tour ist</w>
persön liche</w>
Stre et</w>
zul ä
Dor f</w>
Nation ale</w>
Get rei
künf tigen</w>
Exp ected</w>
less on</w>
argum ents</w>
prakti sch</w>
enjo yed</w>
Geldbu ßen</w>
B y
B ed</w>
K auf</w>
P act</w>
S B</w>
T N
V it
b aut</w>
g allery</w>
h o</w>
m ein
n on
p ä
w ont</w>
y t
z weit
ü st
th ats</w>
ar by</w>
ver langt</w>
ent uren</w>
20 1</w>
op ens</w>
gi ft</w>
Ho stel</w>
IN TERN
gr atis</w>
Al bum</w>
Er holung</w>
rä f
aus sehen</w>
fi x</w>
über nommen</w>
br ing
clo ser</w>
LA TION</w>
je wei
mark t
geh oben</w>
nat ur
enz a</w>
out put</w>
lear ned</w>
Sozial ausschuss</w>
Pra c
fül lt</w>
Außen handel</w>
hes itate</w>
BIL DUNG</w>
Du an</w>
Kategor ien</w>
accord ingly</w>
va ert</w>
instal lieren</w>
instal liert</w>
genann ten</w>
conveni ent</w>
Mall orca</w>
Diamant opoulou</w>
B org</w>
C u
C in
D eine</w>
G ame</w>
K ran
M es
M US
a gency</w>
f ing</w>
k ehr</w>
k auf
p un
ö ri
is mus
be zeichnet</w>
ent en
se ek
Sch on</w>
und ing</w>
DE CLAR
dis cover</w>
den noch</w>
ev ision</w>
pre v
vis ited</w>
Tra dition</w>
fo x</w>
Com b
eng ers</w>
ED UC
Gemein schaft
LE IT
tiv ität</w>
cent age</w>
Mark os</w>
Wo j
priv acy</w>
Haupt stadt</w>
adv ent
reser ve</w>
vol ume</w>
sy mp
Hu bert</w>
Transpar ency</w>
Hoch schul
exclu sive</w>
Süd afrika</w>
Rub rik</w>
Zim babwe</w>
bezah lt</w>
BEKÄ MP
B ä
F EK
H ong</w>
J EL
L ER
P s</w>
P GI</w>
W eil</w>
Z ei
d oppel
h i</w>
h an</w>
k i
m useum</w>
o g</w>
s w
ö p
er e
ar ische</w>
ro k
te dly</w>
An lagen</w>
der ungen</w>
form ular</w>
EN E</w>
ex hibition</w>
per spective</w>
me ister</w>
os lav</w>
lin ked</w>
unter nommen</w>
tri ed</w>
Über sicht</w>
geh öri
Gre ek</w>
verk ündet</w>
sig nal</w>
öl le</w>
AG E</w>
every body</w>
stra ße</w>
Sor ry</w>
Einw anderung</w>
Imm igration</w>
care ful</w>
SICHERH EIT</w>
Bas el</w>
grupp en</w>
VEN TION</w>
Kir che</w>
Elec tri
comb at</w>
mem ory</w>
Telec ommunications</w>
Jür gen</w>
Rompu y</w>
1 28</w>
6 6
A z
C N
D ate</w>
D ritte</w>
F ün
H I
J ack
T ou
W IN
f en
m id</w>
s wi
s cript</w>
x el</w>
Ö l</w>
is tics</w>
or ds</w>
ab gabe</w>
de aling</w>
am az
for ced</w>
be u
In cre
sp ap
vi c</w>
St ein
Re ports</w>
gel ungen</w>
IS SI
gesch afft</w>
AL L</w>
ther ap
ord entlich</w>
führ ende</w>
politi scher</w>
We ek</w>
dan ger</w>
Am bi
jed enfalls</w>
possi bilities</w>
techn ischen</w>
Dec isions</w>
hei ßen</w>
every where</w>
mel n</w>
Kur z</w>
Bed ro
Vertra gs</w>
Ra im
far m</w>
komp lex
dom in
Post ed</w>
gefähr lich</w>
Lehr en</w>
immedi ate</w>
ow ina</w>
deser ves</w>
gerä um
Herzeg owina</w>
Archi v</w>
VIII c</w>
Frühstücks buffet</w>
Sier ra</w>
Exam ples</w>
5 17</w>
B j
D asselbe</w>
F U
P ack</w>
V in
s lo
es tim
li c</w>
ra il</w>
ri l</w>
ver län
le istet</w>
lo aded</w>
In dividu
Ver ordn
ad resse</w>
Sch ei
Au dio</w>
Ar ri
TH IS</w>
zu stellen</w>
lie f</w>
beit rag</w>
Per u</w>
Br un
son sten</w>
Parl ament
FA O</w>
KO V</w>
Nor d</w>
Land es
deut schen</w>
besch lossen</w>
Lat ein
Go vaert</w>
Ban gem
dri ving</w>
organis ations</w>
Det ail</w>
Kontrol l
spr ing</w>
Sim on</w>
appropri ations</w>
Selbst verständlich</w>
Cle arly</w>
Gui delines</w>
Mem o</w>
Nachhal tige</w>
Humanit äre</w>
konzent rieren</w>
Chancell or</w>
Abend essen</w>
Chris tos</w>
pollu tion</w>
ilos oph
Kommunal vertreter</w>
EDUC ATION</w>
9 04
H ör
I WF</w>
K ing</w>
K ommen</w>
O B
P CD
S co
S eien</w>
W ere</w>
g age</w>
i ans</w>
en em
on going</w>
eh ene</w>
ac coun
de posit</w>
am ed</w>
St ahl
ung ser
IN O</w>
Au stausch</w>
Er mäß
Ab schnitt</w>
mo unt</w>
Ein stellungen</w>
dis aster</w>
Ger ät</w>
führ ungs
Auf trags
uss ing</w>
Bet ra
sho t</w>
Mon itoring</w>
Jun cker</w>
Ste el</w>
differ ences</w>
fort gesetzt</w>
Fahr t</w>
pic k</w>
kosten frei</w>
auth or</w>
Pf licht</w>
mus ste</w>
drü cken</w>
sprü che</w>
ATION EN</w>
Wat ch</w>
See zun
Erwar tungen</w>
Hist or
Jes us</w>
Weiß buch</w>
Kolleg innen</w>
TELEKOMMUNIK ATION</w>
D RI
G a
I g
K ron
T atsächlich</w>
V RO
W LAN</w>
Y ER</w>
Z O
a ßt</w>
d einen</w>
k amen</w>
w and</w>
en quiries</w>
an melden</w>
un ity</w>
ar ily</w>
st ac
de alt</w>
res ort</w>
sp or
An reg
po wers</w>
ER O</w>
ges ell
ell ed</w>
ung er</w>
ser vation</w>
Sp r
Be am
Ne u</w>
bu ch
LA S</w>
Proto col</w>
att ached</w>
Neu igkeiten</w>
bud getary</w>
Mark eting</w>
ori enti
Vertei dig
kri min
regar ds</w>
CE O</w>
smo king</w>
ORGAN IS
onym ous</w>
D es</w>
M OR
P ir
g sten</w>
l ists</w>
in en
ch air</w>
st abil
as chen</w>
ver ehr
lo vely</w>
be fassen</w>
In te
ck y</w>
TE E</w>
ma ß
Er leb
mo dule</w>
av ec</w>
For men</w>
Li by
fo rest</w>
Wor in</w>
val ent</w>
mi ddle</w>
Im age</w>
sig n
bro ad</w>
kra ft</w>
pi d
wach st
ine ering</w>
Hol z
weis ungen</w>
justi fied</w>
fur nish
Dire ktor</w>
mechan ism</w>
kontrol le</w>
confir m</w>
ATION AL</w>
Vene zu
gestri gen</w>
verpflich tet</w>
Streng thening</w>
relation ship</w>
gespeich ert</w>
Bangem ann</w>
1 27</w>
9 6
C T</w>
C up</w>
C ases</w>
D r
E valuation</w>
F ine</w>
G am
H app
L ic
S cre
S ME</w>
f ischen</w>
g ap</w>
k as</w>
l ets</w>
p sy
r ul
ü gen</w>
is tic</w>
re move</w>
or er</w>
it en
ro ff
ri ver</w>
vi o</w>
Di alog
hi elt</w>
gel eg
geb rau
Mar ina</w>
Ein es</w>
Ein trag</w>
str ategi
vis iting</w>
mis sed</w>
Le on</w>
Lan guages</w>
Sk i</w>
fav or
Son nen
Fo undation</w>
lab elling</w>
arri ve</w>
progra ms</w>
Entwicklungs zusammenarbeit</w>
Netz werk</w>
ld nt</w>
Ara b</w>
Tat sachen</w>
Mand at</w>
sensi tive</w>
Kraft fahr
Argent in
Geschä ft</w>
after noon</w>
Betrieb s
Brut to
Ruß land</w>
1 22</w>
A ID</w>
D K
D S
F L
K amera</w>
N EU
R IN
b our</w>
c aus
v ul
in tention</w>
res ource</w>
sp ru
An g
ak en</w>
Di ag
Pro moting</w>
ing EU</w>
tra gung</w>
sel ten</w>
kl eines</w>
imm igration</w>
neh mer
Con gratul
Con sequently</w>
ben e
UR BAN</w>
MI CH
Stell ung</w>
Red ak
El ement</w>
NI K</w>
Rat sp
Spiel en</w>
govern ments</w>
Hand lungs
Amend ments</w>
mitt l
basi ert</w>
stär ker</w>
Mac ed
Sim babwe</w>
Fern ando</w>
Sonsti ges</w>
weg ische</w>
Zentral bank</w>
Haushalt splan</w>
Schlaf zimmer</w>
LEB ENS
Hein z</w>
Frem den
TAX ATION</w>
A C</w>
E dition</w>
R C</w>
R unde</w>
T SCH
V ED
b om
i des</w>
m on</w>
n ich
un it</w>
es sive</w>
st ä
ge wer
con stitu
we d
Her z</w>
Her bst</w>
Al liance</w>
gra du
vo ire</w>
man ual</w>
lich keiten</w>
ST E</w>
Ge ist</w>
auf nehmen</w>
Vi ol
ik as</w>
Kon g</w>
mer ely</w>
To ols</w>
Ur s
OL O
sur ve
lei d</w>
Red ingEU</w>
Daten schutz</w>
bew äl
Pot enzi
actu al</w>
Fak tor</w>
practi ces</w>
Sicherh eit
Log o</w>
depend ence</w>
crimin al</w>
employ ed</w>
Democ ratic</w>
sett ings</w>
ähn lich</w>
Vivi ane
Digit alen</w>
sth af
Kaff ee</w>
SERVI CES</w>
bc d</w>
Viviane RedingEU</w>
4 73</w>
C ri
C hat</w>
E E</w>
H äu
K UN
M ir
O s
S atz</w>
S zen
T ry</w>
a e
c us
t age</w>
er teilt</w>
in surance</w>
is se</w>
re publik</w>
el d</w>
ge zeigt</w>
Ver tri
Ver halten
ut ch</w>
Un ions</w>
and ing</w>
ran g</w>
um gehend</w>
du ce</w>
gel iefert</w>
bet ten</w>
LI S</w>
duc ing</w>
beit ragen</w>
Ap onte</w>
14 1</w>
Tra g
Pol ish</w>
BA CK
best ell
direc tory</w>
Region ale</w>
enz o</w>
sur prise</w>
Bo x</w>
ET T
Del i
Verfü g
Feh l
bedeu ten</w>
Georgi os</w>
Bau m
expl ained</w>
erwäh nen</w>
wesent liche</w>
wesent lichen</w>
multi ple</w>
Cons ultation</w>
Argum ente</w>
ers eits</w>
besit zt</w>
Dring lichkeit</w>
korre kt</w>
Yo ung</w>
dI voire</w>
MITGLIED STAATEN</w>
Congratul ations</w>
3 88</w>
9 18
C C</w>
C ultural</w>
M S
N av
O h</w>
P y
V an
W are</w>
Z eich
c les</w>
h und
i ii</w>
w est</w>
y n</w>
z weiter</w>
au er
di ert</w>
am on
Ver zeichnis</w>
ber ger</w>
ER LAND
AN Y</w>
du ties</w>
Aus land</w>
gel ernt</w>
vor gehen</w>
Con nec
cre ating</w>
vis a</w>
DI N</w>
Tra vel</w>
del eg
Pol y
lar ger</w>
rel ess</w>
Län ge</w>
Ac tions</w>
27 34</w>
mittel t</w>
defin iert</w>
buil dings</w>
zus etzen</w>
Jap an
FRA ME
institu tional</w>
zentr um</w>
zü ge</w>
Mot or</w>
attrac tive</w>
announ ced</w>
Lar ge</w>
Jour n
weap ons</w>
Zah lung</w>
MLL ER</w>
Notwen digkeit</w>
Diskrimin ierung</w>
B ungalo
D ays</w>
H I</w>
P OR
S ohn</w>
f low</w>
f anden</w>
h all</w>
u ch</w>
u ter
er mu
un zu
un möglich</w>
ri a</w>
ac in</w>
for ces</w>
urop ä
sp ent</w>
Ho he</w>
EN G
zi o</w>
fol d</w>
Er fahren</w>
Er leben</w>
Aus gang
Ma zed
IS E</w>
so unds</w>
pe a</w>
LI MA
Con stitution</w>
are l
pr is
bil det</w>
Zu cker</w>
proc essing</w>
hel ps</w>
Mi et
ens ation</w>
Op en
dec isi
Tech nik</w>
dra mati
sto cks</w>
Grund rechte</w>
FOR DER
commit tees</w>
retur ned</w>
streng th</w>
initi al</w>
Leist ungen</w>
künf tig</w>
Il lu
Ze ile</w>
jähr lich</w>
VERH EU
Elek tron
Nei ghbourhood</w>
power ful</w>
Waff en
thres hold</w>
BEKÄMP FUNG</w>
H öh
I F
P EA
c us</w>
d in</w>
e ve</w>
f ak
n ischen</w>
ch at</w>
re hol
di ag
sch rän
St ahl</w>
Her an
ic y
sti m
Sp am</w>
Par king</w>
Par ameter</w>
Fra ktionen</w>
tre ated</w>
00 01</w>
lie ber</w>
stell te</w>
ph en
produc ers</w>
geh ens
fri ed
43 98</w>
finan ces</w>
loc ations</w>
He il
Probl emen</w>
NI CO
nor th</w>
impro vements</w>
größ er</w>
isti sche</w>
wach sen</w>
Char ak
Vert räge</w>
Hand y</w>
Tex te</w>
herz lichen</w>
einfach er</w>
Chanc en</w>
effizi enz</w>
schätz ung</w>
Asyl um</w>
dise ases</w>
Liz enz</w>
Gesprä che</w>
Ear th</w>
Zusätz liche</w>
Neg oti
sat ell
prene ur
descri bed</w>
Nig eria</w>
Freit ag</w>
Venezu ela</w>
7 4
G ö
I C</w>
L ok
S ah
V ar
W affen</w>
X ML</w>
c er</w>
g or
k u</w>
p räsident</w>
Ä r
ch i</w>
an i</w>
un to</w>
li ability</w>
as i</w>
as tic</w>
ol le
sch einen</w>
be ein
po sit
su rely</w>
zi el</w>
TE Q</w>
Al ter
wh ol
Ma x</w>
Ma ster</w>
dis abled</w>
lin ed</w>
Li b
sen sus</w>
lau ben</w>
beh avi
Parli aments</w>
dec la
MA T
har d
wür dig</w>
ide ale</w>
Bi blioth
Win d
SE E
inform ieren</w>
MO s</w>
disc ussing</w>
Kl aus</w>
dri ver</w>
Tr end</w>
leit er</w>
extre m</w>
Pau la</w>
Menschen rechts
Strukt ur</w>
IM F</w>
vorsch läge</w>
Internet seite</w>
func tions</w>
Doppel zimmer</w>
beteili gt</w>
breit et</w>
kehr en</w>
bean tra
Gemü se</w>
Großbritann ien</w>
DECLAR ATION</w>
PCD D</w>
preneur ship</w>
7 80</w>
D UR
H R</w>
I CHT</w>
K la
R D</w>
S end</w>
T ask</w>
V ES</w>
d ans</w>
n ieder
u e
v ary</w>
in come</w>
ch ron
ar re</w>
ri es
ac es</w>
de als</w>
de dic
for schung</w>
ec ture</w>
pro of</w>
pro gres
ig t</w>
Ver län
Ver sionen</w>
ber üh
ut ed</w>
qu er</w>
and al
Be kann
AR T</w>
Ma p</w>
gu n</w>
ann ehm
Bes teuerung</w>
sk i
up grade</w>
tho tel</w>
Col lege</w>
AG RE
NA CH
stra fe</w>
hil fen</w>
Sy mbol</w>
Christ mas</w>
Spe ech</w>
Cro w
Gesam t</w>
entschei dend</w>
Eben so</w>
Boo t</w>
consider able</w>
stär ken</w>
zul assen</w>
Wa ste</w>
WA CH
Ke ep</w>
betra chten</w>
GN U</w>
Generalsekret är</w>
Gerichtsho fes</w>
Edu ard</w>
wom an</w>
occa sion</w>
Cook ies</w>
Tunis ia</w>
FRAME WORK</w>
C oll
I mmer</w>
d einer</w>
h im
s low
s essions</w>
t ast
t abled</w>
en ne</w>
th ou
is sen</w>
re place</w>
it alien
st an</w>
st amm
at lan
at om</w>
il leg
le aves</w>
Ver ein
Ver ring
ag er
Di dier</w>
um welt
ing u
ser n</w>
Sp i
Mar o</w>
me ant</w>
off ici
unter schei
PRO DUC
fe eling</w>
STA DT</w>
Por to</w>
Wer k</w>
Gu aran
Le ft</w>
iz hou</w>
Gemein samer</w>
sur vi
rie f</w>
Pra gue</w>
Tr aum</w>
Far b
Clu pea</w>
moder ne</w>
moder nis
ZU M</w>
Dra ft</w>
sb ür
identi fied</w>
Jon as</w>
stei gt</w>
moun tains</w>
ligh tly</w>
Cust om
bek istan</w>
aktualis iert</w>
grundle gende</w>
Edit or</w>
geför dert</w>
Sozi ale</w>
heav y</w>
664 30</w>
TREFF EN</w>
Frieden spro
3 22</w>
3 rd</w>
C e
G ames</w>
H alle</w>
O z
R ati
T AN
V ote</w>
W ander
t ö
t rop
ö der
ch s
or te</w>
ro ws</w>
ol i</w>
em es</w>
eh nen</w>
In stitut</w>
ha ir</w>
Un abhän
CH AN
per manent</w>
av ail
gel y</w>
war eness</w>
Ch all
ess ler</w>
ass ungs
os s</w>
So l</w>
Fü le</w>
Um frage</w>
staat liche</w>
Dem o</w>
bed rooms</w>
öffent licher</w>
voll en</w>
ath s</w>
priv aten</w>
GU E</w>
GRA SS
responsi bilities</w>
dest ination</w>
medi cal</w>
competi tive</w>
ersch einen</w>
IA CO
voc ate</w>
consist ent</w>
kin ds</w>
Schad en
Dres den</w>
Urs ula</w>
3 2
K n
K arin</w>
M AL
M eines</w>
P ul
P ek
Y izhou</w>
f aster</w>
o es</w>
t led</w>
el igi
at ri
au l
ur sprün
Ver sprechen</w>
sh ar
Al fre
per centage</w>
teil weise</w>
ann ehmen</w>
bl es</w>
So und</w>
Cont ent</w>
Web seiten</w>
Ex peri
PRO Z
Regi erungs
ern sthaf
ISCH EN</w>
sup plementary</w>
sen sible</w>
hin weisen</w>
viel es</w>
rel atively</w>
Fr au
some what</w>
fl uss</w>
feh l</w>
Is su
Mal ay
Lo dge</w>
Spe zial
Pap ier</w>
Ins besondere</w>
Trans l
sha res</w>
Prote c
cat alogue</w>
MON TI</w>
Statisti cs</w>
tax i</w>
histor ical</w>
proper ly</w>
steu er
III bcd</w>
Tal ko</w>
sou l</w>
BRO W
archi ve</w>
gratuli ere</w>
Krank heiten</w>
Isl am</w>
desi red</w>
amtier ender</w>
Autob ahn</w>
RUP EL</w>
Woj tek</w>
B OL
E V</w>
G LO
J a
P G</w>
S til</w>
X X
er stre
en cies</w>
un fair</w>
is ine</w>
el det</w>
il de</w>
ein gegangen</w>
sp a</w>
ak te</w>
ag a</w>
ung laub
ma che</w>
RE CHT</w>
gel esen</w>
Mar a</w>
sa u</w>
Ch arta</w>
Ein er</w>
No s</w>
gar age</w>
Ad v
fo lio</w>
geh ol
schließ t</w>
lic ations</w>
äu fer</w>
har m
har eng
NE T
gebo ten</w>
Woh er</w>
NO T</w>
hil fre
Regel ungen</w>
prä senti
correc tly</w>
regel mäßig</w>
Sti ll</w>
DEN OV</w>
Hintergrund information</w>
ren o
Kop enhagen</w>
Mari anne</w>
Handels beziehungen</w>
obser ved</w>
angebo te</w>
57 484</w>
PAP A
verstär kt</w>
gratuli eren</w>
scho ols</w>
Applic ation</w>
entran ce</w>
MALM STRÖM</w>
Atmosp häre</w>
1 18</w>
A ma
D C</w>
G ru
G MOs</w>
K RA
L ars</w>
T reas
a a</w>
t ation</w>
in ated</w>
in flation</w>
un n
ti ver</w>
on n
eh lt</w>
Au dre
TE CH
all er
hi b
so fern</w>
IT E</w>
stell ungs
Sec tor</w>
dr än
leg ungen</w>
posi tions</w>
SI M
BE WER
Gro ss</w>
Ste ps</w>
feh len</w>
bro w
COMM IT
gri ffen</w>
avi ation</w>
sha pe</w>
FER ENZ</w>
Gal erie</w>
bur den</w>
DV Ds</w>
Bon us</w>
verkehr s</w>
week end</w>
Bild schir
Führ ung</w>
Jugend her
94 107</w>
CD s</w>
May be</w>
DISCUSS ION</w>
genau so</w>
Augen blick</w>
illu str
kür z
Dus che</w>
LUX EM
7 50</w>
A VI
C uba</w>
F S</w>
R I</w>
R und
S ri</w>
b ant</w>
c ab
f ail</w>
g on</w>
j i</w>
t ab
t emp
li brary</w>
ver ändern</w>
be obach
ent stehen</w>
Er höh
aus schließlich</w>
19 9</w>
tz entrum</w>
tr at</w>
fer enzen</w>
For derung</w>
ev i</w>
geh andelt</w>
bri dge</w>
win dows</w>
SE K
Investi tion
Frei er</w>
reser vations</w>
Ca f</w>
Val encia</w>
gener ally</w>
Schul en</w>
gleich zeitig</w>
Nutz er</w>
Wei h
Pay ment</w>
pan el</w>
exper ts</w>
vorlie genden</w>
tack le</w>
Regul ations</w>
MASS NAHMEN</w>
VERBRAU CHER
atti tude</w>
claim s</w>
Nep al</w>
Maced onia</w>
Mazed onien</w>
9 06
E F</w>
H om
t ings</w>
t ons</w>
u g</w>
Ü bri
in spec
is ol
si vely</w>
ur ge</w>
20 17</w>
pro ved</w>
ber n</w>
ber eiten</w>
ut tle</w>
ci li
ex press</w>
im port</w>
Au gu
TE U
ma y
sel ber</w>
aus gewählt</w>
aus gewähl
kl ei
vor aus
tr o</w>
pe oples</w>
bet rag</w>
Gr enze</w>
gli cht</w>
ten sion</w>
sich ts
ITE R</w>
stu dies</w>
Nat ure</w>
Dan uta</w>
Im ports</w>
Euro zone</w>
Lo i</w>
Pal ma</w>
prec ed
fli ghts</w>
Lau ghter</w>
schre ck
Cle an</w>
confir med</w>
Katastrop he</w>
veri fied</w>
Subsidiar ität</w>
Fire fox</w>
Reservi erung</w>
circum stances</w>
PRIAN OU</w>
Audre y</w>
9 0
9 09</w>
A mon
C AN
G ast</w>
N ations</w>
P ia</w>
P av
P fer
S ech
Z EN
d asselbe</w>
l ack
o ts</w>
p or</w>
p ar</w>
v als</w>
in dem</w>
ch urch</w>
an gt</w>
re stri
st ed</w>
si zes</w>
si zed</w>
wi der</w>
ec es</w>
ec ting</w>
ul f</w>
ul ties</w>
pl ug
19 1</w>
gan gs</w>
Po d</w>
publi c
auf zu
Lu d
Vi er</w>
ik en</w>
Kon vergen
proc esses</w>
sup porting</w>
Über gangs
SP A
hin gewiesen</w>
Mr President</w>
Fre e
gegen wärtig</w>
Inst ead</w>
PH ARE</w>
Speci fic</w>
hon ourable</w>
stär k
entsprech enden</w>
Somm er
congratul ations</w>
empfeh le</w>
zent ral</w>
VIS U
restric tive</w>
Liefer ung</w>
clari fication</w>
Argum ent</w>
Wider spruch</w>
Maxim um</w>
Mill an</w>
Vers and
Einfu hren</w>
Commer ce</w>
Ferienwoh nung</w>
6 3
C RO
D RA
D utch</w>
E mer
M embership</w>
W ALL
a ward</w>
c as</w>
g r</w>
g al
r ating</w>
u ters</w>
z in</w>
li min
at uren</w>
em ed</w>
sch afft</w>
ent nehmen</w>
An sonsten</w>
se c</w>
Ver sich
ed o</w>
fol der</w>
ack er
man chmal</w>
sa h</w>
vor ran
ann ul
auf s</w>
äh igkeiten</w>
Com fort</w>
Ste fan</w>
exc e
aff ect</w>
Ac count</w>
TU RAL</w>
Pla y
them es</w>
EP SO</w>
promis es</w>
drü ckt</w>
Verpflich tung</w>
äm tliche</w>
TR Y</w>
lit er
downlo aded</w>
Swe dish</w>
lux ury</w>
great est</w>
thous and</w>
EZ B</w>
Recommend ation</w>
sched uled</w>
him self</w>
8 65
C ategory</w>
E sk
F ris
F ischer</w>
H aus
H EM
I bi
K RO
M US</w>
P ast
R ail
W u
b ought</w>
h ouses</w>
m el</w>
Ö FF
al ized</w>
at i</w>
de cke</w>
der artige</w>
Sch ne
Ab sicht</w>
Aus sicht</w>
ep pe</w>
ist ing</w>
vor bereitet</w>
Inter nation
lie fern</w>
Su mmer</w>
Finan cing</w>
lä ßt</w>
vis its</w>
Auf trag</w>
ric s</w>
DI REC
propos ing</w>
Ag ainst</w>
Besch rän
28 0</w>
Bo ot
Off en
AU DIO
Kl eine</w>
glob alen</w>
boo k
Vert ret
EV P</w>
inten ance</w>
regist rieren</w>
Statisti k</w>
konkre t</w>
hy po
Simp li
schätz en</w>
Lear ning</w>
Binnenmark t
Zü rich</w>
ycl ing</w>
expect ations</w>
Geschm ack</w>
decla red</w>
B LE</w>
G L
J ack</w>
M esse</w>
P EN
P oul</w>
S ul
S ex
V ater</w>
Z one</w>
b ing</w>
b ann
b atter
g old</w>
h ü
n ess
er ei</w>
an cy</w>
is s</w>
on g
al co
au ßen</w>
ein schließlich</w>
am o</w>
ak tive</w>
Di ego</w>
Her steller</w>
Au gier</w>
TI N</w>
tra ge
ob stac
über ein</w>
fer ner</w>
tig te</w>
Bu chen</w>
sen s
conclu ded</w>
beh andlung</w>
To days</w>
lob by</w>
Lan des</w>
BER EICH</w>
SE TZUNG</w>
Ti bet</w>
Sozial politik</w>
zus ehen</w>
Bra bant</w>
kti v</w>
FISCH ER</w>
San ter</w>
certain ty</w>
Presid ents</w>
exam ine</w>
cat ch</w>
streng then</w>
Buch stab
fle isch</w>
sci ence</w>
kü mmern</w>
Gebü hren</w>
erneu er
famili ar</w>
Beson ders</w>
verhin dern</w>
Accord ing</w>
refuge es</w>
Profession al</w>
Gad us</w>
empfoh len</w>
Verring erung</w>
5 17
E h
F at
H er</w>
I ER
I LI
M Minister</w>
P rag</w>
T DI</w>
W S</w>
h n</w>
m atic</w>
p ill
ch ers</w>
ro man
st ens</w>
st eckt</w>
et ers</w>
de cre
am as</w>
be ach
An hän
ne arby</w>
Re p
ha fte</w>
po ker</w>
Au dit</w>
Aus bil
Aus nahmen</w>
tra ditional</w>
per mitted</w>
man gel
mü s
fra me</w>
klär t</w>
Bei j
he ber
einf achen</w>
kon stru
Op ti
speci fically</w>
54 8</w>
ban king</w>
Vertre terin</w>
Direc torate</w>
ED SB</w>
att emp
El tern</w>
Ta ste</w>
probl em
pass engers</w>
Gra d</w>
Projek ten</w>
dri vers</w>
spl atz</w>
gegen sei
correc ted</w>
sha rehol
typ ical</w>
zü glich</w>
Mari ann</w>
zul etzt</w>
Näch te</w>
Fern seh
Balk an</w>
stron ger</w>
Camp ing</w>
quot a</w>
Bir ma</w>
plat form</w>
erhöh en</w>
unt ary</w>
fä hig</w>
candi date</w>
Sebasti en</w>
AUDIO VISU
1 19</w>
1 35</w>
2 30</w>
4 8
B in
C EL
G EB
K RIS
L ight</w>
O ut</w>
P ay</w>
a os</w>
f estival</w>
j et
l abel</w>
u l</w>
z ones</w>
en der
ab gerufen</w>
ver z
wi ce</w>
ne arly</w>
Re isen</w>
dies el
Sch au
ot a</w>
ex tra
hab er</w>
par ameter</w>
mo t</w>
lich keits
For derungen</w>
unter zeichnet</w>
Su n</w>
erg ran
ATI ONS
Hau t</w>
setz ungs
Mon ey</w>
Man che</w>
CON FER
IC ES</w>
col ors</w>
exc iting</w>
wat er
ange geb
pass enger</w>
GRA TION</w>
AK IS</w>
EF A</w>
pat ent</w>
Ton io</w>
streng th
log in</w>
obser vations</w>
Tun esien</w>
Oli ven
ow ner</w>
sle ep</w>
Austr alia</w>
leben s
Katastrop hen
Anim al</w>
Spo kes
Palest in
Kais ergran
prim ary</w>
forg otten</w>
grundsätz lich</w>
SCHRIFT LICHEN</w>
918 30</w>
Experi ence</w>
1 13</w>
2 22</w>
C ar</w>
C amer
G or
H AS</w>
I ve</w>
K au
M im
S AF
T ool</w>
f ly</w>
f ans</w>
h eben</w>
n ar
w ächst</w>
in ing
in habit
un ruh
ar di
al location</w>
ri de</w>
le ction</w>
St ay</w>
Sch o
Sch ande</w>
Pro fil</w>
Her man</w>
all eine</w>
Ber t
ür en</w>
komm enti
br a</w>
Ges ell
klär ung</w>
igh ted</w>
lä gen</w>
Auf nahme</w>
Mi x</w>
Minister präsident</w>
mor hu
SI A</w>
bre iten</w>
Gro ße</w>
finan zierung</w>
az ine</w>
Rom an</w>
asi de</w>
win ner</w>
pack aging</w>
spoliti sche</w>
Best ä
Slov ak</w>
prä z
QU AL
Ra di
Ni ck
cu isine</w>
def ence</w>
Kor ruption</w>
Tar get</w>
steu ern</w>
sug gest</w>
zufri ed
sav ings</w>
GRO UND</w>
sci entific</w>
cas ino</w>
beschäf tigt</w>
stopp ed</w>
Salz burg</w>
Jed och</w>
Landwir te</w>
Verlän gerung</w>
3 L</w>
B O</w>
J obs</w>
P al</w>
P age</w>
P RA
g ü
j n</w>
p et
v s</w>
er geb
in ations</w>
is nt</w>
el im
ein setzen</w>
for ts
ent decken</w>
eit er
Min i</w>
ed ge</w>
inter ven
inter face</w>
AR TI
Ge fühl</w>
lin ken</w>
ev ent
fe edback</w>
del ighted</w>
bar riers</w>
Minister ial</w>
sub mit</w>
16 5</w>
cor ner</w>
PROC ESS</w>
Vereinig te</w>
elec ted</w>
Aut os</w>
Mer co
ori um</w>
hau p
dau er</w>
invol ves</w>
mach ines</w>
frü h
Nation aler</w>
Sig nal</w>
flu g</w>
Tran s</w>
Imp act</w>
bezo gene</w>
milit är
Eur or
angem ess
Eigent um</w>
Patri ck</w>
Corpor ate</w>
HIL FE</w>
loh nt</w>
News room</w>
alle l</w>
enttä us
furnish ed</w>
BACK GROUND</w>
1 26</w>
6 24</w>
B ör
E ck
E sc
G essler</w>
M EI
O M
P P</w>
P hoto</w>
R and
T ING</w>
Z I</w>
b le
n ische</w>
u zz
w ell
er geben</w>
re is
ati sche</w>
sch wei
ver ordnung</w>
ent sch
ge be</w>
vi es</w>
der ing</w>
ber aten</w>
wor fen</w>
Sp rech
Pre ist
Ber ech
ub le</w>
av a</w>
OR D
fer red</w>
bet ragen</w>
mit ten</w>
Ger rit</w>
fahr t
Bel ow</w>
politi sch</w>
mon itor</w>
alis iert</w>
beh aup
ster ben</w>
Gi ov
TA S</w>
16 2</w>
Jo in</w>
tech ni
zur ufen</w>
inst ance</w>
FO OD</w>
Leb ens</w>
objec ts</w>
incre di
HAN DEL</w>
avi er</w>
genu ine</w>
invol ve</w>
edu le</w>
pu ts</w>
zen ship</w>
Dru ck
fa ther</w>
Fak toren</w>
Nation al
Poli zei
appoin ting</w>
require ment</w>
gran t</w>
Tä tigkeiten</w>
Sig n
control led</w>
grenz ung</w>
nam ed</w>
squ are</w>
Humanit arian</w>
subst anti
satisfac tory</w>
Wech sel
mass age</w>
rok rati
Lib ya</w>
PROZ ESS</w>
Ibi za</w>
1 15
1 25
A y
C B
H EN
T aus
W eg
c z</w>
e ure</w>
m ol
n el
er leich
an ci
am ic</w>
le u
lo t
lo ck</w>
te a</w>
ak a</w>
con s</w>
Re vision</w>
Ver trau
Di alo
gr ös
ic e
Sp ann
ob achten</w>
vor aus</w>
tre aty</w>
Ge währ
EM U</w>
gem ü
LA M
Bu y</w>
fo res
Gre enland</w>
sho ts</w>
bar s</w>
Bil anz</w>
wirk ung</w>
woll ten</w>
Fre unden</w>
On drej
col ours</w>
Ter min</w>
att ack</w>
dra w
Wo zu</w>
Aut or</w>
Kre is</w>
lat er
region alen</w>
diffic ulties</w>
Kenn zeichnung</w>
sy mbol</w>
FER R
vir tual</w>
Ev ents</w>
clari fy</w>
bis schen</w>
entscheiden de</w>
valu able</w>
disp ute</w>
Bou tique</w>
clean ing</w>
Sonn tag</w>
erör tert</w>
Cru z</w>
penal ty</w>
vorange gangenen</w>
nütz lich</w>
Andor ra</w>
546 29</w>
gehens weise</w>
C P
D ein</w>
F ähigkeiten</w>
S un
Z Y
c in</w>
c tic</w>
g am
i ano</w>
k au</w>
o therwise</w>
p d
w u
er gibt</w>
er setzt</w>
un gen
un anim
Th ings</w>
di r
em erg
de fe
be enden</w>
be kommt</w>
An zeige</w>
AN U</w>
inter pre
la va</w>
19 5</w>
end a</w>
Ch ic
kön nt</w>
pp en</w>
tr y
min uten</w>
Con go</w>
tri al</w>
ari um</w>
Ant räge</w>
bel on
Bet ten</w>
dec laration</w>
AUS SCH
sur face</w>
techn ologie</w>
schn ei
Gesund heit
Mil ch</w>
ENT ATION</w>
AK VIS</w>
SEN Minister</w>
Char les</w>
Arbeits markt</w>
Fil ter</w>
Stat ements</w>
Kri eg
Ham as</w>
Haf tung</w>
fik ationen</w>
encoura ging</w>
Cons ult
expres sed</w>
lea dership</w>
Kredit karte</w>
erweit ert</w>
Rats vor
influ ence</w>
Bestand teil</w>
Giuli o</w>
convinc ed</w>
pid la</w>
A ff
C hal
D ynam
G B
G ert</w>
M EA
N ick</w>
W i</w>
W rit
c ache</w>
f tung</w>
k orea</w>
t ac
ö n</w>
in er</w>
in dex</w>
en to</w>
th or
au c
au dio</w>
eh n
wi en</w>
lo an</w>
be obachten</w>
An griff</w>
Min i
su it</w>
ont al</w>
Er weiter
ser ves</w>
eu x</w>
geb lieben</w>
Ma ß</w>
Ein richtungen</w>
str a</w>
sol ved</w>
bi eter</w>
10 49</w>
mis s
del ete</w>
VER EIN
To wards</w>
wn s</w>
ban ken</w>
mi x</w>
bewer tet</w>
schn ell
Fe ed</w>
LEA DER</w>
Euro just</w>
rie be</w>
Amer ikas</w>
Bed ürf
Spiel raum</w>
id ance</w>
appe ared</w>
Sek ret
FOL LO
Gleich zeitig</w>
maxim al</w>
Mod elle</w>
cy cle</w>
Regist rierung</w>
Avi ation</w>
gewähr t</w>
angem essen</w>
MITTE L</w>
Bade zimmer</w>
sicht bar</w>
susp ended</w>
kompli ziert</w>
verlä ssi
Todes strafe</w>
physi cal</w>
Konsequ enzen</w>
annehm bar</w>
ÖFF ENT
CONFER ENCE</w>
Merco sur</w>
1 24</w>
4 00
5 24
C RI
D oll</w>
H all</w>
K IN
L ine</w>
L ING</w>
N IC
R eich
S IN
S EL
T D</w>
U n</w>
b as
m s
p unk
r h
w eich
di men
ac ted</w>
te g
sp iele</w>
pro vision</w>
se x</w>
Ver halten</w>
ci o</w>
Pro motion</w>
än g
Er dg
la yer</w>
Mar ine</w>
rü cken</w>
wel fare</w>
bu g</w>
00 32</w>
ann y</w>
dis agree</w>
cre ates</w>
SCH Ä
Mo dul</w>
FA HR
Nat ural</w>
peri or</w>
Austri an</w>
hei m</w>
Ti cker</w>
Komm unik
wün sch
met ro</w>
extre me</w>
stoff en</w>
drin ks</w>
The od
dro p</w>
leh nen</w>
Poli ce</w>
hinzu gefügt</w>
traff icking</w>
err ors</w>
Eur atom</w>
gerä te</w>
manufac tur
Ach tung</w>
You ll</w>
dead lines</w>
Brit ain</w>
Retur ns</w>
Qual itäts
erinn ern</w>
record ed</w>
Liby en</w>
Negoti ations</w>
COMMIT TEE</w>
haup ts
1 23</w>
B li
B our
C Y
E O
F A</w>
F li
K ES
P on
W etter</w>
m as
m ad
s co
s now</w>
t ags</w>
is ition</w>
re board</w>
si dies</w>
ati es</w>
em o
ab zu
ver ing</w>
ak i</w>
Re duction</w>
AN I</w>
ck en
um s
ic ate</w>
gro unds</w>
aus geschlossen</w>
Mar ken</w>
so s</w>
so weit</w>
fi cial</w>
komm enden</w>
zu ständig</w>
sol e
tal ks</w>
Lu f
TER S</w>
sup posed</w>
up date
jo ined</w>
ate ver</w>
Ban ken
zer o</w>
ple x</w>
Hel sin
boo ked</w>
Oper a</w>
Steu er</w>
Can aria</w>
gener ated</w>
Gol den</w>
sf ä
Sam stag</w>
Cap it
JA Minister</w>
spezi fische</w>
EP P</w>
lö schen</w>
coura ge</w>
Hö chst
org os</w>
Dro gen</w>
FR EN
ASS O
68 909</w>
DN ER</w>
interess ante</w>
Rap porteur</w>
Flor enz</w>
unterschied liche</w>
Propos ed</w>
spart ner</w>
Well ness</w>
beschrän kt</w>
SYSTE M</w>
chap ter</w>
Erwä gung</w>
PEA CE</w>
eligi ble</w>
inhabit ants</w>
H IG
H allo</w>
K lick</w>
M W
T OR
V itor
Y ves</w>
b n</w>
i essen</w>
r are</w>
re mark</w>
ro te</w>
al it
st ored</w>
ab sich
ac ting</w>
be vorzu
res h
St ri
con sensus</w>
qu est</w>
Ho t</w>
EN P</w>
af en</w>
Wh it
tr um</w>
tr ends</w>
stimm ung</w>
os si
dar k</w>
fu el</w>
Qu ellen</w>
Ex tra</w>
Bet t</w>
Gre en
dat ing</w>
Ur sachen</w>
Nor men</w>
stu dio</w>
län e</w>
Ph otos</w>
hand le</w>
bro ken</w>
Stimm abgabe</w>
defin e</w>
Fahr zeuge</w>
Energi en</w>
Fer ien</w>
call ing</w>
inc l</w>
applic able</w>
Syst em
schaft spolitik</w>
main tained</w>
gek enn
charac ter
RECH TS
Sou thern</w>
Some thing</w>
reagi ert</w>
entscheiden der</w>
yester days</w>
Betru g</w>
Pack age</w>
endor se</w>
MÄ KI</w>
derzei tige</w>
Milit är
eleg ant</w>
Prakti sche</w>
forts etzen</w>
1 33</w>
6 14
A HER
C ER
E th
E Minister</w>
E vent</w>
F ight</w>
H D</w>
K ENN
O il</w>
g ere</w>
h am
r ation
Ü R
an ou</w>
is co</w>
re action</w>
ver an
ver langen</w>
An a</w>
con nect</w>
Re as
ad ults</w>
200 0
Ho t
Sch aden</w>
Her ing</w>
Ab reise</w>
par ents</w>
Sp ring</w>
mö gliche</w>
ger ing</w>
über trag
wen de</w>
CO R</w>
pres ence</w>
So ft</w>
Fü l
EC B</w>
rei fen</w>
lar ations</w>
Arbeit sk
Man u
Herr ing</w>
Zusammen halt</w>
15 4</w>
Bo den
LE IST
Politi ker</w>
Im port
net te</w>
Ac tive</w>
bro ch
Bal kan
Tel ephone</w>
Einzel plan</w>
Uni on
Cre dit</w>
zurück kommen</w>
för der
ament os</w>
Saf e</w>
Poli z
soli di
restric tions</w>
Fron tex</w>
aktivi eren</w>
oblig ations</w>
Mut ter</w>
WAL DNER</w>
lea ders</w>
Orig in
Orig inal</w>
fro h</w>
Anwend ungen</w>
Sie g</w>
KUL TUR</w>
emal ige</w>
Crist ina</w>
Comb ating</w>
Latein amerika</w>
cili ation</w>
Beij ing</w>
Helsin ki</w>
A U</w>
C ris
E Z</w>
F Ä
F ot
F air</w>
H us
I ran
K it
N izza</w>
N onetheless</w>
R oll
b ag</w>
c ue</w>
i z</w>
m ation</w>
m outh</w>
n ü
o st
t as</w>
t aus
w ild</w>
en forcement</w>
un be
el and</w>
il ed</w>
us z</w>
ur laub</w>
ver mieten</w>
wi egen
ad es
Er läu
Par ad
ON EN</w>
Vor stellung</w>
vor her</w>
ech es</w>
bl ame</w>
Bes org
SCH EN
Zu cker
rech nen</w>
ück en</w>
neu esten</w>
bei des</w>
STA TE</w>
16 2
speci fied</w>
finan ced</w>
Lan ka</w>
Nach frage</w>
Sk ri
Off icer</w>
schn it
BER ICHT</w>
enst ein</w>
Stu fe</w>
Mu ster</w>
Wes ten</w>
wes end</w>
Cre ative</w>
Außen politik</w>
Sar ko
Hol z</w>
cal endar</w>
Bürger innen</w>
angebo t</w>
kat oren</w>
contribu tions</w>
Studi en</w>
medic ine</w>
Tem per
Tru mp</w>
frequ ently</w>
dead line</w>
offizi elle</w>
kulturel le</w>
conduc t</w>
kont in
Strategi en</w>
Wochen ende</w>
satell ite</w>
stamm t</w>
Amon g</w>
FERR ERO</w>
F air
G ep
H i</w>
H eiter
S ei
S ign</w>
V ent
V AR
b ag
c z
f ährt</w>
p as</w>
p ing</w>
p ite</w>
s and
s lightly</w>
v illa</w>
x th</w>
z ation</w>
z ell
ä fen</w>
er ho
en nt</w>
ti an</w>
al em</w>
ra k
em m
ab ge
sch au</w>
ver fol
ec kl
20 9</w>
Re al
Di plom
co ordin
gr enze</w>
zi elt</w>
Ar n
eg al</w>
mo ves</w>
tra demar
la y
aus drücklich</w>
ger schaft</w>
tz u
ear th</w>
Ge gen</w>
auf hören</w>
Su gar</w>
Kon vent</w>
Mo vement</w>
Über nach
Res ources</w>
tim etable</w>
TA D</w>
Ju gosla
Rechts grundlage</w>
Verk auf
Sa ison</w>
Mobil tel
Kre u
Mittel n</w>
ju dgment</w>
Spe aking</w>
sequ ent</w>
Kat teg
produ ziert</w>
billi ge</w>
Kal evi</w>
Ord ner</w>
Hei m
Park plätze</w>
57 517</w>
Oli ver</w>
gestal ten</w>
geehr ter</w>
JO INT</w>
besit zen</w>
Gan ze</w>
Resi den
Indon esia</w>
Anwend ungs
Nahrungs mittel
zulä ssig</w>
amaz ing</w>
904 03</w>
Häu fig</w>
avail ability</w>
Heiter keit</w>
7 5
8 3
A par
F r</w>
F ro
F UT
G ehen</w>
M use
N GL</w>
O ett
P LAN
S et
m ischen</w>
v ez</w>
in spi
or os</w>
or dered</w>
on er</w>
on om
on ic</w>
au fre
ter ri
be aches</w>
ent gegen</w>
pro t
gen ie
ges und
ex act</w>
co ast</w>
af ford</w>
CH EN</w>
Aus wärtige</w>
Pre mi
US E</w>
über greif
Inter ven
Ne ed</w>
ör per
den k
fe et</w>
Regi me</w>
Mi d
SI E</w>
Medi um</w>
bre ite</w>
wa ffen</w>
einig ung</w>
Geb ieten</w>
IC T</w>
öffent lich</w>
cons ist</w>
13 6</w>
docum entation</w>
ta gen</w>
QU E</w>
glie dert</w>
Pf lich
Kop f
komp ati
main tain</w>
Tar ja</w>
ink lu
KON FERENZ</w>
indi k
MEET INGS</w>
Alt stadt</w>
schwier ige</w>
IMP LEM
Wesent lichen</w>
verabschie det</w>
numer ous</w>
degre e</w>
Particip ation</w>
Emm a</w>
Effizi enz</w>
Ang ola</w>
Redak teure</w>
beantra gt</w>
hareng us
hilfre ich</w>
HEM IL
Euror aum</w>
Oett inger</w>
B RA
C AL</w>
D AN</w>
F ont
L one</w>
M OL
N ok
S us
b right</w>
c amp</w>
d h
d is</w>
f ein
j a
n falls</w>
p h</w>
t al</w>
an gew
on nieren</w>
ver ring
be unruh
pro ve</w>
se ats</w>
AN TS
ru g</w>
im por
la unch</w>
Par a
19 4</w>
ail a</w>
vor stellen</w>
bi eren</w>
her vor</w>
äl ter</w>
cre ature</w>
des to</w>
dur ation</w>
ef ully</w>
Pl attform</w>
MA G
Dar fur</w>
15 2</w>
letz ter</w>
Mitglied schaft</w>
vers ehene</w>
Euro s</w>
cl ause</w>
mel dungen</w>
tä t</w>
Fil me</w>
MP 3</w>
experi enced</w>
Tex til
will ing</w>
GA ARD</w>
Pat ent
spr in
guaran tees</w>
Stad tzentrum</w>
bedau erlich</w>
Han sen</w>
Nachbar schaftspolitik</w>
recogni tion</w>
Fei er
forec ast</w>
FOLGEN DE</w>
swit ch</w>
MAY STADT</w>
renov ated</w>
Betrugs bekämpfung</w>
Kran ken
Ausgang spunkt</w>
AHER N</w>
6 65
A hr
D al
E IS
K ie
M ann
N ad
N eben
O b</w>
O ral</w>
R US
T ORS</w>
g as
k ids</w>
s eien</w>
in der</w>
ac o</w>
ac compan
wi g</w>
pro moting</w>
Re de
wer tung</w>
Sch ätz
co her
fin es</w>
mo ther</w>
tra dition
Par ag
EA G
Ex ports</w>
bo dies</w>
Kon go</w>
Se ele</w>
Justi z
Ad am</w>
gew innt</w>
To o</w>
Ro ck</w>
tik a</w>
BE T
Nor m
Fl at</w>
cor respon
Sa al</w>
BO S
Gener ation</w>
Rück kehr</w>
Fortsch reibung</w>
kosten losen</w>
Apart amentos</w>
Cli ent</w>
Hor n</w>
kor b</w>
wahr e</w>
schön sten</w>
equ ally</w>
Pay Pal</w>
appoin tment</w>
gewis se</w>
recog nis
bis lang</w>
Mittelmeer raum</w>
kanz ler</w>
Himm el</w>
Put ins</w>
Verein ten</w>
Treas ury</w>
517 52</w>
1 75</w>
B all
C entr
C olog
C ALL
D R</w>
E tik
F az
F ield</w>
G GA</w>
H N
K EL</w>
K UB
R av
U hr
W om
Z oll</w>
d rei
f in</w>
l unch</w>
m ouse</w>
r ö
r auch</w>
r enewable</w>
s eit
an ne
re volution</w>
al ina</w>
sch emes</w>
be komme</w>
Ver b
we ak</w>
Er inn
Er zeu
Sp ass</w>
19 80</w>
Inform ation
IS TAN</w>
ie gel</w>
off ene</w>
fu g
pre sident</w>
comp liance</w>
Li ke</w>
sm aller</w>
stu di
Sub s
win den</w>
Sa chen</w>
Lo ve</w>
Stra ßen</w>
hand lungen</w>
Aussch üsse</w>
hän gen</w>
Handel s</w>
stain ability</w>
SU D</w>
Schul d</w>
LU PO</w>
Ern ennung</w>
fris tige</w>
Gegen stand</w>
Reser ve</w>
Pa olo</w>
gek ehrt</w>
mechan isms</w>
addres ses</w>
Bü cher</w>
außer ordentlich</w>
sugges tion</w>
Tax i</w>
Plen um</w>
certi fic
Retur n</w>
facil ity</w>
veget ables</w>
ford ere</w>
instruc tions</w>
vul ner
morhu a
2 11</w>
F ROM</w>
H auses</w>
T Y
a por
j ahr
k tion
k illed</w>
l em
w il
an os</w>
re verse</w>
or i</w>
il eg
ich ts
te ch</w>
St ur
ed a</w>
zi one</w>
Ab en
eu ch
vor sichtig</w>
pres er
ain er</w>
ain ts</w>
Ge fahren</w>
tel ec
Ger ech
Über legungen</w>
Op tim
rel ating</w>
Gu est</w>
Stell en
Dar f</w>
bereit gestellt</w>
stand s
He ad
peri ods</w>
AM AN
lei den</w>
woh l
Lo y
flo ors</w>
SE M</w>
objec tions</w>
schl uss
Handel skommissar</w>
Fahr en</w>
Tr au
Musi k
ash a</w>
komp et
cop yright</w>
Kü ste</w>
einger eicht</w>
Vide o
häu fig
GRO W
HAUSHAL TSP
Rou te</w>
Tari fa</w>
Wür de</w>
Austr alien</w>
Jose f</w>
ITÄ T</w>
Rü big</w>
vorgeschla genen</w>
gefäl lt</w>
nun mehr</w>
Hinder nisse</w>
advent ure</w>
WACH ST
A tom
A wards</w>
B ret
E del
F utter
H oll
K RI
L EH
L PE
L aila</w>
d av
e is
j ungen</w>
p ays</w>
r ats</w>
in ken</w>
ar ray</w>
ati ver</w>
il a</w>
le x</w>
le un
be zug</w>
and ro</w>
Sch wimm
ell i</w>
Pro vi
ex klu
inter pretation</w>
Ber lin
mö glichen</w>
19 0</w>
19 88</w>
me ist</w>
me ets</w>
ek en</w>
off enen</w>
So f
Um struktu
son gs</w>
Des ktop</w>
can te</w>
Fr ist</w>
And al
Lis ten</w>
char ged</w>
Hin blick</w>
BO UR
13 7</w>
imp lications</w>
Mer ce
AB l</w>
hör t</w>
Ri ver</w>
Der mot</w>
wieder um</w>
HR UNG</w>
frü h</w>
Stär ke</w>
erheb t</w>
jähr liche</w>
Administ rative</w>
expres sion</w>
Masch inen</w>
netz e</w>
subst ance</w>
Bla ir</w>
fan gs</w>
IRA N</w>
sorg fältig</w>
Vladi mir</w>
ermö glicht</w>
Ot to</w>
Minim um</w>
FREI VAL
Squ are</w>
Bedro hung</w>
BOL KES
Colog ne</w>
LPE Z</w>
BOLKES TE
3 000</w>
6 00
7 8
9 207</w>
D ress</w>
F IL
K O</w>
P el
P LAN</w>
R an
b i</w>
b attle</w>
f ighting</w>
h aus
i Pod</w>
j k</w>
m essen</w>
n de</w>
s eines</w>
v an
v able</w>
er teilen</w>
an gebracht</w>
is to
re ff
st änden</w>
si eren</w>
at ten
il lance</w>
as ingly</w>
am eters</w>
le ch
lo ved</w>
te en</w>
ec a</w>
ah nen</w>
ul ous</w>
Ver brechen</w>
gi k</w>
ci ous</w>
Di ck</w>
AN O
EN Z
ap pl
IN TE
Au diovis
TE X
Er neu
mo dell</w>
aus gesprochen</w>
Par tei</w>
EU R
gel n</w>
tre at</w>
oh nt</w>
ant es</w>
pre judge</w>
Viel zahl</w>
Ap poin
Sit u
Fol glich</w>
dec larations</w>
16 1
exp an
Kön ig</w>
sc ene</w>
Lo unge</w>
Tur n</w>
13 8</w>
zer ti
Gar den</w>
umf aßt</w>
Tages ordn
AS EAN</w>
citi zen</w>
GA R</w>
Sto p</w>
Andre j</w>
mal erweise</w>
exist ence</w>
prep are</w>
übri gens</w>
sett lement</w>
ker nel</w>
bahn hof</w>
eval u
Ten eri
derzei tigen</w>
zip ien</w>
const antly</w>
INDUS TRI
Verbin dungen</w>
doll page</w>
bewe gt</w>
Verordn ungen</w>
phen om
Malay sia</w>
Ondrej ika</w>
haupts ächlich</w>
Nok ia</w>
A AR
E valu
K ING</w>
L V</w>
L ay
M I</w>
T Y</w>
b lu
c at</w>
c able</w>
g un
g ast
j unk
k la
m ien</w>
m ass</w>
u k
w ski</w>
er zeugt</w>
re cip
st on</w>
li erte</w>
le is
be auty</w>
res sen</w>
se ver
ber ü
we ile</w>
Un employment</w>
Pro duction</w>
En ts
sti t
sti ck</w>
Er gän
wel coming</w>
tre e</w>
pe ac
ek tion</w>
Po verty</w>
Gen der</w>
Qu oten</w>
Bu g</w>
PO 0
star tet</w>
Tra ff
gew ä
ens es</w>
Nat as
Bo li
woh nen</w>
fil ter</w>
lec tual</w>
Ther es</w>
stra sse</w>
wirtschaf tung</w>
organis ieren</w>
Mehr ere</w>
IK AN
fur niture</w>
tran sition</w>
mist akes</w>
PAP ANDRE
Mik kel
gir l</w>
gir das</w>
Gui do</w>
May or</w>
Dist ribution</w>
Zivil gesellschaft</w>
genau e</w>
foc used</w>
tari ff</w>
vernünf tig</w>
REG ION</w>
zweifel los</w>
Kabelj au
524 07</w>
FREN DO</w>
Merce des</w>
Mikkel sen</w>
2 35</w>
8 89</w>
B lin
D up
H z</w>
K uba</w>
P ubl
R USS
R olf</w>
S CO
T ut
T ok
Z EU
e ge</w>
k amp
k rieg</w>
p al</w>
er re
en on</w>
an ische</w>
an führen</w>
un abhän
ti tles</w>
is iert</w>
ab end</w>
ur red</w>
te fan</w>
res sed</w>
ge ograph
ge klärt</w>
vi erte</w>
se u
ir re
Pro gra
sit z
Er st</w>
Pre vention</w>
av or
ob tain</w>
lan ges</w>
ES T</w>
ay a</w>
zu gestimmt</w>
auf grund</w>
Bes ser
bo ys</w>
comp li
chan nel</w>
sich ern</w>
ric o</w>
SS NIK</w>
mon etary</w>
he at</w>
Ergeb nissen</w>
cor ruption</w>
Ter rit
lei hen</w>
out standing</w>
Kom m</w>
speak s</w>
HO TEL</w>
uni versal</w>
gri ech
perf ekte</w>
Fi ve</w>
hau pt
exam ined</w>
grei ft</w>
Tab ellen</w>
condi tioning</w>
Met ro</w>
versch m
Kor re
schle chte</w>
exclu ded</w>
erheb lich</w>
Rub iano</w>
cla im</w>
jähri ge</w>
Voraus setzungen</w>
nehm bar</w>
Ali cante</w>
PLA SSNIK</w>
Argent ina</w>
Noti ce</w>
Alger ia</w>
Politik bereiche</w>
Boh ez</w>
forth coming</w>
arel li</w>
665 65</w>
Natas ja</w>
A tz
L eh
P T
S W
V illage</w>
W ash
W eger</w>
c ulation</w>
k üh
Ä hn
en es</w>
re ported</w>
es cap
st al
ra ising</w>
sch au
te ams</w>
20 5</w>
sp ot
sh aring</w>
ran ts</w>
ex emp
Al girdas</w>
Ber g</w>
geb unden</w>
geb eten</w>
19 87</w>
und i</w>
wel ches</w>
über tragen</w>
ret ten</w>
Ent schul
ST ER
bl ind</w>
EA DS</w>
For st
ph a</w>
Ap ache</w>
Rech ts</w>
issu ed</w>
inv est</w>
Ko operation</w>
Str ing</w>
MI F
sm ann</w>
wa chen</w>
Lan z
18 5</w>
sc ore</w>
Gl as
Emp loy
Ti cket</w>
MO EL</w>
GU I
Zw ischen</w>
stre am</w>
Val ley</w>
Programm es</w>
correc tion</w>
Sek toren</w>
Inst anz</w>
regul atory</w>
schön es</w>
geschi ckt</w>
list ening</w>
konkre ten</w>
Lim ited</w>
Ziel en</w>
enor m</w>
zusätz lich</w>
Natur ally</w>
Gesetz e</w>
wech seln</w>
Masch ine</w>
Ander nfalls</w>
Propos al</w>
Ven ice</w>
Indon esien</w>
Klar heit</w>
Jord an</w>
keines wegs</w>
Krimin alität</w>
Prof essor</w>
WW U</w>
decisi ve</w>
Besorg nis</w>
GROW TH</w>
Atz o</w>
A ri
D ates</w>
G y
G ab
G laub
I B
K ä
M ül
P oll
P UBLIC</w>
R ind
S ir
W ör
d its</w>
l ap
n ity</w>
p o</w>
s and</w>
t end</w>
an wesend</w>
re vised</w>
ar ance</w>
es c
es ch
li ved</w>
ab gestimmt</w>
ab road</w>
sch ein</w>
ver anstal
ter ra
le z</w>
be gun</w>
gi a</w>
su res</w>
Ho st
ck t
eb ung</w>
En tre
CH AR
ho her</w>
gel d</w>
ack no
19 86</w>
sa d</w>
kl au
vor n</w>
vor ne</w>
air craft</w>
dis k</w>
stell ung
lä ss
DI ALO
up load</w>
VI T</w>
det ail
To gether</w>
Medi en
16 9</w>
16 7</w>
Besch luß</w>
car t</w>
bed ro
EIN E</w>
hol e</w>
plan ung</w>
FINAN ZI
Allgem einen</w>
Hand lung</w>
Kat alog</w>
achie vement</w>
för dert</w>
Kons ens</w>
MAN S</w>
The or
BR IN
Aktu alisierung</w>
avo i
Cam p</w>
Kr ist
Nord see</w>
kat astrop
äuß ert</w>
reli able</w>
Fle isch</w>
Domin ique</w>
Jour nal</w>
Währungs union</w>
genann te</w>
Öff nen</w>
WIRTSCHAFTS RAUM</w>
Tob acco</w>
Konz ert</w>
Sw obo
Fun c
RAH MEN</w>
ERD F</w>
credi bility</w>
LUFT VERKEHR</w>
dedic ated</w>
Unabhän gigkeit</w>
Vertret ung</w>
pd f</w>
Tagesordn ungsp
F EN</w>
H A</w>
J ung
K auf
K öl
L ern
R ol
c entr
k eit
l ers</w>
n ic
u b</w>
in form</w>
en kt</w>
an en</w>
an er</w>
th r
re act</w>
as sociation</w>
ab er
lo ser</w>
An rei
St ore</w>
pro fit</w>
Ver zö
gi ene</w>
Sch ot
ap par
to il
TI C</w>
Al ba</w>
do gs</w>
hab t</w>
sti l
RE YN
Ar tis</w>
gro ss</w>
Pre mium</w>
man ag
ES PER
Ein druck</w>
Ein fach</w>
De ar</w>
zu gute</w>
weit gehend</w>
Gen e
fu els</w>
bo d
Li isa</w>
bel ong</w>
Mo de</w>
Mo dule</w>
geh ende</w>
Hau sti
Man gel</w>
Est abl
Si im</w>
Fir men
incre ases</w>
incre asingly</w>
Bre men</w>
Kol um
kosten lose</w>
id ly</w>
Programm en</w>
Cre ate</w>
Cre ev
General an
Dom ain</w>
occ ur</w>
Schlu ß</w>
cal m</w>
FT P</w>
Energie effizienz</w>
continu ing</w>
care er</w>
intro duce</w>
Unternehmen s</w>
Metho den</w>
Wat son</w>
Plen art
rah men
gir ls</w>
Horiz ont</w>
klar stellen</w>
Pflan zen
überra scht</w>
determin ed</w>
STEIN MEI
Mehrwert steuer</w>
Consi der</w>
Gipfel treffen</w>
jewei ligen</w>
Ermäß igung</w>
Anreg ungen</w>
limin ary</w>
annul led</w>
LEIST UNGEN</w>
ANTS U</w>
Gerech tigkeit</w>
STEINMEI ER</w>
4 54
8 00
B lei
B atter
C M
C R
E g
E ditors</w>
F ishing</w>
G allery</w>
H änd
H ekt
L L</w>
L UNGEN</w>
P ers</w>
S R
S ports</w>
T on</w>
d on</w>
e ast</w>
h t
j ana</w>
t ested</w>
er wer
st ro
ra g
ein ge
as cript</w>
di c</w>
be er</w>
An no
ak er</w>
St rom
ul en</w>
form en</w>
Ho ffentlich</w>
wor st</w>
com prises</w>
bes orgt</w>
ser vers</w>
tu be</w>
Sp ain
Ma re
Vor feld</w>
ass ungen</w>
LI IKAN
lie fert</w>
bl ing</w>
sem in
isch em</w>
ev o</w>
Ex ter
Ex ek
her itage</w>
Kon zep
14 4</w>
IR C</w>
FA SS
sub sidies</w>
Gu ests</w>
Bi er</w>
Mark ets</w>
bro chen</w>
Wi eso</w>
Projek ts</w>
Haupt ziele</w>
wün scht</w>
AB LE</w>
Beh inder
Ris k</w>
Dom estic</w>
plac ement</w>
ENER GI
establ ishment</w>
Consu mers</w>
whe el</w>
mod ules</w>
Initi ativ
Mos cow</w>
kn app</w>
Regist ration</w>
REP ORT</w>
berech tigt</w>
DUC TION</w>
Gerä te</w>
GM O</w>
Soll te</w>
corpor ate</w>
Joaqu n</w>
beauftrag ter</w>
ARBEITS PROGRAMM</w>
nich tig</w>
Rail way</w>
Jugosla wien</w>
4 2
5 18
B om
B olog
L ES</w>
R ehn</w>
S ä
S ett
V IN
e h</w>
f on
h l
h ause</w>
i v</w>
j an</w>
k it</w>
m r</w>
r s</w>
r ate
s la
s ample</w>
u um</w>
v ed
ö se</w>
er sta
re ve
or ing</w>
au sch
sch edule</w>
ver ein
am in</w>
ak h
ul d</w>
pro mo
se uropä
we m</w>
wor ry</w>
par allel</w>
per cent</w>
war mly</w>
00 Uhr</w>
Commission ers</w>
Web cam</w>
EI Bs</w>
pre is
bo ts</w>
tic a</w>
comp uters</w>
ten e</w>
Se eh
oper ates</w>
14 3</w>
Mo z
ließ t</w>
Mi ß
To wn</w>
viel mehr</w>
43 3</w>
KO Y
Est on
staat ssekret
pf lan
Dan ish</w>
aro te</w>
any where</w>
Investi tion</w>
dep th</w>
Sy mb
rema ining</w>
rema ined</w>
Partner schafts
Sü den</w>
Up dates</w>
sy mb
Hu ber</w>
Ham er</w>
Stre it
Terror ism</w>
ext end</w>
Emis sion
Cer tain
umin ium</w>
ähn liche</w>
vorlie gende</w>
genü gt</w>
Ereig nisse</w>
sekt ors</w>
Swobo da</w>
Plenart agung</w>
2 18</w>
4 60</w>
B illi
B ord</w>
I RE
J or
P N
S LO
V eter
c el</w>
g ut
g ate</w>
t l</w>
w olle</w>
Ö k
ä den</w>
in quiry</w>
ti er</w>
ti ere</w>
ar ab
ar tet</w>
ar tiges</w>
it u
at ur
at oren</w>
au ton
ur gency</w>
ter ungen</w>
ent es</w>
ent steht</w>
St rom</w>
ul ate</w>
ed y</w>
co ol
im a</w>
är m</w>
ma intenance</w>
19 6</w>
gh es</w>
Ma ast
fi ge</w>
gesch ah</w>
Mit tag
lan ger</w>
Prä vention</w>
ek tor</w>
Unter staatssekret
Ex tra
Comm enting</w>
Zu erst</w>
ern annt</w>
Se x</w>
Ant anas</w>
rech tliche</w>
Ad option</w>
RI GH
Ro und</w>
read s</w>
SI KOR
tech nik</w>
Lin d
mi xed</w>
col umn</w>
Sk ager
emar ie</w>
besser en</w>
NI IN
glau b
probl emati
Tim or</w>
met al</w>
mäß ige</w>
Mc Creev
Andre a</w>
frei er</w>
Mitglie dern</w>
vil le</w>
identi ty</w>
tem porary</w>
WES TLICHE</w>
situ ations</w>
betra chtet</w>
big ger</w>
Sau li</w>
func tioning</w>
Vinc enzo</w>
Wohl stand</w>
Wirtschaft spolitik</w>
lok ale</w>
PRESIDEN T</w>
const ant</w>
cook ies</w>
Flä che</w>
Flücht linge</w>
POUL OS</w>
Basi c</w>
Seit dem</w>
KY PRIANOU</w>
stay ed</w>
temper ature</w>
neut ral</w>
Prepar ation</w>
Foto gra
Arznei mittel</w>
natur ally</w>
deleg ations</w>
865 70</w>
Lanz arote</w>
Hekt ar</w>
3 65</w>
C ari
H ear
H INTER
L EN
R un
S L</w>
S mo
b un
n ia</w>
t ments</w>
u pper</w>
w us
z i</w>
an bieten</w>
un able</w>
ti s
al ed</w>
el er</w>
st ages</w>
li m
at on</w>
ou ros</w>
il ity</w>
ein geleitet</w>
In ten
An reise</w>
and ed</w>
Pro jects</w>
Her ing
Al m
all ing</w>
aus gaben</w>
av ast</w>
eu er</w>
IS Minister</w>
Vor gehensweise</w>
Ch e
ess a</w>
Inter ess
Inter view</w>
oh n
Ge gend</w>
CI S</w>
For tun
bo und</w>
produc tive</w>
dr y</w>
BA KOY
ier ende</w>
Neu er</w>
AG EN</w>
ali ze</w>
cent res</w>
SCHAF T</w>
recei ving</w>
Energi es
dru g</w>
kti ven</w>
Fo ster</w>
Har ald</w>
12 3
Demokrati sche</w>
Kap ital</w>
Sti l
billi gt</w>
Pau lo</w>
Hier für</w>
Ann emarie</w>
maxim ale</w>
änder te</w>
VII US</w>
tex te</w>
Lehr e</w>
intro duction</w>
Chanc en
Gran de</w>
Diam and
opti mal</w>
gestal tet</w>
gebü hren</w>
Geldbu ße</w>
satisfac tion</w>
Transp ort
FRIED ENS
Konsult ationen</w>
deep ly</w>
Expl orer</w>
Verhäl tnis</w>
Stei gerung</w>
splan s</w>
Geträn ke</w>
caus ed</w>
Verhalten sko
Erhöh ung</w>
sharehol ders</w>
Vitor ino</w>
RUSS LAND</w>
MIF SUD</w>
REYN DER
SIKOR SKI</w>
McCreev y</w>
4 20</w>
A re
C SS</w>
D EU
D UK
F ile</w>
F assung</w>
H E</w>
H ello</w>
K now</w>
L op
N ap
P K
S enden</w>
b ru
b isher
c lar
g no
g lo
n ine</w>
o st</w>
t nis
an ischen</w>
re it
ar ding</w>
st ations</w>
st ric
eh ol
ver trag</w>
ver halten</w>
lo ses</w>
ak s</w>
ad map</w>
ges ti
sh ir
ic ars</w>
RE GU
Ab fälle</w>
geb il
ür e</w>
über w
Ein lad
lich em</w>
ess ence</w>
zu gelassen</w>
den kt</w>
Ge wer
No vo
ult ur</w>
Cont rol
cre ative</w>
SCH I
Se el
spe eches</w>
ett a</w>
Men ü
mor al</w>
16 1</w>
Fre und
car bon</w>
rap id</w>
tur ning</w>
schn elle</w>
ali as</w>
aff ects</w>
Je den</w>
Bundes republik</w>
Sel bst</w>
ausge zeichnet</w>
Schri ft
commun ications</w>
Schul den
institu tion</w>
LIN D
Leit er</w>
lig ent</w>
ba res</w>
Poli cies</w>
Mod us</w>
Hil ton</w>
Mün dliche</w>
Liber ia</w>
bein gs</w>
enh aus</w>
resol ve</w>
Mik ro
chec ked</w>
Verfahr ens
verwal tung</w>
impres sive</w>
ökonom ische</w>
Frequ ently</w>
eingeschrän kt</w>
estim ated</w>
AVI ATION</w>
Oliven öl</w>
Union sbür
Anno un
1 14</w>
6 2
6 50</w>
E ch
G P</w>
K üh
L O</w>
P ad
S POLITIK</w>
S mart</w>
a ders</w>
a wait</w>
d ine</w>
e als</w>
f ting</w>
f isher
i ere</w>
k new</w>
k ka</w>
o yer</w>
w and
w ahl
in put</w>
un its</w>
el er
st echn
as nt</w>
di ce</w>
le ger</w>
le ader</w>
20 3</w>
se where</w>
ad min</w>
ut ation</w>
we ge</w>
pl atte</w>
Her ausge
wor thy</w>
ic on</w>
Er haltung</w>
Ma de</w>
ür zt</w>
mar ine</w>
Vor der
tre es</w>
Ent decke</w>
ör g</w>
dis ast
tig ungs
Po wer
Per form
comm end</w>
Su rely</w>
lä dt</w>
Br au
Br and
Se et
og o</w>
mis mus</w>
beh oben</w>
hin gegen</w>
hin nehmbar</w>
Ag enturen</w>
Gu mm
wür digkeit</w>
TO S</w>
28 4</w>
Griech en
Öster reich
Stand ort</w>
Bal ance</w>
sor ge</w>
Publi k
Mont oyer</w>
blo od</w>
Allgem eines</w>
Inst ance</w>
Hu ghes</w>
IK T</w>
pat tern</w>
Kan di
them ati
suff ering</w>
regul arly</w>
erle bt</w>
regist riert</w>
Organis ationen</w>
Ori enti
ling s
exper im
nen nt</w>
Elec tronic</w>
Abgeordn eter</w>
breit ung</w>
CCCC CCCC
Auswär tiges</w>
Wik icars</w>
Sn dor</w>
Gebü hr</w>
dynam ic</w>
Plu gin</w>
Alger ien</w>
erläu tern</w>
gewünsch te</w>
associ ated</w>
speich ern</w>
Human ressourcen</w>
Reguli erung</w>
Erwachsen e</w>
Zerti fik
PRÄ SIDEN
Ans wers</w>
non sense</w>
Tagesordnungsp unkt</w>
Certain ly</w>
Diamand ouros</w>
3 00
3 20</w>
5 50</w>
B UL
C V
C AL
F a
L S</w>
L LE</w>
R im
R ande</w>
S AR
Y our
b ol
i et
l as
m unicip
y ang</w>
an gre
an zurufen</w>
ti ps</w>
is o
on ec
al iz
el ev
si tional</w>
lo gical</w>
ec ta
sp er
St an
Re aktionen</w>
Sch wä
ru m
co ins</w>
Al most</w>
Al berto</w>
rä umen</w>
Aus sage</w>
fi x
fi k</w>
Mit t
zu kommen</w>
DE MO
ST AR
Per i
fir ms</w>
Kon kre
mon t</w>
ett es</w>
Über arbeitung</w>
Vorsch lägen</w>
ko ordin
gest artet</w>
16 8</w>
Gu cht</w>
äu ft</w>
Fr aud</w>
18 6</w>
15 8</w>
besch rieben</w>
Mad eira</w>
schn itt
kur s</w>
AND ER
Kom bin
Person en
Ob jekt</w>
Erfol ge</w>
Fo ot
Fil m
Steu erung</w>
organis iert</w>
hor ny</w>
MAN N</w>
prec ise</w>
beru ht</w>
organ ization</w>
AI R</w>
Beteili gten</w>
Män gel</w>
Fund amental</w>
Liz enz
umfass ende</w>
Gew icht</w>
Vorgesch ichte</w>
emphas ise</w>
hib ited</w>
trage dy</w>
Korre kt
FRIEDENS PROZESS</w>
1 31</w>
2 15</w>
A 1</w>
A ge</w>
B ob
C lar
E tw
G LA
I AL</w>
N O</w>
P lätze</w>
R iga</w>
S N
S add
V eg
a wareness</w>
d ul
d ged</w>
e fe</w>
e dition</w>
f iscal</w>
l ust</w>
m aps</w>
n esses</w>
t ü
in ess</w>
an gs
th ir
is ieren</w>
ab ol
ver urs
lo gic</w>
lo unge</w>
be ur
St ö
gi on</w>
Min er
ut ter</w>
ci pl
ach ers</w>
Sch ü
Sch ell
Sp ek
per c
Be ziehung</w>
mar king</w>
Ein fluss</w>
pe kt</w>
min isters</w>
Wel th
gem in
EL E</w>
gar ten</w>
comp ensation</w>
Ad ap
Ad vocate</w>
wirk liche</w>
rol le</w>
As k</w>
abil ität</w>
15 3</w>
And r</w>
Dokum entation</w>
näch stes</w>
Ter mine</w>
Mad ag
pra g
tain ing</w>
kom bin
Grün dung</w>
Amer ikan
24 4</w>
adv anced</w>
Sol ea</w>
Rec o
EF RE</w>
Benutz ung</w>
Rei hen
Hier bei</w>
dam ages</w>
Tu be</w>
histor ische</w>
tran sit</w>
leich te</w>
soli d</w>
contrac ts</w>
oblig ation</w>
investi eren</w>
author ised</w>
pati ent</w>
Pop ul
Pati enten</w>
acqu isition</w>
surpr ised</w>
DIEN ST
Pers ön
kle are</w>
Charak ter</w>
Biblioth ek</w>
berüh m
Guaran tee</w>
strength ened</w>
Giov anni</w>
Poliz ei</w>
kompati bel</w>
NIIN IST
Fortun ately</w>
B rief</w>
D i</w>
D av
F EN
F EL
M äd
O d
P aci
Z igaret
g ehe</w>
i os</w>
s ac
ö k
ü ben</w>
re au</w>
am men</w>
In sofern</w>
Ver sch
UN IA</w>
sh ell</w>
ell ers</w>
Pro zeß</w>
ot t</w>
co ast
Al ways</w>
inter nation
Aus stattung</w>
teil s</w>
gan z
Ein schrän
tr aum</w>
Fran ce
lie ß</w>
ann els</w>
tal ked</w>
Ges icht</w>
MM ER</w>
des ire</w>
Ital y
sich ere</w>
Belgi an</w>
resp ected</w>
tim a</w>
ih res</w>
Herr ing
Wer t
16 3
16 3</w>
As yl</w>
15 9</w>
schri ftliche</w>
rupp en</w>
plan et</w>
Sh ort</w>
any more</w>
ici ous</w>
UM AN
fel low</w>
Lei p
vol u
Bl ack
AS P</w>
Schi ck
Eben en</w>
porte urs</w>
Durch setzung</w>
Russ lands</w>
inten sive</w>
Wil hel
VAL ION
kontrol liert</w>
erfolgre ich
confir mation</w>
Wiederauf bau</w>
ALM UNIA</w>
canc er</w>
amerikan ische</w>
parad ise</w>
COMP ETI
sozial er</w>
kil omet
Panor ama</w>
Tot al
Perf ect</w>
Verteidig ungs
Dialog s</w>
strategi es</w>
Potenzi al</w>
erstre ckt</w>
reno viert</w>
Bolog na</w>
Chancen gleichheit</w>
ecta res</w>
1 10
4 9
H O</w>
J ury</w>
K id
K ünf
L ED</w>
P ass</w>
c ell
d ent
h len</w>
k ommissarin</w>
m ur
m ie
p ft</w>
r ut
y ard</w>
er do</w>
ch am
un ited</w>
ro utes</w>
ein gehalten</w>
In zwischen</w>
sp ending</w>
pro mp
ig i</w>
form ats</w>
wer fen</w>
ER MANS</w>
su ites</w>
ot ti</w>
än der</w>
IN O
zi pl
RE CO
19 85</w>
ail ing</w>
Vor aussch
pp s</w>
De c</w>
ass ist</w>
Vi er
wär ts</w>
Bes ondere</w>
klär en</w>
enti tled</w>
ric ul
oper ators</w>
Wor d</w>
app en</w>
lar gely</w>
eng agi
Te am
Them e</w>
olog ischen</w>
stu ffs</w>
car te</w>
Gemein de</w>
Nat asha</w>
Richt lin
Mich le</w>
tiv ation</w>
exc ept</w>
Lo gik</w>
flo ws</w>
prin ted</w>
grö ße</w>
pi eces</w>
ler weile</w>
umf angre
necess arily</w>
zeug nissen</w>
schul dig</w>
zo g</w>
frei willi
Rau chen</w>
pol y
füh lt</w>
dom estic</w>
steh ende</w>
Klima anlage</w>
sil ent</w>
GE OR
III d</w>
erheb liche</w>
vin ce</w>
Fron t</w>
Kohäsion sfonds</w>
Ale x</w>
great ly</w>
PAL A
aut umn</w>
relax ing</w>
TIMM ERMANS</w>
wachst um</w>
Happ y</w>
slow ly</w>
454 10</w>
7 3
C R</w>
G lo
L ena</w>
R on
U E</w>
Y OU</w>
g ast</w>
h ä
j ur
n ations</w>
n ings</w>
v acc
z ir
ö s</w>
er stes</w>
in ne</w>
en able</w>
an trag</w>
th es</w>
ti les</w>
ti ef</w>
is men</w>
ri g</w>
em pl
ur onec
ver eig
te c</w>
In surance</w>
sp lit</w>
St art
UN O</w>
Sch mer
Sch loss</w>
Er ster</w>
mar gins</w>
TH AT</w>
möch test</w>
Vor sicht</w>
tr and</w>
pres s
gl ades
ech ten</w>
fer enz
den de</w>
bi an</w>
Gen au
Gen eva</w>
pre dic
her unter</w>
Br enn
Ant on</w>
35 3</w>
Lux us</w>
he ating</w>
he ading</w>
dre ams</w>
Bet a</w>
mat ching</w>
Man go</w>
43 1</w>
wirk sam</w>
KO SO
Str ategic</w>
direc tives</w>
Ru d
18 2</w>
gef asst</w>
Mob il</w>
17 7</w>
AC C
kom fort
Ban glades
Erfol gs
amer as</w>
leit et</w>
läu fig</w>
ausge führt</w>
Ri vi
EF ING</w>
Tex t
help ed</w>
Priv ati
Schwei gemin
refer ring</w>
freund liche</w>
dio x
Liber alisierung</w>
Schw ein
berech net</w>
SOL VIT</w>
Bundesminister ium</w>
Bab y</w>
Recht liches</w>
intel ligen
classi c</w>
acci dent</w>
Harmon isierung</w>
Equ al</w>
Downlo ads</w>
Ple uronec
rub ber</w>
Ig or</w>
alco hol</w>
RUS SIA</w>
Wash ington</w>
KOSO VO</w>
Schweigemin ute</w>
Pleuronec tes</w>
9 001</w>
B J
C au
C annes</w>
D ir
E va</w>
F AN
H ad
M LA
S and</w>
T ap
W EN
W ho
W ETT
b icy
i on
k ä
n ör
n utz
q u</w>
s mart</w>
u xe</w>
ch ain</w>
ch amp
an geb
re i</w>
or atory</w>
st ays</w>
as y
ol dest</w>
be absich
St utt
se ek</w>
op o
form ationen</w>
ber ich
po s</w>
pl er</w>
ach t
AN NIS</w>
ma ß</w>
Ber eits</w>
eu fel</w>
geb nis</w>
fi fth</w>
ob tained</w>
pri or</w>
ech o</w>
ear n</w>
ST U
ST RO
enti ally</w>
gar t</w>
ten nis</w>
proc essed</w>
Ap r</w>
14 8</w>
brau che</w>
Über ra
ATI VE</w>
land scape</w>
Bet räge</w>
sho es</w>
ITE D</w>
Arbeit splatz</w>
län gst</w>
Geb rauch</w>
AM A</w>
att end</w>
Fe edback</w>
Deb atten</w>
Ph än
cons ul
13 9</w>
fil ms</w>
MO D
Fahr plan</w>
aktu ell</w>
kämp ft</w>
bor ne</w>
kan ische</w>
Gleich es</w>
Plan ung</w>
Bon n</w>
äußer te</w>
VO U</w>
Oli vier</w>
NAH ME</w>
Innov ations
fair ly</w>
beteili gen</w>
kompl ette</w>
contra dic
Exper ten</w>
lux uri
digit ale</w>
combin ation</w>
Dri ve</w>
kompli zi
Maj or</w>
gewünsch ten</w>
STABIL ITY</w>
Develop ing</w>
destro yed</w>
Provin z</w>
Japan ese</w>
IACO VOU</w>
Maast richt</w>
WETT BEWER
4 th</w>
7 6
A MA
C es
E ss
F isch</w>
I t
I R</w>
J ähr
L or
M ECU</w>
T ages</w>
U g
U RE
W in</w>
W under</w>
Z eu
b and
b ungen</w>
l ena</w>
t olle</w>
w r
w es</w>
x y</w>
y ours</w>
ö die</w>
ein geben</w>
ein gestellt</w>
ab eth</w>
ter er</w>
be ef</w>
ge pf
20 8</w>
op t</w>
op en
op ol
ad y</w>
Un til</w>
qu er
sh ore</w>
fin dest</w>
im posed</w>
TI ER
är kt</w>
RE DING</w>
Aus blick</w>
ep er</w>
ger ät</w>
gu ese</w>
ob li
war ran
ass ets</w>
Ne ver</w>
tel evision</w>
auf geführt</w>
ult y</w>
ph ones</w>
unter brochen</w>
Con struction</w>
10 6
acc ur
LA K
Bu ffet</w>
35 1</w>
35 9</w>
14 7</w>
Res ult
erh aus</w>
KO SK
ätz en</w>
Rechts sachen</w>
Beisp iel
Fe el</w>
27 8</w>
Flu g</w>
AK TION
Tr ends</w>
HER Z
Can on</w>
GES CH
hor se</w>
nei ghb
medi zin
Ha ar
zentr alen</w>
Gleich stellung</w>
moder nen</w>
establ ish</w>
HANDELS FRAGEN</w>
SAN TER</w>
Digit ale</w>
Franc isco</w>
grap h</w>
Vers and</w>
betreff enden</w>
Krank heit</w>
Defiz it</w>
schu le</w>
cot ton</w>
motor way</w>
korrigi ert</w>
BYR NE</w>
angeneh m</w>
embar go</w>
Künst ler</w>
FEK O</w>
Erleb nis</w>
Ratsp räsid
lack ing</w>
Preist räger</w>
AUSSCH USS</w>
FUT URE</w>
IMPLEM ENTATION</w>
518 83</w>
Verhaltensko dex</w>
MLA DENOV</w>
B T</w>
D J</w>
D AN
D ass</w>
G M</w>
G ÜN
H ans
K el
K atz
L ene</w>
O wn</w>
P ter</w>
T B</w>
T ak
T LIN
V y
b all
d ation</w>
d ung
d ining</w>
g ger</w>
j s</w>
m ic
t at</w>
v ou
ti ers</w>
is son</w>
ar te</w>
ar ag
al ar
al and</w>
ra k</w>
ri ere</w>
sch mer
An gl
we ilen</w>
Un ser
ot ing</w>
sti c</w>
Ar ti
ON E</w>
vo s</w>
gh ly</w>
rec ords</w>
kl aren</w>
Ein heit</w>
Ein träge</w>
bet onen</w>
bl ed</w>
Ger ade</w>
Qu ote</w>
Cont rac
Su pp
Zu griff</w>
andel s</w>
Mo ve</w>
Mo dern</w>
Wer ke</w>
16 4</w>
MEN TAL</w>
eri ert</w>
ban k
staat lichen</w>
fac ed</w>
Nach fol
techn ological</w>
Ben utzen</w>
hol ding</w>
Lo w</w>
BO EL</w>
fr ont
Will en</w>
fel der</w>
Grupp en
Zw ecke</w>
blo cks</w>
Colom bia</w>
Bro k</w>
Bro ad
Har bour</w>
Oc ean</w>
pen sions</w>
Geschäf te</w>
experi ences</w>
Trans fers</w>
help ing</w>
retur ns</w>
Gesamt kosten</w>
unver züglich</w>
Risik o
desig ns</w>
gesp annt</w>
LICH ER</w>
Got tes</w>
Bü rokrati
Vo gel
transl ated</w>
Gran ada</w>
Vene dig</w>
REP UBLI
flü ge</w>
spann ung</w>
obstac les</w>
SAF ETY</w>
Glaub würdigkeit</w>
stellung nahme</w>
2 70</w>
D om</w>
E co
H op
K lau
N either</w>
R ica</w>
S la
c en
c igaret
g y
o dy</w>
p ain</w>
r ated</w>
t ung
t una</w>
w ör
w ast
w ins</w>
un annehmbar</w>
ti m</w>
Th ink</w>
ou ts
ra cle</w>
em eta</w>
ac eu
ver handlungen</w>
for warded</w>
sp häre</w>
pro jekte</w>
op tional</w>
gen es</w>
ation spro
ges ich
ges ucht</w>
CH IA</w>
gra d</w>
Co m</w>
ger egelt</w>
ES TA
Ein heit
Inter nationaler</w>
min i</w>
dis gra
sol ar</w>
off ices</w>
unter st
EL ER</w>
qui erdo</w>
reg ret
Bet re
War saw</w>
sho wing</w>
inv ited</w>
posi tiven</w>
MA S</w>
Nor den</w>
AUS SEN</w>
europä isches</w>
exc essive</w>
Portu guese</w>
zur zeit</w>
King a</w>
27 1</w>
cli cking</w>
Fahr er</w>
AB KOMMEN</w>
HER E</w>
Kontak tieren</w>
EF TA</w>
Tab ak</w>
bestimm en</w>
bestimm ter</w>
edu c
spezi ell</w>
ken ne</w>
Isra el
ov i</w>
reco gn
unver bin
fa ith</w>
Stre cke</w>
Sci entific</w>
SH I
obser vation</w>
Ziel setzung</w>
sav ing</w>
NAH ER</w>
Implement ing</w>
Pok er
Rahmen bedingungen</w>
transp osition</w>
chem icals</w>
canc el</w>
adi das</w>
demokrati sche</w>
TUOMIO JAMinister</w>
Hä fen</w>
gewöhn lich</w>
Texti les</w>
thous ands</w>
scen ario</w>
REGI ON
Kil ometer</w>
imag ine</w>
Kompon enten</w>
INSTITUTION AL</w>
effec tiveness</w>
decor ated</w>
Entfer nung</w>
Nicol as</w>
zerstör t</w>
gebrau cht</w>
Manu fac
Sarko zy</w>
Gep ä
angew andt</w>
vulner able</w>
verschm utzung</w>
Unterstaatssekret är</w>
DIENST LEISTUNGEN</w>
recogn ise</w>
3 30</w>
7 9
B 7</w>
C ENT
D est
D ilemma</w>
F ans</w>
H av
H ände</w>
K U
M und
N om
N ER
N RO</w>
P V
S ac
S CH</w>
T C</w>
U ATION</w>
W ed</w>
W all</w>
Z W
f ish
t ough</w>
u til
in as</w>
un abhängig</w>
re de</w>
si v</w>
sp f
se emed</w>
form ed</w>
Ver schied
Min a</w>
wor rying</w>
En rico</w>
Sp ir
man ner</w>
ger icht
fre e
pri anou</w>
bet rug</w>
lie b</w>
EA GF
199 9
ik i</w>
Ex che
SCH WAR
Kon figur
EC E</w>
EC A</w>
politi sches</w>
VI A</w>
SP EC
dat en
reich ende</w>
Da gegen</w>
dem o</w>
Dar stellung</w>
Rechts staat
rap porteurs</w>
respon ses</w>
Dis play</w>
Son y</w>
tain ment</w>
Ac tivities</w>
mil es</w>
Ther ap
Tr ust</w>
At t
Bro sch
Milli on</w>
stre ben</w>
Slowak ische</w>
Micha ele</w>
Sti ftung</w>
far ming</w>
Hor se</w>
Gleich gewicht</w>
connec tions</w>
Terror ismus
activ ate</w>
cro ss
histor ischen</w>
gn ügen</w>
Log in</w>
Eff ekt</w>
99 780</w>
quali fications</w>
gestal tung</w>
mut ual</w>
emph asis</w>
Ly on</w>
GAR RI
Waren korb</w>
adjust ment</w>
zut reff
verhin dert</w>
ekt ur</w>
INDUS TRY</w>
Schatz kanzler</w>
Entwicklung shilfe</w>
Ky prianou</w>
dah in</w>
Witt ling</w>
Iz quierdo</w>
favor ite</w>
Szen ario</w>
thou ghts</w>
CHAN GE</w>
TECH N
plug in</w>
belon gs</w>
EIS EN
Subs cribe</w>
apor e</w>
Köl n</w>
Herausge ber</w>
Sadd am</w>
Reco very</w>
Richtlin ien
A mount</w>
B ritt
C av
D B</w>
F IG
L ust</w>
N er
S AL
T SE</w>
a ßnahmen</w>
b la
c am
g i</w>
h ur
k ter</w>
k urr
p it
p ending</w>
s u</w>
s ein
t fertigt</w>
v re</w>
w alls</w>
ä ter</w>
an erkannt</w>
an spru
or ia</w>
el sewhere</w>
st yl
st range</w>
st ops</w>
ra w</w>
ab and
ac tor</w>
ent standen</w>
op position</w>
ig no
qu ery</w>
bes ei
Al ess
ing o</w>
mo stly</w>
19 7</w>
Ma ße</w>
sa una</w>
tr ennen</w>
deb atte</w>
Ex tension</w>
comp ared</w>
Kon junk
erg riffen</w>
web cam</w>
kon s
get ed</w>
direc ted</w>
inclu sive</w>
Direc tives</w>
15 0
Car ds</w>
pf el</w>
AG A
every day</w>
sor gt</w>
dou bts</w>
bor g</w>
Fo rest</w>
Oc t</w>
Mein ungs
Haushal ts</w>
vol untary</w>
QU O
ALL I</w>
Sti ch
bestimm ungen</w>
eigent liche</w>
Dru gs</w>
gän ge</w>
instru mente</w>
activ ated</w>
schaft lichen</w>
flexi bel</w>
accomm o
fän gt</w>
behör den</w>
Eing ang</w>
chec ks</w>
glück lich</w>
Gesetz gebung</w>
wech sel</w>
Generaldire ktor</w>
Bab y
Einfu hr</w>
Horiz on</w>
Dam als</w>
reflec t</w>
Sing apore</w>
excep tional</w>
verur teilt</w>
ign ore</w>
righ tly</w>
COW ENMinister</w>
bestell t</w>
anci ent</w>
Kolum bien</w>
PRÄSIDEN T</w>
Leip zig</w>
Ug anda</w>
Exche quer</w>
B V</w>
B all</w>
C lear
F la
F ili
F iscal</w>
N a</w>
P un
R as
S j
S äu
T ell</w>
V and
W ett
Z AL
a z</w>
a warded</w>
c es
r ie</w>
s ing
v ine</w>
Ä u
ä mm
€ 1</w>
is tieren</w>
re placed</w>
ar ity</w>
es is</w>
al ter
ur teilung</w>
ver häl
be at</w>
eit ern</w>
St age</w>
Ver arbeit
ut age</w>
sh uttle</w>
ach tung</w>
Her stellung</w>
IN AKIS</w>
to ff
zi as</w>
Co d
Co ordination</w>
gel ten
gesch lossen
Mit entscheidung</w>
min or</w>
nah men
Ge o
mit h</w>
ant al</w>
Br and</w>
ern ame</w>
mer ken</w>
DI S</w>
Den k
VER N
utz utage</w>
AP I</w>
best and</w>
appro ve</w>
COUN TRI
Te ams</w>
Jo zias</w>
Gl as</w>
Sk y</w>
ahl ungen</w>
win es</w>
Deb ate</w>
SE O</w>
Ban ks</w>
Kur se</w>
glob alisation</w>
Tel ef
AB RI
perf ek
Bri g
Schi ff</w>
produ ktion</w>
Ni veau</w>
equi valent</w>
achie vements</w>
Andre eva</w>
suff er</w>
fris ten</w>
enk ilde</w>
bath rooms</w>
gefähr det</w>
zusätz lichen</w>
VAL INAKIS</w>
Presse konferenz</w>
cy cl
Mau ri
Fischerei politik</w>
Ombud smann</w>
Lauf e</w>
plat es
Cat al
ÜBER EIN
gewähr leistet</w>
Flor ence</w>
Tob ias</w>
spart ner
genü gend</w>
prosp ects</w>
Presserefer at</w>
GEMEINSCHAF T</w>
INSTITUTION ELLE</w>
AFRI CA</w>
Last ly</w>
Shir in</w>
proto col</w>
Bungalo w</w>
behavi our</w>
Jugendher bergen</w>
Bert aud</w>
Ahr enkilde</w>
AAR TS
läss lich</w>
Rivi era</w>
consul ted</w>
GARRI DO</w>
COUNTRI ES</w>
2 28</w>
E W</w>
K G</w>
L ager</w>
M ü
N ight</w>
N az
R und</w>
l are</w>
o we</w>
o tel</w>
t u</w>
x x</w>
z em
an schließen</w>
th al
ti e</w>
re actions</w>
es timate</w>
ro of</w>
al b
di ver
ac a</w>
de z</w>
de fiz
le aving</w>
be ziehung</w>
con soli
CH RIS
är m
sit zen</w>
sit tings</w>
tra gs</w>
Pre vious</w>
Ber n</w>
Be ge
ON A</w>
Ma ils</w>
kl ass
bet rä
off ering</w>
unter wegs</w>
coun ting</w>
her um</w>
fe der
Zu ges</w>
Dies em</w>
[...]
