{"<unk>": 0, "!": 1, "\"": 2, "#": 3, "$": 4, "%": 5, "&": 6, "(": 7, ")": 8, "*": 9, "+": 10, ",": 11, "-": 12, ".": 13, "/": 14, "0": 15, "1": 16, "2": 17, "3": 18, "4": 19, "5": 20, "6": 21, "7": 22, "8": 23, "9": 24, ":": 25, ";": 26, "?": 27, "@": 28, "A": 29, "B": 30, "C": 31, "D": 32, "E": 33, "F": 34, "G": 35, "H": 36, "I": 37, "J": 38, "K": 39, "L": 40, "M": 41, "N": 42, "O": 43, "P": 44, "Q": 45, "R": 46, "S": 47, "T": 48, "U": 49, "V": 50, "W": 51, "X": 52, "Y": 53, "Z": 54, "[": 55, "\\": 56, "]": 57, "_": 58, "a": 59, "b": 60, "c": 61, "d": 62, "e": 63, "f": 64, "g": 65, "h": 66, "i": 67, "j": 68, "k": 69, "l": 70, "m": 71, "n": 72, "o": 73, "p": 74, "q": 75, "r": 76, "s": 77, "t": 78, "u": 79, "v": 80, "w": 81, "x": 82, "y": 83, "z": 84, "{": 85, "|": 86, "}": 87, "£": 88, "¥": 89, "Ä": 90, "Ö": 91, "Ü": 92, "ß": 93, "ä": 94, "ö": 95, "ü": 96, "€": 97, "a</w>": 98, "s</w>": 99, "e</w>": 100, "N</w>": 101, "g</w>": 102, "z</w>": 103, "n</w>": 104, "l</w>": 105, "7</w>": 106, "0</w>": 107, "m</w>": 108, "t</w>": 109, "L</w>": 110, "d</w>": 111, "T</w>": 112, "k</w>": 113, "y</w>": 114, "3</w>": 115, "S</w>": 116, "i</w>": 117, "6</w>": 118, "P</w>": 119, "R</w>": 120, "A</w>": 121, "b</w>": 122, "4</w>": 123, "o</w>": 124, "c</w>": 125, "H</w>": 126, "r</w>": 127, "w</w>": 128, "u</w>": 129, "v</w>": 130, "D</w>": 131, "x</w>": 132, "8</w>": 133, "p</w>": 134, "M</w>": 135, "I</w>": 136, "E</w>": 137, "5</w>": 138, "9</w>": 139, "Z</w>": 140, "2</w>": 141, "h</w>": 142, "1</w>": 143, "B</w>": 144, "F</w>": 145, "O</w>": 146, "f</w>": 147, "G</w>": 148, "Y</w>": 149, "V</w>": 150, "K</w>": 151, "C</w>": 152, "q</w>": 153, "j</w>": 154, "ß</w>": 155, "U</w>": 156, "J</w>": 157, "W</w>": 158, "X</w>": 159, "Ü</w>": 160, "!</w>": 161, "+</w>": 162, "ä</w>": 163, "€</w>": 164, "ü</w>": 165, "$</w>": 166, "ö</w>": 167, "Q</w>": 168, "Ä</w>": 169, "&</w>": 170, "_</w>": 171, "}</w>": 172, ")</w>": 173, "@</w>": 174, "Ö</w>": 175, ",</w>": 176, ";</w>": 177, ".</w>": 178, "|</w>": 179, "/</w>": 180, "*</w>": 181, "?</w>": 182, "£</w>": 183, "]</w>": 184, "¥</w>": 185, "[</w>": 186, "%</w>": 187, "(</w>": 188, ":</w>": 189, "#</w>": 190, "{</w>": 191, "\\</w>": 192, "-</w>": 193, "\"</w>": 194, "en</w>": 195, "de</w>": 196, "er": 197, "in": 198, "ch": 199, "er</w>": 200, "en": 201, "an": 202, "un": 203, "th": 204, "ti": 205, "is": 206, "re": 207, "on</w>": 208, "or": 209, "on": 210, "ar": 211, "it": 212, "es": 213, "ie</w>": 214, "es</w>": 215, "ro": 216, "in</w>": 217, "the</w>": 218, "al": 219, "el": 220, "is</w>": 221, "ch</w>": 222, "st": 223, "li": 224, "si": 225, "om": 226, "Th": 227, "at": 228, "as</w>": 229, "au": 230, "der</w>": 231, "ou": 232, "ati": 233, "ed</w>": 234, "il": 235, "of</w>": 236, "at</w>": 237, "ra": 238, "or</w>": 239, "to</w>": 240, "an</w>": 241, "and</w>": 242, "ein": 243, "ung</w>": 244, "ei": 245, "as": 246, "ol": 247, "ing</w>": 248, "ri": 249, "te</w>": 250, "und</w>": 251, "di": 252, "den</w>": 253, "us": 254, "em": 255, "ab": 256, "ur": 257, "eh": 258, "et": 259, "sch": 260, "ent</w>": 261, "omm": 262, "al</w>": 263, "ist</w>": 264, "die</w>": 265, "The</w>": 266, "ac": 267, "gen</w>": 268, "ich": 269, "ver": 270, "de": 271, "fü": 272, "no": 273, "ge</w>": 274, "ter": 275, "am": 276, "le</w>": 277, "wi": 278, "ten</w>": 279, "le": 280, "lo": 281, "for": 282, "ter</w>": 283, "for</w>": 284, "be": 285, "ation</w>": 286, "te": 287, "rop": 288, "ere</w>": 289, "ve</w>": 290, "ent": 291, "res": 292, "ec": 293, "für</w>": 294, "it</w>": 295, "ge": 296, "urop": 297, "Sie</w>": 298, "In": 299, "20": 300, "Die</w>": 301, "sp": 302, "Europ": 303, "che</w>": 304, "eit": 305, "are</w>": 306, "ommis": 307, "An": 308, "ff": 309, "ak": 310, "ou</w>": 311, "vi": 312, "ce</w>": 313, "ah": 314, "ne": 315, "St": 316, "ar</w>": 317, "sion</w>": 318, "ul": 319, "pro": 320, "der": 321, "tion</w>": 322, "ts</w>": 323, "icht</w>": 324, "be</w>": 325, "se": 326, "ly</w>": 327, "zu</w>": 328, "con": 329, "um</w>": 330, "op": 331, "Re": 332, "mm": 333, "ig": 334, "form": 335, "eine</w>": 336, "gen": 337, "you</w>": 338, "von</w>": 339, "ation": 340, "ber</w>": 341, "Ver": 342, "ha": 343, "se</w>": 344, "gi": 345, "Min": 346, "this</w>": 347, "ad": 348, "chen</w>": 349, "ir": 350, "Das</w>": 351, "200": 352, "wer": 353, "our</w>": 354, "des</w>": 355, "ay</w>": 356, "ag": 357, "ber": 358, "ut": 359, "ich</w>": 360, "ommission</w>": 361, "we": 362, "po": 363, "hat</w>": 364, "not</w>": 365, "das</w>": 366, "st</w>": 367, "ind</w>": 368, "Un": 369, "ein</w>": 370, "ci": 371, "ER": 372, "eit</w>": 373, "nicht</w>": 374, "pl": 375, "Di": 376, "el</w>": 377, "UN": 378, "ges": 379, "qu": 380, "ill</w>": 381, "Minis": 382, "su": 383, "and": 384, "auf</w>": 385, "Ho": 386, "Mr</w>": 387, "sen</w>": 388, "ld</w>": 389, "ur</w>": 390, "sh": 391, "ach": 392, "all</w>": 393, "ate</w>": 394, "ungen</w>": 395, "dies": 396, "ir</w>": 397, "im</w>": 398, "will</w>": 399, "por": 400, "wit": 401, "so</w>": 402, "Sch": 403, "hr": 404, "AN": 405, "that</w>": 406, "ru": 407, "EN": 408, "ell": 409, "wir": 410, "ran": 411, "Pro": 412, "ot": 413, "em</w>": 414, "ck": 415, "ed": 416, "We</w>": 417, "Her": 418, "nen</w>": 419, "eb": 420, "EU</w>": 421, "ould</w>": 422, "ex": 423, "Minister</w>": 424, "än": 425, "was</w>": 426, "This</w>": 427, "wor": 428, "co": 429, "Pres": 430, "ap": 431, "um": 432, "sind</w>": 433, "have</w>": 434, "lich</w>": 435, "af": 436, "En": 437, "with</w>": 438, "ung": 439, "Ich</w>": 440, "sid": 441, "IN": 442, "wir</w>": 443, "ase</w>": 444, "ann</w>": 445, "tion": 446, "fin": 447, "et</w>": 448, "us</w>": 449, "com": 450, "im": 451, "ont": 452, "to": 453, "ean</w>": 454, "gr": 455, "mit</w>": 456, "age</w>": 457, "00</w>": 458, "CH": 459, "werden</w>": 460, "zi": 461, "RO": 462, "ho": 463, "ore</w>": 464, "ity</w>": 465, "we</w>": 466, "Wir</w>": 467, "Au": 468, "TI": 469, "fol": 470, "TE": 471, "är": 472, "ke</w>": 473, "lu": 474, "bes": 475, "ic": 476, "tel</w>": 477, "Al": 478, "ing": 479, "ment</w>": 480, "do": 481, "ma": 482, "hab": 483, "ut</w>": 484, "du": 485, "ische</w>": 486, "sit": 487, "sti": 488, "by</w>": 489, "oo": 490, "land</w>": 491, "European</w>": 492, "Der</w>": 493, "Er": 494, "am</w>": 495, "sich</w>": 496, "ine</w>": 497, "our": 498, "formation</w>": 499, "ehr</w>": 500, "RE": 501, "sident</w>": 502, "Ar": 503, "wird</w>": 504, "eg": 505, "inter": 506, "32</w>": 507, "rä": 508, "all": 509, "one</w>": 510, "me</w>": 511, "ser": 512, "gro": 513, "out</w>": 514, "Ab": 515, "par": 516, "can</w>": 517, "It</w>": 518, "ese</w>": 519, "Aus": 520, "mo": 521, "tu": 522, "tra": 523, "ach</w>": 524, "Herr</w>": 525, "ep": 526, "sion": 527, "ER</w>": 528, "do</w>": 529, "has</w>": 530, "etz": 531, "Kommission</w>": 532, "Sp": 533, "Commission</w>": 534, "ure</w>": 535, "ank</w>": 536, "able</w>": 537, "ther</w>": 538, "ust</w>": 539, "ist": 540, "per": 541, "In</w>": 542, "Pre": 543, "la": 544, "sel": 545, "ön": 546, "EN</w>": 547, "dem</w>": 548, "ia</w>": 549, "ents</w>": 550, "10</w>": 551, "Ber": 552, "Europä": 553, "ub": 554, "aus": 555, "hi": 556, "rom</w>": 557, "gra": 558, "Co": 559, "Es</w>": 560, "ssen</w>": 561, "more</w>": 562, "ationen</w>": 563, "wh": 564, "auch</w>": 565, "ungs": 566, "Par": 567, "oll": 568, "Be": 569, "av": 570, "EU": 571, "gel": 572, "mö": 573, "port</w>": 574, "ON": 575, "ds</w>": 576, "cht</w>": 577, "ahr": 578, "your</w>": 579, "ack": 580, "also</w>": 581, "information</w>": 582, "ers</w>": 583, "iel": 584, "Fin": 585, "über</w>": 586, "vo": 587, "Fra": 588, "eu": 589, "Wh": 590, "ver</w>": 591, "from</w>": 592, "est": 593, "schaf": 594, "geb": 595, "ien</w>": 596, "ON</w>": 597, "19": 598, "ey</w>": 599, "ant</w>": 600, "gh": 601, "AR": 602, "Inform": 603, "men</w>": 604, "cont": 605, "very</w>": 606, "Mar": 607, "als</w>": 608, "Ma": 609, "rec": 610, "That</w>": 611, "haben</w>": 612, "man": 613, "ert</w>": 614, "IS": 615, "ake</w>": 616, "me": 617, "would</w>": 618, "ie": 619, "aus</w>": 620, "rü": 621, "ess</w>": 622, "eitere</w>": 623, "ted</w>": 624, "ail": 625, "end": 626, "ehen</w>": 627, "so": 628, "sa": 629, "lease</w>": 630, "ion</w>": 631, "und": 632, "Informationen</w>": 633, "ger": 634, "gt</w>": 635, "like</w>": 636, "ary</w>": 637, "wel": 638, "ür": 639, "ck</w>": 640, "fi": 641, "gu": 642, "kt</w>": 643, "rit": 644, "hal": 645, "Press</w>": 646, "da": 647, "teil": 648, "12</w>": 649, "RA": 650, "komm": 651, "bt</w>": 652, "kl": 653, "einen</w>": 654, "uns</w>": 655, "For</w>": 656, "What</w>": 657, "clu": 658, "gan": 659, "ft</w>": 660, "ob": 661, "end</w>": 662, "mar": 663, "TH": 664, "gesch": 665, "US": 666, "res</w>": 667, "möch": 668, "über": 669, "war": 670, "ise</w>": 671, "Mit": 672, "est</w>": 673, "Vor": 674, "ts": 675, "ret": 676, "site</w>": 677, "wen": 678, "eht</w>": 679, "Hotel</w>": 680, "Ch": 681, "ws</w>": 682, "tz": 683, "ischen</w>": 684, "lan": 685, "ne</w>": 686, "kön": 687, "now</w>": 688, "liche</w>": 689, "ES": 690, "id</w>": 691, "hr</w>": 692, "Ein": 693, "AL": 694, "eiten</w>": 695, "lich": 696, "ations</w>": 697, "vor": 698, "pp": 699, "ement</w>": 700, "11</w>": 701, "CO": 702, "ember</w>": 703, "Europäische</w>": 704, "tr": 705, "pres": 706, "ast</w>": 707, "men": 708, "ance</w>": 709, "Weitere</w>": 710, "ess": 711, "ad</w>": 712, "President</w>": 713, "liti": 714, "ground</w>": 715, "eren</w>": 716, "De": 717, "OR": 718, "th</w>": 719, "det</w>": 720, "ste</w>": 721, "tions</w>": 722, "ontak": 723, "tre": 724, "pe": 725, "stimm": 726, "ass": 727, "IT": 728, "sie</w>": 729, "gl": 730, "ace</w>": 731, "Coun": 732, "ackground</w>": 733, "tive</w>": 734, "Prä": 735, "kann</w>": 736, "about</w>": 737, "zur</w>": 738, "EURO": 739, "Inter": 740, "Ent": 741, "il</w>": 742, "br": 743, "Hinter": 744, "Ne": 745, "bu": 746, "noch</w>": 747, "ates</w>": 748, "str": 749, "day</w>": 750, "min": 751, "ger</w>": 752, "Hintergr": 753, "must</w>": 754, "fre": 755, "pri": 756, "cy</w>": 757, "wur": 758, "ain": 759, "ech": 760, "uss</w>": 761, "ubli": 762, "ally</w>": 763, "fer": 764, "ame</w>": 765, "nah": 766, "Background</w>": 767, "imm": 768, "ue</w>": 769, "oh": 770, "bet": 771, "ort</w>": 772, "00": 773, "stat": 774, "ens</w>": 775, "os": 776, "ay": 777, "können</w>": 778, "ok": 779, "fen</w>": 780, "zu": 781, "Fran": 782, "LI": 783, "mü": 784, "weit": 785, "lie": 786, "There</w>": 787, "air": 788, "up</w>": 789, "ommission": 790, "mu": 791, "Ihr": 792, "ör": 793, "tige</w>": 794, "cil</w>": 795, "vote</w>": 796, "DE": 797, "You</w>": 798, "been</w>": 799, "ear": 800, "diese</w>": 801, "Council</w>": 802, "duc": 803, "ST": 804, "ass</w>": 805, "bei</w>": 806, "29</w>": 807, "ann": 808, "bl": 809, "here</w>": 810, "vie": 811, "keit</w>": 812, "sein</w>": 813, "Hintergrund</w>": 814, "dis": 815, "ek": 816, "13</w>": 817, "den": 818, "TE</w>": 819, "act</w>": 820, "ect</w>": 821, "ain</w>": 822, "30</w>": 823, "itä": 824, "sol": 825, "ther": 826, "Ge": 827, "should</w>": 828, "ord": 829, "Was</w>": 830, "einer</w>": 831, "tal": 832, "no</w>": 833, "lin": 834, "schaft</w>": 835, "ght</w>": 836, "what</w>": 837, "kommen</w>": 838, "CI": 839, "sed</w>": 840, "Wel": 841, "tw": 842, "No": 843, "tig": 844, "mit": 845, "ontakt</w>": 846, "stell": 847, "Ges": 848, "sten</w>": 849, "15</w>": 850, "mp": 851, "zum</w>": 852, "zen</w>": 853, "bi": 854, "erung</w>": 855, "EA": 856, "tel": 857, "ard</w>": 858, "ces</w>": 859, "new</w>": 860, "teilung</w>": 861, "müssen</w>": 862, "Po": 863, "ative</w>": 864, "ated</w>": 865, "sem": 866, "199": 867, "EUROP": 868, "ün": 869, "29": 870, "Wie</w>": 871, "Commission": 872, "For": 873, "nach": 874, "ner</w>": 875, "EM": 876, "ood</w>": 877, "man</w>": 878, "hier</w>": 879, "deb": 880, "ome</w>": 881, "fra": 882, "publi": 883, "tig</w>": 884, "oder</w>": 885, "clo": 886, "there</w>": 887, "20</w>": 888, "dar": 889, "gibt</w>": 890, "Ger": 891, "war</w>": 892, "ks</w>": 893, "off": 894, "beit": 895, "Per": 896, "sehr</w>": 897, "yst": 898, "ence</w>": 899, "fahr": 900, "nur</w>": 901, "see</w>": 902, "IL": 903, "os</w>": 904, "ore": 905, "ale</w>": 906, "comm": 907, "ern</w>": 908, "spra": 909, "Dies</w>": 910, "neh": 911, "gre": 912, "auf": 913, "Gen": 914, "fu": 915, "Qu": 916, "Unter": 917, "Lu": 918, "acts</w>": 919, "So": 920, "Abstimm": 921, "äh": 922, "time</w>": 923, "ill": 924, "unter</w>": 925, "ings</w>": 926, "Diese</w>": 927, "ely</w>": 928, "ult": 929, "sse": 930, "ph": 931, "Bel": 932, "ament</w>": 933, "tung</w>": 934, "finden</w>": 935, "port": 936, "thing</w>": 937, "heit</w>": 938, "take</w>": 939, "dies</w>": 940, "etzt</w>": 941, "gem": 942, "Pressem": 943, "Vi": 944, "debate</w>": 945, "any</w>": 946, "isch": 947, "fore</w>": 948, "Pressemit": 949, "unter": 950, "aat": 951, "come</w>": 952, "ev": 953, "wär": 954, "ble</w>": 955, "Kontakt</w>": 956, "ei</w>": 957, "cial</w>": 958, "Cont": 959, "ron": 960, "go": 961, "wie</w>": 962, "report</w>": 963, "its</w>": 964, "UNG</w>": 965, "Union</w>": 966, "Con": 967, "Commissioner</w>": 968, "Bes": 969, "Bericht</w>": 970, "Web": 971, "ant": 972, "are": 973, "airs</w>": 974, "Su": 975, "tet</w>": 976, "ous</w>": 977, "net</w>": 978, "gramm": 979, "klär": 980, "ik": 981, "usti": 982, "Finan": 983, "ailable</w>": 984, "EI": 985, "10": 986, "acc": 987, "len</w>": 988, "lossen</w>": 989, "But</w>": 990, "LA": 991, "Ih": 992, "poin": 993, "low": 994, "Präsident</w>": 995, "reich</w>": 996, "ommiss": 997, "mehr</w>": 998, "How</w>": 999, "release</w>": 1000, "need</w>": 1001, "ES</w>": 1002, "fe</w>": 1003, "wn</w>": 1004, "ffairs</w>": 1005, "nung</w>": 1006, "available</w>": 1007, "ser</w>": 1008, "ign</w>": 1009, "sprache</w>": 1010, "pre": 1011, "Ex": 1012, "oc": 1013, "Pressemitteilung</w>": 1014, "igh": 1015, "lem</w>": 1016, "coun": 1017, "Thank</w>": 1018, "nach</w>": 1019, "THE</w>": 1020, "her": 1021, "pr": 1022, "ons</w>": 1023, "ic</w>": 1024, "Europe</w>": 1025, "When</w>": 1026, "my</w>": 1027, "bo": 1028, "geschlossen</w>": 1029, "ben</w>": 1030, "stay</w>": 1031, "äl": 1032, "bil": 1033, "Aussprache</w>": 1034, "Me": 1035, "EL": 1036, "Fü": 1037, "Abstimmung</w>": 1038, "iti": 1039, "ben": 1040, "dass</w>": 1041, "ION</w>": 1042, "eich": 1043, "Bu": 1044, "cre": 1045, "Affairs</w>": 1046, "om</w>": 1047, "enti": 1048, "vot": 1049, "way</w>": 1050, "soll": 1051, "prop": 1052, "vor</w>": 1053, "work</w>": 1054, "ves</w>": 1055, "dieser</w>": 1056, "Um": 1057, "ina</w>": 1058, "Gr": 1059, "qui": 1060, "PO": 1061, "sec": 1062, "14</w>": 1063, "PRO": 1064, "möchten</w>": 1065, "MM": 1066, "ken</w>": 1067, "SCH": 1068, "lä": 1069, "gli": 1070, "bar</w>": 1071, "gar": 1072, "wurde</w>": 1073, "keine</w>": 1074, "place</w>": 1075, "ting</w>": 1076, "DER</w>": 1077, "Sec": 1078, "ehr": 1079, "Br": 1080, "des": 1081, "tic": 1082, "ause</w>": 1083, "Comm": 1084, "ven": 1085, "heiten</w>": 1086, "ni": 1087, "So</w>": 1088, "fe": 1089, "och</w>": 1090, "229</w>": 1091, "Viel": 1092, "stel": 1093, "un</w>": 1094, "führ": 1095, "vel": 1096, "tri": 1097, "Ihre</w>": 1098, "comp": 1099, "ures</w>": 1100, "chan": 1101, "Zu": 1102, "einem</w>": 1103, "sere</w>": 1104, "ved</w>": 1105, "fir": 1106, "many</w>": 1107, "Bei": 1108, "Ital": 1109, "dur": 1110, "vis": 1111, "king</w>": 1112, "ari": 1113, "Wann</w>": 1114, "ten": 1115, "nis": 1116, "unk": 1117, "II</w>": 1118, "ütz": 1119, "TER": 1120, "egen": 1121, "alle</w>": 1122, "ques": 1123, "closed</w>": 1124, "Kon": 1125, "Regi": 1126, "EC": 1127, "da</w>": 1128, "ern": 1129, "findet</w>": 1130, "lung</w>": 1131, "Li": 1132, "AL</w>": 1133, "get</w>": 1134, "Dank</w>": 1135, "urther</w>": 1136, "tor</w>": 1137, "Se": 1138, "No</w>": 1139, "Europa</w>": 1140, "proc": 1141, "muss</w>": 1142, "line</w>": 1143, "Pri": 1144, "Auf": 1145, "Frau</w>": 1146, "ISCH": 1147, "uss": 1148, "mer": 1149, "only</w>": 1150, "said</w>": 1151, "50</w>": 1152, "OF</w>": 1153, "blem</w>": 1154, "je": 1155, "sich": 1156, "ric": 1157, "ish</w>": 1158, "dern</w>": 1159, "timm": 1160, "rich": 1161, "immer</w>": 1162, "diesem</w>": 1163, "SS": 1164, "nation": 1165, "yp": 1166, "nachten</w>": 1167, "Ihnen</w>": 1168, "stru": 1169, "these</w>": 1170, "ree</w>": 1171, "Ap": 1172, "äch": 1173, "habe</w>": 1174, "ite</w>": 1175, "itte</w>": 1176, "Angel": 1177, "com</w>": 1178, "he</w>": 1179, "rei": 1180, "politi": 1181, "other</w>": 1182, "ans</w>": 1183, "Uhr</w>": 1184, "übernachten</w>": 1185, "2009</w>": 1186, "bis</w>": 1187, "ze</w>": 1188, "schen</w>": 1189, "ction</w>": 1190, "Ant": 1191, "wich": 1192, "rech": 1193, "sup": 1194, "erg": 1195, "ors</w>": 1196, "ef": 1197, "son": 1198, "ität</w>": 1199, "Justi": 1200, "wick": 1201, "möchte</w>": 1202, "Dies": 1203, "public</w>": 1204, "Website</w>": 1205, "oper": 1206, "sk": 1207, "Wir": 1208, "elle</w>": 1209, "part": 1210, "ehe</w>": 1211, "Kommiss": 1212, "Ad": 1213, "35": 1214, "mon": 1215, "eil</w>": 1216, "Dat": 1217, "ffent": 1218, "og": 1219, "xt</w>": 1220, "DI": 1221, "RI": 1222, "iel</w>": 1223, "ments</w>": 1224, "Ein</w>": 1225, "EH": 1226, "000</w>": 1227, "star": 1228, "Für</w>": 1229, "bel": 1230, "assen</w>": 1231, "Angelegen": 1232, "ys</w>": 1233, "25</w>": 1234, "PRE": 1235, "were</w>": 1236, "ile</w>": 1237, "dung</w>": 1238, "sions</w>": 1239, "Mitgli": 1240, "Rech": 1241, "cle": 1242, "sen": 1243, "amp": 1244, "ral</w>": 1245, "andel": 1246, "Sit": 1247, "much</w>": 1248, "spe": 1249, "eci": 1250, "ett": 1251, "Und</w>": 1252, "2007</w>": 1253, "usam": 1254, "fahren</w>": 1255, "Hi": 1256, "good</w>": 1257, "ff</w>": 1258, "hel": 1259, "Fore": 1260, "03</w>": 1261, "ast": 1262, "uation</w>": 1263, "emb": 1264, "au</w>": 1265, "wever</w>": 1266, "14": 1267, "produc": 1268, "TS</w>": 1269, "Schl": 1270, "ateg": 1271, "velop": 1272, "lichen</w>": 1273, "eral</w>": 1274, "Tra": 1275, "unkt</w>": 1276, "nehmen</w>": 1277, "nt</w>": 1278, "does</w>": 1279, "up": 1280, "UNG": 1281, "UNION</w>": 1282, "per</w>": 1283, "gew": 1284, "folgen": 1285, "two</w>": 1286, "ded</w>": 1287, "VI": 1288, "ystem</w>": 1289, "fall</w>": 1290, "sche</w>": 1291, "17</w>": 1292, "beit</w>": 1293, "ändi": 1294, "tes</w>": 1295, "ink</w>": 1296, "AF": 1297, "Vielen</w>": 1298, "aber</w>": 1299, "import": 1300, "Ser": 1301, "16</w>": 1302, "ED</w>": 1303, "ransp": 1304, "Lux": 1305, "icht": 1306, "ander": 1307, "eute</w>": 1308, "mm</w>": 1309, "MS</w>": 1310, "Aber</w>": 1311, "re</w>": 1312, "Angelegenheiten</w>": 1313, "right</w>": 1314, "ag</w>": 1315, "They</w>": 1316, "Mo": 1317, "illi": 1318, "mark": 1319, "he": 1320, "ris": 1321, "efore</w>": 1322, "brau": 1323, "unser": 1324, "ack</w>": 1325, "nahmen</w>": 1326, "ong</w>": 1327, "Rat</w>": 1328, "ner": 1329, "Über": 1330, "Member</w>": 1331, "UR": 1332, "mis": 1333, "first</w>": 1334, "ige</w>": 1335, "alis": 1336, "reg": 1337, "ATI": 1338, "ließ": 1339, "del": 1340, "statt</w>": 1341, "wer</w>": 1342, "europ": 1343, "sels</w>": 1344, "ück": 1345, "ding</w>": 1346, "lau": 1347, "Belgi": 1348, "18</w>": 1349, "Foreign</w>": 1350, "ies</w>": 1351, "urr": 1352, "ets</w>": 1353, "And</w>": 1354, "gramme</w>": 1355, "vice</w>": 1356, "All</w>": 1357, "ssel</w>": 1358, "Des": 1359, "dre": 1360, "land": 1361, "Contacts</w>": 1362, "cal</w>": 1363, "2010</w>": 1364, "fo": 1365, "IR": 1366, "Wor": 1367, "jec": 1368, "geh": 1369, "views</w>": 1370, "Brü": 1371, "Ms</w>": 1372, "mich</w>": 1373, "ful</w>": 1374, "Men": 1375, "wei": 1376, "stri": 1377, "Luxemb": 1378, "web": 1379, "lick</w>": 1380, "form</w>": 1381, "Bet": 1382, "utes</w>": 1383, "mat": 1384, "fied</w>": 1385, "Gre": 1386, "ahr</w>": 1387, "app": 1388, "ab</w>": 1389, "War": 1390, "We": 1391, "present": 1392, "ory</w>": 1393, "det": 1394, "hotel</w>": 1395, "they</w>": 1396, "isch</w>": 1397, "IP</w>": 1398, "want</w>": 1399, "Parl": 1400, "wei</w>": 1401, "Brus": 1402, "can": 1403, "Den": 1404, "same</w>": 1405, "usammen": 1406, "resp": 1407, "propos": 1408, "AND</w>": 1409, "ish": 1410, "Or": 1411, "Com": 1412, "Pol": 1413, "stütz": 1414, "VER": 1415, "Mi": 1416, "acht</w>": 1417, "well</w>": 1418, "Brussels</w>": 1419, "ft": 1420, "just</w>": 1421, "sch</w>": 1422, "19</w>": 1423, "gung</w>": 1424, "21</w>": 1425, "egt</w>": 1426, "neue</w>": 1427, "important</w>": 1428, "Tel</w>": 1429, "SP": 1430, "tschaft</w>": 1431, "utz": 1432, "low</w>": 1433, "diesen</w>": 1434, "licy</w>": 1435, "cri": 1436, "gh</w>": 1437, "issu": 1438, "oll</w>": 1439, "trag</w>": 1440, "glich</w>": 1441, "sho": 1442, "bar": 1443, "Res": 1444, "GEN": 1445, "dr": 1446, "les</w>": 1447, "40</w>": 1448, "ice</w>": 1449, "geht</w>": 1450, "ens": 1451, "Pl": 1452, "geben</w>": 1453, "Brüssel</w>": 1454, "jo": 1455, "Staat": 1456, "ople</w>": 1457, "2008</w>": 1458, "neu": 1459, "Zeit</w>": 1460, "del</w>": 1461, "use</w>": 1462, "them</w>": 1463, "auen</w>": 1464, "22</w>": 1465, "BA": 1466, "emp": 1467, "ffen</w>": 1468, "dat": 1469, "ven</w>": 1470, "Minister": 1471, "DE</w>": 1472, "ems</w>": 1473, "Slo": 1474, "tigen</w>": 1475, "einf": 1476, "ITE": 1477, "make</w>": 1478, "EAN</w>": 1479, "conclu": 1480, "ll</w>": 1481, "inv": 1482, "beh": 1483, "Frage</w>": 1484, "ject</w>": 1485, "dan": 1486, "Vorsch": 1487, "hin": 1488, "gegen</w>": 1489, "Hau": 1490, "Im</w>": 1491, "ok</w>": 1492, "case</w>": 1493, "State</w>": 1494, "Bil": 1495, "Eine</w>": 1496, "Entwick": 1497, "point</w>": 1498, "erh": 1499, "red</w>": 1500, "gab": 1501, "TEIL": 1502, "eite</w>": 1503, "Fol": 1504, "reich": 1505, "ssi": 1506, "contact</w>": 1507, "plause</w>": 1508, "To": 1509, "nis</w>": 1510, "Da": 1511, "More</w>": 1512, "ende</w>": 1513, "unsere</w>": 1514, "ähr": 1515, "Beifall</w>": 1516, "go</w>": 1517, "Ko": 1518, "mal</w>": 1519, "lar": 1520, "24</w>": 1521, "kon": 1522, "la</w>": 1523, "bei": 1524, "eben</w>": 1525, "too</w>": 1526, "ier": 1527, "Parli": 1528, "diff": 1529, "follow": 1530, "ko": 1531, "leg": 1532, "uro</w>": 1533, "Hier</w>": 1534, "Europäischen</w>": 1535, "Bar": 1536, "setz": 1537, "website</w>": 1538, "conc": 1539, "than</w>": 1540, "posi": 1541, "weden</w>": 1542, "atz</w>": 1543, "Ro": 1544, "wärtige</w>": 1545, "zwei</w>": 1546, "Hostel": 1547, "tun</w>": 1548, "zei": 1549, "UND</w>": 1550, "room</w>": 1551, "ays</w>": 1552, "Jahr": 1553, "ßnahmen</w>": 1554, "Information</w>": 1555, "UNK": 1556, "read": 1557, "ters</w>": 1558, "cken</w>": 1559, "gramm</w>": 1560, "therefore</w>": 1561, "Mon": 1562, "EUROPEAN</w>": 1563, "schließ": 1564, "view</w>": 1565, "halb</w>": 1566, "These</w>": 1567, "tim": 1568, "09</w>": 1569, "ÄISCH": 1570, "viel": 1571, "lt</w>": 1572, "ster": 1573, "EUROPÄISCH": 1574, "erklär": 1575, "further</w>": 1576, "STA": 1577, "inn": 1578, "Gi": 1579, "people</w>": 1580, "PUNK": 1581, "kt": 1582, "page</w>": 1583, "Op": 1584, "fri": 1585, "dec": 1586, "get": 1587, "ution</w>": 1588, "Deut": 1589, "02</w>": 1590, "ihr": 1591, "gest": 1592, "FA": 1593, "lichkeit</w>": 1594, "jetzt</w>": 1595, "Arbeit": 1596, "ih": 1597, "find</w>": 1598, "ITEMS</w>": 1599, "Man": 1600, "Parliament</w>": 1601, "velopment</w>": 1602, "viron": 1603, "AP": 1604, "PUNKTE</w>": 1605, "eir</w>": 1606, "sub": 1607, "Er</w>": 1608, "auswärtige</w>": 1609, "following</w>": 1610, "try</w>": 1611, "ang</w>": 1612, "witter</w>": 1613, "happ": 1614, "Applause</w>": 1615, "Herr": 1616, "mor": 1617, "know</w>": 1618, "viel</w>": 1619, "vom</w>": 1620, "43": 1621, "ages</w>": 1622, "SI": 1623, "cc": 1624, "best": 1625, "MA": 1626, "Zusammen": 1627, "Por": 1628, "ails</w>": 1629, "dem": 1630, "Twitter</w>": 1631, "ater</w>": 1632, "TA": 1633, "ße</w>": 1634, "support</w>": 1635, "beg": 1636, "arbeit": 1637, "POLI": 1638, "enn": 1639, "rel": 1640, "Ju": 1641, "ins</w>": 1642, "ler</w>": 1643, "amen</w>": 1644, "Medi": 1645, "Am": 1646, "jed": 1647, "assi": 1648, "tom": 1649, "bre": 1650, "tionen</w>": 1651, "please</w>": 1652, "eng": 1653, "eich</w>": 1654, "wirk": 1655, "some</w>": 1656, "TIG": 1657, "nisse</w>": 1658, "most</w>": 1659, "du</w>": 1660, "zep": 1661, "folger": 1662, "KO": 1663, "Gesch": 1664, "urg</w>": 1665, "Kommissar</w>": 1666, "Wer": 1667, "ome": 1668, "Ak": 1669, "16": 1670, "adop": 1671, "appro": 1672, "Parlament</w>": 1673, "2001</w>": 1674, "ited</w>": 1675, "tik": 1676, "son</w>": 1677, "eter</w>": 1678, "23</w>": 1679, "ress</w>": 1680, "last</w>": 1681, "ements</w>": 1682, "Rel": 1683, "dieses</w>": 1684, "Ur": 1685, "Str": 1686, "ality</w>": 1687, "question</w>": 1688, "Auch</w>": 1689, "ear</w>": 1690, "but</w>": 1691, "omic</w>": 1692, "under": 1693, "think</w>": 1694, "COUN": 1695, "BE": 1696, "MI": 1697, "Te": 1698, "cour": 1699, "Ag": 1700, "Gu": 1701, "Secret": 1702, "Nor": 1703, "into</w>": 1704, "MEN": 1705, "tak": 1706, "entr": 1707, "General</w>": 1708, "durch</w>": 1709, "Gem": 1710, "zeu": 1711, "eri": 1712, "ieder": 1713, "val": 1714, "99</w>": 1715, "ster</w>": 1716, "Än": 1717, "2000</w>": 1718, "unden</w>": 1719, "lic": 1720, "ulture</w>": 1721, "Gro": 1722, "her</w>": 1723, "direc": 1724, "ONS": 1725, "Stell": 1726, "oms</w>": 1727, "Mr": 1728, "votes</w>": 1729, "jedoch</w>": 1730, "Dar": 1731, "zw": 1732, "Besch": 1733, "amit</w>": 1734, "wn": 1735, "best</w>": 1736, "OL": 1737, "ßen</w>": 1738, "nun</w>": 1739, "Jahr</w>": 1740, "heute</w>": 1741, "inclu": 1742, "ene</w>": 1743, "Ir": 1744, "bitte</w>": 1745, "Umwel": 1746, "ms</w>": 1747, "eff": 1748, "rol": 1749, "ook</w>": 1750, "Land": 1751, "tschaf": 1752, "wal": 1753, "how</w>": 1754, "fic": 1755, "derung</w>": 1756, "gehen</w>": 1757, "bereit": 1758, "gs</w>": 1759, "Why</w>": 1760, "change</w>": 1761, "Represent": 1762, "with": 1763, "speci": 1764, "their</w>": 1765, "shi": 1766, "ty</w>": 1767, "COUNCI": 1768, "enz</w>": 1769, "ften</w>": 1770, "Justice</w>": 1771, "75</w>": 1772, "fall": 1773, "COUNCIL</w>": 1774, "sm": 1775, "etwas</w>": 1776, "nat": 1777, "eines</w>": 1778, "weitere</w>": 1779, "schei": 1780, "ätz": 1781, "Span": 1782, "Frank": 1783, "ja</w>": 1784, "system</w>": 1785, "esti": 1786, "frage</w>": 1787, "Prior": 1788, "54": 1789, "As": 1790, "ONS</w>": 1791, "Deutsch": 1792, "eten</w>": 1793, "finan": 1794, "ilt</w>": 1795, "Jo": 1796, "ears</w>": 1797, "cannot</w>": 1798, "ond</w>": 1799, "01</w>": 1800, "Est": 1801, "exp": 1802, "halten</w>": 1803, "policy</w>": 1804, "tho": 1805, "ahl</w>": 1806, "Jun": 1807, "ight</w>": 1808, "IN</w>": 1809, "ful": 1810, "kret": 1811, "Please</w>": 1812, "ban": 1813, "gut</w>": 1814, "Si": 1815, "which</w>": 1816, "Le": 1817, "PAR": 1818, "SE</w>": 1819, "Secretary</w>": 1820, "folgerungen</w>": 1821, "Ru": 1822, "esen</w>": 1823, "operation</w>": 1824, "wenn</w>": 1825, "ös": 1826, "wie": 1827, "Ihr</w>": 1828, "Them": 1829, "mail</w>": 1830, "possi": 1831, "ganz</w>": 1832, "fft</w>": 1833, "ans": 1834, "Kön": 1835, "UNGEN</w>": 1836, "ainst</w>": 1837, "Germany</w>": 1838, "woll": 1839, "manent</w>": 1840, "az": 1841, "ently</w>": 1842, "Vertre": 1843, "main</w>": 1844, "mir</w>": 1845, "olog": 1846, "SS</w>": 1847, "Fragen</w>": 1848, "Internet</w>": 1849, "Schluss": 1850, "iert</w>": 1851, "äf": 1852, "agre": 1853, "schi": 1854, "need": 1855, "lob": 1856, "ommen</w>": 1857, "wa": 1858, "aher</w>": 1859, "Our</w>": 1860, "äu": 1861, "art": 1862, "ca</w>": 1863, "erk": 1864, "ready</w>": 1865, "liegt</w>": 1866, "Nr</w>": 1867, "Maßnahmen</w>": 1868, "regi": 1869, "Fr": 1870, "alo": 1871, "nahme</w>": 1872, "ving</w>": 1873, "then</w>": 1874, "mer</w>": 1875, "27</w>": 1876, "unde</w>": 1877, "loc": 1878, "national</w>": 1879, "2005</w>": 1880, "dazu</w>": 1881, "352</w>": 1882, "stu": 1883, "einig": 1884, "ichts</w>": 1885, "curr": 1886, "lands</w>": 1887, "France</w>": 1888, "AUS": 1889, "Fre": 1890, "over</w>": 1891, "made</w>": 1892, "bri": 1893, "enden</w>": 1894, "Sitz": 1895, "Lan": 1896, "old</w>": 1897, "Representative</w>": 1898, "18": 1899, "adopted</w>": 1900, "ilfe</w>": 1901, "Euro</w>": 1902, "some": 1903, "abil": 1904, "verst": 1905, "ders</w>": 1906, "car": 1907, "Direc": 1908, "verk": 1909, "table</w>": 1910, "ED": 1911, "against</w>": 1912, "är</w>": 1913, "tech": 1914, "län": 1915, "ATION</w>": 1916, "clear</w>": 1917, "staat": 1918, "next</w>": 1919, "iz": 1920, "free</w>": 1921, "nov": 1922, "Permanent</w>": 1923, "years</w>": 1924, "Fl": 1925, "row</w>": 1926, "Antwor": 1927, "Deutschland</w>": 1928, "However</w>": 1929, "Econ": 1930, "fac": 1931, "lag</w>": 1932, "Lin": 1933, "club</w>": 1934, "Öffent": 1935, "eme</w>": 1936, "Jan": 1937, "ways</w>": 1938, "still</w>": 1939, "problem</w>": 1940, "Ständi": 1941, "isp": 1942, "kun": 1943, "ond": 1944, "ep</w>": 1945, "ordnung</w>": 1946, "Proto": 1947, "Produ": 1948, "Gemein": 1949, "wis": 1950, "ased</w>": 1951, "online</w>": 1952, "Ergeb": 1953, "To</w>": 1954, "meas": 1955, "EUR</w>": 1956, "sollte</w>": 1957, "Do": 1958, "ell</w>": 1959, "15": 1960, "europä": 1961, "Eu": 1962, "rans": 1963, "Af": 1964, "say</w>": 1965, "why</w>": 1966, "ities</w>": 1967, "98</w>": 1968, "Is</w>": 1969, "ania</w>": 1970, "45</w>": 1971, "mi": 1972, "einfach</w>": 1973, "stand": 1974, "And": 1975, "ax</w>": 1976, "Rechts": 1977, "31</w>": 1978, "year</w>": 1979, "PD": 1980, "meine</w>": 1981, "Region": 1982, "vironment</w>": 1983, "Warum</w>": 1984, "Fall</w>": 1985, "wurden</w>": 1986, "Inv": 1987, "rou": 1988, "enz": 1989, "ergy</w>": 1990, "Nach": 1991, "letz": 1992, "28</w>": 1993, "Rom": 1994, "Sich": 1995, "Erklär": 1996, "sollten</w>": 1997, "Ques": 1998, "stand</w>": 1999, "ück</w>": 2000, "very": 2001, "26</w>": 2002, "2006</w>": 2003, "erklärte</w>": 2004, "resul": 2005, "On</w>": 2006, "kte</w>": 2007, "Nat": 2008, "bot": 2009, "abei</w>": 2010, "Entwicklung</w>": 2011, "CE</w>": 2012, "Schlussfolgerungen</w>": 2013, "sehen</w>": 2014, "guage</w>": 2015, "MAR": 2016, "siehe</w>": 2017, "bin</w>": 2018, "Mitglied</w>": 2019, "situation</w>": 2020, "Rates</w>": 2021, "aum</w>": 2022, "Gel": 2023, "Problem</w>": 2024, "loy": 2025, "cip": 2026, "num": 2027, "details</w>": 2028, "25": 2029, "RAN": 2030, "ency</w>": 2031, "ouse</w>": 2032, "Ste": 2033, "programme</w>": 2034, "stellen</w>": 2035, "differ": 2036, "bin": 2037, "today</w>": 2038, "Fir": 2039, "nal</w>": 2040, "folgt</w>": 2041, "ig</w>": 2042, "If</w>": 2043, "ating</w>": 2044, "He": 2045, "CON": 2046, "Dok": 2047, "sur": 2048, "Bul": 2049, "cer": 2050, "otal</w>": 2051, "ular</w>": 2052, "rap": 2053, "Frankreich</w>": 2054, "gef": 2055, "reas": 2056, "course</w>": 2057, "sc": 2058, "97</w>": 2059, "ope</w>": 2060, "Programm</w>": 2061, "Änder": 2062, "done</w>": 2063, "Italy</w>": 2064, "har": 2065, "vern": 2066, "THER</w>": 2067, "wür": 2068, "bewer": 2069, "Protok": 2070, "Punkt</w>": 2071, "Gl": 2072, "fast</w>": 2073, "conclusions</w>": 2074, "NE": 2075, "Car": 2076, "Jul": 2077, "alten</w>": 2078, "machen</w>": 2079, "ister</w>": 2080, "arbeit</w>": 2081, "TO</w>": 2082, "On": 2083, "TO": 2084, "timmt</w>": 2085, "Tech": 2086, "96</w>": 2087, "deut": 2088, "alen</w>": 2089, "tee</w>": 2090, "ges</w>": 2091, "tries</w>": 2092, "linie</w>": 2093, "dert</w>": 2094, "Gri": 2095, "did</w>": 2096, "kein</w>": 2097, "steht</w>": 2098, "ties</w>": 2099, "Let</w>": 2100, "Dokum": 2101, "Spain</w>": 2102, "Artik": 2103, "295</w>": 2104, "ssekret": 2105, "Sub": 2106, "fl": 2107, "wirtschaft</w>": 2108, "ellen</w>": 2109, "asi": 2110, "three</w>": 2111, "China</w>": 2112, "order</w>": 2113, "Alle</w>": 2114, "possible</w>": 2115, "peri": 2116, "ps</w>": 2117, "eing</w>": 2118, "arin</w>": 2119, "issue</w>": 2120, "He</w>": 2121, "rati": 2122, "off</w>": 2123, "sclub</w>": 2124, "Commun": 2125, "100</w>": 2126, "iele</w>": 2127, "feh": 2128, "tigt</w>": 2129, "Hostelsclub</w>": 2130, "accep": 2131, "Italien</w>": 2132, "Mail</w>": 2133, "Geb": 2134, "tur": 2135, "had</w>": 2136, "gesam": 2137, "Do</w>": 2138, "mmer</w>": 2139, "Chr": 2140, "70</w>": 2141, "IC": 2142, "näch": 2143, "area</w>": 2144, "ourg</w>": 2145, "28": 2146, "US</w>": 2147, "pf": 2148, "Dan": 2149, "Mob": 2150, "Richt": 2151, "besch": 2152, "contin": 2153, "Lis": 2154, "milli": 2155, "when</w>": 2156, "ward</w>": 2157, "respon": 2158, "olution</w>": 2159, "col": 2160, "Bo": 2161, "proced": 2162, "gs": 2163, "great</w>": 2164, "SONS": 2165, "ritte</w>": 2166, "07</w>": 2167, "ough</w>": 2168, "ßer": 2169, "SONSTIG": 2170, "ece</w>": 2171, "usin": 2172, "action</w>": 2173, "ak</w>": 2174, "zeit</w>": 2175, "spre": 2176, "Mich": 2177, "ieve</w>": 2178, "ischer</w>": 2179, "LE": 2180, "may</w>": 2181, "Sk": 2182, "OTHER</w>": 2183, "nec": 2184, "if</w>": 2185, "Kin": 2186, "ahl": 2187, "self</w>": 2188, "Spanien</w>": 2189, "wenden</w>": 2190, "ransport</w>": 2191, "Finanzen</w>": 2192, "Is": 2193, "world</w>": 2194, "shall</w>": 2195, "days</w>": 2196, "Mit</w>": 2197, "TEN</w>": 2198, "MMEN": 2199, "cor": 2200, "air</w>": 2201, "Ter": 2202, "co</w>": 2203, "drei</w>": 2204, "ING</w>": 2205, "WOR": 2206, "Staatssekret": 2207, "Mitglied": 2208, "Off": 2209, "ical</w>": 2210, "key</w>": 2211, "35</w>": 2212, "tly</w>": 2213, "dann</w>": 2214, "peti": 2215, "date</w>": 2216, "Bulgar": 2217, "Austri": 2218, "orrow</w>": 2219, "Politi": 2220, "uture</w>": 2221, "techn": 2222, "part</w>": 2223, "Artikel</w>": 2224, "ision</w>": 2225, "EUROPÄISCHEN</w>": 2226, "AM": 2227, "Cour": 2228, "Ministerin</w>": 2229, "uty</w>": 2230, "andel</w>": 2231, "tic</w>": 2232, "his</w>": 2233, "att": 2234, "Lage</w>": 2235, "unterstütz": 2236, "eck</w>": 2237, "ust": 2238, "look</w>": 2239, "sagen</w>": 2240, "simp": 2241, "Wort</w>": 2242, "blei": 2243, "where</w>": 2244, "tiv": 2245, "ol</w>": 2246, "2002</w>": 2247, "See</w>": 2248, "Seite</w>": 2249, "products</w>": 2250, "mark</w>": 2251, "United</w>": 2252, "ries</w>": 2253, "Dis": 2254, "MER</w>": 2255, "lage</w>": 2256, "fer</w>": 2257, "ma</w>": 2258, "genommen</w>": 2259, "kunft</w>": 2260, "Dec": 2261, "Im": 2262, "Kro": 2263, "win": 2264, "vers": 2265, "RAT</w>": 2266, "33</w>": 2267, "zieh": 2268, "could</w>": 2269, "Finance</w>": 2270, "zeich": 2271, "char": 2272, "exc": 2273, "gang</w>": 2274, "countries</w>": 2275, "UL": 2276, "enth": 2277, "enland</w>": 2278, "Portu": 2279, "million</w>": 2280, "rooms</w>": 2281, "ZI": 2282, "Verk": 2283, "Ben": 2284, "sig": 2285, "2003</w>": 2286, "morgen</w>": 2287, "vices</w>": 2288, "Dem": 2289, "zur": 2290, "Mad": 2291, "ghts</w>": 2292, "zel": 2293, "Lat": 2294, "Nieder": 2295, "wollen</w>": 2296, "Kar": 2297, "stitu": 2298, "wnlo": 2299, "market</w>": 2300, "tomorrow</w>": 2301, "alt</w>": 2302, "PROC": 2303, "Techn": 2304, "Dieser</w>": 2305, "utz</w>": 2306, "Beisp": 2307, "80</w>": 2308, "long</w>": 2309, "Kli": 2310, "folgende</w>": 2311, "ez</w>": 2312, "text</w>": 2313, "Part": 2314, "Neu": 2315, "prote": 2316, "AN</w>": 2317, "ules</w>": 2318, "alles</w>": 2319, "ases</w>": 2320, "schn": 2321, "via</w>": 2322, "New</w>": 2323, "Griech": 2324, "antwor": 2325, "ungsan": 2326, "weiter</w>": 2327, "Col": 2328, "MEM": 2329, "ide": 2330, "ital</w>": 2331, "Dep": 2332, "PDF</w>": 2333, "ulation</w>": 2334, "schri": 2335, "lei": 2336, "ESS": 2337, "60</w>": 2338, "schon</w>": 2339, "Hin": 2340, "gemein": 2341, "dustr": 2342, "Fe": 2343, "ask</w>": 2344, "Red": 2345, "unkte</w>": 2346, "Auf</w>": 2347, "Ire": 2348, "Sa": 2349, "dy</w>": 2350, "ierung</w>": 2351, "los</w>": 2352, "ürlich</w>": 2353, "Präsid": 2354, "such</w>": 2355, "States</w>": 2356, "press</w>": 2357, "publik</w>": 2358, "erheit</w>": 2359, "Minutes</w>": 2360, "selec": 2361, "öl": 2362, "BER": 2363, "CY</w>": 2364, "34</w>": 2365, "Bür": 2366, "Län": 2367, "vertre": 2368, "brauchen</w>": 2369, "erste</w>": 2370, "dic": 2371, "already</w>": 2372, "begr": 2373, "measures</w>": 2374, "La": 2375, "AG": 2376, "gestimmt</w>": 2377, "ses</w>": 2378, "PAN": 2379, "DEBA": 2380, "tional</w>": 2381, "used</w>": 2382, "bed": 2383, "Welt</w>": 2384, "04</w>": 2385, "ro</w>": 2386, "lex": 2387, "weise</w>": 2388, "einige</w>": 2389, "ship</w>": 2390, "enen</w>": 2391, "rue</w>": 2392, "cher</w>": 2393, "Dieses</w>": 2394, "Protokoll</w>": 2395, "enst": 2396, "2004</w>": 2397, "ente</w>": 2398, "Arbeit</w>": 2399, "Vereinig": 2400, "atte</w>": 2401, "ali": 2402, "fav": 2403, "ports</w>": 2404, "rifft</w>": 2405, "spo": 2406, "Zimmer</w>": 2407, "König": 2408, "Wen": 2409, "Question</w>": 2410, "econ": 2411, "OP": 2412, "rupp": 2413, "Emp": 2414, "tern</w>": 2415, "net": 2416, "tlich</w>": 2417, "woh": 2418, "Luxembourg</w>": 2419, "All": 2420, "Portug": 2421, "Antwort</w>": 2422, "17": 2423, "EC</w>": 2424, "stehen</w>": 2425, "own</w>": 2426, "TED</w>": 2427, "something</w>": 2428, "möglich</w>": 2429, "EIN": 2430, "gilt</w>": 2431, "Greece</w>": 2432, "verfü": 2433, "ests</w>": 2434, "emar": 2435, "que</w>": 2436, "Mal": 2437, "Austria</w>": 2438, "contacts</w>": 2439, "Welche</w>": 2440, "ats</w>": 2441, "kur": 2442, "ety</w>": 2443, "Beit": 2444, "King": 2445, "TS": 2446, "ual</w>": 2447, "Bi": 2448, "Öster": 2449, "usiness</w>": 2450, "aff": 2451, "Medien</w>": 2452, "hol": 2453, "lev": 2454, "Anfrage</w>": 2455, "Staatssekretär</w>": 2456, "NEH": 2457, "jek": 2458, "pack": 2459, "Court</w>": 2460, "Ireland</w>": 2461, "LEA": 2462, "anc": 2463, "really</w>": 2464, "again</w>": 2465, "II": 2466, "ka</w>": 2467, "however</w>": 2468, "ritt</w>": 2469, "Win": 2470, "öffent": 2471, "ental</w>": 2472, "dafür</w>": 2473, "andere</w>": 2474, "Euro": 2475, "gent": 2476, "Lo": 2477, "int</w>": 2478, "voted</w>": 2479, "concern": 2480, "Griechenland</w>": 2481, "Deb": 2482, "Ph": 2483, "give</w>": 2484, "Belgium</w>": 2485, "under</w>": 2486, "ieren</w>": 2487, "EIB</w>": 2488, "ettbewer": 2489, "ze": 2490, "sin": 2491, "ture</w>": 2492, "Mrs</w>": 2493, "Menschen</w>": 2494, "ihre</w>": 2495, "yn": 2496, "ins": 2497, "Mö": 2498, "neuen</w>": 2499, "voll": 2500, "bereits</w>": 2501, "SO": 2502, "Stra": 2503, "sek": 2504, "stellt</w>": 2505, "Son": 2506, "dom</w>": 2507, "Zusammenarbeit</w>": 2508, "cent": 2509, "cl": 2510, "verfahren</w>": 2511, "ry</w>": 2512, "proposal</w>": 2513, "Richtlinie</w>": 2514, "bst</w>": 2515, "ext</w>": 2516, "bud": 2517, "keiten</w>": 2518, "05</w>": 2519, "staaten</w>": 2520, "cons": 2521, "Sitzung</w>": 2522, "Republik</w>": 2523, "hand": 2524, "Commit": 2525, "AND": 2526, "modi": 2527, "licher</w>": 2528, "ening</w>": 2529, "viele</w>": 2530, "out": 2531, "Nov": 2532, "ning</w>": 2533, "aid</w>": 2534, "inst": 2535, "riculture</w>": 2536, "Belgien</w>": 2537, "ÖR": 2538, "Nether": 2539, "genda</w>": 2540, "agt</w>": 2541, "Economic</w>": 2542, "sam": 2543, "FIN": 2544, "future</w>": 2545, "ritten</w>": 2546, "SCHAF": 2547, "number</w>": 2548, "AC": 2549, "back</w>": 2550, "pra": 2551, "alth</w>": 2552, "ember": 2553, "Ziel</w>": 2554, "AS</w>": 2555, "TICI": 2556, "El": 2557, "found</w>": 2558, "Luxemburg</w>": 2559, "An</w>": 2560, "Grü": 2561, "kann": 2562, "handel": 2563, "questions</w>": 2564, "Presse</w>": 2565, "Deshalb</w>": 2566, "NEHMER</w>": 2567, "provi": 2568, "Bitte</w>": 2569, "gebo": 2570, "öff": 2571, "enten</w>": 2572, "ungsantrag</w>": 2573, "Go": 2574, "els</w>": 2575, "Reg": 2576, "Deputy</w>": 2577, "Republic</w>": 2578, "zwischen</w>": 2579, "PARTICI": 2580, "4303</w>": 2581, "itt": 2582, "tain": 2583, "Öffentlichkeit</w>": 2584, "Niederlan": 2585, "MEMO</w>": 2586, "ganis": 2587, "Unternehmen</w>": 2588, "Portugal</w>": 2589, "ying</w>": 2590, "hei": 2591, "ately</w>": 2592, "TEILNEHMER</w>": 2593, "sitting</w>": 2594, "PRESS": 2595, "PANTS</w>": 2596, "Doch</w>": 2597, "Herrn</w>": 2598, "Tur": 2599, "unserer</w>": 2600, "PARTICIPANTS</w>": 2601, "ontrol": 2602, "Thema</w>": 2603, "ek</w>": 2604, "hope</w>": 2605, "Mark": 2606, "Landwirtschaft</w>": 2607, "MENT</w>": 2608, "ra</w>": 2609, "FO": 2610, "every": 2611, "nte</w>": 2612, "tieren</w>": 2613, "being</w>": 2614, "data</w>": 2615, "ations": 2616, "add": 2617, "Irland</w>": 2618, "ism</w>": 2619, "arly</w>": 2620, "deu": 2621, "tsch": 2622, "alität</w>": 2623, "sive</w>": 2624, "olle</w>": 2625, "PRESS</w>": 2626, "dra": 2627, "start</w>": 2628, "isten</w>": 2629, "igh</w>": 2630, "set</w>": 2631, "Further</w>": 2632, "Österreich</w>": 2633, "Are</w>": 2634, "wieder</w>": 2635, "side</w>": 2636, "adt</w>": 2637, "Netherlands</w>": 2638, "wichtig</w>": 2639, "isl": 2640, "wat": 2641, "lassen</w>": 2642, "Finn": 2643, "entin</w>": 2644, "always</w>": 2645, "ement": 2646, "spro": 2647, "besten</w>": 2648, "06</w>": 2649, "mak": 2650, "Ac": 2651, "succ": 2652, "oren</w>": 2653, "Kom": 2654, "requ": 2655, "BO": 2656, "bility</w>": 2657, "speak": 2658, "km</w>": 2659, "anderen</w>": 2660, "lies</w>": 2661, "Ta": 2662, "Wirtschaf": 2663, "GENO": 2664, "besser": 2665, "Kingdom</w>": 2666, "fr": 2667, "Probl": 2668, "Tre": 2669, "struc": 2670, "sto": 2671, "punkt</w>": 2672, "ous": 2673, "ked</w>": 2674, "Mio</w>": 2675, "2013</w>": 2676, "Sweden</w>": 2677, "hum": 2678, "ANGENO": 2679, "earch</w>": 2680, "Apri": 2681, "nichts</w>": 2682, "ration</w>": 2683, "bal": 2684, "open</w>": 2685, "Janu": 2686, "NI": 2687, "Dän": 2688, "IV</w>": 2689, "service</w>": 2690, "going</w>": 2691, "ET</w>": 2692, "ail</w>": 2693, "satz</w>": 2694, "Wenn</w>": 2695, "mus</w>": 2696, "April</w>": 2697, "Tag": 2698, "ßt</w>": 2699, "sts</w>": 2700, "ample</w>": 2701, "Wettbewer": 2702, "ave</w>": 2703, "Königreich</w>": 2704, "TEILUNG</w>": 2705, "wirklich</w>": 2706, "Wo": 2707, "wäre</w>": 2708, "Engl": 2709, "Vorschlag</w>": 2710, "08</w>": 2711, "At</w>": 2712, "points</w>": 2713, "va</w>": 2714, "ahlen</w>": 2715, "Justiz</w>": 2716, "urity</w>": 2717, "politik</w>": 2718, "LEASE</w>": 2719, "Dänemar": 2720, "HAL": 2721, "Leb": 2722, "daß</w>": 2723, "Service</w>": 2724, "fung</w>": 2725, "gaben</w>": 2726, "flo": 2727, "ender</w>": 2728, "GI": 2729, "ath": 2730, "sicht</w>": 2731, "Schweden</w>": 2732, "ANGENOMMEN": 2733, "Jahre</w>": 2734, "As</w>": 2735, "CC": 2736, "Anto": 2737, "Art</w>": 2738, "muß</w>": 2739, "setzung</w>": 2740, "waren</w>": 2741, "sprechen</w>": 2742, "development</w>": 2743, "ITTEILUNG</w>": 2744, "soll</w>": 2745, "Finland</w>": 2746, "ziehungen</w>": 2747, "Finanz": 2748, "Ist</w>": 2749, "RELEASE</w>": 2750, "sprech": 2751, "13": 2752, "fil": 2753, "gestell": 2754, "danke</w>": 2755, "Antoine</w>": 2756, "SE": 2757, "LE</w>": 2758, "second</w>": 2759, "rie": 2760, "Here</w>": 2761, "Niederlande</w>": 2762, "Ti": 2763, "di</w>": 2764, "ority</w>": 2765, "ton</w>": 2766, "elt</w>": 2767, "ribu": 2768, "cum": 2769, "Stand": 2770, "ständi": 2771, "aff</w>": 2772, "ute</w>": 2773, "kommt</w>": 2774, "darf</w>": 2775, "vention</w>": 2776, "Denmark</w>": 2777, "needs</w>": 2778, "ERÖR": 2779, "ERÖRTER": 2780, "dings</w>": 2781, "name</w>": 2782, "Environment</w>": 2783, "ennen</w>": 2784, "führt</w>": 2785, "gehör": 2786, "loyment</w>": 2787, "ME": 2788, "DES</w>": 2789, "gabe</w>": 2790, "answer</w>": 2791, "hier": 2792, "Person": 2793, "ange": 2794, "ANGENOMMENE</w>": 2795, "fig": 2796, "rol</w>": 2797, "aten</w>": 2798, "outh</w>": 2799, "ERÖRTERTE</w>": 2800, "elie</w>": 2801, "EG</w>": 2802, "Mitgliedstaaten</w>": 2803, "Komm": 2804, "bro": 2805, "ational</w>": 2806, "Tag</w>": 2807, "plan": 2808, "without</w>": 2809, "pt": 2810, "tural</w>": 2811, "POLITI": 2812, "falls</w>": 2813, "Pal": 2814, "ype</w>": 2815, "zial": 2816, "ics</w>": 2817, "partic": 2818, "different</w>": 2819, "agement</w>": 2820, "Geor": 2821, "NA": 2822, "ions</w>": 2823, "teil</w>": 2824, "Stu": 2825, "Neelie</w>": 2826, "ession</w>": 2827, "Cor": 2828, "requi": 2829, "ont</w>": 2830, "Now</w>": 2831, "Dur": 2832, "thank</w>": 2833, "rag</w>": 2834, "27": 2835, "far</w>": 2836, "Comp": 2837, "Pi": 2838, "eting</w>": 2839, "glau": 2840, "help</w>": 2841, "ss</w>": 2842, "Bal": 2843, "kom": 2844, "lagen</w>": 2845, "Dänemark</w>": 2846, "probl": 2847, "objec": 2848, "istance</w>": 2849, "wä": 2850, "pass": 2851, "ols</w>": 2852, "even</w>": 2853, "Zeit": 2854, "Finnland</w>": 2855, "recei": 2856, "erte</w>": 2857, "sor": 2858, "elec": 2859, "PROCESS": 2860, "Sh": 2861, "gar</w>": 2862, "Entschließ": 2863, "opp": 2864, "WORD</w>": 2865, "LO": 2866, "My</w>": 2867, "kost": 2868, "eigen": 2869, "believe</w>": 2870, "PROCESSED</w>": 2871, "Grund": 2872, "TEN": 2873, "rest": 2874, "auran": 2875, "Aussch": 2876, "person": 2877, "86</w>": 2878, "tigung</w>": 2879, "inform": 2880, "Fu": 2881, "Fisch": 2882, "45": 2883, "eu</w>": 2884, "ged</w>": 2885, "allen</w>": 2886, "crip": 2887, "Hilfe</w>": 2888, "fort": 2889, "Unterstütz": 2890, "prin": 2891, "forder": 2892, "rules</w>": 2893, "ole</w>": 2894, "favour</w>": 2895, "Je": 2896, "modified</w>": 2897, "nor": 2898, "dire": 2899, "who</w>": 2900, "Damit</w>": 2901, "fort</w>": 2902, "amil": 2903, "ffe</w>": 2904, "pro</w>": 2905, "forward</w>": 2906, "list</w>": 2907, "Grün": 2908, "AU": 2909, "things</w>": 2910, "few</w>": 2911, "MO": 2912, "better</w>": 2913, "Agriculture</w>": 2914, "matter</w>": 2915, "every</w>": 2916, "Development</w>": 2917, "put</w>": 2918, "2015</w>": 2919, "disc": 2920, "io</w>": 2921, "welcome</w>": 2922, "plement": 2923, "VED</w>": 2924, "wo</w>": 2925, "TERN": 2926, "Sep": 2927, "abl": 2928, "Vereinigtes</w>": 2929, "onds</w>": 2930, "Ergebnisse</w>": 2931, "ano</w>": 2932, "wissen</w>": 2933, "Committee</w>": 2934, "Weg</w>": 2935, "Berich": 2936, "dabei</w>": 2937, "Ende</w>": 2938, "Kroes</w>": 2939, "Programme</w>": 2940, "Amer": 2941, "ability</w>": 2942, "isen</w>": 2943, "Flu": 2944, "agreement</w>": 2945, "chil": 2946, "emen</w>": 2947, "Hotel": 2948, "Strateg": 2949, "ate": 2950, "Star": 2951, "kra": 2952, "seine</w>": 2953, "tober</w>": 2954, "räge</w>": 2955, "üs": 2956, "play": 2957, "bung</w>": 2958, "schl": 2959, "grö": 2960, "ours</w>": 2961, "cap": 2962, "city</w>": 2963, "ingen</w>": 2964, "einmal</w>": 2965, "quiries</w>": 2966, "Haush": 2967, "ke": 2968, "graph": 2969, "amend": 2970, "Zukunft</w>": 2971, "DIE</w>": 2972, "ohne</w>": 2973, "ftw": 2974, "tro": 2975, "throu": 2976, "schied": 2977, "fun": 2978, "pi": 2979, "APPRO": 2980, "Hung": 2981, "prü": 2982, "dig": 2983, "Ban": 2984, "Ihren</w>": 2985, "novation</w>": 2986, "wnload</w>": 2987, "Frü": 2988, "Lös": 2989, "trans": 2990, "anti": 2991, "stellung</w>": 2992, "AFFA": 2993, "IRS</w>": 2994, "FINAN": 2995, "rights</w>": 2996, "AFFAIRS</w>": 2997, "imp": 2998, "TRAN": 2999, "saf": 3000, "dia</w>": 3001, "aro": 3002, "Unsere</w>": 3003, "cht": 3004, "WIR": 3005, "ian</w>": 3006, "priv": 3007, "Kommissarin</w>": 3008, "offer</w>": 3009, "sia</w>": 3010, "noon</w>": 3011, "Entschei": 3012, "24": 3013, "ened</w>": 3014, "EW": 3015, "taken</w>": 3016, "position</w>": 3017, "TION</w>": 3018, "access</w>": 3019, "ergi": 3020, "Ira": 3021, "APPROVED</w>": 3022, "gend</w>": 3023, "merk": 3024, "ino</w>": 3025, "look": 3026, "val</w>": 3027, "pur": 3028, "CA": 3029, "ath</w>": 3030, "One</w>": 3031, "ining</w>": 3032, "deo</w>": 3033, "ween</w>": 3034, "immt</w>": 3035, "DEBATED</w>": 3036, "bez": 3037, "asst</w>": 3038, "gel</w>": 3039, "jects</w>": 3040, "Rat": 3041, "fte</w>": 3042, "unser</w>": 3043, "resolution</w>": 3044, "utzen</w>": 3045, "Directive</w>": 3046, "Book</w>": 3047, "1999</w>": 3048, "Wirtschaft</w>": 3049, "Mu": 3050, "Zu</w>": 3051, "cli": 3052, "Situation</w>": 3053, "mel": 3054, "Can</w>": 3055, "Wes": 3056, "incre": 3057, "Gra": 3058, "phone</w>": 3059, "ranspar": 3060, "nimmt</w>": 3061, "Unterstützung</w>": 3062, "Wi": 3063, "Umwelt</w>": 3064, "GU": 3065, "Bei</w>": 3066, "Land</w>": 3067, "Publi": 3068, "fragen</w>": 3069, "visit</w>": 3070, "Vor</w>": 3071, "Woh": 3072, "quality</w>": 3073, "kno": 3074, "any": 3075, "example</w>": 3076, "90</w>": 3077, "mil": 3078, "down</w>": 3079, "HO": 3080, "til</w>": 3081, "enter</w>": 3082, "ends</w>": 3083, "Sicherheit</w>": 3084, "TSCHAF": 3085, "iger</w>": 3086, "fäl": 3087, "FOR": 3088, "04": 3089, "POLITIK</w>": 3090, "Kl": 3091, "ta</w>": 3092, "tegr": 3093, "WIRTSCHAF": 3094, "HAN": 3095, "rus</w>": 3096, "Ob": 3097, "tliche</w>": 3098, "zer": 3099, "ici": 3100, "asy</w>": 3101, "money</w>": 3102, "Du</w>": 3103, "lungen</w>": 3104, "Bre": 3105, "TU": 3106, "services</w>": 3107, "Social</w>": 3108, "Kur": 3109, "bank</w>": 3110, "folgenden</w>": 3111, "na</w>": 3112, "System</w>": 3113, "Wer</w>": 3114, "results</w>": 3115, "process</w>": 3116, "dg": 3117, "docum": 3118, "mig": 3119, "Gener": 3120, "times</w>": 3121, "mittel": 3122, "GEM": 3123, "za</w>": 3124, "Gesund": 3125, "Bed": 3126, "macht</w>": 3127, "ade</w>": 3128, "POLICY</w>": 3129, "ros</w>": 3130, "tä": 3131, "wish</w>": 3132, "ftware</w>": 3133, "ene": 3134, "werde</w>": 3135, "SA</w>": 3136, "akfast</w>": 3137, "compl": 3138, "wäh": 3139, "ars</w>": 3140, "Will": 3141, "ference</w>": 3142, "GRA": 3143, "after</w>": 3144, "Man</w>": 3145, "enough</w>": 3146, "Projek": 3147, "Poland</w>": 3148, "cel": 3149, "sing</w>": 3150, "reichen</w>": 3151, "innen</w>": 3152, "NO": 3153, "hän": 3154, "ump": 3155, "Polen</w>": 3156, "ta": 3157, "selbst</w>": 3158, "play</w>": 3159, "Aut": 3160, "ana</w>": 3161, "unktion": 3162, "STAT</w>": 3163, "begrü": 3164, "full</w>": 3165, "version</w>": 3166, "Handel": 3167, "May</w>": 3168, "xim": 3169, "gesamt</w>": 3170, "ET": 3171, "europa</w>": 3172, "95": 3173, "Del": 3174, "anden</w>": 3175, "öh": 3176, "itiative</w>": 3177, "Follow</w>": 3178, "Investi": 3179, "Kol": 3180, "Mer": 3181, "tives</w>": 3182, "EL</w>": 3183, "worden</w>": 3184, "UM": 3185, "dür": 3186, "tungen</w>": 3187, "petition</w>": 3188, "Bereich</w>": 3189, "Pressek": 3190, "ished</w>": 3191, "inquiries</w>": 3192, "Cas": 3193, "partner</w>": 3194, "ESS</w>": 3195, "between</w>": 3196, "country</w>": 3197, "65</w>": 3198, "doch</w>": 3199, "gute</w>": 3200, "price</w>": 3201, "gestellt</w>": 3202, "IS</w>": 3203, "onen</w>": 3204, "plan</w>": 3205, "Trade</w>": 3206, "Stellvertre": 3207, "ktion</w>": 3208, "fel": 3209, "onia</w>": 3210, "before</w>": 3211, "Sept": 3212, "Tim": 3213, "beim</w>": 3214, "business</w>": 3215, "ämp": 3216, "TES</w>": 3217, "Rest": 3218, "uni": 3219, "EX": 3220, "ihr</w>": 3221, "MARK": 3222, "issues</w>": 3223, "Rus": 3224, "TERNAL</w>": 3225, "ird</w>": 3226, "Rich": 3227, "Tsch": 3228, "wend": 3229, "TIONS</w>": 3230, "strateg": 3231, "September</w>": 3232, "Mil": 3233, "embers</w>": 3234, "OU": 3235, "real</w>": 3236, "ili": 3237, "schein": 3238, "2011</w>": 3239, "soci": 3240, "Your</w>": 3241, "hear": 3242, "Stimm": 3243, "decision</w>": 3244, "glob": 3245, "estment</w>": 3246, "count</w>": 3247, "olo": 3248, "sure</w>": 3249, "ori": 3250, "dep": 3251, "Mobil": 3252, "fund": 3253, "erhalten</w>": 3254, "divi": 3255, "lot</w>": 3256, "Dann</w>": 3257, "Zy": 3258, "lec": 3259, "igkeit</w>": 3260, "ält</w>": 3261, "November</w>": 3262, "hang</w>": 3263, "less</w>": 3264, "defin": 3265, "ned</w>": 3266, "ator</w>": 3267, "Fahr": 3268, "Tel": 3269, "durch": 3270, "Besu": 3271, "Haupt": 3272, "damit</w>": 3273, "minister</w>": 3274, "Gar": 3275, "67</w>": 3276, "93": 3277, "Grupp": 3278, "small</w>": 3279, "64</w>": 3280, "Lassen</w>": 3281, "546</w>": 3282, "tain</w>": 3283, "atten</w>": 3284, "parti": 3285, "Pla": 3286, "Energi": 3287, "atz": 3288, "ples</w>": 3289, "spoliti": 3290, "cut</w>": 3291, "Verfahren</w>": 3292, "procedure</w>": 3293, "staff</w>": 3294, "ire</w>": 3295, "agree</w>": 3296, "Bot": 3297, "okrati": 3298, "Lit": 3299, "lear": 3300, "COMM": 3301, "ME</w>": 3302, "both</w>": 3303, "reicht</w>": 3304, "life</w>": 3305, "Mont": 3306, "Rele": 3307, "daher</w>": 3308, "spiel": 3309, "Fer": 3310, "essen</w>": 3311, "weite</w>": 3312, "Dokument</w>": 3313, "EUROSTAT</w>": 3314, "Ther": 3315, "quite</w>": 3316, "räsident</w>": 3317, "dio</w>": 3318, "ENT": 3319, "Forsch": 3320, "wichtig": 3321, "eichen</w>": 3322, "eits": 3323, "Siehe</w>": 3324, "dig</w>": 3325, "ica</w>": 3326, "legisl": 3327, "Language</w>": 3328, "Zw": 3329, "ns</w>": 3330, "energy</w>": 3331, "Einzel": 3332, "Beispiel</w>": 3333, "dri": 3334, "AK": 3335, "ple": 3336, "ches</w>": 3337, "impro": 3338, "liegen</w>": 3339, "dren</w>": 3340, "yer</w>": 3341, "gue</w>": 3342, "größ": 3343, "gri": 3344, "stain": 3345, "consi": 3346, "Präsidentin</w>": 3347, "Hel": 3348, "Nach</w>": 3349, "lin</w>": 3350, "rem</w>": 3351, "200</w>": 3352, "July</w>": 3353, "ister": 3354, "oment</w>": 3355, "enzen</w>": 3356, "CHE</w>": 3357, "Jahren</w>": 3358, "noti": 3359, "Uni": 3360, "Erklärungen</w>": 3361, "Punkte</w>": 3362, "Ungar": 3363, "Sozial": 3364, "ingle</w>": 3365, "Ständigen</w>": 3366, "June</w>": 3367, "SONSTIGE</w>": 3368, "Bund": 3369, "sz": 3370, "Pe": 3371, "93</w>": 3372, "kün": 3373, "Meine</w>": 3374, "ler": 3375, "od</w>": 3376, "STE": 3377, "gress</w>": 3378, "Who</w>": 3379, "Daher</w>": 3380, "USA</w>": 3381, "high</w>": 3382, "sozi": 3383, "fiel": 3384, "wün": 3385, "Kre": 3386, "high": 3387, "UNGS": 3388, "boo": 3389, "Recht</w>": 3390, "over": 3391, "legen</w>": 3392, "trade</w>": 3393, "fic</w>": 3394, "Vertreters</w>": 3395, "Mär": 3396, "each</w>": 3397, "stels</w>": 3398, "protection</w>": 3399, "Case</w>": 3400, "syst": 3401, "hostels</w>": 3402, "Daten</w>": 3403, "Prioritä": 3404, "TRANSP": 3405, "GE</w>": 3406, "Its</w>": 3407, "blo": 3408, "Teil": 3409, "Total</w>": 3410, "Pak": 3411, "Kult": 3412, "2012</w>": 3413, "eben": 3414, "file</w>": 3415, "europäische</w>": 3416, "comes</w>": 3417, "Erfol": 3418, "true</w>": 3419, "call": 3420, "etet</w>": 3421, "absol": 3422, "ult</w>": 3423, "pers": 3424, "AD": 3425, "Teil</w>": 3426, "Mittel": 3427, "RU": 3428, "pic": 3429, "isches</w>": 3430, "III</w>": 3431, "Maria</w>": 3432, "Colom": 3433, "dge</w>": 3434, "ker</w>": 3435, "zech</w>": 3436, "eiche</w>": 3437, "those</w>": 3438, "Vassi": 3439, "cho": 3440, "let</w>": 3441, "cies</w>": 3442, "SEN": 3443, "ging</w>": 3444, "read</w>": 3445, "amer": 3446, "Sloven": 3447, "Office</w>": 3448, "Czech</w>": 3449, "avi": 3450, "cs</w>": 3451, "dist": 3452, "völ": 3453, "dition</w>": 3454, "Get</w>": 3455, "Sin": 3456, "mb": 3457, "umf": 3458, "weiter": 3459, "Vertreter</w>": 3460, "Cyp": 3461, "spl": 3462, "würde</w>": 3463, "Bundes": 3464, "level</w>": 3465, "problems</w>": 3466, "let": 3467, "location</w>": 3468, "through</w>": 3469, "Cyprus</w>": 3470, "stra": 3471, "dit</w>": 3472, "hil": 3473, "Verbrau": 3474, "richt</w>": 3475, "aktu": 3476, "ordin": 3477, "Public</w>": 3478, "Zyper": 3479, "dru": 3480, "isti": 3481, "light</w>": 3482, "Where</w>": 3483, "Hungary</w>": 3484, "Curr": 3485, "dou": 3486, "projects</w>": 3487, "responsi": 3488, "Mehr</w>": 3489, "word</w>": 3490, "Ungarn</w>": 3491, "Wich": 3492, "kämp": 3493, "eps</w>": 3494, "Feb": 3495, "bor": 3496, "Pra": 3497, "ßen": 3498, "Tr": 3499, "edit": 3500, "Gericht": 3501, "Beschäf": 3502, "buil": 3503, "besteht</w>": 3504, "Sy": 3505, "sag": 3506, "ants</w>": 3507, "Inn": 3508, "adv": 3509, "request</w>": 3510, "davon</w>": 3511, "speaker</w>": 3512, "AB": 3513, "thu": 3514, "zus": 3515, "leit": 3516, "CH</w>": 3517, "kre": 3518, "rate</w>": 3519, "ät": 3520, "ards</w>": 3521, "mittel</w>": 3522, "weit</w>": 3523, "39</w>": 3524, "52</w>": 3525, "TRA": 3526, "atisti": 3527, "ior</w>": 3528, "Probleme</w>": 3529, "Best": 3530, "Sol": 3531, "wach": 3532, "isa</w>": 3533, "Preis</w>": 3534, "Mor": 3535, "sser</w>": 3536, "tivi": 3537, "areas</w>": 3538, "89</w>": 3539, "cou": 3540, "Bucht</w>": 3541, "At": 3542, "SU": 3543, "lig</w>": 3544, "easy</w>": 3545, "Zum</w>": 3546, "ales</w>": 3547, "asis</w>": 3548, "Febru": 3549, "Bro": 3550, "Frei": 3551, "mas</w>": 3552, "selector</w>": 3553, "around</w>": 3554, "Milli": 3555, "ium</w>": 3556, "ected</w>": 3557, "üh": 3558, "verfüg": 3559, "Agenda</w>": 3560, "Char": 3561, "Sel": 3562, "omy</w>": 3563, "zeigt</w>": 3564, "Rum": 3565, "ences</w>": 3566, "spek": 3567, "glaube</w>": 3568, "reser": 3569, "Some</w>": 3570, "od": 3571, "met": 3572, "tin</w>": 3573, "natürlich</w>": 3574, "Bra": 3575, "call</w>": 3576, "recomm": 3577, "liches</w>": 3578, "Verfü": 3579, "läu": 3580, "ribution</w>": 3581, "Hotels</w>": 3582, "AT": 3583, "JUS": 3584, "dit": 3585, "added</w>": 3586, "Bewer": 3587, "Zypern</w>": 3588, "dows</w>": 3589, "Lithu": 3590, "unseren</w>": 3591, "Slov": 3592, "ittle</w>": 3593, "ologi": 3594, "erdings</w>": 3595, "Stru": 3596, "Click</w>": 3597, "ror": 3598, "Spiel": 3599, "Welcome</w>": 3600, "Report</w>": 3601, "First</w>": 3602, "Ca": 3603, "INN": 3604, "dates</w>": 3605, "political</w>": 3606, "51</w>": 3607, "igen</w>": 3608, "36</w>": 3609, "EIT": 3610, "Peter</w>": 3611, "Spra": 3612, "project</w>": 3613, "Vassili": 3614, "inge</w>": 3615, "Christ": 3616, "necess": 3617, "Rück": 3618, "ände</w>": 3619, "USS": 3620, "ingt</w>": 3621, "sache</w>": 3622, "49</w>": 3623, "funktion": 3624, "aurant</w>": 3625, "61</w>": 3626, "yet</w>": 3627, "ondere</w>": 3628, "ausge": 3629, "present</w>": 3630, "37</w>": 3631, "ju": 3632, "ness</w>": 3633, "ismus</w>": 3634, "recht</w>": 3635, "A4</w>": 3636, "Ziele</w>": 3637, "Slowen": 3638, "Wo</w>": 3639, "rise</w>": 3640, "aler</w>": 3641, "Schri": 3642, "current</w>": 3643, "Hostels</w>": 3644, "arbeiten</w>": 3645, "cust": 3646, "writ": 3647, "stre": 3648, "Group</w>": 3649, "Oper": 3650, "URE</w>": 3651, "click</w>": 3652, "gesagt</w>": 3653, "ool</w>": 3654, "Tschech": 3655, "Joh": 3656, "wes": 3657, "Fortsch": 3658, "ential</w>": 3659, "92</w>": 3660, "ects</w>": 3661, "Vice</w>": 3662, "gte</w>": 3663, "kti": 3664, "omen</w>": 3665, "approach</w>": 3666, "PRESSEM": 3667, "Fax</w>": 3668, "Von</w>": 3669, "bietet</w>": 3670, "296</w>": 3671, "HER": 3672, "tern": 3673, "Daten": 3674, "Fo": 3675, "Slow": 3676, "burg</w>": 3677, "assung</w>": 3678, "fication</w>": 3679, "works</w>": 3680, "wards</w>": 3681, "Dazu</w>": 3682, "PRESSEMITTEILUNG</w>": 3683, "Pr": 3684, "means</w>": 3685, "Ständiger</w>": 3686, "Früh": 3687, "Agre": 3688, "La</w>": 3689, "lat": 3690, "Wettbewerb": 3691, "Transport</w>": 3692, "wegen</w>": 3693, "Beziehungen</w>": 3694, "VI</w>": 3695, "ada</w>": 3696, "ckt</w>": 3697, "299</w>": 3698, "pay": 3699, "leben</w>": 3700, "Arbeits": 3701, "Slovenia</w>": 3702, "Home</w>": 3703, "vo</w>": 3704, "cooperation</w>": 3705, "efon": 3706, "nächsten</w>": 3707, "Lei": 3708, "Rec": 3709, "fact</w>": 3710, "wth</w>": 3711, "genau</w>": 3712, "social</w>": 3713, "41</w>": 3714, "Industr": 3715, "Bem": 3716, "gesetzt</w>": 3717, "House</w>": 3718, "istan</w>": 3719, "Ihrer</w>": 3720, "innen": 3721, "Kinder</w>": 3722, "waters</w>": 3723, "dest": 3724, "kosten": 3725, "Jetzt</w>": 3726, "ines</w>": 3727, "folgen</w>": 3728, "Har": 3729, "Abkommen</w>": 3730, "financial</w>": 3731, "FÜ": 3732, "ona</w>": 3733, "alog</w>": 3734, "Stellvertreter</w>": 3735, "id": 3736, "vari": 3737, "ww": 3738, "Mai</w>": 3739, "Erklärung</w>": 3740, "Oc": 3741, "nothing</w>": 3742, "BES": 3743, "Other</w>": 3744, "seit</w>": 3745, "yl": 3746, "another</w>": 3747, "44</w>": 3748, "inc": 3749, "fül": 3750, "Nun</w>": 3751, "keinen</w>": 3752, "ultural</w>": 3753, "1040</w>": 3754, "48</w>": 3755, "rep": 3756, "economic</w>": 3757, "words</w>": 3758, "85</w>": 3759, "Community</w>": 3760, "Fil": 3761, "Zur</w>": 3762, "water</w>": 3763, "79</w>": 3764, "Lie": 3765, "lungs": 3766, "continue</w>": 3767, "angenommen</w>": 3768, "Grund</w>": 3769, "läge</w>": 3770, "Slowak": 3771, "Also</w>": 3772, "perf": 3773, "www</w>": 3774, "Wal": 3775, "ST</w>": 3776, "hör": 3777, "suchen</w>": 3778, "wirtschaf": 3779, "bani</w>": 3780, "ology</w>": 3781, "43</w>": 3782, "För": 3783, "law</w>": 3784, "illa</w>": 3785, "FISCH": 3786, "Regel": 3787, "Spe": 3788, "appe": 3789, "IG": 3790, "NE</w>": 3791, "language</w>": 3792, "Colombani</w>": 3793, "item</w>": 3794, "änd": 3795, "commit": 3796, "JUSTI": 3797, "große</w>": 3798, "Financial</w>": 3799, "Änderungsantrag</w>": 3800, "WI": 3801, "ource</w>": 3802, "CIAL</w>": 3803, "Aus</w>": 3804, "Cro": 3805, "away</w>": 3806, "group</w>": 3807, "A5</w>": 3808, "Handel</w>": 3809, "little</w>": 3810, "EIT</w>": 3811, "Feh": 3812, "doing</w>": 3813, "risis</w>": 3814, "Lett": 3815, "leist": 3816, "shof</w>": 3817, "Energy</w>": 3818, "control</w>": 3819, "teile</w>": 3820, "links</w>": 3821, "Fischer": 3822, "Lithuania</w>": 3823, "53</w>": 3824, "Hum": 3825, "currently</w>": 3826, "hist": 3827, "ow</w>": 3828, "live</w>": 3829, "cks</w>": 3830, "comments</w>": 3831, "dürfen</w>": 3832, "until</w>": 3833, "Slowenien</w>": 3834, "Cost": 3835, "Als</w>": 3836, "ources</w>": 3837, "führen</w>": 3838, "Liste</w>": 3839, "Feder": 3840, "but": 3841, "Anne": 3842, "bau</w>": 3843, "isher": 3844, "Rumän": 3845, "Steu": 3846, "total</w>": 3847, "Gesam": 3848, "Estonia</w>": 3849, "spolitik</w>": 3850, "500</w>": 3851, "ith</w>": 3852, "darauf</w>": 3853, "Herren</w>": 3854, "Vizep": 3855, "Pressekontakt</w>": 3856, "38</w>": 3857, "March</w>": 3858, "rest</w>": 3859, "ftliche</w>": 3860, "ective</w>": 3861, "eicht</w>": 3862, "use": 3863, "eien</w>": 3864, "Val": 3865, "ash</w>": 3866, "Gewä": 3867, "include</w>": 3868, "steps</w>": 3869, "Bri": 3870, "ik</w>": 3871, "particular</w>": 3872, "ehmig": 3873, "lidar": 3874, "govern": 3875, "ZIEH": 3876, "organis": 3877, "Romania</w>": 3878, "Damen</w>": 3879, "2014</w>": 3880, "MP": 3881, "erwar": 3882, "joy</w>": 3883, "55</w>": 3884, "Ukra": 3885, "auth": 3886, "Mein": 3887, "lows</w>": 3888, "Latvia</w>": 3889, "budget</w>": 3890, "Lösung</w>": 3891, "Ide": 3892, "extre": 3893, "Cent": 3894, "Programm": 3895, "fully</w>": 3896, "Estland</w>": 3897, "Am</w>": 3898, "ditional</w>": 3899, "vier</w>": 3900, "commun": 3901, "ändern</w>": 3902, "ended</w>": 3903, "opin": 3904, "beson": 3905, "klar</w>": 3906, "Litauen</w>": 3907, "become</w>": 3908, "RELA": 3909, "minutes</w>": 3910, "tungs": 3911, "gegen": 3912, "ocus</w>": 3913, "Flug": 3914, "company</w>": 3915, "Geld</w>": 3916, "prä": 3917, "ül": 3918, "Then</w>": 3919, "entfer": 3920, "BEZIEH": 3921, "discus": 3922, "73</w>": 3923, "zens</w>": 3924, "Red</w>": 3925, "floor</w>": 3926, "Entscheidung</w>": 3927, "Lettland</w>": 3928, "Fi": 3929, "Of</w>": 3930, "ve": 3931, "tiger</w>": 3932, "Fig": 3933, "English</w>": 3934, "81</w>": 3935, "bedeu": 3936, "Georgi": 3937, "sagte</w>": 3938, "mess": 3939, "third</w>": 3940, "besondere</w>": 3941, "42</w>": 3942, "grat": 3943, "88</w>": 3944, "transport</w>": 3945, "comple": 3946, "prac": 3947, "lon": 3948, "general</w>": 3949, "Schritte</w>": 3950, "maj": 3951, "markt</w>": 3952, "denke</w>": 3953, "Micha": 3954, "Stadt</w>": 3955, "ändert</w>": 3956, "Policy</w>": 3957, "Bug": 3958, "BEZIEHUNGEN</w>": 3959, "Kra": 3960, "dustri": 3961, "EG": 3962, "esse</w>": 3963, "Binnen": 3964, "deli": 3965, "correc": 3966, "verfügbar</w>": 3967, "Acc": 3968, "orities</w>": 3969, "mehr": 3970, "ues</w>": 3971, "betrifft</w>": 3972, "special</w>": 3973, "Politik</w>": 3974, "95</w>": 3975, "chten</w>": 3976, "Rule</w>": 3977, "12": 3978, "Ri": 3979, "ichte</w>": 3980, "seri": 3981, "könnte</w>": 3982, "Juni</w>": 3983, "Can": 3984, "glich": 3985, "Gibt</w>": 3986, "After</w>": 3987, "Main</w>": 3988, "offers</w>": 3989, "Slovak": 3990, "rema": 3991, "Vertra": 3992, "hoffe</w>": 3993, "Produkte</w>": 3994, "Lebens": 3995, "entschei": 3996, "AT</w>": 3997, "Rah": 3998, "working</w>": 3999, "ersten</w>": 4000, "achst": 4001, "halte</w>": 4002, "1998</w>": 4003, "never</w>": 4004, "otos</w>": 4005, "Tages": 4006, "Kann</w>": 4007, "Kontak": 4008, "not": 4009, "ias</w>": 4010, "Verkehr</w>": 4011, "concerns</w>": 4012, "pen": 4013, "sieht</w>": 4014, "ferenz</w>": 4015, "ihn</w>": 4016, "reason</w>": 4017, "ya</w>": 4018, "erstellt</w>": 4019, "anz</w>": 4020, "Europas</w>": 4021, "ID</w>": 4022, "setzen</w>": 4023, "Tschechische</w>": 4024, "Da</w>": 4025, "Dienst": 4026, "sector</w>": 4027, "Umwelt": 4028, "bleibt</w>": 4029, "öffnet</w>": 4030, "bieten</w>": 4031, "groß": 4032, "142</w>": 4033, "Länder</w>": 4034, "Haushal": 4035, "tention</w>": 4036, "jekt</w>": 4037, "Allgem": 4038, "Jap": 4039, "Bulgaria</w>": 4040, "fest": 4041, "RELATIONS</w>": 4042, "vol": 4043, "Stat": 4044, "Gewässer</w>": 4045, "03": 4046, "Herz": 4047, "Windows</w>": 4048, "Strategie</w>": 4049, "Gä": 4050, "Tür": 4051, "value</w>": 4052, "Rumänien</w>": 4053, "Angebo": 4054, "Reform</w>": 4055, "Belli": 4056, "children</w>": 4057, "QU": 4058, "Proz": 4059, "tools</w>": 4060, "prices</w>": 4061, "Ra": 4062, "spä": 4063, "ulti": 4064, "Wis": 4065, "ames</w>": 4066, "gend": 4067, "located</w>": 4068, "hau": 4069, "gener": 4070, "riter": 4071, "84</w>": 4072, "Haus</w>": 4073, "Heute</w>": 4074, "Sal": 4075, "je</w>": 4076, "step</w>": 4077, "Mag": 4078, "mä": 4079, "Geschäf": 4080, "Belliard</w>": 4081, "akzep": 4082, "ergie</w>": 4083, "Regionen</w>": 4084, "address</w>": 4085, "legal</w>": 4086, "region": 4087, "WIRTSCHAFT</w>": 4088, "dien": 4089, "Vert": 4090, "gern</w>": 4091, "Demokrati": 4092, "Vol": 4093, "Far": 4094, "Hand": 4095, "uten</w>": 4096, "Slovakia</w>": 4097, "Beh": 4098, "nu": 4099, "applic": 4100, "Partner": 4101, "looking</w>": 4102, "ose</w>": 4103, "necessary</w>": 4104, "83</w>": 4105, "San": 4106, "bab": 4107, "schen": 4108, "nationale</w>": 4109, "lange</w>": 4110, "Verfügung</w>": 4111, "reform</w>": 4112, "him</w>": 4113, "OMI": 4114, "Rolle</w>": 4115, "fal": 4116, "unt</w>": 4117, "Bank</w>": 4118, "Dinge</w>": 4119, "Written</w>": 4120, "46</w>": 4121, "Pap": 4122, "ists</w>": 4123, "reibung</w>": 4124, "zes</w>": 4125, "ITY</w>": 4126, "Glob": 4127, "Bl": 4128, "mate</w>": 4129, "trac": 4130, "ously</w>": 4131, "dividu": 4132, "tures</w>": 4133, "Bulgarien</w>": 4134, "AS": 4135, "kung</w>": 4136, "eili": 4137, "security</w>": 4138, "Barro": 4139, "bleiben</w>": 4140, "ef</w>": 4141, "gether</w>": 4142, "Schul": 4143, "Cre": 4144, "entwick": 4145, "citi": 4146, "ication</w>": 4147, "whole</w>": 4148, "74</w>": 4149, "EF": 4150, "van</w>": 4151, "portun": 4152, "diffic": 4153, "tor": 4154, "zweite</w>": 4155, "experi": 4156, "Gol": 4157, "wa</w>": 4158, "ware</w>": 4159, "zieht</w>": 4160, "World</w>": 4161, "Annex</w>": 4162, "coming</w>": 4163, "izi": 4164, "ki</w>": 4165, "abel</w>": 4166, "tical</w>": 4167, "Current</w>": 4168, "RO</w>": 4169, "denti": 4170, "particip": 4171, "LAND": 4172, "Innovation</w>": 4173, "left</w>": 4174, "Det": 4175, "befindet</w>": 4176, "gleich": 4177, "Ukraine</w>": 4178, "sf": 4179, "lemen</w>": 4180, "Juli</w>": 4181, "OS</w>": 4182, "Tour": 4183, "simply</w>": 4184, "amily</w>": 4185, "Schriftliche</w>": 4186, "Amend": 4187, "Slowakei</w>": 4188, "Era": 4189, "Zentr": 4190, "thers</w>": 4191, "Preise</w>": 4192, "Apart": 4193, "Not": 4194, "Schi": 4195, "management</w>": 4196, "Release</w>": 4197, "vers</w>": 4198, "Bud": 4199, "58</w>": 4200, "ury</w>": 4201, "sel</w>": 4202, "since</w>": 4203, "Nur</w>": 4204, "vement</w>": 4205, "unterstützen</w>": 4206, "DER": 4207, "INHAL": 4208, "zierung</w>": 4209, "Not</w>": 4210, "Erfolg</w>": 4211, "got</w>": 4212, "racy</w>": 4213, "sequ": 4214, "ätze</w>": 4215, "GEMEIN": 4216, "BUS": 4217, "Sek": 4218, "lein</w>": 4219, "Aug": 4220, "sicher</w>": 4221, "cing</w>": 4222, "quis</w>": 4223, "unik": 4224, "aly": 4225, "telefon": 4226, "Benutz": 4227, "ALL": 4228, "Kat": 4229, "aller</w>": 4230, "WTO</w>": 4231, "gency</w>": 4232, "wohl</w>": 4233, "hö": 4234, "raum</w>": 4235, "employment</w>": 4236, "fes": 4237, "final</w>": 4238, "big</w>": 4239, "chall": 4240, "International</w>": 4241, "produ": 4242, "ziert</w>": 4243, "Health</w>": 4244, "ah</w>": 4245, "sam</w>": 4246, "weis</w>": 4247, "top</w>": 4248, "Blo": 4249, "Leben</w>": 4250, "gement</w>": 4251, "ling</w>": 4252, "erreichen</w>": 4253, "ums</w>": 4254, "gehört</w>": 4255, "Inst": 4256, "solution</w>": 4257, "ticle</w>": 4258, "Bildung</w>": 4259, "Ni": 4260, "ahn": 4261, "gesehen</w>": 4262, "gerne</w>": 4263, "needed</w>": 4264, "CONTEN": 4265, "lexi": 4266, "hen</w>": 4267, "anit": 4268, "Tex": 4269, "UT": 4270, "equi": 4271, "ths</w>": 4272, "Fri": 4273, "result</w>": 4274, "Ja</w>": 4275, "äre</w>": 4276, "kli": 4277, "alogue</w>": 4278, "verschied": 4279, "From</w>": 4280, "amo": 4281, "Version</w>": 4282, "seite</w>": 4283, "ruf": 4284, "62</w>": 4285, "ellent</w>": 4286, "complet": 4287, "role</w>": 4288, "ternal</w>": 4289, "SK": 4290, "breakfast</w>": 4291, "Agreement</w>": 4292, "Educ": 4293, "Eben": 4294, "kind</w>": 4295, "vious</w>": 4296, "68</w>": 4297, "consu": 4298, "Zugang</w>": 4299, "SONSTIGES</w>": 4300, "glie": 4301, "freu": 4302, "ORT</w>": 4303, "August</w>": 4304, "Namen</w>": 4305, "Rue</w>": 4306, "ws": 4307, "achie": 4308, "mitted</w>": 4309, "Don": 4310, "Wachst": 4311, "porte": 4312, "Subject</w>": 4313, "91</w>": 4314, "given</w>": 4315, "Ris": 4316, "Vis": 4317, "iting</w>": 4318, "Today</w>": 4319, "ette</w>": 4320, "democ": 4321, "Kap": 4322, "common</w>": 4323, "hierzu</w>": 4324, "fortun": 4325, "DEL": 4326, "licht</w>": 4327, "gende</w>": 4328, "rong</w>": 4329, "success</w>": 4330, "With</w>": 4331, "Vorsit": 4332, "Michael</w>": 4333, "EV": 4334, "Ins": 4335, "ika</w>": 4336, "Durch": 4337, "entfernt</w>": 4338, "veral</w>": 4339, "FOR</w>": 4340, "Wichtig": 4341, "four</w>": 4342, "rän": 4343, "uren</w>": 4344, "bekann": 4345, "Verwal": 4346, "gespro": 4347, "ultation</w>": 4348, "uel</w>": 4349, "resse</w>": 4350, "Ministry</w>": 4351, "Beitrag</w>": 4352, "Zi": 4353, "pay</w>": 4354, "ones</w>": 4355, "pose</w>": 4356, "ihnen</w>": 4357, "package</w>": 4358, "nahm</w>": 4359, "De</w>": 4360, "GER": 4361, "LU": 4362, "Sü": 4363, "ANNE": 4364, "assistance</w>": 4365, "geführt</w>": 4366, "proposals</w>": 4367, "Next</w>": 4368, "develop": 4369, "WEL": 4370, "ss": 4371, "Ort</w>": 4372, "turn</w>": 4373, "schriften</w>": 4374, "telefonisch</w>": 4375, "genu": 4376, "General": 4377, "71</w>": 4378, "Pf": 4379, "large</w>": 4380, "car</w>": 4381, "ena</w>": 4382, "Will</w>": 4383, "94</w>": 4384, "fang</w>": 4385, "Mittel</w>": 4386, "zurück</w>": 4387, "home</w>": 4388, "ini</w>": 4389, "ils</w>": 4390, "mitt": 4391, "KL": 4392, "cause</w>": 4393, "cher": 4394, "gelegt</w>": 4395, "costs</w>": 4396, "TER</w>": 4397, "certain": 4398, "Presid": 4399, "happen</w>": 4400, "BUSIN": 4401, "Many</w>": 4402, "regel": 4403, "programm": 4404, "nice</w>": 4405, "weiß</w>": 4406, "within</w>": 4407, "pflich": 4408, "Sti": 4409, "progress</w>": 4410, "März</w>": 4411, "Education</w>": 4412, "min</w>": 4413, "1997</w>": 4414, "Beg": 4415, "test</w>": 4416, "chi": 4417, "endet</w>": 4418, "using</w>": 4419, "benö": 4420, "richtig</w>": 4421, "ategor": 4422, "Gesundheit</w>": 4423, "guests</w>": 4424, "Davi": 4425, "affen</w>": 4426, "exam": 4427, "63</w>": 4428, "dau": 4429, "mein</w>": 4430, "inf": 4431, "Proc": 4432, "GES": 4433, "short</w>": 4434, "Urteil</w>": 4435, "handelt</w>": 4436, "Federal</w>": 4437, "crisis</w>": 4438, "vert": 4439, "grei": 4440, "Trans": 4441, "Außen": 4442, "positive</w>": 4443, "schie": 4444, "voll</w>": 4445, "help": 4446, "Geschäfts": 4447, "Zus": 4448, "meeting</w>": 4449, "Bürger</w>": 4450, "FRA": 4451, "Hab": 4452, "149</w>": 4453, "Ausschuss</w>": 4454, "BUSINESS</w>": 4455, "Sli": 4456, "sha": 4457, "asp": 4458, "Region</w>": 4459, "ßerdem</w>": 4460, "opportun": 4461, "acceptable</w>": 4462, "Dez": 4463, "dgment</w>": 4464, "bedeutet</w>": 4465, "Schutz</w>": 4466, "Ihrem</w>": 4467, "getan</w>": 4468, "January</w>": 4469, "Fac": 4470, "tions": 4471, "Before</w>": 4472, "Betrifft</w>": 4473, "Russia</w>": 4474, "Frühst": 4475, "Boo": 4476, "bst": 4477, "zeug": 4478, "Frauen</w>": 4479, "splan</w>": 4480, "product</w>": 4481, "Up": 4482, "mot": 4483, "will": 4484, "ander</w>": 4485, "lities</w>": 4486, "ECU</w>": 4487, "direkt</w>": 4488, "Net": 4489, "Pu": 4490, "meiner</w>": 4491, "erungs": 4492, "führung</w>": 4493, "unserem</w>": 4494, "game</w>": 4495, "moment</w>": 4496, "erst</w>": 4497, "halt</w>": 4498, "billi": 4499, "Figures</w>": 4500, "CUL": 4501, "urs": 4502, "wert</w>": 4503, "apart": 4504, "besser</w>": 4505, "German</w>": 4506, "Klicken</w>": 4507, "gemeinsame</w>": 4508, "PH": 4509, "led</w>": 4510, "nie</w>": 4511, "Kenn": 4512, "house</w>": 4513, "atives</w>": 4514, "Näh": 4515, "Bau": 4516, "OH": 4517, "elleicht</w>": 4518, "Türk": 4519, "cke</w>": 4520, "Einige</w>": 4521, "Summ": 4522, "benef": 4523, "Barroso</w>": 4524, "77</w>": 4525, "terstat": 4526, "ungsp": 4527, "stuff</w>": 4528, "ads</w>": 4529, "cker</w>": 4530, "yo": 4531, "institu": 4532, "asch": 4533, "aments</w>": 4534, "Spiel</w>": 4535, "Relations</w>": 4536, "simple</w>": 4537, "47</w>": 4538, "GA": 4539, "schutz</w>": 4540, "together</w>": 4541, "ritt": 4542, "Bemerk": 4543, "Förderung</w>": 4544, "Jah": 4545, "Russ": 4546, "Energie</w>": 4547, "rägt</w>": 4548, "graphics</w>": 4549, "FÜR</w>": 4550, "DS</w>": 4551, "international</w>": 4552, "jeden</w>": 4553, "hatte</w>": 4554, "aufen</w>": 4555, "Verbesser": 4556, "close</w>": 4557, "VERK": 4558, "December</w>": 4559, "strategy</w>": 4560, "mäß": 4561, "Grap": 4562, "bew": 4563, "Ansprech": 4564, "9396</w>": 4565, "DEN": 4566, "Text</w>": 4567, "Danke</w>": 4568, "Time</w>": 4569, "zun": 4570, "Pat": 4571, "Hintergrund": 4572, "notified</w>": 4573, "Action</w>": 4574, "Cli": 4575, "Hal": 4576, "non</w>": 4577, "ANNEX</w>": 4578, "hand</w>": 4579, "elles</w>": 4580, "Speci": 4581, "Interior</w>": 4582, "wendung</w>": 4583, "Meinung</w>": 4584, "wers</w>": 4585, "rufbar</w>": 4586, "Dom": 4587, "Jan</w>": 4588, "statements</w>": 4589, "Regional</w>": 4590, "ced</w>": 4591, "anks</w>": 4592, "Anhang</w>": 4593, "scheint</w>": 4594, "Mig": 4595, "orig": 4596, "CHT</w>": 4597, "rechte</w>": 4598, "Free</w>": 4599, "VOR": 4600, "mework</w>": 4601, "Gerichtshof</w>": 4602, "Dabei</w>": 4603, "strö": 4604, "europäischen</w>": 4605, "custom": 4606, "based</w>": 4607, "zurück": 4608, "EXTERNAL</w>": 4609, "Nu": 4610, "Unser</w>": 4611, "beiden</w>": 4612, "Tab": 4613, "nten</w>": 4614, "ebenfalls</w>": 4615, "Graphi": 4616, "IT</w>": 4617, "tar": 4618, "plac": 4619, "Personen</w>": 4620, "Mat": 4621, "iet</w>": 4622, "tors</w>": 4623, "vision</w>": 4624, "Türkei</w>": 4625, "Gon": 4626, "ised</w>": 4627, "vorschriften</w>": 4628, "human</w>": 4629, "tegration</w>": 4630, "66</w>": 4631, "mental</w>": 4632, "eig": 4633, "hows</w>": 4634, "itself</w>": 4635, "agung</w>": 4636, "eller</w>": 4637, "VERKEH": 4638, "76</w>": 4639, "PER": 4640, "book</w>": 4641, "dungen</w>": 4642, "stimmen</w>": 4643, "Priv": 4644, "pop": 4645, "ine": 4646, "hes": 4647, "single</w>": 4648, "poli": 4649, "gesprochen</w>": 4650, "Ol": 4651, "abrufbar</w>": 4652, "ingungen</w>": 4653, "Bewertung</w>": 4654, "DA": 4655, "aden</w>": 4656, "holi": 4657, "Cooperation</w>": 4658, "annt</w>": 4659, "field</w>": 4660, "David</w>": 4661, "chte</w>": 4662, "tiert</w>": 4663, "notwen": 4664, "Ass": 4665, "uli": 4666, "invol": 4667, "Kosten</w>": 4668, "ap</w>": 4669, "gemacht</w>": 4670, "Links</w>": 4671, "Rei": 4672, "Tit": 4673, "bestimm": 4674, "Commissions</w>": 4675, "private</w>": 4676, "letter</w>": 4677, "Clu": 4678, "FOL": 4679, "food</w>": 4680, "selves</w>": 4681, "Kommission": 4682, "LIN": 4683, "ested</w>": 4684, "procedures</w>": 4685, "IA</w>": 4686, "Zahl": 4687, "ero</w>": 4688, "industr": 4689, "rid</w>": 4690, "adds</w>": 4691, "benach": 4692, "Wichtigste</w>": 4693, "hot": 4694, "condi": 4695, "Turkey</w>": 4696, "attention</w>": 4697, "Kultur</w>": 4698, "Sam": 4699, "individu": 4700, "subject</w>": 4701, "priority</w>": 4702, "duction</w>": 4703, "Entschließung</w>": 4704, "far": 4705, "aran": 4706, "aty</w>": 4707, "aut</w>": 4708, "Cop": 4709, "Berlin</w>": 4710, "gleich</w>": 4711, "ights</w>": 4712, "makes</w>": 4713, "Musi": 4714, "Ansprechpartner</w>": 4715, "St</w>": 4716, "Tri": 4717, "blick</w>": 4718, "355</w>": 4719, "Sor": 4720, "ko</w>": 4721, "mean</w>": 4722, "RON": 4723, "Market</w>": 4724, "Pot": 4725, "BIL": 4726, "eln</w>": 4727, "PA": 4728, "Conclu": 4729, "Afric": 4730, "Empfeh": 4731, "Berichterstat": 4732, "bringen</w>": 4733, "Projekte</w>": 4734, "Cap": 4735, "Dig": 4736, "darüber</w>": 4737, "reasons</w>": 4738, "ang": 4739, "ahn</w>": 4740, "derzeit</w>": 4741, "Erweit": 4742, "Madam</w>": 4743, "October</w>": 4744, "cover</w>": 4745, "Gonz": 4746, "My": 4747, "gegeben</w>": 4748, "sy": 4749, "anim": 4750, "Natürlich</w>": 4751, "Gruppe</w>": 4752, "mers</w>": 4753, "implement": 4754, "denn</w>": 4755, "charge</w>": 4756, "dump": 4757, "anies</w>": 4758, "move</w>": 4759, "Only</w>": 4760, "Air": 4761, "Hor": 4762, "tigkeit</w>": 4763, "org</w>": 4764, "Dezember</w>": 4765, "ead</w>": 4766, "lo</w>": 4767, "lag": 4768, "adur": 4769, "marquis</w>": 4770, "nehmer</w>": 4771, "below</w>": 4772, "AUSSEN": 4773, "Fel": 4774, "JA": 4775, "bed</w>": 4776, "urg": 4777, "Bedeut": 4778, "Vorschläge</w>": 4779, "isheries</w>": 4780, "59</w>": 4781, "cu": 4782, "ought</w>": 4783, "retur": 4784, "lang</w>": 4785, "Video</w>": 4786, "Mehr": 4787, "Pau": 4788, "ref": 4789, "schul": 4790, "deed</w>": 4791, "endly</w>": 4792, "Werde</w>": 4793, "Januar</w>": 4794, "EK": 4795, "hor": 4796, "growth</w>": 4797, "limit": 4798, "lose</w>": 4799, "ächst</w>": 4800, "Hier": 4801, "ups</w>": 4802, "Online</w>": 4803, "longer</w>": 4804, "Lou": 4805, "euro</w>": 4806, "nei": 4807, "spok": 4808, "code</w>": 4809, "passi": 4810, "sta": 4811, "Prote": 4812, "SA": 4813, "rely</w>": 4814, "users</w>": 4815, "fortunately</w>": 4816, "Cl": 4817, "ommissar</w>": 4818, "kämpfung</w>": 4819, "Hu": 4820, "äd": 4821, "ery</w>": 4822, "297</w>": 4823, "citizens</w>": 4824, "int": 4825, "mach": 4826, "ains</w>": 4827, "Phi": 4828, "reiben</w>": 4829, "Bild</w>": 4830, "opinion</w>": 4831, "dort</w>": 4832, "essi": 4833, "deal</w>": 4834, "Schritt</w>": 4835, "255</w>": 4836, "freuen</w>": 4837, "Graphik</w>": 4838, "basi": 4839, "digung</w>": 4840, "72</w>": 4841, "TV</w>": 4842, "hät": 4843, "wrong</w>": 4844, "asse</w>": 4845, "Projekt</w>": 4846, "edu": 4847, "tioned</w>": 4848, "Therefore</w>": 4849, "Beschäftigung</w>": 4850, "82</w>": 4851, "DP</w>": 4852, "Ok": 4853, "Menschen": 4854, "Afri": 4855, "art</w>": 4856, "FER": 4857, "Aufgabe</w>": 4858, "ishing</w>": 4859, "Disk": 4860, "Erweiterung</w>": 4861, "DEN</w>": 4862, "Kontrol": 4863, "PS</w>": 4864, "för": 4865, "wing</w>": 4866, "Rechtssache</w>": 4867, "centre</w>": 4868, "ove</w>": 4869, "tiv</w>": 4870, "cost</w>": 4871, "schaften</w>": 4872, "benachrich": 4873, "Slides": 4874, "asser": 4875, "verkehr</w>": 4876, "Av": 4877, "zäh": 4878, "environment</w>": 4879, "road</w>": 4880, "systems</w>": 4881, "PROGRA": 4882, "Millionen</w>": 4883, "Christop": 4884, "Tage</w>": 4885, "Weit": 4886, "follows</w>": 4887, "person</w>": 4888, "board</w>": 4889, "Sache</w>": 4890, "CK": 4891, "ord</w>": 4892, "Minuten</w>": 4893, "bereit</w>": 4894, "sionen</w>": 4895, "aussch": 4896, "asser</w>": 4897, "spezi": 4898, "stop</w>": 4899, "Willkommen</w>": 4900, "MIT": 4901, "research</w>": 4902, "Sar": 4903, "ren": 4904, "Andro": 4905, "Bedeutung</w>": 4906, "IK": 4907, "ken": 4908, "def": 4909, "Amendment</w>": 4910, "benachrichtigt</w>": 4911, "DO": 4912, "edi": 4913, "scher</w>": 4914, "gest</w>": 4915, "hren</w>": 4916, "clean</w>": 4917, "Isra": 4918, "CL": 4919, "Lab": 4920, "ubl": 4921, "medi": 4922, "soon</w>": 4923, "300</w>": 4924, "Sc": 4925, "che": 4926, "GR": 4927, "Ha": 4928, "face</w>": 4929, "sse</w>": 4930, "minist": 4931, "Form": 4932, "investment</w>": 4933, "Tagesordnung</w>": 4934, "Der": 4935, "training</w>": 4936, "respect</w>": 4937, "Verordnung</w>": 4938, "Paris</w>": 4939, "Mitteilung</w>": 4940, "ppe</w>": 4941, "relations</w>": 4942, "Redner</w>": 4943, "kurz</w>": 4944, "Note</w>": 4945, "largement</w>": 4946, "unterstützt</w>": 4947, "9586</w>": 4948, "Den</w>": 4949, "ises</w>": 4950, "state</w>": 4951, "CHER": 4952, "Ergebnis</w>": 4953, "Mis": 4954, "allem</w>": 4955, "ola</w>": 4956, "ziehen</w>": 4957, "kan": 4958, "stag</w>": 4959, "ash": 4960, "2020</w>": 4961, "Chin": 4962, "vielen</w>": 4963, "emand</w>": 4964, "ANG": 4965, "dence</w>": 4966, "ared</w>": 4967, "speak</w>": 4968, "accept</w>": 4969, "objectives</w>": 4970, "Phili": 4971, "dont</w>": 4972, "ov": 4973, "actions</w>": 4974, "ordn": 4975, "consider": 4976, "Slideshows</w>": 4977, "Loc": 4978, "family</w>": 4979, "zentr": 4980, "erreicht</w>": 4981, "Michel</w>": 4982, "GO": 4983, "ENER": 4984, "ellschaft</w>": 4985, "fring": 4986, "informationen</w>": 4987, "87</w>": 4988, "EB": 4989, "ban</w>": 4990, "during</w>": 4991, "Japan</w>": 4992, "power</w>": 4993, "Innern</w>": 4994, "zo": 4995, "Gleich": 4996, "Mc": 4997, "IONS</w>": 4998, "UB": 4999, "kar": 5000, "pt</w>": 5001, "Ref</w>": 5002, "web</w>": 5003, "Demokratie</w>": 5004, "ehmen</w>": 5005, "Forschung</w>": 5006, "CD</w>": 5007, "Met": 5008, "wichtigsten</w>": 5009, "member</w>": 5010, "once</w>": 5011, "eigent": 5012, "Sto": 5013, "VERKEHR</w>": 5014, "App": 5015, "pa": 5016, "Europe": 5017, "Anti": 5018, "concludes</w>": 5019, "Judgment</w>": 5020, "account</w>": 5021, "ick</w>": 5022, "ESC</w>": 5023, "Dafür</w>": 5024, "remains</w>": 5025, "ECON": 5026, "joint</w>": 5027, "Madrid</w>": 5028, "Gäste</w>": 5029, "Leit": 5030, "wan": 5031, "ele</w>": 5032, "Leg": 5033, "pu": 5034, "ita</w>": 5035, "download</w>": 5036, "goti": 5037, "KOMM": 5038, "Hol": 5039, "connec": 5040, "health</w>": 5041, "Gesamt": 5042, "AUSSENBEZIEHUNGEN</w>": 5043, "bert</w>": 5044, "everything</w>": 5045, "difficult</w>": 5046, "DG</w>": 5047, "dam": 5048, "ux</w>": 5049, "bereich</w>": 5050, "Heraus": 5051, "Hinweis</w>": 5052, "Tor": 5053, "Want</w>": 5054, "cat": 5055, "achten</w>": 5056, "ISS": 5057, "erhin</w>": 5058, "region</w>": 5059, "Vertrags": 5060, "06": 5061, "gum": 5062, "Schwer": 5063, "Richtung</w>": 5064, "völlig</w>": 5065, "typ": 5066, "auti": 5067, "Kop": 5068, "bus</w>": 5069, "fron": 5070, "unds</w>": 5071, "ands</w>": 5072, "egation</w>": 5073, "wichtige</w>": 5074, "Africa</w>": 5075, "Igl": 5076, "night</w>": 5077, "uter</w>": 5078, "specific</w>": 5079, "Link</w>": 5080, "mut</w>": 5081, "Indi": 5082, "Andre": 5083, "negoti": 5084, "several</w>": 5085, "grund": 5086, "Debatte</w>": 5087, "writing</w>": 5088, "Aid</w>": 5089, "sab": 5090, "eption</w>": 5091, "Mobile</w>": 5092, "excellent</w>": 5093, "ull</w>": 5094, "ume</w>": 5095, "insgesamt</w>": 5096, "type</w>": 5097, "wenig</w>": 5098, "strukt": 5099, "fy</w>": 5100, "schnell</w>": 5101, "stainable</w>": 5102, "Lsz": 5103, "tra</w>": 5104, "Download</w>": 5105, "certainly</w>": 5106, "Bus": 5107, "GEN</w>": 5108, "send</w>": 5109, "ulla</w>": 5110, "zimmer</w>": 5111, "Which</w>": 5112, "Plan</w>": 5113, "TH</w>": 5114, "note</w>": 5115, "spricht</w>": 5116, "esting</w>": 5117, "occ": 5118, "voting</w>": 5119, "BESCH": 5120, "inten": 5121, "pool</w>": 5122, "Kons": 5123, "called</w>": 5124, "ste": 5125, "motion</w>": 5126, "ungsverfahren</w>": 5127, "glichkeiten</w>": 5128, "54</w>": 5129, "ever</w>": 5130, "sition</w>": 5131, "Erst": 5132, "Gonzal": 5133, "check</w>": 5134, "reco": 5135, "metho": 5136, "teilen</w>": 5137, "1000</w>": 5138, "Lszl</w>": 5139, "pat": 5140, "stoff": 5141, "news</w>": 5142, "Verantwor": 5143, "princip": 5144, "Regions</w>": 5145, "allgem": 5146, "Neue</w>": 5147, "protec": 5148, "Nein</w>": 5149, "Seiten</w>": 5150, "versch": 5151, "Sup": 5152, "esses</w>": 5153, "00352</w>": 5154, "Um</w>": 5155, "remain</w>": 5156, "extrem": 5157, "ench</w>": 5158, "dumping</w>": 5159, "Igles": 5160, "Ton": 5161, "enter": 5162, "anst": 5163, "changes</w>": 5164, "kor": 5165, "xis</w>": 5166, "fortable</w>": 5167, "tron": 5168, "streng": 5169, "Investitionen</w>": 5170, "tische</w>": 5171, "Schlu": 5172, "genug</w>": 5173, "Gonzalez</w>": 5174, "term</w>": 5175, "Antrag</w>": 5176, "Ern": 5177, "teilt</w>": 5178, "body</w>": 5179, "directive</w>": 5180, "BAR": 5181, "Nicht</w>": 5182, "Marisa</w>": 5183, "Software</w>": 5184, "Adresse</w>": 5185, "ide</w>": 5186, "session</w>": 5187, "friendly</w>": 5188, "zen": 5189, "wide</w>": 5190, "frei": 5191, "sollen</w>": 5192, "Koso": 5193, "3355</w>": 5194, "ce": 5195, "autom": 5196, "sites</w>": 5197, "bildung</w>": 5198, "show</w>": 5199, "vollständi": 5200, "komp": 5201, "porteur</w>": 5202, "Iglesias</w>": 5203, "Sehr</w>": 5204, "dly</w>": 5205, "transpar": 5206, "78</w>": 5207, "FE</w>": 5208, "IM</w>": 5209, "hon": 5210, "Über</w>": 5211, "spr": 5212, "vil</w>": 5213, "share</w>": 5214, "wendet</w>": 5215, "applies</w>": 5216, "TURE</w>": 5217, "unver": 5218, "ached</w>": 5219, "arbeitet</w>": 5220, "Allgemeine</w>": 5221, "Dru": 5222, "heu": 5223, "changed</w>": 5224, "enthalten</w>": 5225, "moder": 5226, "dliche</w>": 5227, "your": 5228, "musi": 5229, "BER</w>": 5230, "fair</w>": 5231, "rates</w>": 5232, "ament": 5233, "samkeit</w>": 5234, "structure</w>": 5235, "Androulla</w>": 5236, "hours</w>": 5237, "stär": 5238, "lig": 5239, "follow</w>": 5240, "Contact</w>": 5241, "major</w>": 5242, "LL": 5243, "cal": 5244, "heit": 5245, "interest</w>": 5246, "proce": 5247, "Fehler</w>": 5248, "user</w>": 5249, "ENN": 5250, "unikation</w>": 5251, "Gal": 5252, "Rau": 5253, "often</w>": 5254, "Ladies</w>": 5255, "experience</w>": 5256, "Syst": 5257, "hu": 5258, "lab": 5259, "ihm</w>": 5260, "Kan": 5261, "Tu": 5262, "üssel": 5263, "funktioniert</w>": 5264, "esday</w>": 5265, "1996</w>": 5266, "job</w>": 5267, "Pan": 5268, "She</w>": 5269, "stan": 5270, "üsse</w>": 5271, "TRADE</w>": 5272, "BU": 5273, "pol": 5274, "files</w>": 5275, "Christopher</w>": 5276, "Transpar": 5277, "Wieder": 5278, "zug</w>": 5279, "Umsetzung</w>": 5280, "helfen</w>": 5281, "meinen</w>": 5282, "oto": 5283, "Priority</w>": 5284, "Govern": 5285, "Jean</w>": 5286, "Tro": 5287, "initiative</w>": 5288, "Rechte</w>": 5289, "11": 5290, "li</w>": 5291, "kannst</w>": 5292, "tour": 5293, "eres</w>": 5294, "verletz": 5295, "bel</w>": 5296, "Ministerium</w>": 5297, "ihren</w>": 5298, "ström</w>": 5299, "Nutz": 5300, "Währ": 5301, "ee</w>": 5302, "gän": 5303, "instru": 5304, "anders</w>": 5305, "gratul": 5306, "Kri": 5307, "lia</w>": 5308, "resources</w>": 5309, "Schwei": 5310, "French</w>": 5311, "FINANZ": 5312, "besonders</w>": 5313, "mission</w>": 5314, "klicken</w>": 5315, "ECONOMI": 5316, "extremely</w>": 5317, "Kor": 5318, "pe</w>": 5319, "vely</w>": 5320, "them": 5321, "fün": 5322, "fallen</w>": 5323, "wieder": 5324, "weis": 5325, "months</w>": 5326, "updates</w>": 5327, "documents</w>": 5328, "schwi": 5329, "nel</w>": 5330, "gic</w>": 5331, "geschehen</w>": 5332, "included</w>": 5333, "EWSA</w>": 5334, "Kosovo</w>": 5335, "Europäischer</w>": 5336, "letzten</w>": 5337, "ECONOMIC</w>": 5338, "3255</w>": 5339, "VE</w>": 5340, "fa": 5341, "bon</w>": 5342, "later</w>": 5343, "grün": 5344, "Aktion": 5345, "personal</w>": 5346, "Kontakt": 5347, "seiner</w>": 5348, "vered</w>": 5349, "Solidar": 5350, "required</w>": 5351, "amendment</w>": 5352, "FIS": 5353, "zer</w>": 5354, "enge</w>": 5355, "Verhand": 5356, "range</w>": 5357, "allerdings</w>": 5358, "politische</w>": 5359, "Web</w>": 5360, "MON": 5361, "UK</w>": 5362, "Wei": 5363, "fran": 5364, "atis": 5365, "oods</w>": 5366, "Def": 5367, "jeder</w>": 5368, "Bilder</w>": 5369, "EESC</w>": 5370, "aim</w>": 5371, "members</w>": 5372, "einbar": 5373, "FI": 5374, "Jos</w>": 5375, "ob</w>": 5376, "erforder": 5377, "essment</w>": 5378, "omep": 5379, "suff": 5380, "summ": 5381, "frei</w>": 5382, "denken</w>": 5383, "69</w>": 5384, "fan</w>": 5385, "iste</w>": 5386, "ented</w>": 5387, "aktion</w>": 5388, "town</w>": 5389, "MAN": 5390, "ners</w>": 5391, "gab</w>": 5392, "infring": 5393, "feel</w>": 5394, "Competition</w>": 5395, "füh": 5396, "Treaty</w>": 5397, "Yes</w>": 5398, "basis</w>": 5399, "actu": 5400, "sear": 5401, "Mitglie": 5402, "comment</w>": 5403, "56</w>": 5404, "Eig": 5405, "VON</w>": 5406, "ey": 5407, "isher</w>": 5408, "Wirtschafts": 5409, "fris": 5410, "tnis</w>": 5411, "EP": 5412, "Kal": 5413, "card</w>": 5414, "deci": 5415, "Very</w>": 5416, "298</w>": 5417, "proposed</w>": 5418, "safety</w>": 5419, "Presidency</w>": 5420, "notwendig</w>": 5421, "Sport</w>": 5422, "amili": 5423, "alisierung</w>": 5424, "happy</w>": 5425, "tivities</w>": 5426, "Russland</w>": 5427, "tes": 5428, "she": 5429, "materi": 5430, "heißt</w>": 5431, "BAL": 5432, "Sind</w>": 5433, "ley</w>": 5434, "maßnahmen</w>": 5435, "Ann": 5436, "establ": 5437, "braucht</w>": 5438, "vironmental</w>": 5439, "Oktober</w>": 5440, "solche</w>": 5441, "Forum</w>": 5442, "schrift": 5443, "omepage</w>": 5444, "SEN</w>": 5445, "regul": 5446, "Entschließungsantrag</w>": 5447, "Industrie</w>": 5448, "Lam": 5449, "risk</w>": 5450, "certain</w>": 5451, "Regulation</w>": 5452, "bit</w>": 5453, "oben</w>": 5454, "bur": 5455, "force</w>": 5456, "versity</w>": 5457, "keep</w>": 5458, "inning</w>": 5459, "Fak": 5460, "wahr": 5461, "arri": 5462, "least</w>": 5463, "forms</w>": 5464, "STRA": 5465, "gentlemen</w>": 5466, "provide</w>": 5467, "cases</w>": 5468, "ago</w>": 5469, "bericht</w>": 5470, "link</w>": 5471, "approved</w>": 5472, "DV": 5473, "cop": 5474, "justi": 5475, "work": 5476, "Qualität</w>": 5477, "Research</w>": 5478, "understand</w>": 5479, "ot</w>": 5480, "feat": 5481, "happened</w>": 5482, "mbH</w>": 5483, "Risik": 5484, "CULTURE</w>": 5485, "cation</w>": 5486, "zü": 5487, "run</w>": 5488, "expl": 5489, "schafts": 5490, "ustimm": 5491, "persön": 5492, "Vizepräsident</w>": 5493, "AG</w>": 5494, "Jac": 5495, "atory</w>": 5496, "station</w>": 5497, "cking</w>": 5498, "ending</w>": 5499, "mentioned</w>": 5500, "received</w>": 5501, "building</w>": 5502, "Hintergrundinformationen</w>": 5503, "Koh": 5504, "post": 5505, "PR": 5506, "zahl</w>": 5507, "Institu": 5508, "ading</w>": 5509, "Beispiele</w>": 5510, "practi": 5511, "software</w>": 5512, "regard</w>": 5513, "receive</w>": 5514, "legislation</w>": 5515, "Ba": 5516, "Einw": 5517, "Plan": 5518, "lö": 5519, "women</w>": 5520, "log": 5521, "promis": 5522, "apply</w>": 5523, "Folgen": 5524, "Partner</w>": 5525, "ZU": 5526, "scht</w>": 5527, "Bon": 5528, "fur": 5529, "weniger</w>": 5530, "Vorschri": 5531, "LAND</w>": 5532, "Saf": 5533, "Zahlen</w>": 5534, "erle": 5535, "Park</w>": 5536, "design</w>": 5537, "hinzu</w>": 5538, "Du": 5539, "Ham": 5540, "PC</w>": 5541, "sea</w>": 5542, "Dialog</w>": 5543, "EUs</w>": 5544, "mind</w>": 5545, "ites</w>": 5546, "neu</w>": 5547, "berg</w>": 5548, "trag": 5549, "obs</w>": 5550, "regist": 5551, "bott</w>": 5552, "FT": 5553, "San</w>": 5554, "aim": 5555, "Stre": 5556, "message</w>": 5557, "GUNG</w>": 5558, "schön": 5559, "image</w>": 5560, "maxim": 5561, "mobil": 5562, "priorities</w>": 5563, "1995</w>": 5564, "GmbH</w>": 5565, "Kamp": 5566, "pap": 5567, "tisch</w>": 5568, "clearly</w>": 5569, "dle</w>": 5570, "Verf": 5571, "forderungen</w>": 5572, "ete</w>": 5573, "allow": 5574, "eless</w>": 5575, "progra": 5576, "ihrer</w>": 5577, "fore": 5578, "Abbott</w>": 5579, "ept</w>": 5580, "betre": 5581, "Terror": 5582, "hotels</w>": 5583, "ähere</w>": 5584, "Mari": 5585, "Interesse</w>": 5586, "danken</w>": 5587, "Wissen": 5588, "150</w>": 5589, "vation</w>": 5590, "angen</w>": 5591, "INS": 5592, "global</w>": 5593, "EI</w>": 5594, "dom": 5595, "prec": 5596, "isions</w>": 5597, "entzieht</w>": 5598, "platz</w>": 5599, "Eng": 5600, "geschi": 5601, "Vertragsverletz": 5602, "gül": 5603, "zt</w>": 5604, "ÄR": 5605, "una</w>": 5606, "supp": 5607, "Geschichte</w>": 5608, "äußer": 5609, "insbesondere</w>": 5610, "OUT</w>": 5611, "vel</w>": 5612, "TRANSPORT</w>": 5613, "zul": 5614, "Erk": 5615, "Unterneh": 5616, "Wachstum</w>": 5617, "principle</w>": 5618, "Cha": 5619, "bare</w>": 5620, "ri</w>": 5621, "initi": 5622, "tete</w>": 5623, "laden</w>": 5624, "ologie</w>": 5625, "BIP</w>": 5626, "Kunden</w>": 5627, "Name</w>": 5628, "drin": 5629, "verständ": 5630, "spielen</w>": 5631, "ural</w>": 5632, "choo": 5633, "the": 5634, "Buch": 5635, "Members</w>": 5636, "VII</w>": 5637, "jour": 5638, "Initiative</w>": 5639, "Statisti": 5640, "ported</w>": 5641, "period</w>": 5642, "response</w>": 5643, "idea</w>": 5644, "Funk": 5645, "Krise</w>": 5646, "came</w>": 5647, "ativen</w>": 5648, "285</w>": 5649, "DELS": 5650, "Sil": 5651, "ha</w>": 5652, "rele": 5653, "steh": 5654, "week</w>": 5655, "dagegen</w>": 5656, "IES</w>": 5657, "zusammen": 5658, "size</w>": 5659, "Europes</w>": 5660, "trau": 5661, "ähigkeit</w>": 5662, "Employment</w>": 5663, "coura": 5664, "autiful</w>": 5665, "National</w>": 5666, "don": 5667, "The": 5668, "Infra": 5669, "Abge": 5670, "shop</w>": 5671, "equ": 5672, "hard</w>": 5673, "utions</w>": 5674, "erwäh": 5675, "etwa</w>": 5676, "competition</w>": 5677, "Article</w>": 5678, "BR": 5679, "ats": 5680, "active</w>": 5681, "ailed</w>": 5682, "Prioritäts": 5683, "Angebot</w>": 5684, "inal</w>": 5685, "schö": 5686, "takes</w>": 5687, "eigenen</w>": 5688, "Prioritätsach": 5689, "65": 5690, "745": 5691, "ader</w>": 5692, "rich</w>": 5693, "beach</w>": 5694, "edom</w>": 5695, "meisten</w>": 5696, "arian</w>": 5697, "Änderungen</w>": 5698, "Gegen": 5699, "SPRA": 5700, "UC": 5701, "nes</w>": 5702, "activ": 5703, "Außerdem</w>": 5704, "ications</w>": 5705, "helpful</w>": 5706, "top": 5707, "stagung</w>": 5708, "Every": 5709, "Fäl": 5710, "hne</w>": 5711, "serious</w>": 5712, "Vertei": 5713, "Näch": 5714, "befinden</w>": 5715, "lines</w>": 5716, "linien</w>": 5717, "ikan": 5718, "tax": 5719, "Leider</w>": 5720, "schriftlich</w>": 5721, "Culture</w>": 5722, "hilfe</w>": 5723, "completely</w>": 5724, "tory</w>": 5725, "guaran": 5726, "create</w>": 5727, "Sci": 5728, "bad</w>": 5729, "cro": 5730, "beendet</w>": 5731, "smus</w>": 5732, "Mac": 5733, "my": 5734, "wahl</w>": 5735, "chs</w>": 5736, "lieren</w>": 5737, "utely</w>": 5738, "Bürger": 5739, "Kare": 5740, "bit": 5741, "mus": 5742, "oom</w>": 5743, "ganze</w>": 5744, "hören</w>": 5745, "Haben</w>": 5746, "ISSION</w>": 5747, "ton": 5748, "schaft": 5749, "komme</w>": 5750, "spokes": 5751, "Bos": 5752, "DA</w>": 5753, "ama</w>": 5754, "EUROPÄISCHE</w>": 5755, "responsibility</w>": 5756, "Benutzer</w>": 5757, "Mol": 5758, "agi": 5759, "Viele</w>": 5760, "histor": 5761, "By</w>": 5762, "ange</w>": 5763, "Unfortunately</w>": 5764, "ski</w>": 5765, "Mel": 5766, "tax</w>": 5767, "ING": 5768, "Luft": 5769, "complete</w>": 5770, "Be</w>": 5771, "video</w>": 5772, "Vertrag</w>": 5773, "usammen</w>": 5774, "February</w>": 5775, "bekannt</w>": 5776, "fordert</w>": 5777, "vic": 5778, "ques</w>": 5779, "teilungen</w>": 5780, "Strukt": 5781, "ote</w>": 5782, "ity": 5783, "stly</w>": 5784, "add</w>": 5785, "ager</w>": 5786, "content</w>": 5787, "Reser": 5788, "Entwicklungs": 5789, "verkehr": 5790, "John</w>": 5791, "Just</w>": 5792, "agenda</w>": 5793, "cally</w>": 5794, "aci": 5795, "terin</w>": 5796, "Organis": 5797, "Does</w>": 5798, "programmes</w>": 5799, "industry</w>": 5800, "LAN": 5801, "Wäh": 5802, "Gef": 5803, "EITEN</w>": 5804, "WITH": 5805, "Dre": 5806, "IX</w>": 5807, "Pa": 5808, "additional</w>": 5809, "AREN": 5810, "richtige</w>": 5811, "making</w>": 5812, "choice</w>": 5813, "Ebene</w>": 5814, "ode</w>": 5815, "tut</w>": 5816, "xed</w>": 5817, "Konferenz</w>": 5818, "Klima": 5819, "SPRACHE</w>": 5820, "GD</w>": 5821, "Netz": 5822, "drü": 5823, "list": 5824, "space</w>": 5825, "five</w>": 5826, "event</w>": 5827, "sense</w>": 5828, "Iran</w>": 5829, "Ratstagung</w>": 5830, "Rahmen</w>": 5831, "wsletter</w>": 5832, "Have</w>": 5833, "Markt</w>": 5834, "Joe</w>": 5835, "GY</w>": 5836, "WIC": 5837, "bra": 5838, "refer": 5839, "elling</w>": 5840, "zeigen</w>": 5841, "Insgesamt</w>": 5842, "Vorschriften</w>": 5843, "64": 5844, "Imm": 5845, "flexi": 5846, "währ": 5847, "either</w>": 5848, "COM</w>": 5849, "Frühstück</w>": 5850, "Dor": 5851, "effect</w>": 5852, "AUSSPRACHE</w>": 5853, "erforderlich</w>": 5854, "rat</w>": 5855, "sh</w>": 5856, "für": 5857, "itäten</w>": 5858, "ECspokes": 5859, "zeichnet</w>": 5860, "FISCHER": 5861, "policies</w>": 5862, "WITHOUT</w>": 5863, "Alex": 5864, "atic</w>": 5865, "reply</w>": 5866, "Bur": 5867, "Email</w>": 5868, "Mal</w>": 5869, "ragen</w>": 5870, "ricultural</w>": 5871, "Americ": 5872, "learn</w>": 5873, "Karel</w>": 5874, "Ele": 5875, "Fret": 5876, "Sim": 5877, "SEC": 5878, "fonds</w>": 5879, "gle</w>": 5880, "asked</w>": 5881, "Informations": 5882, "figures</w>": 5883, "Verbesserung</w>": 5884, "GDP</w>": 5885, "HR": 5886, "pon": 5887, "ät</w>": 5888, "alia</w>": 5889, "ams</w>": 5890, "Dire": 5891, "tragen</w>": 5892, "cript</w>": 5893, "Restaurant</w>": 5894, "Prin": 5895, "conditions</w>": 5896, "Verantwortung</w>": 5897, "FR</w>": 5898, "Fund</w>": 5899, "South</w>": 5900, "haps</w>": 5901, "weisen</w>": 5902, "Fraktion</w>": 5903, "Take</w>": 5904, "VO": 5905, "zös": 5906, "erten</w>": 5907, "mension</w>": 5908, "erfolgt</w>": 5909, "iten</w>": 5910, "Instru": 5911, "Ländern</w>": 5912, "OHNE</w>": 5913, "Zweit": 5914, "comfortable</w>": 5915, "enthält</w>": 5916, "Two</w>": 5917, "weiterhin</w>": 5918, "Welt": 5919, "Staaten</w>": 5920, "Prioritäten</w>": 5921, "Jav": 5922, "Use</w>": 5923, "gets</w>": 5924, "einzel": 5925, "Woche</w>": 5926, "Prü": 5927, "itor": 5928, "änder": 5929, "Fern": 5930, "erfol": 5931, "Beschl": 5932, "AGRI": 5933, "MARKET</w>": 5934, "Fretwell</w>": 5935, "Cal": 5936, "cra": 5937, "rau": 5938, "vil": 5939, "enjoy</w>": 5940, "Besuch</w>": 5941, "Each</w>": 5942, "East</w>": 5943, "fli": 5944, "punkte</w>": 5945, "Inner": 5946, "seen</w>": 5947, "Datei</w>": 5948, "FINANCIAL</w>": 5949, "avig": 5950, "Israel</w>": 5951, "Pay": 5952, "seinen</w>": 5953, "ENVI": 5954, "eigentlich</w>": 5955, "FF": 5956, "Geg": 5957, "RIS": 5958, "VEL": 5959, "email</w>": 5960, "ERUNG</w>": 5961, "sogar</w>": 5962, "Security</w>": 5963, "Aufmerk": 5964, "Parlaments</w>": 5965, "bia</w>": 5966, "dor": 5967, "kommissar</w>": 5968, "Stabil": 5969, "VII": 5970, "wirkungen</w>": 5971, "Sicherh": 5972, "Latest</w>": 5973, "gehören</w>": 5974, "ering</w>": 5975, "schle": 5976, "verbesser": 5977, "love</w>": 5978, "aging</w>": 5979, "ENT</w>": 5980, "stelle</w>": 5981, "Haushalts": 5982, "MIN": 5983, "above</w>": 5984, "groups</w>": 5985, "iete</w>": 5986, "Barcel": 5987, "UMWEL": 5988, "ien": 5989, "chen": 5990, "tiven</w>": 5991, "cia</w>": 5992, "Hoch": 5993, "eva</w>": 5994, "Fortschritte</w>": 5995, "Dra": 5996, "Les": 5997, "week": 5998, "minister": 5999, "Darüber</w>": 6000, "Aufmerksamkeit</w>": 6001, "475</w>": 6002, "Wa": 6003, "fest</w>": 6004, "unacceptable</w>": 6005, "stimme</w>": 6006, "LAN</w>": 6007, "sprogramm</w>": 6008, "Vassiliou</w>": 6009, "leistungen</w>": 6010, "achieved</w>": 6011, "Blick</w>": 6012, "Sho": 6013, "sb": 6014, "zusammen</w>": 6015, "entsprech": 6016, "ungsst": 6017, "standards</w>": 6018, "ENVIRON": 6019, "30": 6020, "realis": 6021, "teren</w>": 6022, "Maß": 6023, "Green</w>": 6024, "amendments</w>": 6025, "TRANSPAREN": 6026, "Vot": 6027, "Inn</w>": 6028, "beru": 6029, "effici": 6030, "anstal": 6031, "Good</w>": 6032, "ba": 6033, "bs</w>": 6034, "weg</w>": 6035, "Schen": 6036, "gelten</w>": 6037, "Zahl</w>": 6038, "ruch</w>": 6039, "concern</w>": 6040, "HANDELS": 6041, "Binnenmarkt</w>": 6042, "SM": 6043, "allein</w>": 6044, "contribution</w>": 6045, "FRE": 6046, "union</w>": 6047, "dient</w>": 6048, "Angaben</w>": 6049, "seems</w>": 6050, "vorh": 6051, "ba</w>": 6052, "ambi": 6053, "Inf": 6054, "daran</w>": 6055, "utzt</w>": 6056, "Platz</w>": 6057, "schluss</w>": 6058, "BI": 6059, "Villa</w>": 6060, "hen": 6061, "hof</w>": 6062, "ti</w>": 6063, "ators</w>": 6064, "eindeu": 6065, "rup": 6066, "nationalen</w>": 6067, "dro": 6068, "zwei": 6069, "unded</w>": 6070, "wesent": 6071, "FISHER": 6072, "57</w>": 6073, "ring": 6074, "organ": 6075, "actly</w>": 6076, "activities</w>": 6077, "teu": 6078, "offen</w>": 6079, "goes</w>": 6080, "nific": 6081, "gewäh": 6082, "Kü": 6083, "ition</w>": 6084, "zz": 6085, "previous</w>": 6086, "herz": 6087, "Linux</w>": 6088, "Dritt": 6089, "PP": 6090, "Seit</w>": 6091, "rik</w>": 6092, "main": 6093, "tell</w>": 6094, "wählen</w>": 6095, "perfect</w>": 6096, "democracy</w>": 6097, "gn": 6098, "nutzen</w>": 6099, "News</w>": 6100, "Common</w>": 6101, "Kun": 6102, "Or</w>": 6103, "setzt</w>": 6104, "sidi": 6105, "dialogue</w>": 6106, "Verpflich": 6107, "nature</w>": 6108, "Protection</w>": 6109, "wser</w>": 6110, "einander</w>": 6111, "ERN": 6112, "economy</w>": 6113, "amount</w>": 6114, "Schluß": 6115, "uses</w>": 6116, "tex": 6117, "ourc": 6118, "gerade</w>": 6119, "production</w>": 6120, "Gipf": 6121, "Groß": 6122, "Themen</w>": 6123, "Gründe</w>": 6124, "Philippe</w>": 6125, "publ": 6126, "ort": 6127, "ard": 6128, "Manuel</w>": 6129, "Technical</w>": 6130, "humanit": 6131, "impact</w>": 6132, "Einzelheiten</w>": 6133, "Barcelona</w>": 6134, "sa</w>": 6135, "wise</w>": 6136, "ane</w>": 6137, "SCHL": 6138, "konkre": 6139, "anything</w>": 6140, "Zimm": 6141, "rable</w>": 6142, "desig": 6143, "MENTS</w>": 6144, "fession": 6145, "FISHERIES</w>": 6146, "Om": 6147, "leh": 6148, "ater": 6149, "000": 6150, "direction</w>": 6151, "Malta</w>": 6152, "Wahr": 6153, "bem": 6154, "vent</w>": 6155, "modern</w>": 6156, "Well</w>": 6157, "gefunden</w>": 6158, "known</w>": 6159, "others</w>": 6160, "großen</w>": 6161, "Folgen</w>": 6162, "rapporteur</w>": 6163, "application</w>": 6164, "Log": 6165, "Pen": 6166, "fish</w>": 6167, "wle": 6168, "nete</w>": 6169, "bindung</w>": 6170, "choose</w>": 6171, "Business</w>": 6172, "WA": 6173, "dest</w>": 6174, "ror</w>": 6175, "verwendet</w>": 6176, "ideal</w>": 6177, "ANGEL": 6178, "front</w>": 6179, "frü": 6180, "near</w>": 6181, "box</w>": 6182, "behandel": 6183, "taking</w>": 6184, "thanks</w>": 6185, "lege</w>": 6186, "Markt": 6187, "Consu": 6188, "LAGE</w>": 6189, "Vertragsverletzungsverfahren</w>": 6190, "separ": 6191, "External</w>": 6192, "purpose</w>": 6193, "Focus</w>": 6194, "ined</w>": 6195, "Thurs": 6196, "INT": 6197, "laub</w>": 6198, "erhäl": 6199, "SICHER": 6200, "network</w>": 6201, "lesen</w>": 6202, "aud</w>": 6203, "Food</w>": 6204, "Kern": 6205, "erungen</w>": 6206, "alone</w>": 6207, "pot": 6208, "besu": 6209, "oppel": 6210, "Diskus": 6211, "Agr": 6212, "mise</w>": 6213, "äm": 6214, "Wahl</w>": 6215, "UND": 6216, "internet</w>": 6217, "guages</w>": 6218, "funding</w>": 6219, "Februar</w>": 6220, "ku": 6221, "pan": 6222, "ault</w>": 6223, "proper": 6224, "ariat</w>": 6225, "everyone</w>": 6226, "AI": 6227, "sst</w>": 6228, "won": 6229, "asur</w>": 6230, "bekommen</w>": 6231, "team</w>": 6232, "Industri": 6233, "option</w>": 6234, "Wird</w>": 6235, "Ord": 6236, "Englisch</w>": 6237, "Nähe</w>": 6238, "Dub": 6239, "El</w>": 6240, "Hans</w>": 6241, "Would</w>": 6242, "ables</w>": 6243, "beautiful</w>": 6244, "Anfang</w>": 6245, "finanzi": 6246, "identi": 6247, "mal": 6248, "zone</w>": 6249, "indic": 6250, "because</w>": 6251, "statement</w>": 6252, "ächlich</w>": 6253, "Open</w>": 6254, "Energie": 6255, "Folgendes</w>": 6256, "Somm": 6257, "TRI": 6258, "gyp": 6259, "glichkeit</w>": 6260, "though</w>": 6261, "ops</w>": 6262, "handeln</w>": 6263, "Balk": 6264, "Fischerei</w>": 6265, "hy": 6266, "sil": 6267, "leave</w>": 6268, "achieve</w>": 6269, "Erfahr": 6270, "Geld": 6271, "Defence</w>": 6272, "Hand</w>": 6273, "ometer</w>": 6274, "los": 6275, "schließlich</w>": 6276, "letzte</w>": 6277, "congratul": 6278, "Webseite</w>": 6279, "Bild": 6280, "MARKT</w>": 6281, "soziale</w>": 6282, "holiday</w>": 6283, "Eff": 6284, "UK": 6285, "ai</w>": 6286, "oft</w>": 6287, "samen</w>": 6288, "auer</w>": 6289, "ERES</w>": 6290, "Dimas</w>": 6291, "whe": 6292, "talking</w>": 6293, "heart</w>": 6294, "Thursday</w>": 6295, "Prop": 6296, "Wil": 6297, "rund</w>": 6298, "gek": 6299, "geöffnet</w>": 6300, "Anmerk": 6301, "welche</w>": 6302, "talk</w>": 6303, "Erstens</w>": 6304, "sent</w>": 6305, "enk</w>": 6306, "Staats": 6307, "Verkehr": 6308, "EGEN": 6309, "meinem</w>": 6310, "ison</w>": 6311, "JUSTICE</w>": 6312, "Pass": 6313, "Stand</w>": 6314, "matters</w>": 6315, "waste</w>": 6316, "Ci": 6317, "SMinister</w>": 6318, "yle</w>": 6319, "eingehen</w>": 6320, "exactly</w>": 6321, "propri": 6322, "install": 6323, "Komment": 6324, "Jeder</w>": 6325, "74513</w>": 6326, "ination</w>": 6327, "markets</w>": 6328, "Team</w>": 6329, "Investment</w>": 6330, "Bundesminister</w>": 6331, "RATES</w>": 6332, "DEVEL": 6333, "antworten</w>": 6334, "regional</w>": 6335, "Erasmus</w>": 6336, "fünf</w>": 6337, "camp": 6338, "sal": 6339, "racht</w>": 6340, "apartment</w>": 6341, "DEVELOP": 6342, "Le</w>": 6343, "Pet": 6344, "tran": 6345, "Alles</w>": 6346, "RAU": 6347, "richten</w>": 6348, "Communication</w>": 6349, "Mitglieder</w>": 6350, "care</w>": 6351, "ld": 6352, "enk": 6353, "lied</w>": 6354, "exclu": 6355, "Weise</w>": 6356, "kostenlos</w>": 6357, "discussion</w>": 6358, "Room</w>": 6359, "Yet</w>": 6360, "zahl": 6361, "Stav": 6362, "genehmig": 6363, "framework</w>": 6364, "veness</w>": 6365, "Server</w>": 6366, "einfach": 6367, "continu": 6368, "IIa</w>": 6369, "search</w>": 6370, "ENVIRONMENT</w>": 6371, "heits": 6372, "elements</w>": 6373, "Abstimmungsst": 6374, "länd": 6375, "Donner": 6376, "music</w>": 6377, "Abstimmungsstunde</w>": 6378, "Lond": 6379, "care": 6380, "sei": 6381, "theless</w>": 6382, "conference</w>": 6383, "stron": 6384, "held</w>": 6385, "05": 6386, "fs</w>": 6387, "local</w>": 6388, "entation</w>": 6389, "Option</w>": 6390, "leider</w>": 6391, "concerned</w>": 6392, "Costasur</w>": 6393, "Tar": 6394, "bath": 6395, "reality</w>": 6396, "1994</w>": 6397, "increase</w>": 6398, "Handels": 6399, "depend": 6400, "ENTWIC": 6401, "SH": 6402, "dam</w>": 6403, "tem": 6404, "steu": 6405, "stadt</w>": 6406, "plant</w>": 6407, "sug": 6408, "essential</w>": 6409, "ommissarin</w>": 6410, "picture</w>": 6411, "INNEN": 6412, "AM</w>": 6413, "erzi": 6414, "ffet</w>": 6415, "took</w>": 6416, "räsid": 6417, "minim": 6418, "Form</w>": 6419, "Anti</w>": 6420, "Sprache</w>": 6421, "allowed</w>": 6422, "Fest": 6423, "yr": 6424, "rieben</w>": 6425, "ebal": 6426, "obser": 6427, "Check</w>": 6428, "anträge</w>": 6429, "Antworten</w>": 6430, "Christi": 6431, "hesion</w>": 6432, "AGRICULTURE</w>": 6433, "ENTWICKL": 6434, "KM": 6435, "Pas": 6436, "acy</w>": 6437, "Reform": 6438, "beträgt</w>": 6439, "presented</w>": 6440, "double</w>": 6441, "examples</w>": 6442, "Dem</w>": 6443, "Dok</w>": 6444, "sale</w>": 6445, "forderung</w>": 6446, "regulation</w>": 6447, "neues</w>": 6448, "directly</w>": 6449, "Bio": 6450, "restaurant</w>": 6451, "Zweck</w>": 6452, "Hei": 6453, "MITTEILUNG</w>": 6454, "ilities</w>": 6455, "ett</w>": 6456, "igkeiten</w>": 6457, "she</w>": 6458, "explan": 6459, "absolutely</w>": 6460, "Geschäftsordnung</w>": 6461, "Bar</w>": 6462, "BINNEN": 6463, "DIS": 6464, "Nation": 6465, "Berat": 6466, "warum</w>": 6467, "Poli": 6468, "sicherheit</w>": 6469, "Leist": 6470, "Wettbewerb</w>": 6471, "Geh": 6472, "Sta": 6473, "cket</w>": 6474, "fig</w>": 6475, "tiges</w>": 6476, "lernen</w>": 6477, "recommend": 6478, "LANDWIRTSCHAFT</w>": 6479, "greifen</w>": 6480, "22": 6481, "chise</w>": 6482, "freund": 6483, "offen": 6484, "usses</w>": 6485, "rieg</w>": 6486, "Support</w>": 6487, "Zweitens</w>": 6488, "Fisheries</w>": 6489, "HEITEN</w>": 6490, "Mot": 6491, "Wasser</w>": 6492, "easi": 6493, "ier</w>": 6494, "oppo": 6495, "gene</w>": 6496, "Verhandlungen</w>": 6497, "Inneres</w>": 6498, "beziehungen</w>": 6499, "PRESSE</w>": 6500, "Piebal": 6501, "Details</w>": 6502, "Chi": 6503, "cle</w>": 6504, "appoin": 6505, "lue</w>": 6506, "ategory</w>": 6507, "HOME</w>": 6508, "Steuer": 6509, "Goo": 6510, "WES": 6511, "ddle</w>": 6512, "ularly</w>": 6513, "ext": 6514, "lätz": 6515, "companies</w>": 6516, "require": 6517, "Piebalgs</w>": 6518, "Best</w>": 6519, "win</w>": 6520, "ense</w>": 6521, "dio": 6522, "gesp": 6523, "Auswirkungen</w>": 6524, "Such</w>": 6525, "expected</w>": 6526, "Kapit": 6527, "Wasser": 6528, "statisti": 6529, "abhän": 6530, "such": 6531, "Martin</w>": 6532, "Stellung": 6533, "Both</w>": 6534, "Central</w>": 6535, "Stavros</w>": 6536, "Hö": 6537, "Haf": 6538, "Lau": 6539, "gessen</w>": 6540, "REN</w>": 6541, "fun</w>": 6542, "Worte</w>": 6543, "Süd": 6544, "cm</w>": 6545, "innt</w>": 6546, "cription</w>": 6547, "Aspek": 6548, "Hon": 6549, "Kategor": 6550, "innovation</w>": 6551, "schre": 6552, "Dien": 6553, "sachen</w>": 6554, "Änderungs": 6555, "ternative</w>": 6556, "Croati": 6557, "mehrere</w>": 6558, "hätte</w>": 6559, "SICHERH": 6560, "City</w>": 6561, "Over": 6562, "liert</w>": 6563, "terms</w>": 6564, "Genehmig": 6565, "Sea</w>": 6566, "jedem</w>": 6567, "started</w>": 6568, "prüfen</w>": 6569, "advant": 6570, "JUSTIZ</w>": 6571, "opportunity</w>": 6572, "automati": 6573, "erhältlich</w>": 6574, "Donnerstag</w>": 6575, "400</w>": 6576, "ache</w>": 6577, "geändert</w>": 6578, "INTER": 6579, "zufri": 6580, "Gründen</w>": 6581, "geschieht</w>": 6582, "Oder</w>": 6583, "gangen</w>": 6584, "Internal</w>": 6585, "Som": 6586, "Wall": 6587, "unsch</w>": 6588, "behal": 6589, "leicht</w>": 6590, "Tun": 6591, "by": 6592, "op</w>": 6593, "angebo": 6594, "Stad": 6595, "About</w>": 6596, "buch</w>": 6597, "Verbraucher": 6598, "willkommen</w>": 6599, "bauen</w>": 6600, "vorgesch": 6601, "document</w>": 6602, "return</w>": 6603, "dlich</w>": 6604, "kri": 6605, "nachhal": 6606, "Vielleicht</w>": 6607, "created</w>": 6608, "wünschen</w>": 6609, "ECspokesAntoine</w>": 6610, "anced</w>": 6611, "zeugnisse</w>": 6612, "Bec": 6613, "Keine</w>": 6614, "prise</w>": 6615, "Secur": 6616, "Jon": 6617, "Ori": 6618, "late</w>": 6619, "ehic": 6620, "enteil</w>": 6621, "vir": 6622, "park</w>": 6623, "Park": 6624, "media</w>": 6625, "Exc": 6626, "Beihil": 6627, "Mod": 6628, "Western</w>": 6629, "Gün": 6630, "indeed</w>": 6631, "wiesen</w>": 6632, "situ": 6633, "Post": 6634, "gefähr": 6635, "Technische</w>": 6636, "DEVELOPMENT</w>": 6637, "57": 6638, "run": 6639, "til": 6640, "Ansicht</w>": 6641, "genen</w>": 6642, "zige</w>": 6643, "Afgh": 6644, "Van</w>": 6645, "leich": 6646, "erfül": 6647, "else</w>": 6648, "sichtlich</w>": 6649, "umfasst</w>": 6650, "UMWELT</w>": 6651, "OLA": 6652, "multi": 6653, "pages</w>": 6654, "tot": 6655, "yright</w>": 6656, "erweise</w>": 6657, "Ansatz</w>": 6658, "ney</w>": 6659, "promise</w>": 6660, "Zeitpunkt</w>": 6661, "07": 6662, "Ged": 6663, "Lim": 6664, "zah": 6665, "enlargement</w>": 6666, "appropri": 6667, "Finally</w>": 6668, "payment</w>": 6669, "correct</w>": 6670, "Wert</w>": 6671, "ching</w>": 6672, "ehn</w>": 6673, "wort</w>": 6674, "zeichnung</w>": 6675, "nö": 6676, "path</w>": 6677, "race</w>": 6678, "ador</w>": 6679, "werk</w>": 6680, "lässt</w>": 6681, "amilie</w>": 6682, "gran": 6683, "ple</w>": 6684, "Europäisches</w>": 6685, "Bekämpfung</w>": 6686, "Gemeinsame</w>": 6687, "government</w>": 6688, "actually</w>": 6689, "FISCHEREI</w>": 6690, "Get": 6691, "Ret": 6692, "Sat": 6693, "mes</w>": 6694, "schutz": 6695, "exist": 6696, "STR": 6697, "Flash</w>": 6698, "begrüße</w>": 6699, "läuft</w>": 6700, "infringement</w>": 6701, "Gegenteil</w>": 6702, "Hil": 6703, "dan</w>": 6704, "pment</w>": 6705, "tiveness</w>": 6706, "reports</w>": 6707, "verb": 6708, "spec": 6709, "Second": 6710, "young</w>": 6711, "ANGELEGEN": 6712, "ANGELEGENHEITEN</w>": 6713, "Ara": 6714, "Camp": 6715, "Gent": 6716, "mals</w>": 6717, "erster</w>": 6718, "ched</w>": 6719, "strong</w>": 6720, "brief</w>": 6721, "legislative</w>": 6722, "vertret": 6723, "passiert</w>": 6724, "Agrar": 6725, "tle</w>": 6726, "erran": 6727, "haf": 6728, "Fragest": 6729, "mechan": 6730, "soli": 6731, "Pressemitteilungen</w>": 6732, "provided</w>": 6733, "sociation</w>": 6734, "jobs</w>": 6735, "tag</w>": 6736, "üb": 6737, "org": 6738, "Integration</w>": 6739, "Andr": 6740, "daten</w>": 6741, "kosten</w>": 6742, "includes</w>": 6743, "climate</w>": 6744, "erwarten</w>": 6745, "Club</w>": 6746, "WIT": 6747, "Ziel": 6748, "tem</w>": 6749, "bringt</w>": 6750, "datab": 6751, "INNERES</w>": 6752, "veröffent": 6753, "Grand</w>": 6754, "Fragestunde</w>": 6755, "Lehr": 6756, "cul": 6757, "task</w>": 6758, "Rede</w>": 6759, "wichtiger</w>": 6760, "nächste</w>": 6761, "pleas": 6762, "wünsche</w>": 6763, "87": 6764, "Zun": 6765, "deine</w>": 6766, "inner": 6767, "viert</w>": 6768, "fahrt</w>": 6769, "Andere</w>": 6770, "Präsidenten</w>": 6771, "KA": 6772, "map</w>": 6773, "Änderung</w>": 6774, "colle": 6775, "Berichterstatter</w>": 6776, "yourself</w>": 6777, "PRI": 6778, "amental</w>": 6779, "quot": 6780, "alls</w>": 6781, "empfeh": 6782, "Kroati": 6783, "Kraft</w>": 6784, "London</w>": 6785, "OU</w>": 6786, "Ohne</w>": 6787, "sätze</w>": 6788, "tics</w>": 6789, "Most</w>": 6790, "technology</w>": 6791, "addres": 6792, "particularly</w>": 6793, "Transparenz</w>": 6794, "Homepage</w>": 6795, "anno": 6796, "stor": 6797, "DEBATE</w>": 6798, "Syri": 6799, "education</w>": 6800, "Zoll": 6801, "cru": 6802, "ÜSS": 6803, "enor": 6804, "Stär": 6805, "eph": 6806, "LICH": 6807, "benötigen</w>": 6808, "adurch</w>": 6809, "Mein</w>": 6810, "Mann</w>": 6811, "Tä": 6812, "mann</w>": 6813, "LICHE</w>": 6814, "Gemeinschaft</w>": 6815, "prüft</w>": 6816, "RIT": 6817, "tou": 6818, "ily</w>": 6819, "fügte</w>": 6820, "Anfragen</w>": 6821, "mod": 6822, "ritts": 6823, "kleine</w>": 6824, "ills</w>": 6825, "Finanzi": 6826, "prep": 6827, "INHALT</w>": 6828, "sav": 6829, "olf</w>": 6830, "Economy</w>": 6831, "Bugtra": 6832, "wledge</w>": 6833, "immedi": 6834, "orea</w>": 6835, "sicher": 6836, "Rechn": 6837, "reading</w>": 6838, "Kommunikation</w>": 6839, "Delegation</w>": 6840, "Special</w>": 6841, "program</w>": 6842, "02": 6843, "Mak": 6844, "kennen</w>": 6845, "relev": 6846, "ativ</w>": 6847, "ichtet</w>": 6848, "hoch</w>": 6849, "Auswahl</w>": 6850, "282</w>": 6851, "Bugtraq</w>": 6852, "Dro": 6853, "itt</w>": 6854, "parts</w>": 6855, "Code</w>": 6856, "essed</w>": 6857, "direct</w>": 6858, "Stimme</w>": 6859, "künfte</w>": 6860, "59": 6861, "IM": 6862, "Mex": 6863, "kten</w>": 6864, "aren</w>": 6865, "plann": 6866, "INTERNAL</w>": 6867, "beste</w>": 6868, "Regierung</w>": 6869, "objective</w>": 6870, "challenge</w>": 6871, "ourcen</w>": 6872, "BINNENMARKT</w>": 6873, "GE": 6874, "ribut": 6875, "lav</w>": 6876, "warten</w>": 6877, "trauen</w>": 6878, "Aktu": 6879, "deutlich</w>": 6880, "OPER": 6881, "Global</w>": 6882, "Jahres": 6883, "Kommissions": 6884, "Security": 6885, "BOR": 6886, "Oli": 6887, "almost</w>": 6888, "ags</w>": 6889, "finde</w>": 6890, "Convention</w>": 6891, "Traq</w>": 6892, "künf": 6893, "BugTraq</w>": 6894, "SecurityFocus</w>": 6895, "GH": 6896, "gas</w>": 6897, "Kollegen</w>": 6898, "kes": 6899, "met</w>": 6900, "amm": 6901, "towards</w>": 6902, "buy</w>": 6903, "events</w>": 6904, "editerran": 6905, "TZ": 6906, "ktionen</w>": 6907, "sprü": 6908, "fern</w>": 6909, "standing</w>": 6910, "signific": 6911, "capital</w>": 6912, "Verbraucher</w>": 6913, "SCHLUSS": 6914, "TAL</w>": 6915, "Zwei": 6916, "satis": 6917, "zent": 6918, "rela": 6919, "dex</w>": 6920, "Annahme</w>": 6921, "summer</w>": 6922, "manu": 6923, "Co</w>": 6924, "Il": 6925, "kam</w>": 6926, "abkommen</w>": 6927, "acity</w>": 6928, "verl": 6929, "ARB": 6930, "Design</w>": 6931, "decisions</w>": 6932, "Prozess</w>": 6933, "verschiedene</w>": 6934, "struktur</w>": 6935, "08": 6936, "Key</w>": 6937, "Swit": 6938, "verti": 6939, "avo": 6940, "wurf</w>": 6941, "crimin": 6942, "TAC</w>": 6943, "Priorität</w>": 6944, "charac": 6945, "sheet</w>": 6946, "KMU</w>": 6947, "Afghan": 6948, "FR": 6949, "Sig": 6950, "ny</w>": 6951, "estig": 6952, "202</w>": 6953, "aster</w>": 6954, "zept</w>": 6955, "Programms</w>": 6956, "wanted</w>": 6957, "CA</w>": 6958, "Ka": 6959, "focus</w>": 6960, "goods</w>": 6961, "oil</w>": 6962, "entur</w>": 6963, "Inhalt</w>": 6964, "ckets</w>": 6965, "ized</w>": 6966, "riteria</w>": 6967, "Aspekte</w>": 6968, "Secondly</w>": 6969, "bly</w>": 6970, "uth</w>": 6971, "anda</w>": 6972, "North</w>": 6973, "Submitted</w>": 6974, "Bedingungen</w>": 6975, "useum</w>": 6976, "Cam": 6977, "Every</w>": 6978, "High</w>": 6979, "ech</w>": 6980, "sagt</w>": 6981, "Produc": 6982, "mention</w>": 6983, "treten</w>": 6984, "upon</w>": 6985, "GIE</w>": 6986, "eigene</w>": 6987, "Haushalt</w>": 6988, "zusätz": 6989, "großer</w>": 6990, "37": 6991, "ZUS": 6992, "digen</w>": 6993, "Schn": 6994, "while</w>": 6995, "astrop": 6996, "agreed</w>": 6997, "Debian</w>": 6998, "Emis": 6999, "Got": 7000, "Mün": 7001, "bli": 7002, "ried</w>": 7003, "Stunden</w>": 7004, "gebracht</w>": 7005, "Darum</w>": 7006, "Janez</w>": 7007, "paar</w>": 7008, "practice</w>": 7009, "AF</w>": 7010, "fru": 7011, "ht</w>": 7012, "Conference</w>": 7013, "Natur": 7014, "III": 7015, "Sonder": 7016, "born</w>": 7017, "riterien</w>": 7018, "CLUS": 7019, "Croatia</w>": 7020, "DO</w>": 7021, "Kr": 7022, "Rot": 7023, "roffen</w>": 7024, "einger": 7025, "gui": 7026, "Quelle</w>": 7027, "effective</w>": 7028, "Skype</w>": 7029, "implementation</w>": 7030, "negotiations</w>": 7031, "mobile</w>": 7032, "hatten</w>": 7033, "mist": 7034, "analy": 7035, "verwenden</w>": 7036, "terror": 7037, "Veranstal": 7038, "ANLAGE</w>": 7039, "hoto</w>": 7040, "internationale</w>": 7041, "office</w>": 7042, "struction</w>": 7043, "latest</w>": 7044, "PROGRAMM": 7045, "Schengen</w>": 7046, "eindeutig</w>": 7047, "ball</w>": 7048, "cor</w>": 7049, "itäts": 7050, "pleased</w>": 7051, "druck</w>": 7052, "VIS": 7053, "VAL": 7054, "dar</w>": 7055, "Führ": 7056, "happens</w>": 7057, "bestehen</w>": 7058, "öffentliche</w>": 7059, "NAH": 7060, "individual</w>": 7061, "Cer": 7062, "tik</w>": 7063, "rather</w>": 7064, "urs</w>": 7065, "eds</w>": 7066, "din": 7067, "Grö": 7068, "funds</w>": 7069, "mont": 7070, "intro": 7071, "model</w>": 7072, "guten</w>": 7073, "menu</w>": 7074, "alisation</w>": 7075, "EUROPÄISCHER</w>": 7076, "Selbst": 7077, "Notes</w>": 7078, "TT": 7079, "worth</w>": 7080, "verstehen</w>": 7081, "flation</w>": 7082, "Allerdings</w>": 7083, "bald</w>": 7084, "Afrika</w>": 7085, "cir": 7086, "industri": 7087, "opened</w>": 7088, "aged</w>": 7089, "ingly</w>": 7090, "Spa": 7091, "darum</w>": 7092, "Person</w>": 7093, "deshalb</w>": 7094, "Kurz": 7095, "CONTENTS</w>": 7096, "Ober": 7097, "gst</w>": 7098, "kontrol": 7099, "schaffen</w>": 7100, "Dokumenten</w>": 7101, "Karte</w>": 7102, "Fusion": 7103, "FOLGER": 7104, "OLAF</w>": 7105, "icial</w>": 7106, "ling": 7107, "might</w>": 7108, "vehic": 7109, "Presse": 7110, "etzen</w>": 7111, "sofort</w>": 7112, "haltung</w>": 7113, "therine</w>": 7114, "Exp": 7115, "hear</w>": 7116, "Costa</w>": 7117, "FINANZEN</w>": 7118, "Bas": 7119, "Familie</w>": 7120, "Ost</w>": 7121, "Raum</w>": 7122, "Source</w>": 7123, "T1</w>": 7124, "Tat": 7125, "ennung</w>": 7126, "ante</w>": 7127, "stei": 7128, "RECH": 7129, "parking</w>": 7130, "duced</w>": 7131, "accord": 7132, "skontrol": 7133, "behind</w>": 7134, "walk</w>": 7135, "America</w>": 7136, "Verteidigung</w>": 7137, "database</w>": 7138, "Find</w>": 7139, "Vb</w>": 7140, "fel</w>": 7141, "ug": 7142, "spräsident</w>": 7143, "Überein": 7144, "consider</w>": 7145, "Verwaltungs": 7146, "erfolgre": 7147, "GRE": 7148, "Rad": 7149, "TR": 7150, "ming</w>": 7151, "rieren</w>": 7152, "Initi": 7153, "standard</w>": 7154, "Cle": 7155, "Day</w>": 7156, "SAM": 7157, "itable</w>": 7158, "sucht</w>": 7159, "ella</w>": 7160, "server</w>": 7161, "moun": 7162, "thern</w>": 7163, "würden</w>": 7164, "Gebiet</w>": 7165, "Start</w>": 7166, "FORM": 7167, "ai": 7168, "flu": 7169, "limited</w>": 7170, "Nord": 7171, "UN</w>": 7172, "bien</w>": 7173, "sage</w>": 7174, "ink": 7175, "igung</w>": 7176, "gig</w>": 7177, "behalten</w>": 7178, "persons</w>": 7179, "verständlich</w>": 7180, "VAT</w>": 7181, "environmental</w>": 7182, "bedarf</w>": 7183, "Anwendung</w>": 7184, "confir": 7185, "control": 7186, "weltw": 7187, "stimmt</w>": 7188, "solutions</w>": 7189, "quick": 7190, "friends</w>": 7191, "Jugend": 7192, "länder</w>": 7193, "CONCLUS": 7194, "beschreibung</w>": 7195, "technical</w>": 7196, "falsch</w>": 7197, "Zentrum</w>": 7198, "Unternehmen": 7199, "SCHLUSSFOLGER": 7200, "pret": 7201, "ico</w>": 7202, "aspects</w>": 7203, "ERNENN": 7204, "genehmigt</w>": 7205, "Afghanistan</w>": 7206, "cy": 7207, "ova</w>": 7208, "satz": 7209, "era</w>": 7210, "sten": 7211, "einigen</w>": 7212, "peace</w>": 7213, "verfügt</w>": 7214, "Blog</w>": 7215, "itoring</w>": 7216, "CO</w>": 7217, "sis</w>": 7218, "reached</w>": 7219, "esp": 7220, "ato</w>": 7221, "ungs</w>": 7222, "dow</w>": 7223, "minute</w>": 7224, "jede</w>": 7225, "Geschenk</w>": 7226, "Breakfast</w>": 7227, "Catherine</w>": 7228, "Doc": 7229, "Eis": 7230, "PE": 7231, "Pina</w>": 7232, "hold</w>": 7233, "infra": 7234, "TS1</w>": 7235, "challeng": 7236, "PHP</w>": 7237, "Hy": 7238, "dent</w>": 7239, "ip</w>": 7240, "stes</w>": 7241, "Island</w>": 7242, "Magst</w>": 7243, "billion</w>": 7244, "Kroatien</w>": 7245, "innov": 7246, "stein</w>": 7247, "schreiben</w>": 7248, "Anna</w>": 7249, "hafen</w>": 7250, "ENCE</w>": 7251, "KOM</w>": 7252, "Strand</w>": 7253, "accepted</w>": 7254, "Malm": 7255, "balance</w>": 7256, "begrüßen</w>": 7257, "SER": 7258, "med</w>": 7259, "ow": 7260, "onik</w>": 7261, "iture</w>": 7262, "dienen</w>": 7263, "Labour</w>": 7264, "Science</w>": 7265, "spective</w>": 7266, "Bern": 7267, "airport</w>": 7268, "success": 7269, "Mobiltel</w>": 7270, "Human</w>": 7271, "haupt</w>": 7272, "CONTENTS1</w>": 7273, "HANDELSPOLITIK</w>": 7274, "Google</w>": 7275, "scre": 7276, "counts</w>": 7277, "values</w>": 7278, "Flü": 7279, "grupp": 7280, "icro": 7281, "Gewin": 7282, "600</w>": 7283, "Bis</w>": 7284, "Fotos</w>": 7285, "Mau": 7286, "Mediterran": 7287, "Youth</w>": 7288, "less": 7289, "spi": 7290, "fik": 7291, "Metho": 7292, "function</w>": 7293, "TA</w>": 7294, "TRE": 7295, "back": 7296, "mar</w>": 7297, "tlichen</w>": 7298, "wesen</w>": 7299, "gele": 7300, "contains</w>": 7301, "Chance</w>": 7302, "pped</w>": 7303, "safe</w>": 7304, "Bemerkungen</w>": 7305, "review</w>": 7306, "hinzu": 7307, "gegenüber</w>": 7308, "Wed": 7309, "employ": 7310, "natural</w>": 7311, "Apartment</w>": 7312, "äußerst</w>": 7313, "Wählen</w>": 7314, "avigation</w>": 7315, "fassen</w>": 7316, "stage</w>": 7317, "asing</w>": 7318, "bring</w>": 7319, "Services</w>": 7320, "ATIONS</w>": 7321, "Arbeitsp": 7322, "Möglichkeit</w>": 7323, "COMMUN": 7324, "Reihe</w>": 7325, "Bru": 7326, "Hart": 7327, "tual</w>": 7328, "head</w>": 7329, "laufen</w>": 7330, "Nacht</w>": 7331, "Nähere</w>": 7332, "aware</w>": 7333, "center</w>": 7334, "inn</w>": 7335, "sible</w>": 7336, "vergessen</w>": 7337, "ENMinister</w>": 7338, "internal</w>": 7339, "URITY</w>": 7340, "Cho": 7341, "Ku": 7342, "oo</w>": 7343, "übri": 7344, "ahead</w>": 7345, "Stelle</w>": 7346, "Schu": 7347, "marks</w>": 7348, "unternehmen</w>": 7349, "pictures</w>": 7350, "Fischerei": 7351, "involved</w>": 7352, "Conclusions</w>": 7353, "EA</w>": 7354, "KON": 7355, "Rights</w>": 7356, "Sen": 7357, "lie</w>": 7358, "DEC": 7359, "Grenzen</w>": 7360, "Wirk": 7361, "ücksich": 7362, "shows</w>": 7363, "verstanden</w>": 7364, "Strategy</w>": 7365, "Famili": 7366, "yes</w>": 7367, "ffer</w>": 7368, "ollen</w>": 7369, "half</w>": 7370, "treffen</w>": 7371, "Vide": 7372, "Beteili": 7373, "hinaus</w>": 7374, "expect</w>": 7375, "ASS": 7376, "eo</w>": 7377, "ment": 7378, "Chanc": 7379, "Struc": 7380, "Budget</w>": 7381, "Potonik</w>": 7382, "Christian</w>": 7383, "Ash": 7384, "Bü": 7385, "Hen": 7386, "IEN</w>": 7387, "VEN": 7388, "unch</w>": 7389, "sustainable</w>": 7390, "ourselves</w>": 7391, "Finanzierung</w>": 7392, "öffentlichen</w>": 7393, "central</w>": 7394, "history</w>": 7395, "Fusionskontrol": 7396, "Ost": 7397, "Simp": 7398, "fle": 7399, "sau": 7400, "reach</w>": 7401, "extra</w>": 7402, "door</w>": 7403, "vorsch": 7404, "Casino</w>": 7405, "Datenbank</w>": 7406, "Erkki</w>": 7407, "33": 7408, "Ke": 7409, "Ress": 7410, "Tran": 7411, "dated</w>": 7412, "lien</w>": 7413, "Chil": 7414, "investig": 7415, "SECURITY</w>": 7416, "Ros": 7417, "Shar": 7418, "ieb": 7419, "ula</w>": 7420, "conf": 7421, "post</w>": 7422, "umin": 7423, "fine</w>": 7424, "soft</w>": 7425, "freedom</w>": 7426, "update</w>": 7427, "ratic</w>": 7428, "outside</w>": 7429, "purch": 7430, "INHALT1</w>": 7431, "proceed</w>": 7432, "quickly</w>": 7433, "SCHLUSSFOLGERUNGEN</w>": 7434, "1st</w>": 7435, "fam": 7436, "rent</w>": 7437, "encoura": 7438, "ligh": 7439, "viol": 7440, "Reis": 7441, "annual</w>": 7442, "ization</w>": 7443, "später</w>": 7444, "höch": 7445, "Män": 7446, "gliche</w>": 7447, "thy</w>": 7448, "Liber": 7449, "rechts</w>": 7450, "importance</w>": 7451, "erheb": 7452, "Vie": 7453, "isation</w>": 7454, "etc</w>": 7455, "plus</w>": 7456, "seln</w>": 7457, "Franz</w>": 7458, "illed</w>": 7459, "wait</w>": 7460, "bricht</w>": 7461, "Democ": 7462, "Merger</w>": 7463, "Paket</w>": 7464, "Empfehlung</w>": 7465, "DG": 7466, "Ev": 7467, "Zwei</w>": 7468, "bisher</w>": 7469, "ester": 7470, "lang": 7471, "Denn</w>": 7472, "effizi": 7473, "Joint</w>": 7474, "Natur</w>": 7475, "Wirtschafts</w>": 7476, "angezeigt</w>": 7477, "Wald": 7478, "Ombud": 7479, "OS": 7480, "gesellschaft</w>": 7481, "glichen</w>": 7482, "politischen</w>": 7483, "anderes</w>": 7484, "ATION": 7485, "Phone</w>": 7486, "Full</w>": 7487, "MEN</w>": 7488, "nungen</w>": 7489, "round</w>": 7490, "wimm": 7491, "zig</w>": 7492, "tzdem</w>": 7493, "Perspek": 7494, "Beide</w>": 7495, "partners</w>": 7496, "Norway</w>": 7497, "consultation</w>": 7498, "MEDI": 7499, "völk": 7500, "bein": 7501, "ults</w>": 7502, "bers</w>": 7503, "betra": 7504, "herr": 7505, "nerin</w>": 7506, "azza</w>": 7507, "Lissab": 7508, "feld</w>": 7509, "CAR": 7510, "statt": 7511, "POINT": 7512, "neuer</w>": 7513, "laration</w>": 7514, "APPOINT": 7515, "played</w>": 7516, "sidiar": 7517, "Mediterranean</w>": 7518, "Rub": 7519, "Sm": 7520, "istet</w>": 7521, "Those</w>": 7522, "emente</w>": 7523, "Bir": 7524, "DT</w>": 7525, "past</w>": 7526, "zeit": 7527, "exper": 7528, "covered</w>": 7529, "endlich</w>": 7530, "aint</w>": 7531, "Produkt</w>": 7532, "society</w>": 7533, "lätze</w>": 7534, "ZUSA": 7535, "50": 7536, "erfahren</w>": 7537, "treat": 7538, "Industry</w>": 7539, "customers</w>": 7540, "atsächlich</w>": 7541, "ZUSAMMEN": 7542, "MER": 7543, "criteria</w>": 7544, "ec</w>": 7545, "rea</w>": 7546, "regar": 7547, "perform": 7548, "überhaupt</w>": 7549, "Dennoch</w>": 7550, "SIDEN": 7551, "responsible</w>": 7552, "Switzer": 7553, "LA</w>": 7554, "stated</w>": 7555, "VIII</w>": 7556, "George</w>": 7557, "Chinas</w>": 7558, "Imp": 7559, "accomm": 7560, "aily</w>": 7561, "Lisbon</w>": 7562, "Wedn": 7563, "250</w>": 7564, "nennen</w>": 7565, "verage</w>": 7566, "TEI": 7567, "etzung</w>": 7568, "skommissarin</w>": 7569, "gewis": 7570, "editors</w>": 7571, "68": 7572, "eden</w>": 7573, "enh": 7574, "rank": 7575, "Prodi</w>": 7576, "Belar": 7577, "section</w>": 7578, "Implement": 7579, "Mittelme": 7580, "Flughafen</w>": 7581, "DVD</w>": 7582, "CEC": 7583, "Tat</w>": 7584, "fassung</w>": 7585, "ÄN": 7586, "ara</w>": 7587, "emis": 7588, "Europol</w>": 7589, "LIFE</w>": 7590, "preis</w>": 7591, "supported</w>": 7592, "Tagung</w>": 7593, "Single</w>": 7594, "fight</w>": 7595, "simil": 7596, "ativ": 7597, "tert</w>": 7598, "Alban": 7599, "schließen</w>": 7600, "Questions</w>": 7601, "amera</w>": 7602, "Kenntnis</w>": 7603, "Wednesday</w>": 7604, "Air</w>": 7605, "gleichen</w>": 7606, "buffet</w>": 7607, "weiteren</w>": 7608, "Firstly</w>": 7609, "bezü": 7610, "Government</w>": 7611, "Funktion</w>": 7612, "WITH</w>": 7613, "ML</w>": 7614, "Rem": 7615, "Vir": 7616, "mei": 7617, "zip</w>": 7618, "Dateien</w>": 7619, "Öffentliche</w>": 7620, "benefit</w>": 7621, "Digital</w>": 7622, "Cust": 7623, "Mess": 7624, "fit</w>": 7625, "flä": 7626, "xes</w>": 7627, "viously</w>": 7628, "Chem": 7629, "laub": 7630, "Monate</w>": 7631, "CCI</w>": 7632, "Standard</w>": 7633, "Visit</w>": 7634, "Vo": 7635, "WEI": 7636, "fs": 7637, "ktor</w>": 7638, "sett": 7639, "programm</w>": 7640, "Genehmigung</w>": 7641, "lik": 7642, "dete</w>": 7643, "forts</w>": 7644, "geeig": 7645, "says</w>": 7646, "mente</w>": 7647, "richtung</w>": 7648, "Great</w>": 7649, "Urlaub</w>": 7650, "größte</w>": 7651, "CONCLUSIONS</w>": 7652, "99": 7653, "Sant": 7654, "sei</w>": 7655, "andlung</w>": 7656, "Vorbereit": 7657, "Management</w>": 7658, "Regeln</w>": 7659, "ECH": 7660, "mag": 7661, "berto</w>": 7662, "umen</w>": 7663, "Beru": 7664, "Data</w>": 7665, "lautet</w>": 7666, "beginnen</w>": 7667, "Paper</w>": 7668, "100": 7669, "VAN</w>": 7670, "Wat": 7671, "big": 7672, "außer": 7673, "schlä": 7674, "administ": 7675, "competi": 7676, "ierte</w>": 7677, "800</w>": 7678, "confi": 7679, "grü": 7680, "ießen</w>": 7681, "Cons": 7682, "Impro": 7683, "provides</w>": 7684, "mitteln</w>": 7685, "PI": 7686, "border</w>": 7687, "leisten</w>": 7688, "gekommen</w>": 7689, "Vorteile</w>": 7690, "Port": 7691, "heard</w>": 7692, "Bad</w>": 7693, "stel</w>": 7694, "Read</w>": 7695, "hig</w>": 7696, "ünsti": 7697, "bot</w>": 7698, "senden</w>": 7699, "barometer</w>": 7700, "agreements</w>": 7701, "communication</w>": 7702, "GEMEINSAM": 7703, "Consumer</w>": 7704, "Bor": 7705, "Voll": 7706, "ure": 7707, "wo": 7708, "decken</w>": 7709, "addition</w>": 7710, "languages</w>": 7711, "Genau</w>": 7712, "leitung</w>": 7713, "Bemerkung</w>": 7714, "Airport</w>": 7715, "Louis</w>": 7716, "Schweiz</w>": 7717, "Agency</w>": 7718, "ls</w>": 7719, "set": 7720, "thus</w>": 7721, "ably</w>": 7722, "fügen</w>": 7723, "nik</w>": 7724, "dell</w>": 7725, "transl": 7726, "Jacques</w>": 7727, "Pier": 7728, "PAP": 7729, "könnten</w>": 7730, "Französ": 7731, "anner</w>": 7732, "Bestimm": 7733, "Moder": 7734, "nächster</w>": 7735, "dienst</w>": 7736, "ather</w>": 7737, "ufen</w>": 7738, "unge</w>": 7739, "Anzahl</w>": 7740, "difference</w>": 7741, "Beschäftig": 7742, "equipment</w>": 7743, "Summary</w>": 7744, "KS</w>": 7745, "Krieg</w>": 7746, "facts</w>": 7747, "nen": 7748, "neg": 7749, "early</w>": 7750, "therwise</w>": 7751, "Position</w>": 7752, "ecilia</w>": 7753, "Dennis</w>": 7754, "related</w>": 7755, "benefits</w>": 7756, "Cecilia</w>": 7757, "Dr</w>": 7758, "SY": 7759, "band</w>": 7760, "vin": 7761, "zustimm": 7762, "une</w>": 7763, "thin": 7764, "oni</w>": 7765, "story</w>": 7766, "resol": 7767, "travel</w>": 7768, "Schluss</w>": 7769, "walt</w>": 7770, "akzept": 7771, "Gas": 7772, "SP</w>": 7773, "rat": 7774, "inger</w>": 7775, "GESAM": 7776, "published</w>": 7777, "sus": 7778, "deren</w>": 7779, "Auth": 7780, "due</w>": 7781, "SKI</w>": 7782, "BESCHL": 7783, "94": 7784, "Kir": 7785, "va": 7786, "ourable</w>": 7787, "saw</w>": 7788, "built</w>": 7789, "schließend</w>": 7790, "Bosn": 7791, "Struktur": 7792, "Switzerland</w>": 7793, "CE": 7794, "tis</w>": 7795, "register</w>": 7796, "aurants</w>": 7797, "STRÖ": 7798, "Belarus</w>": 7799, "CS</w>": 7800, "Elec": 7801, "seinem</w>": 7802, "ually</w>": 7803, "rit</w>": 7804, "fordern</w>": 7805, "ähn": 7806, "Appro": 7807, "zeug</w>": 7808, "eriode</w>": 7809, "bedau": 7810, "Sicherheits": 7811, "cent</w>": 7812, "ersch": 7813, "tischen</w>": 7814, "Post</w>": 7815, "illage</w>": 7816, "sektor</w>": 7817, "restric": 7818, "Hartmut</w>": 7819, "120</w>": 7820, "Fan</w>": 7821, "Year</w>": 7822, "hält</w>": 7823, "wed</w>": 7824, "ym": 7825, "ered</w>": 7826, "thre": 7827, "oral</w>": 7828, "Vereinbar": 7829, "Preis": 7830, "Mittw": 7831, "instal": 7832, "Ferr": 7833, "Teilnehmer</w>": 7834, "Regelung</w>": 7835, "Centre</w>": 7836, "veröffentlicht</w>": 7837, "Kriterien</w>": 7838, "Lesen</w>": 7839, "Moment</w>": 7840, "Ze": 7841, "fän": 7842, "kg</w>": 7843, "omas</w>": 7844, "quali": 7845, "aches</w>": 7846, "Noch</w>": 7847, "credit</w>": 7848, "beide</w>": 7849, "Tagen</w>": 7850, "People</w>": 7851, "VA</w>": 7852, "bon": 7853, "culture</w>": 7854, "enha": 7855, "rejec": 7856, "profession": 7857, "grenz": 7858, "TION": 7859, "traff": 7860, "Mitarbeit": 7861, "stellungen</w>": 7862, "ünf": 7863, "Gift</w>": 7864, "including</w>": 7865, "material</w>": 7866, "sugges": 7867, "hin</w>": 7868, "kaufen</w>": 7869, "living</w>": 7870, "ilen</w>": 7871, "meet</w>": 7872, "mün": 7873, "Work</w>": 7874, "Media</w>": 7875, "wollte</w>": 7876, "unique</w>": 7877, "Fried": 7878, "Vorsitzes</w>": 7879, "requirements</w>": 7880, "Asi": 7881, "Num": 7882, "Ul": 7883, "ANHAN": 7884, "exist</w>": 7885, "parties</w>": 7886, "Amster": 7887, "regions</w>": 7888, "Möglichkeiten</w>": 7889, "bezo": 7890, "Since</w>": 7891, "Kontrolle</w>": 7892, "innerhalb</w>": 7893, "ERNENNUNGEN</w>": 7894, "CECAF</w>": 7895, "Clo": 7896, "Lauf": 7897, "Mass": 7898, "WH": 7899, "ees": 7900, "fr</w>": 7901, "häu": 7902, "plat": 7903, "Dimit": 7904, "Schw": 7905, "mosp": 7906, "ausch</w>": 7907, "Internet": 7908, "Zusammenhang</w>": 7909, "Berichte</w>": 7910, "Fusionskontroll": 7911, "CD": 7912, "Sau": 7913, "options</w>": 7914, "Refer": 7915, "format</w>": 7916, "ghb": 7917, "Meer</w>": 7918, "cribe</w>": 7919, "behör": 7920, "Können</w>": 7921, "FRAGEN</w>": 7922, "Copyright</w>": 7923, "basic</w>": 7924, "räsidentin</w>": 7925, "Cs</w>": 7926, "KAN": 7927, "con</w>": 7928, "pass</w>": 7929, "beginnt</w>": 7930, "Association</w>": 7931, "ynam": 7932, "doubt</w>": 7933, "ungsperiode</w>": 7934, "Titel</w>": 7935, "transparency</w>": 7936, "Zunächst</w>": 7937, "Mittwoch</w>": 7938, "Wol": 7939, "fas": 7940, "ois</w>": 7941, "argum": 7942, "Auskünfte</w>": 7943, "beginning</w>": 7944, "zeuge</w>": 7945, "valid</w>": 7946, "Climate</w>": 7947, "Menschenrechte</w>": 7948, "STRATE": 7949, "DN": 7950, "SQ": 7951, "ii</w>": 7952, "smo": 7953, "enster</w>": 7954, "unterbricht</w>": 7955, "bestä": 7956, "financing</w>": 7957, "Tax": 7958, "Änderungsanträge</w>": 7959, "Gran": 7960, "Mand": 7961, "näh": 7962, "dir</w>": 7963, "served</w>": 7964, "Sitzungsperiode</w>": 7965, "Wettbewerbskommissarin</w>": 7966, "relevant</w>": 7967, "GRO": 7968, "category</w>": 7969, "gten</w>": 7970, "ring</w>": 7971, "train</w>": 7972, "founded</w>": 7973, "Glück": 7974, "Eurobarometer</w>": 7975, "Booking</w>": 7976, "Musik</w>": 7977, "paper</w>": 7978, "Diskussion</w>": 7979, "Pok": 7980, "rock</w>": 7981, "alte</w>": 7982, "sekret": 7983, "gebung</w>": 7984, "erwartet</w>": 7985, "Migration</w>": 7986, "DECIS": 7987, "Feri": 7988, "GN": 7989, "Nutzen</w>": 7990, "fishing</w>": 7991, "0000": 7992, "1992</w>": 7993, "visi": 7994, "Anton": 7995, "Rahmen": 7996, "während</w>": 7997, "Lissabon</w>": 7998, "Clau": 7999, "mo</w>": 8000, "ising</w>": 8001, "ala</w>": 8002, "dich</w>": 8003, "ENS": 8004, "Enjoy</w>": 8005, "dessen</w>": 8006, "gestat": 8007, "abled</w>": 8008, "congratulate</w>": 8009, "weltweit</w>": 8010, "akzeptabel</w>": 8011, "BEL": 8012, "Mos": 8013, "Tal": 8014, "inen</w>": 8015, "onnen</w>": 8016, "agricultural</w>": 8017, "delines</w>": 8018, "Lösungen</w>": 8019, "Idee</w>": 8020, "Process</w>": 8021, "Verpflichtungen</w>": 8022, "zufrieden</w>": 8023, "challenges</w>": 8024, "Eing": 8025, "kat": 8026, "wine</w>": 8027, "Innov": 8028, "contrac": 8029, "Realität</w>": 8030, "Schließ": 8031, "gerung</w>": 8032, "photos</w>": 8033, "visions</w>": 8034, "Mrd</w>": 8035, "aktuelle</w>": 8036, "Atlan": 8037, "ANHANG</w>": 8038, "01": 8039, "GA</w>": 8040, "GAN": 8041, "fair": 8042, "ker": 8043, "pm</w>": 8044, "groß</w>": 8045, "äuß": 8046, "Rednerin</w>": 8047, "Sonsti": 8048, "ditors</w>": 8049, "Film</w>": 8050, "EuropeAid</w>": 8051, "Legal</w>": 8052, "EK</w>": 8053, "PL</w>": 8054, "Ped": 8055, "kein": 8056, "items</w>": 8057, "sches</w>": 8058, "schätz": 8059, "exchange</w>": 8060, "Newsletter</w>": 8061, "Perhaps</w>": 8062, "nissen</w>": 8063, "Stellvertret": 8064, "bedingt</w>": 8065, "Standpunkt</w>": 8066, "Solidarität</w>": 8067, "Kampf</w>": 8068, "23": 8069, "753</w>": 8070, "HE": 8071, "bum</w>": 8072, "eib</w>": 8073, "geworden</w>": 8074, "TELE": 8075, "save</w>": 8076, "preci": 8077, "efon</w>": 8078, "ständig</w>": 8079, "Univer": 8080, "Zahlungen</w>": 8081, "Sommer</w>": 8082, "HA": 8083, "West</w>": 8084, "bahn": 8085, "handel</w>": 8086, "zig": 8087, "span": 8088, "conven": 8089, "Reding</w>": 8090, "ützt</w>": 8091, "cards</w>": 8092, "Wettbewerbsf": 8093, "zustimmen</w>": 8094, "Cat": 8095, "HT": 8096, "jan": 8097, "diglich</w>": 8098, "exten": 8099, "images</w>": 8100, "obo": 8101, "ained</w>": 8102, "1993</w>": 8103, "konnte</w>": 8104, "chtens</w>": 8105, "milit": 8106, "fundamental</w>": 8107, "Freiheit</w>": 8108, "ological</w>": 8109, "ENERGY</w>": 8110, "Kohä": 8111, "behalf</w>": 8112, "ARBEIT</w>": 8113, "similar</w>": 8114, "OR</w>": 8115, "aded</w>": 8116, "Defin": 8117, "waiting</w>": 8118, "Treffen</w>": 8119, "features</w>": 8120, "Einwände</w>": 8121, "month</w>": 8122, "BSE</w>": 8123, "CK</w>": 8124, "Fron": 8125, "Mik": 8126, "echt</w>": 8127, "compromise</w>": 8128, "SSON</w>": 8129, "alism</w>": 8130, "Director</w>": 8131, "Gebäu": 8132, "wirtschaftliche</w>": 8133, "Avra": 8134, "Nutzung</w>": 8135, "Prioritätsachse</w>": 8136, "jahr</w>": 8137, "kn": 8138, "thought</w>": 8139, "ester</w>": 8140, "vertheless</w>": 8141, "lost</w>": 8142, "sowie</w>": 8143, "vorgesehen</w>": 8144, "computer</w>": 8145, "erhöh": 8146, "func": 8147, "Erachtens</w>": 8148, "treatment</w>": 8149, "CES</w>": 8150, "Gest": 8151, "West": 8152, "eg</w>": 8153, "ks": 8154, "zed</w>": 8155, "zahlen</w>": 8156, "Their</w>": 8157, "weg": 8158, "last": 8159, "Regist": 8160, "Lesung</w>": 8161, "Amsterdam</w>": 8162, "Doppel": 8163, "ysi": 8164, "ciples</w>": 8165, "rule</w>": 8166, "interess": 8167, "001</w>": 8168, "stands</w>": 8169, "Liefer": 8170, "OPERATION</w>": 8171, "GAL": 8172, "MM</w>": 8173, "Vene": 8174, "WE": 8175, "ade": 8176, "lit": 8177, "isierung</w>": 8178, "gegangen</w>": 8179, "berücksich": 8180, "auses</w>": 8181, "1925</w>": 8182, "vertreten</w>": 8183, "Personal</w>": 8184, "requires</w>": 8185, "Herausforderung</w>": 8186, "stoffe</w>": 8187, "APPOINTMENTS</w>": 8188, "dt</w>": 8189, "fill</w>": 8190, "sou": 8191, "sci": 8192, "uri": 8193, "ÜBER": 8194, "erlau": 8195, "endes</w>": 8196, "att</w>": 8197, "ado</w>": 8198, "quiet</w>": 8199, "outcome</w>": 8200, "AUF</w>": 8201, "Sprachen</w>": 8202, "established</w>": 8203, "Maßnahme</w>": 8204, "Dina</w>": 8205, "HAUS": 8206, "Multi": 8207, "ga</w>": 8208, "gutes</w>": 8209, "reise</w>": 8210, "einzige</w>": 8211, "parag": 8212, "Plen": 8213, "Andor</w>": 8214, "Gruppen</w>": 8215, "Card</w>": 8216, "DI</w>": 8217, "mand": 8218, "orts</w>": 8219, "rah": 8220, "porting</w>": 8221, "Grenz": 8222, "happening</w>": 8223, "LER</w>": 8224, "Vinc": 8225, "repe": 8226, "verty</w>": 8227, "verfolgt</w>": 8228, "interested</w>": 8229, "mote</w>": 8230, "pping</w>": 8231, "truth</w>": 8232, "verschiedenen</w>": 8233, "recog": 8234, "Aktionsplan</w>": 8235, "häl": 8236, "eits</w>": 8237, "downlo": 8238, "GENER": 8239, "Koordin": 8240, "blog</w>": 8241, "Bestell": 8242, "Generalsekret": 8243, "schwieri": 8244, "PROGRAMME</w>": 8245, "Henn": 8246, "KI</w>": 8247, "transp": 8248, "tritt</w>": 8249, "unten</w>": 8250, "tier": 8251, "arran": 8252, "Berichts</w>": 8253, "aving</w>": 8254, "annes</w>": 8255, "vorhanden</w>": 8256, "Han": 8257, "Nice</w>": 8258, "spruch</w>": 8259, "gir": 8260, "Diam": 8261, "sur</w>": 8262, "olls</w>": 8263, "solidar": 8264, "warm</w>": 8265, "Untersuch": 8266, "party</w>": 8267, "ishes</w>": 8268, "reiche</w>": 8269, "staat</w>": 8270, "connection</w>": 8271, "Avraam</w>": 8272, "written</w>": 8273, "ßer</w>": 8274, "school</w>": 8275, "wert": 8276, "deser": 8277, "gehalten</w>": 8278, "zeugen</w>": 8279, "ZIAL": 8280, "opping</w>": 8281, "kostet</w>": 8282, "schieden</w>": 8283, "His</w>": 8284, "Micro": 8285, "Sur": 8286, "mine</w>": 8287, "opti": 8288, "Vertrauen</w>": 8289, "gestal": 8290, "Auto</w>": 8291, "ief": 8292, "partner": 8293, "study</w>": 8294, "raph</w>": 8295, "Investitions": 8296, "Paul</w>": 8297, "SICHERHEIT": 8298, "Avi": 8299, "td</w>": 8300, "ari</w>": 8301, "liance</w>": 8302, "lives</w>": 8303, "ature</w>": 8304, "acro": 8305, "sport</w>": 8306, "tioning</w>": 8307, "REP": 8308, "Darauf</w>": 8309, "clari": 8310, "Gesundheits": 8311, "fields</w>": 8312, "Wiederauf": 8313, "Sem": 8314, "XII</w>": 8315, "volution</w>": 8316, "ffer": 8317, "gleiche</w>": 8318, "antas": 8319, "capacity</w>": 8320, "improve</w>": 8321, "eesc</w>": 8322, "Sach": 8323, "bir": 8324, "daily</w>": 8325, "source</w>": 8326, "yed</w>": 8327, "rein": 8328, "artige</w>": 8329, "INFORM": 8330, "disku": 8331, "Suche</w>": 8332, "folgender</w>": 8333, "Firma</w>": 8334, "gemeinsam</w>": 8335, "Operational</w>": 8336, "info</w>": 8337, "institutions</w>": 8338, "mäßig</w>": 8339, "Wissenschaft</w>": 8340, "Abgeordn": 8341, "Zimmer": 8342, "Kam": 8343, "Nah": 8344, "Swis": 8345, "eth": 8346, "mati": 8347, "geehr": 8348, "context</w>": 8349, "turel": 8350, "Marg": 8351, "benutzen</w>": 8352, "Gui": 8353, "Kris": 8354, "Pos": 8355, "Sou": 8356, "Some": 8357, "hunder": 8358, "lead</w>": 8359, "plans</w>": 8360, "interesting</w>": 8361, "euch</w>": 8362, "bio": 8363, "visit": 8364, "See": 8365, "gewähr": 8366, "password</w>": 8367, "various</w>": 8368, "karte</w>": 8369, "schön</w>": 8370, "Shop</w>": 8371, "ributed</w>": 8372, "Korea</w>": 8373, "Pro</w>": 8374, "bau": 8375, "genden</w>": 8376, "Werden</w>": 8377, "Schwerpunkt</w>": 8378, "BM": 8379, "OK</w>": 8380, "ial</w>": 8381, "Anlage</w>": 8382, "gelö": 8383, "ario</w>": 8384, "Hinsicht</w>": 8385, "Beihilfen</w>": 8386, "Wettbewerbsfähigkeit</w>": 8387, "Cr": 8388, "IA": 8389, "Out": 8390, "Shi": 8391, "kul": 8392, "m2</w>": 8393, "chec": 8394, "Städ": 8395, "berech": 8396, "selection</w>": 8397, "Willst</w>": 8398, "higher</w>": 8399, "Wahrheit</w>": 8400, "Tier": 8401, "Zeichen</w>": 8402, "bis": 8403, "mean": 8404, "tseite</w>": 8405, "glück": 8406, "nier</w>": 8407, "estival</w>": 8408, "child</w>": 8409, "odation</w>": 8410, "complex</w>": 8411, "HAUSHAL": 8412, "FTIG": 8413, "paid</w>": 8414, "tour</w>": 8415, "ener</w>": 8416, "alt": 8417, "ANT": 8418, "SOCIAL</w>": 8419, "SIT": 8420, "ganzen</w>": 8421, "beteili": 8422, "Gesetz": 8423, "Middle</w>": 8424, "Iraq</w>": 8425, "Player</w>": 8426, "Statement</w>": 8427, "Herausforderungen</w>": 8428, "som": 8429, "err": 8430, "integr": 8431, "six</w>": 8432, "ason</w>": 8433, "moved</w>": 8434, "Vivi": 8435, "hervor": 8436, "baren</w>": 8437, "electri": 8438, "Irak</w>": 8439, "Zentral": 8440, "Docum": 8441, "gestattet</w>": 8442, "Eur": 8443, "Fur": 8444, "Frie": 8445, "Letz": 8446, "Nehmen</w>": 8447, "ktive</w>": 8448, "gens</w>": 8449, "external</w>": 8450, "Parti": 8451, "sound</w>": 8452, "Appart": 8453, "gehend</w>": 8454, "Regional": 8455, "Kompromis": 8456, "Hierzu</w>": 8457, "types</w>": 8458, "erlei</w>": 8459, "51925</w>": 8460, "Bol": 8461, "NL</w>": 8462, "eher</w>": 8463, "Erwar": 8464, "IST": 8465, "Angelegenheit</w>": 8466, "breit": 8467, "zweiten</w>": 8468, "Möchten</w>": 8469, "player</w>": 8470, "Nächste</w>": 8471, "weeks</w>": 8472, "Ordnung</w>": 8473, "bathroom</w>": 8474, "Malmström</w>": 8475, "utive</w>": 8476, "angem": 8477, "allow</w>": 8478, "vielleicht</w>": 8479, "ündet</w>": 8480, "Aufenth": 8481, "efforts</w>": 8482, "erklärt</w>": 8483, "Wohnung</w>": 8484, "Conclusion</w>": 8485, "urgent</w>": 8486, "Even</w>": 8487, "Kab": 8488, "cas": 8489, "volle</w>": 8490, "Star</w>": 8491, "wech": 8492, "Argum": 8493, "vels</w>": 8494, "jedes</w>": 8495, "arbeitung</w>": 8496, "ideas</w>": 8497, "FORE": 8498, "significant</w>": 8499, "gigkeit</w>": 8500, "este</w>": 8501, "dienst": 8502, "Bevölk": 8503, "presents</w>": 8504, "belieb": 8505, "demand</w>": 8506, "WORK</w>": 8507, "ategi": 8508, "Praxis</w>": 8509, "maximum</w>": 8510, "BRO": 8511, "olo</w>": 8512, "prises</w>": 8513, "Glück</w>": 8514, "Decision</w>": 8515, "CCCC": 8516, "knowledge</w>": 8517, "UNGSPOLITIK</w>": 8518, "ruption</w>": 8519, "Ashton</w>": 8520, "sehe</w>": 8521, "reden</w>": 8522, "Analy": 8523, "recommend</w>": 8524, "Generaldire": 8525, "Assessment</w>": 8526, "einzelnen</w>": 8527, "Kategorie</w>": 8528, "67": 8529, "JO": 8530, "Ltd</w>": 8531, "War</w>": 8532, "went</w>": 8533, "refer</w>": 8534, "reagi": 8535, "akes</w>": 8536, "Auswär": 8537, "Wirkung</w>": 8538, "Deswegen</w>": 8539, "Resort</w>": 8540, "bedingungen</w>": 8541, "spielt</w>": 8542, "Kont": 8543, "Ster": 8544, "mut": 8545, "reli": 8546, "abgeschlossen</w>": 8547, "aming</w>": 8548, "wider": 8549, "Review</w>": 8550, "Mac</w>": 8551, "Konzept</w>": 8552, "folgerung</w>": 8553, "Aktiv": 8554, "absolut</w>": 8555, "HIN": 8556, "kes</w>": 8557, "sal</w>": 8558, "chmal</w>": 8559, "fügt</w>": 8560, "India</w>": 8561, "2007": 8562, "Kinder": 8563, "Redaktion</w>": 8564, "SOZIAL": 8565, "figure</w>": 8566, "Partnerschaft</w>": 8567, "Verwaltung</w>": 8568, "SQL</w>": 8569, "CRE": 8570, "cla": 8571, "chit": 8572, "redu": 8573, "lier</w>": 8574, "etz</w>": 8575, "approx</w>": 8576, "answers</w>": 8577, "Carlo</w>": 8578, "digkeit</w>": 8579, "Dienstleistungen</w>": 8580, "themselves</w>": 8581, "SMEs</w>": 8582, "Because</w>": 8583, "Perspektiven</w>": 8584, "alien</w>": 8585, "wid": 8586, "ells</w>": 8587, "Arten</w>": 8588, "niem": 8589, "Russi": 8590, "Gerichtsho": 8591, "consumer</w>": 8592, "Gefahr</w>": 8593, "Anmerkungen</w>": 8594, "Lear": 8595, "cr": 8596, "vac": 8597, "anzu": 8598, "along</w>": 8599, "lediglich</w>": 8600, "aktivi": 8601, "posed</w>": 8602, "series</w>": 8603, "Prime</w>": 8604, "Beschreibung</w>": 8605, "Umweltkommissar</w>": 8606, "original</w>": 8607, "SOL": 8608, "angen": 8609, "bek": 8610, "reception</w>": 8611, "gerä": 8612, "ALM": 8613, "STO": 8614, "barkeit</w>": 8615, "Werte</w>": 8616, "Wohn": 8617, "rejected</w>": 8618, "But": 8619, "Ren": 8620, "SAN": 8621, "UM</w>": 8622, "VO</w>": 8623, "Zer": 8624, "jähr": 8625, "verse</w>": 8626, "euros</w>": 8627, "goal</w>": 8628, "aries</w>": 8629, "selected</w>": 8630, "affung</w>": 8631, "Golf</w>": 8632, "opportunities</w>": 8633, "customer</w>": 8634, "Empfehlungen</w>": 8635, "RA</w>": 8636, "aria</w>": 8637, "eta</w>": 8638, "beds</w>": 8639, "Any</w>": 8640, "profi": 8641, "Eröff": 8642, "May": 8643, "eval": 8644, "ützliche</w>": 8645, "Administ": 8646, "flü": 8647, "Antidumping</w>": 8648, "potential</w>": 8649, "DISC": 8650, "successful</w>": 8651, "Französisch</w>": 8652, "GENERAL</w>": 8653, "Hennon</w>": 8654, "Leute</w>": 8655, "mbo": 8656, "wandel</w>": 8657, "ungspro": 8658, "hoch": 8659, "Bereiche</w>": 8660, "starting</w>": 8661, "anderer</w>": 8662, "workers</w>": 8663, "Spaß</w>": 8664, "especi": 8665, "Frieden</w>": 8666, "Dou": 8667, "HU</w>": 8668, "ij": 8669, "san": 8670, "toren</w>": 8671, "inte": 8672, "liber": 8673, "inners</w>": 8674, "Asyl": 8675, "melden</w>": 8676, "With": 8677, "dringend</w>": 8678, "minimum</w>": 8679, "Andris</w>": 8680, "prepared</w>": 8681, "Small</w>": 8682, "Cy": 8683, "meines</w>": 8684, "ves": 8685, "stausch</w>": 8686, "mmern</w>": 8687, "CO2</w>": 8688, "richtigen</w>": 8689, "kompl": 8690, "Pakistan</w>": 8691, "zogen</w>": 8692, "Alexand": 8693, "photo</w>": 8694, "vements</w>": 8695, "versuchen</w>": 8696, "among</w>": 8697, "select</w>": 8698, "begin</w>": 8699, "prakti": 8700, "Vizepräsidentin</w>": 8701, "akzeptieren</w>": 8702, "dienste</w>": 8703, "gewählt</w>": 8704, "ÜSSE</w>": 8705, "aret": 8706, "games</w>": 8707, "gives</w>": 8708, "weder</w>": 8709, "super": 8710, "movement</w>": 8711, "COOPERATION</w>": 8712, "freue</w>": 8713, "gewesen</w>": 8714, "fälle</w>": 8715, "calls</w>": 8716, "aktuellen</w>": 8717, "MITTE": 8718, "FT</w>": 8719, "OV</w>": 8720, "dents</w>": 8721, "heb": 8722, "zy</w>": 8723, "unbedingt</w>": 8724, "style</w>": 8725, "hibi": 8726, "contribu": 8727, "fiz": 8728, "kleinen</w>": 8729, "ored</w>": 8730, "Nachbar": 8731, "participants</w>": 8732, "Gipfel</w>": 8733, "Kommentare</w>": 8734, "ephone</w>": 8735, "sätz": 8736, "emph": 8737, "etary</w>": 8738, "contra": 8739, "Real</w>": 8740, "ollar</w>": 8741, "trifft</w>": 8742, "zeichen</w>": 8743, "ihrem</w>": 8744, "wissen": 8745, "stances</w>": 8746, "700</w>": 8747, "Ano": 8748, "WEIT": 8749, "cement</w>": 8750, "lauf</w>": 8751, "erne": 8752, "etten</w>": 8753, "agne</w>": 8754, "gebaut</w>": 8755, "assessment</w>": 8756, "dise": 8757, "Opening</w>": 8758, "facilities</w>": 8759, "gesamte</w>": 8760, "wiederhol": 8761, "Ombuds": 8762, "ZUSAMMENARBEIT</w>": 8763, "85": 8764, "Hist": 8765, "tan": 8766, "anti</w>": 8767, "reichend</w>": 8768, "Gemeinschafts": 8769, "sign</w>": 8770, "Autom": 8771, "Sinn</w>": 8772, "Konsultation</w>": 8773, "erwähnt</w>": 8774, "situated</w>": 8775, "BESCHLÜSSE</w>": 8776, "Et": 8777, "Fund": 8778, "Kür": 8779, "MB</w>": 8780, "Yor": 8781, "riffen</w>": 8782, "consequ": 8783, "gerech": 8784, "brings</w>": 8785, "Fusionskontrollvorschriften</w>": 8786, "Asia</w>": 8787, "cultural</w>": 8788, "nam": 8789, "ye</w>": 8790, "Reise</w>": 8791, "Hoff": 8792, "comb": 8793, "gerous</w>": 8794, "oblig": 8795, "trust</w>": 8796, "Gewalt</w>": 8797, "Gesellschaft</w>": 8798, "collec": 8799, "0475</w>": 8800, "explanations</w>": 8801, "Antonio</w>": 8802, "nern</w>": 8803, "nommen</w>": 8804, "Einsatz</w>": 8805, "commented</w>": 8806, "ähri": 8807, "richt": 8808, "sondern</w>": 8809, "largest</w>": 8810, "zeugt</w>": 8811, "fications</w>": 8812, "verkauf</w>": 8813, "Komp": 8814, "Kultur": 8815, "Access</w>": 8816, "guarantee</w>": 8817, "American</w>": 8818, "GO</w>": 8819, "wunder": 8820, "üt": 8821, "integration</w>": 8822, "angesprochen</w>": 8823, "schwer</w>": 8824, "construction</w>": 8825, "ando</w>": 8826, "hoffen</w>": 8827, "aufbauen</w>": 8828, "draw</w>": 8829, "drive</w>": 8830, "ordination</w>": 8831, "build</w>": 8832, "discussed</w>": 8833, "opposite</w>": 8834, "statistics</w>": 8835, "immediately</w>": 8836, "Vorbereitung</w>": 8837, "Mitarbeiter</w>": 8838, "Hat</w>": 8839, "KAL": 8840, "Ly": 8841, "Nik": 8842, "dritte</w>": 8843, "eröffnet</w>": 8844, "chem": 8845, "Verbindung</w>": 8846, "änderung</w>": 8847, "track</w>": 8848, "COM": 8849, "ORS</w>": 8850, "VERFA": 8851, "Apartments</w>": 8852, "Digit": 8853, "aims</w>": 8854, "Organisation</w>": 8855, "property</w>": 8856, "wonder": 8857, "Fach": 8858, "OJ</w>": 8859, "Swe": 8860, "zehn</w>": 8861, "ers": 8862, "arti": 8863, "stat</w>": 8864, "applause</w>": 8865, "Bereichen</w>": 8866, "status</w>": 8867, "ität": 8868, "register": 8869, "shown</w>": 8870, "approval</w>": 8871, "kurze</w>": 8872, "consumers</w>": 8873, "target</w>": 8874, "appropriate</w>": 8875, "welchen</w>": 8876, "guter</w>": 8877, "Quality</w>": 8878, "Schlüssel": 8879, "canc": 8880, "Another</w>": 8881, "BUR": 8882, "Ker": 8883, "Rou": 8884, "kaum</w>": 8885, "len": 8886, "oler": 8887, "Insel</w>": 8888, "sus</w>": 8889, "Alp": 8890, "White</w>": 8891, "herunter": 8892, "folgendes</w>": 8893, "VERH": 8894, "normal</w>": 8895, "Binnenmark": 8896, "dauert</w>": 8897, "myself</w>": 8898, "crucial</w>": 8899, "DISCUSS": 8900, "Ten": 8901, "Use": 8902, "agen</w>": 8903, "mem": 8904, "yp</w>": 8905, "ald</w>": 8906, "Anpass": 8907, "Dimension</w>": 8908, "Spa</w>": 8909, "selbe</w>": 8910, "endgül": 8911, "spekt</w>": 8912, "Menge</w>": 8913, "invest": 8914, "schied</w>": 8915, "fällt</w>": 8916, "University</w>": 8917, "Stock": 8918, "huge</w>": 8919, "STRÖM</w>": 8920, "Stellvertretender</w>": 8921, "88": 8922, "erie</w>": 8923, "grund</w>": 8924, "obach": 8925, "stark</w>": 8926, "Überwach": 8927, "Political</w>": 8928, "increased</w>": 8929, "Bundesminister": 8930, "Herzeg": 8931, "Number</w>": 8932, "especially</w>": 8933, "RSS</w>": 8934, "VA": 8935, "lauf": 8936, "tsheet</w>": 8937, "eira</w>": 8938, "loss</w>": 8939, "adly</w>": 8940, "bessere</w>": 8941, "EMP": 8942, "Technologi": 8943, "figur": 8944, "prüfung</w>": 8945, "View</w>": 8946, "solidarity</w>": 8947, "enheit</w>": 8948, "stab": 8949, "entspricht</w>": 8950, "DIG": 8951, "Training</w>": 8952, "ländern</w>": 8953, "reason": 8954, "window</w>": 8955, "concerning</w>": 8956, "Releases</w>": 8957, "Annual</w>": 8958, "manufac": 8959, "bezüglich</w>": 8960, "Bab": 8961, "Go</w>": 8962, "KA</w>": 8963, "Nic": 8964, "load</w>": 8965, "morning</w>": 8966, "playing</w>": 8967, "ALLGEMEIN": 8968, "34": 8969, "Ab</w>": 8970, "BAN": 8971, "Mut": 8972, "afft</w>": 8973, "jähri": 8974, "rieb": 8975, "forum</w>": 8976, "besit": 8977, "Indien</w>": 8978, "enhagen</w>": 8979, "56": 8980, "CS": 8981, "JA</w>": 8982, "Rap": 8983, "just": 8984, "sle": 8985, "schw": 8986, "vergen": 8987, "ameter</w>": 8988, "tees</w>": 8989, "Monica</w>": 8990, "Jugend</w>": 8991, "Flor": 8992, "tätig</w>": 8993, "täglich</w>": 8994, "hängt</w>": 8995, "Spezi": 8996, "entwickelt</w>": 8997, "placed</w>": 8998, "Materi": 8999, "herzlich</w>": 9000, "Implementation</w>": 9001, "Mem": 9002, "Per</w>": 9003, "Syn": 9004, "Tari": 9005, "cast": 9006, "angel": 9007, "verbin": 9008, "gige</w>": 9009, "STAA": 9010, "film</w>": 9011, "lösen</w>": 9012, "Übereinkommen</w>": 9013, "Pierre</w>": 9014, "thinking</w>": 9015, "erneut</w>": 9016, "BY</w>": 9017, "Last</w>": 9018, "Seine</w>": 9019, "attrac": 9020, "leb": 9021, "irgend": 9022, "INE</w>": 9023, "Vorhaben</w>": 9024, "Nothing</w>": 9025, "commer": 9026, "Datum</w>": 9027, "Roma</w>": 9028, "Computer</w>": 9029, "Fischler</w>": 9030, "Partnership</w>": 9031, "Eigent": 9032, "900</w>": 9033, "AR</w>": 9034, "FIN</w>": 9035, "LAR": 9036, "athan</w>": 9037, "een</w>": 9038, "tests</w>": 9039, "anz": 9040, "digt</w>": 9041, "ema</w>": 9042, "Ausbildung</w>": 9043, "kommens</w>": 9044, "langen</w>": 9045, "trip</w>": 9046, "ierten</w>": 9047, "Dokumente</w>": 9048, "Corazza</w>": 9049, "Startseite</w>": 9050, "suffici": 9051, "schlägt</w>": 9052, "MA</w>": 9053, "Wik": 9054, "dor</w>": 9055, "ids</w>": 9056, "kehr": 9057, "ÜBER</w>": 9058, "ind": 9059, "ande</w>": 9060, "Archi": 9061, "grade</w>": 9062, "Diesen</w>": 9063, "TOTAL</w>": 9064, "beschäf": 9065, "Studio</w>": 9066, "Update</w>": 9067, "UBLI": 9068, "GEMEINSAME</w>": 9069, "paragraph</w>": 9070, "Dist": 9071, "Future</w>": 9072, "ZU</w>": 9073, "inder": 9074, "ARE</w>": 9075, "ARY</w>": 9076, "antly</w>": 9077, "4379</w>": 9078, "Linie</w>": 9079, "fehlt</w>": 9080, "Tabelle</w>": 9081, "Privat": 9082, "decided</w>": 9083, "Dol": 9084, "FRI": 9085, "fa</w>": 9086, "abri": 9087, "legt</w>": 9088, "Staff</w>": 9089, "afri": 9090, "Ausgaben</w>": 9091, "ista</w>": 9092, "ziehung</w>": 9093, "schnitt</w>": 9094, "Wider": 9095, "Forschungs": 9096, "IGN</w>": 9097, "addressed</w>": 9098, "Flexi": 9099, "STI": 9100, "WAL": 9101, "one": 9102, "voice</w>": 9103, "geboren</w>": 9104, "Maxim": 9105, "107</w>": 9106, "personen</w>": 9107, "Zwisch": 9108, "dependent</w>": 9109, "Make</w>": 9110, "Osten</w>": 9111, "Vari": 9112, "Wunsch</w>": 9113, "hom": 9114, "ize</w>": 9115, "squ": 9116, "wants</w>": 9117, "erc": 9118, "indi": 9119, "Anca</w>": 9120, "expres": 9121, "unterschied": 9122, "accession</w>": 9123, "alismus</w>": 9124, "Studi": 9125, "meldung</w>": 9126, "Mobilität</w>": 9127, "useful</w>": 9128, "entscheiden": 9129, "terrorism</w>": 9130, "80": 9131, "Kno": 9132, "Museum</w>": 9133, "She": 9134, "zin": 9135, "atur</w>": 9136, "Enter": 9137, "IND": 9138, "Cohesion</w>": 9139, "USD</w>": 9140, "Soci": 9141, "Aufgaben</w>": 9142, "ergän": 9143, "hinter</w>": 9144, "Sinne</w>": 9145, "Install": 9146, "Ernähr": 9147, "DECISIONS</w>": 9148, "Masch": 9149, "PA</w>": 9150, "yester": 9151, "Thomas</w>": 9152, "resh</w>": 9153, "prepar": 9154, "MIT</w>": 9155, "Growth</w>": 9156, "Neues</w>": 9157, "Beitritts": 9158, "stained</w>": 9159, "releases</w>": 9160, "nötig</w>": 9161, "Useful</w>": 9162, "erter</w>": 9163, "engl": 9164, "aling</w>": 9165, "ela</w>": 9166, "Schutz": 9167, "ensure</w>": 9168, "investi": 9169, "Eurostat</w>": 9170, "Wohl": 9171, "Angebote</w>": 9172, "apartments</w>": 9173, "Arbeitsplätze</w>": 9174, "Wür": 9175, "dd</w>": 9176, "unt": 9177, "Austr": 9178, "Franc": 9179, "Order</w>": 9180, "getting</w>": 9181, "knows</w>": 9182, "Fakten</w>": 9183, "ämlich</w>": 9184, "easily</w>": 9185, "Wallström</w>": 9186, "Ressourcen</w>": 9187, "Bahn": 9188, "Script</w>": 9189, "background</w>": 9190, "haus</w>": 9191, "lad": 9192, "trägt</w>": 9193, "wann</w>": 9194, "weil</w>": 9195, "igration</w>": 9196, "wered</w>": 9197, "aching</w>": 9198, "aps</w>": 9199, "hood</w>": 9200, "entire</w>": 9201, "rought</w>": 9202, "Wirtschaft": 9203, "Casa</w>": 9204, "justice</w>": 9205, "Erfahrung</w>": 9206, "running</w>": 9207, "BMW</w>": 9208, "3D</w>": 9209, "GAR": 9210, "Geben</w>": 9211, "enjo": 9212, "Unter</w>": 9213, "RES</w>": 9214, "Beach</w>": 9215, "acks</w>": 9216, "voc": 9217, "acco</w>": 9218, "entirely</w>": 9219, "valu": 9220, "labour</w>": 9221, "empfehlen</w>": 9222, "Em": 9223, "Hause</w>": 9224, "Lag": 9225, "Lev": 9226, "Mill": 9227, "Test</w>": 9228, "Water</w>": 9229, "gres": 9230, "you": 9231, "itation</w>": 9232, "verteilt</w>": 9233, "lok": 9234, "aking</w>": 9235, "ices</w>": 9236, "gebiet</w>": 9237, "heraus": 9238, "Live</w>": 9239, "brief": 9240, "orial</w>": 9241, "distributed</w>": 9242, "PROGRAMM</w>": 9243, "schwierig</w>": 9244, "110</w>": 9245, "Meg": 9246, "adi": 9247, "usst</w>": 9248, "Final</w>": 9249, "Framework</w>": 9250, "Jede</w>": 9251, "COMMON</w>": 9252, "improved</w>": 9253, "equipped</w>": 9254, "Vorsitz": 9255, "places</w>": 9256, "BUDG": 9257, "WEIS</w>": 9258, "Ach": 9259, "Flo": 9260, "GI</w>": 9261, "Ram": 9262, "Wur": 9263, "syn": 9264, "ÄFTIG": 9265, "enger</w>": 9266, "ille</w>": 9267, "abgel": 9268, "Ander": 9269, "101</w>": 9270, "ticles</w>": 9271, "ernst</w>": 9272, "unseres</w>": 9273, "Arbeiten</w>": 9274, "Amb": 9275, "Nachhal": 9276, "draft</w>": 9277, "Puer": 9278, "supply</w>": 9279, "Propos": 9280, "ALLGEMEINE</w>": 9281, "Kein</w>": 9282, "SO</w>": 9283, "brech": 9284, "Three</w>": 9285, "sechs</w>": 9286, "ationelles</w>": 9287, "tool</w>": 9288, "oot</w>": 9289, "Ausführ": 9290, "1990</w>": 9291, "applied</w>": 9292, "Monat</w>": 9293, "browser</w>": 9294, "principles</w>": 9295, "babwe</w>": 9296, "benötigt</w>": 9297, "population</w>": 9298, "KOMMISSION</w>": 9299, "Reformen</w>": 9300, "announ": 9301, "uß</w>": 9302, "vent": 9303, "alternative</w>": 9304, "Verfahr": 9305, "bilities</w>": 9306, "monitoring</w>": 9307, "subs": 9308, "Karten</w>": 9309, "ADOP": 9310, "Local</w>": 9311, "21": 9312, "falt</w>": 9313, "chance</w>": 9314, "ances</w>": 9315, "aru</w>": 9316, "verwal": 9317, "levels</w>": 9318, "cker": 9319, "Mart": 9320, "Vorlage</w>": 9321, "detailed</w>": 9322, "160</w>": 9323, "Agentur</w>": 9324, "unterstütze</w>": 9325, "Botschaf": 9326, "Herzlich</w>": 9327, "Zivil": 9328, "released</w>": 9329, "across</w>": 9330, "Citi": 9331, "JU": 9332, "aqu": 9333, "lio</w>": 9334, "emati": 9335, "legung</w>": 9336, "ford</w>": 9337, "genau": 9338, "werte</w>": 9339, "zieren</w>": 9340, "eget": 9341, "grap": 9342, "Exper": 9343, "Liz": 9344, "PRESIDEN": 9345, "entry</w>": 9346, "Jose": 9347, "Rechtsvorschriften</w>": 9348, "God</w>": 9349, "norm": 9350, "sozialen</w>": 9351, "write</w>": 9352, "Außenbeziehungen</w>": 9353, "Summit</w>": 9354, "York</w>": 9355, "XIV</w>": 9356, "base</w>": 9357, "ensive</w>": 9358, "reten</w>": 9359, "Vers": 9360, "bereiche</w>": 9361, "interests</w>": 9362, "EURO</w>": 9363, "Change</w>": 9364, "Sustainable</w>": 9365, "Zudem</w>": 9366, "VIII": 9367, "embership</w>": 9368, "NOTE</w>": 9369, "Stimmen</w>": 9370, "Botschaft</w>": 9371, "method</w>": 9372, "separate</w>": 9373, "Ferrero</w>": 9374, "Kohäsion": 9375, "registered</w>": 9376, "nämlich</w>": 9377, "tru": 9378, "asks</w>": 9379, "seem</w>": 9380, "poor</w>": 9381, "Holi": 9382, "interessi": 9383, "Opfer</w>": 9384, "Declaration</w>": 9385, "popular</w>": 9386, "Felder</w>": 9387, "behandelt</w>": 9388, "campa": 9389, "Gedan": 9390, "High": 9391, "Tour</w>": 9392, "ais</w>": 9393, "mär": 9394, "mlung</w>": 9395, "tish</w>": 9396, "onte</w>": 9397, "star</w>": 9398, "verantwor": 9399, "leben": 9400, "edri": 9401, "max</w>": 9402, "Meer": 9403, "garanti": 9404, "Organ": 9405, "Protokolls</w>": 9406, "PROCED": 9407, "begrenz": 9408, "Wochen</w>": 9409, "MEET": 9410, "Durch</w>": 9411, "Jedes</w>": 9412, "CAP</w>": 9413, "Katastrop": 9414, "Leitlinien</w>": 9415, "INSGESAM": 9416, "Voting</w>": 9417, "humanitarian</w>": 9418, "Jonathan</w>": 9419, "Zweifel</w>": 9420, "Structural</w>": 9421, "STAATEN</w>": 9422, "Aspekt</w>": 9423, "Site</w>": 9424, "dungs": 9425, "vations</w>": 9426, "zung</w>": 9427, "ouEU</w>": 9428, "enty</w>": 9429, "ello</w>": 9430, "estelle</w>": 9431, "Einfu": 9432, "Top</w>": 9433, "konferenz</w>": 9434, "sigkeit</w>": 9435, "erlaubt</w>": 9436, "HINWEIS</w>": 9437, "fische</w>": 9438, "pal": 9439, "ild</w>": 9440, "bedeut": 9441, "uba</w>": 9442, "VassiliouEU</w>": 9443, "button</w>": 9444, "zählen</w>": 9445, "erfüllt</w>": 9446, "jo</w>": 9447, "sun": 9448, "archi": 9449, "impres": 9450, "klare</w>": 9451, "SIS</w>": 9452, "Dimitri": 9453, "HREN</w>": 9454, "Nützliche</w>": 9455, "Padur": 9456, "Word": 9457, "ea</w>": 9458, "si</w>": 9459, "erscheint</w>": 9460, "tere</w>": 9461, "eck": 9462, "adverti": 9463, "Augen</w>": 9464, "möglichkeiten</w>": 9465, "official</w>": 9466, "102</w>": 9467, "Life</w>": 9468, "partment</w>": 9469, "gewöh": 9470, "detail</w>": 9471, "BEIT": 9472, "Stellen</w>": 9473, "measure</w>": 9474, "developed</w>": 9475, "zählt</w>": 9476, "gründet</w>": 9477, "Klimawandel</w>": 9478, "Eisen": 9479, "Waldner</w>": 9480, "behörde</w>": 9481, "Pedro</w>": 9482, "Paduraru</w>": 9483, "Wahl": 9484, "sets</w>": 9485, "elek": 9486, "medic": 9487, "Nevertheless</w>": 9488, "aufge": 9489, "sensi": 9490, "marked</w>": 9491, "vollkommen</w>": 9492, "Objec": 9493, "animals</w>": 9494, "schöne</w>": 9495, "Elek": 9496, "36": 9497, "KE": 9498, "Pil": 9499, "ober": 9500, "bet</w>": 9501, "sex": 9502, "Herzen</w>": 9503, "gro</w>": 9504, "gangs": 9505, "Welches</w>": 9506, "unkten</w>": 9507, "Betru": 9508, "certi": 9509, "Communications</w>": 9510, "Tele": 9511, "appear</w>": 9512, "Horiz": 9513, "Galil": 9514, "Eröffnung</w>": 9515, "Dadurch</w>": 9516, "Niel": 9517, "Tem": 9518, "tag": 9519, "article</w>": 9520, "ehnt</w>": 9521, "scheme</w>": 9522, "verab": 9523, "eckt</w>": 9524, "ape</w>": 9525, "Voraus": 9526, "ontakte</w>": 9527, "osla": 9528, "Frank</w>": 9529, "empf": 9530, "setzungen</w>": 9531, "zeitig</w>": 9532, "Norwegen</w>": 9533, "entwicklung</w>": 9534, "inea</w>": 9535, "TRANSPARENCY</w>": 9536, "nachhaltige</w>": 9537, "totally</w>": 9538, "Sn": 9539, "netz": 9540, "rative</w>": 9541, "Stano</w>": 9542, "tos</w>": 9543, "laun": 9544, "ladies</w>": 9545, "stry</w>": 9546, "require</w>": 9547, "author": 9548, "practical</w>": 9549, "Safety</w>": 9550, "Chair": 9551, "Stellungnahme</w>": 9552, "Gentlemen</w>": 9553, "EEC</w>": 9554, "Fle": 9555, "KOR": 9556, "ac</w>": 9557, "core</w>": 9558, "bekämpfung</w>": 9559, "Armut</w>": 9560, "serviert</w>": 9561, "assador</w>": 9562, "deter": 9563, "Palace</w>": 9564, "umfass": 9565, "Terrorismus</w>": 9566, "änderungen</w>": 9567, "Passwort</w>": 9568, "Gott</w>": 9569, "Schließlich</w>": 9570, "FOREIGN</w>": 9571, "DUC": 9572, "Gan": 9573, "Hüb": 9574, "günsti": 9575, "mom": 9576, "pati": 9577, "üssel</w>": 9578, "ague</w>": 9579, "nehm": 9580, "phase</w>": 9581, "ützen</w>": 9582, "harmon": 9583, "Beitritt</w>": 9584, "Humanit": 9585, "Kraft": 9586, "Factsheet</w>": 9587, "initiatives</w>": 9588, "ldwide</w>": 9589, "Stadt": 9590, "Lar": 9591, "Pool</w>": 9592, "wood</w>": 9593, "error</w>": 9594, "usch": 9595, "INA</w>": 9596, "ssig</w>": 9597, "Gebäude</w>": 9598, "Ali": 9599, "CONS": 9600, "Macht</w>": 9601, "gla": 9602, "hour</w>": 9603, "sinn": 9604, "ua</w>": 9605, "lea": 9606, "ged": 9607, "gem</w>": 9608, "Verwendung</w>": 9609, "Minute</w>": 9610, "plom": 9611, "ärin</w>": 9612, "record</w>": 9613, "saying</w>": 9614, "DEF": 9615, "disp": 9616, "Second</w>": 9617, "Anteil</w>": 9618, "Terra": 9619, "EWG</w>": 9620, "Haushalt": 9621, "Domin": 9622, "Torres</w>": 9623, "Fällen</w>": 9624, "WER": 9625, "enze</w>": 9626, "aring</w>": 9627, "alter</w>": 9628, "stör": 9629, "vereinbar": 9630, "death</w>": 9631, "Unit</w>": 9632, "hot</w>": 9633, "ITÄ": 9634, "evening</w>": 9635, "ELL": 9636, "speech</w>": 9637, "join</w>": 9638, "dangerous</w>": 9639, "mium</w>": 9640, "technische</w>": 9641, "BESCHÄFTIG": 9642, "instruments</w>": 9643, "betreff": 9644, "whether</w>": 9645, "Beratung</w>": 9646, "vehicles</w>": 9647, "ITI": 9648, "PLA": 9649, "ox": 9650, "village</w>": 9651, "zy": 9652, "rad</w>": 9653, "raised</w>": 9654, "asselbe</w>": 9655, "schli": 9656, "losigkeit</w>": 9657, "optim": 9658, "appreci": 9659, "INS</w>": 9660, "gebü": 9661, "wenige</w>": 9662, "Resi": 9663, "Roy": 9664, "Westeren</w>": 9665, "Garanti": 9666, "Kredit": 9667, "Brasi": 9668, "Liebe</w>": 9669, "baby</w>": 9670, "erfolgreich</w>": 9671, "Tru": 9672, "bes</w>": 9673, "mier": 9674, "erreich": 9675, "auft</w>": 9676, "eter": 9677, "Schwar": 9678, "welt": 9679, "supports</w>": 9680, "AdR</w>": 9681, "Place</w>": 9682, "verstär": 9683, "länger</w>": 9684, "Spieler</w>": 9685, "Brian</w>": 9686, "gratuli": 9687, "Netz</w>": 9688, "Europeans</w>": 9689, "activity</w>": 9690, "Beschlüsse</w>": 9691, "TRANSPARENZ</w>": 9692, "infrastructure</w>": 9693, "Swiss</w>": 9694, "26": 9695, "Dort</w>": 9696, "Up</w>": 9697, "You": 9698, "iens</w>": 9699, "nor</w>": 9700, "reform": 9701, "Inflation</w>": 9702, "änden</w>": 9703, "frequ": 9704, "1991</w>": 9705, "Results</w>": 9706, "Teile</w>": 9707, "ships</w>": 9708, "Freu": 9709, "Wissen</w>": 9710, "DR": 9711, "Na": 9712, "Show</w>": 9713, "keits": 9714, "nd</w>": 9715, "limit</w>": 9716, "dead": 9717, "forget</w>": 9718, "solchen</w>": 9719, "Barnier</w>": 9720, "enna</w>": 9721, "ologische</w>": 9722, "winter</w>": 9723, "aspect</w>": 9724, "Kall": 9725, "LIS": 9726, "evi": 9727, "Thus</w>": 9728, "Regel</w>": 9729, "quar": 9730, "nio</w>": 9731, "vollständige</w>": 9732, "Universit": 9733, "Type</w>": 9734, "duty</w>": 9735, "ees</w>": 9736, "ret</w>": 9737, "stability</w>": 9738, "etings</w>": 9739, "ecutive</w>": 9740, "iges</w>": 9741, "green</w>": 9742, "ight": 9743, "Überblick</w>": 9744, "demokrati": 9745, "TIGE</w>": 9746, "Priorities</w>": 9747, "expend": 9748, "Produk": 9749, "antwortet</w>": 9750, "networks</w>": 9751, "chtest</w>": 9752, "Pressekontakte</w>": 9753, "MEDIA</w>": 9754, "Rules</w>": 9755, "kit": 9756, "lack</w>": 9757, "trä": 9758, "elia</w>": 9759, "Indeed</w>": 9760, "Anim": 9761, "adem": 9762, "greater</w>": 9763, "respond</w>": 9764, "Spanish</w>": 9765, "Produkt": 9766, "rieb</w>": 9767, "COMMISSION</w>": 9768, "tronic</w>": 9769, "Jour": 9770, "More": 9771, "ograph": 9772, "ator": 9773, "schwer": 9774, "shor": 9775, "oth</w>": 9776, "worked</w>": 9777, "langs": 9778, "offizi": 9779, "crete</w>": 9780, "jederzeit</w>": 9781, "VERTEI": 9782, "258</w>": 9783, "gemeinsamen</w>": 9784, "LOY": 9785, "bezahlen</w>": 9786, "destens</w>": 9787, "Tourismus</w>": 9788, "Geldbu": 9789, "touch</w>": 9790, "kontak": 9791, "träge</w>": 9792, "anten</w>": 9793, "atter": 9794, "rufen</w>": 9795, "INI</w>": 9796, "egel": 9797, "selt</w>": 9798, "vorbei</w>": 9799, "Aktion</w>": 9800, "verfügen</w>": 9801, "Telefon</w>": 9802, "Monti</w>": 9803, "reserved</w>": 9804, "Radio</w>": 9805, "Proced": 9806, "Näheres</w>": 9807, "Jahres</w>": 9808, "protect</w>": 9809, "Tuesday</w>": 9810, "Verfasst</w>": 9811, "Küche</w>": 9812, "Pascal</w>": 9813, "Höhe</w>": 9814, "vorgeschlagen</w>": 9815, "Günter</w>": 9816, "Lad": 9817, "Otherwise</w>": 9818, "klu": 9819, "reforms</w>": 9820, "esien</w>": 9821, "alist</w>": 9822, "ffee</w>": 9823, "lux": 9824, "recent</w>": 9825, "halten": 9826, "Waren": 9827, "critic": 9828, "schlüssel": 9829, "enew": 9830, "committee</w>": 9831, "Zahlungs": 9832, "fördern</w>": 9833, "Währungs": 9834, "Lamy</w>": 9835, "Infrastruktur</w>": 9836, "BRAU": 9837, "Fenster</w>": 9838, "HY": 9839, "Kör": 9840, "Loo": 9841, "Mlag": 9842, "Pack": 9843, "foc": 9844, "listen</w>": 9845, "enzi": 9846, "lit</w>": 9847, "sit</w>": 9848, "sides</w>": 9849, "suitable</w>": 9850, "ruf</w>": 9851, "rufe</w>": 9852, "stieg</w>": 9853, "ghout</w>": 9854, "denen</w>": 9855, "nachsteh": 9856, "gewinnen</w>": 9857, "Amt</w>": 9858, "Doc</w>": 9859, "systeme</w>": 9860, "funktionieren</w>": 9861, "Behör": 9862, "Format</w>": 9863, "testen</w>": 9864, "Center</w>": 9865, "Egyp": 9866, "Sand": 9867, "fes</w>": 9868, "kü": 9869, "lung": 9870, "tun": 9871, "zess</w>": 9872, "eng</w>": 9873, "ane": 9874, "aket</w>": 9875, "genann": 9876, "adap": 9877, "lah</w>": 9878, "fragt</w>": 9879, "Nachricht</w>": 9880, "Once</w>": 9881, "Gebiete</w>": 9882, "color</w>": 9883, "Möchtest</w>": 9884, "ACP</w>": 9885, "elections</w>": 9886, "strategie</w>": 9887, "AKP</w>": 9888, "Assistance</w>": 9889, "explain</w>": 9890, "EMPLOY": 9891, "Botschafter</w>": 9892, "Mlaga</w>": 9893, "GF": 9894, "Ken": 9895, "distance</w>": 9896, "passen</w>": 9897, "genannt</w>": 9898, "having</w>": 9899, "äne</w>": 9900, "Speich": 9901, "belie": 9902, "speed</w>": 9903, "Todd</w>": 9904, "positiv</w>": 9905, "tims</w>": 9906, "TAGUNG</w>": 9907, "Elemente</w>": 9908, "ategic</w>": 9909, "community</w>": 9910, "Größe</w>": 9911, "ETI": 9912, "fisheries</w>": 9913, "own": 9914, "seh": 9915, "tau": 9916, "vey</w>": 9917, "einzig": 9918, "terrace</w>": 9919, "qualität</w>": 9920, "pressure</w>": 9921, "buchen</w>": 9922, "Gesprä": 9923, "lower</w>": 9924, "STAGUNG</w>": 9925, "Daran</w>": 9926, "surance</w>": 9927, "BEREIT": 9928, "ACH</w>": 9929, "Wirtschaftliche</w>": 9930, "ateful</w>": 9931, "aktualis": 9932, "GAP</w>": 9933, "grundle": 9934, "Tonnen</w>": 9935, "journ": 9936, "Fälle</w>": 9937, "geeignet</w>": 9938, "tatsächlich</w>": 9939, "ÜN": 9940, "ora</w>": 9941, "dimension</w>": 9942, "beachten</w>": 9943, "Under</w>": 9944, "exerc": 9945, "Internationale</w>": 9946, "Control</w>": 9947, "Sudan</w>": 9948, "PREPAR": 9949, "Wort": 9950, "Gute</w>": 9951, "entrum</w>": 9952, "Companies</w>": 9953, "learning</w>": 9954, "advance</w>": 9955, "reservation</w>": 9956, "zunächst</w>": 9957, "origin</w>": 9958, "bestimmte</w>": 9959, "bitten</w>": 9960, "Prüfung</w>": 9961, "Approval</w>": 9962, "Could</w>": 9963, "HN</w>": 9964, "Wün": 9965, "rary</w>": 9966, "sales</w>": 9967, "esten</w>": 9968, "verfolgen</w>": 9969, "season</w>": 9970, "Auff": 9971, "Gericht</w>": 9972, "Konfli": 9973, "turing</w>": 9974, "öffnen</w>": 9975, "considered</w>": 9976, "foreign</w>": 9977, "Schlußfolgerungen</w>": 9978, "continued</w>": 9979, "conflic": 9980, "ghbour": 9981, "Hübner</w>": 9982, "Ganz</w>": 9983, "Pur": 9984, "Patten</w>": 9985, "Tau": 9986, "tude</w>": 9987, "gerufen</w>": 9988, "Better</w>": 9989, "Gelegen": 9990, "TOR</w>": 9991, "Straß": 9992, "install</w>": 9993, "anyone</w>": 9994, "majority</w>": 9995, "bably</w>": 9996, "Weiter": 9997, "efficient</w>": 9998, "Ferien": 9999, "ADOPTED</w>": 10000, "Telekomm": 10001, "Gaz": 10002, "Jer": 10003, "ia": 10004, "lass</w>": 10005, "yond</w>": 10006, "island</w>": 10007, "uly</w>": 10008, "agriculture</w>": 10009, "quote</w>": 10010, "Super": 10011, "Assozi": 10012, "looks</w>": 10013, "Derzeit</w>": 10014, "Systems</w>": 10015, "Schlußfolgerung</w>": 10016, "Verkehrs": 10017, "Orig": 10018, "existing</w>": 10019, "violence</w>": 10020, "accommodation</w>": 10021, "Galileo</w>": 10022, "Mas": 10023, "Ven": 10024, "fro": 10025, "fers</w>": 10026, "zwar</w>": 10027, "Öff": 10028, "erfolgen</w>": 10029, "befür": 10030, "col</w>": 10031, "ziele</w>": 10032, "Erste</w>": 10033, "prehen": 10034, "Resolution</w>": 10035, "Robert</w>": 10036, "Charlie</w>": 10037, "füllen</w>": 10038, "performance</w>": 10039, "NOR": 10040, "categor": 10041, "names</w>": 10042, "sli": 10043, "itor</w>": 10044, "dition": 10045, "veri": 10046, "lebt</w>": 10047, "ress": 10048, "Presser": 10049, "occo</w>": 10050, "Irina</w>": 10051, "succe": 10052, "summit</w>": 10053, "dorf</w>": 10054, "Children</w>": 10055, "Bestimmungen</w>": 10056, "richtlinie</w>": 10057, "Area</w>": 10058, "Seb": 10059, "pil": 10060, "chem</w>": 10061, "rob": 10062, "ush": 10063, "absur": 10064, "2016</w>": 10065, "grateful</w>": 10066, "Alt": 10067, "Erd": 10068, "Cham": 10069, "sprachen</w>": 10070, "garden</w>": 10071, "Gebü": 10072, "Hinweise</w>": 10073, "Should</w>": 10074, "pension</w>": 10075, "VORBEREIT": 10076, "ENERGIE</w>": 10077, "schwier": 10078, "MINIS": 10079, "konkrete</w>": 10080, "recommendation</w>": 10081, "mistake</w>": 10082, "gruppe</w>": 10083, "gelöst</w>": 10084, "hibition</w>": 10085, "VERTEIDIG": 10086, "DUNG</w>": 10087, "Meter</w>": 10088, "Sev": 10089, "ov</w>": 10090, "passt</w>": 10091, "vie</w>": 10092, "erweit": 10093, "enfalls</w>": 10094, "itely</w>": 10095, "ichten</w>": 10096, "verändert</w>": 10097, "gegründet</w>": 10098, "advice</w>": 10099, "gesetz": 10100, "allery</w>": 10101, "Unterschied</w>": 10102, "nationaler</w>": 10103, "risks</w>": 10104, "alised</w>": 10105, "Umweltsch": 10106, "route</w>": 10107, "stock</w>": 10108, "Rats": 10109, "completed</w>": 10110, "designed</w>": 10111, "emissions</w>": 10112, "Documents</w>": 10113, "mbol</w>": 10114, "Frit": 10115, "Sicht</w>": 10116, "ymp": 10117, "inside</w>": 10118, "ata</w>": 10119, "ush</w>": 10120, "schung</w>": 10121, "amt</w>": 10122, "aktiv</w>": 10123, "eding</w>": 10124, "Spiele</w>": 10125, "Abstimmungen</w>": 10126, "Conc": 10127, "führte</w>": 10128, "street</w>": 10129, "regelung</w>": 10130, "Kontaktpersonen</w>": 10131, "Bus</w>": 10132, "tious</w>": 10133, "einheit": 10134, "Verst": 10135, "Press": 10136, "Argent": 10137, "fizierung</w>": 10138, "bild</w>": 10139, "benutzt</w>": 10140, "crime</w>": 10141, "Aktionen</w>": 10142, "Rural</w>": 10143, "ausschuss</w>": 10144, "Stärkung</w>": 10145, "confidence</w>": 10146, "BE</w>": 10147, "Bou": 10148, "Cur": 10149, "Las</w>": 10150, "ud</w>": 10151, "trading</w>": 10152, "RAT": 10153, "klar": 10154, "vorzu": 10155, "DEL</w>": 10156, "Recht": 10157, "gesamten</w>": 10158, "affected</w>": 10159, "TUOMI": 10160, "Browser</w>": 10161, "nuclear</w>": 10162, "regeln</w>": 10163, "Patri": 10164, "investigation</w>": 10165, "Puerto</w>": 10166, "TUOMIO": 10167, "MIL": 10168, "mt</w>": 10169, "intel": 10170, "ros": 10171, "atin</w>": 10172, "rail": 10173, "beisp": 10174, "geplant</w>": 10175, "ebook</w>": 10176, "umn</w>": 10177, "mobility</w>": 10178, "Europäer</w>": 10179, "mitgli": 10180, "laut</w>": 10181, "brechen</w>": 10182, "carried</w>": 10183, "Winter</w>": 10184, "consist": 10185, "Novak": 10186, "griff</w>": 10187, "Operationelles</w>": 10188, "Frühstück": 10189, "moting</w>": 10190, "conveni": 10191, "who": 10192, "einzu": 10193, "olz</w>": 10194, "entschieden</w>": 10195, "Enlargement</w>": 10196, "ären</w>": 10197, "nisAbbott</w>": 10198, "clean": 10199, "DennisAbbott</w>": 10200, "Zusammensetzung</w>": 10201, "Jul</w>": 10202, "Freunde</w>": 10203, "cars</w>": 10204, "PDO</w>": 10205, "Fuß</w>": 10206, "Klein": 10207, "scheinlich</w>": 10208, "Foto</w>": 10209, "Steuern</w>": 10210, "zentrale</w>": 10211, "Andreas</w>": 10212, "protected</w>": 10213, "Beteiligung</w>": 10214, "wonderful</w>": 10215, "BUDGET</w>": 10216, "Hä": 10217, "Wahlen</w>": 10218, "Zur": 10219, "cils</w>": 10220, "kin": 10221, "wahr</w>": 10222, "chten": 10223, "ansprechen</w>": 10224, "esnt</w>": 10225, "emer": 10226, "Indon": 10227, "sichten</w>": 10228, "Modell</w>": 10229, "packages</w>": 10230, "WIRTSCHAFTS": 10231, "franchise</w>": 10232, "efficiency</w>": 10233, "Staatsminister</w>": 10234, "ENTWICKLUNGS": 10235, "purchase</w>": 10236, "visitors</w>": 10237, "DD": 10238, "doll</w>": 10239, "kenn": 10240, "wan</w>": 10241, "enken</w>": 10242, "isely</w>": 10243, "onstr": 10244, "elen</w>": 10245, "eth</w>": 10246, "spir": 10247, "Schön": 10248, "1989</w>": 10249, "Contribution</w>": 10250, "Jahrhunder": 10251, "Guinea</w>": 10252, "erkennen</w>": 10253, "technologi": 10254, "meters</w>": 10255, "developments</w>": 10256, "BALKAN": 10257, "virtu": 10258, "sufficient</w>": 10259, "530</w>": 10260, "Banner</w>": 10261, "KAS</w>": 10262, "Tob": 10263, "Vic": 10264, "represent": 10265, "esa</w>": 10266, "lieben</w>": 10267, "amp</w>": 10268, "oph": 10269, "weist</w>": 10270, "dule</w>": 10271, "ARD</w>": 10272, "endor": 10273, "STRU": 10274, "Noti": 10275, "konom": 10276, "Geschä": 10277, "Guide</w>": 10278, "Direct</w>": 10279, "hands</w>": 10280, "begrüßt</w>": 10281, "Montene": 10282, "payments</w>": 10283, "hätten</w>": 10284, "Bade": 10285, "partnership</w>": 10286, "DEFENCE</w>": 10287, "ARE": 10288, "Krank": 10289, "fä": 10290, "nights</w>": 10291, "tz</w>": 10292, "gefügt</w>": 10293, "spart": 10294, "Vereinfach": 10295, "iry</w>": 10296, "civil</w>": 10297, "folge</w>": 10298, "ladi": 10299, "vorgelegt</w>": 10300, "essing</w>": 10301, "Meas": 10302, "seconds</w>": 10303, "Desig": 10304, "throughout</w>": 10305, "Richard</w>": 10306, "Zusatz": 10307, "Olli</w>": 10308, "Eigen": 10309, "ZUR</w>": 10310, "wimming</w>": 10311, "SICHERHEITS</w>": 10312, "EMPLOYMENT</w>": 10313, "Novakova</w>": 10314, "Nichts</w>": 10315, "Zustimm": 10316, "iPhone</w>": 10317, "ür</w>": 10318, "beauf": 10319, "shops</w>": 10320, "Augen": 10321, "iko</w>": 10322, "numbers</w>": 10323, "Studie</w>": 10324, "celeb": 10325, "highly</w>": 10326, "beruf": 10327, "besuchen</w>": 10328, "ländlichen</w>": 10329, "Untersuchung</w>": 10330, "Abgeordneten</w>": 10331, "Chairman</w>": 10332, "09": 10333, "Ale": 10334, "Icel": 10335, "Pop": 10336, "brought</w>": 10337, "las</w>": 10338, "vi</w>": 10339, "äß</w>": 10340, "chmals</w>": 10341, "states</w>": 10342, "ray</w>": 10343, "ect": 10344, "Differ": 10345, "selbst": 10346, "Adop": 10347, "astern</w>": 10348, "Kooper": 10349, "Mitgliedstaat</w>": 10350, "stitution</w>": 10351, "Strasb": 10352, "Brazi": 10353, "appears</w>": 10354, "registration</w>": 10355, "cross</w>": 10356, "Drittens</w>": 10357, "schreit": 10358, "Sharrock</w>": 10359, "47": 10360, "Dont</w>": 10361, "lös": 10362, "masch": 10363, "log</w>": 10364, "gewiesen</w>": 10365, "Anwend": 10366, "poverty</w>": 10367, "finally</w>": 10368, "doesnt</w>": 10369, "mag</w>": 10370, "Margot</w>": 10371, "stattung</w>": 10372, "Werk": 10373, "Peti": 10374, "Trotzdem</w>": 10375, "innovative</w>": 10376, "Investitionsbank</w>": 10377, "VERTEIDIGUNGSPOLITIK</w>": 10378, "Bis": 10379, "Brit": 10380, "Edu": 10381, "Others</w>": 10382, "fisch</w>": 10383, "sweise</w>": 10384, "rimin": 10385, "plätze</w>": 10386, "shopping</w>": 10387, "bestimmt</w>": 10388, "dos</w>": 10389, "Mail": 10390, "Einführung</w>": 10391, "bre</w>": 10392, "liefer": 10393, "ordnete</w>": 10394, "bestellen</w>": 10395, "Romano</w>": 10396, "Everything</w>": 10397, "Montenegro</w>": 10398, "Blue</w>": 10399, "MÄ": 10400, "Mus": 10401, "af</w>": 10402, "ex</w>": 10403, "gei": 10404, "gone</w>": 10405, "kan</w>": 10406, "leng": 10407, "tari": 10408, "asti": 10409, "Rezep": 10410, "Veränderung</w>": 10411, "Franchise</w>": 10412, "classi": 10413, "Company</w>": 10414, "digit": 10415, "digital</w>": 10416, "Break": 10417, "Plaza</w>": 10418, "Soziales</w>": 10419, "booking</w>": 10420, "Durchführung</w>": 10421, "screen</w>": 10422, "Vereinbarung</w>": 10423, "Moreover</w>": 10424, "VORBEREITUNG</w>": 10425, "Strasbourg</w>": 10426, "Kind</w>": 10427, "sort</w>": 10428, "alog": 10429, "rigi": 10430, "dige</w>": 10431, "tein</w>": 10432, "poses</w>": 10433, "combin": 10434, "freie</w>": 10435, "photo": 10436, "SCHRI": 10437, "wichtigen</w>": 10438, "effort</w>": 10439, "produced</w>": 10440, "timate</w>": 10441, "break</w>": 10442, "consists</w>": 10443, "discuss</w>": 10444, "Entscheidungen</w>": 10445, "Select</w>": 10446, "festgelegt</w>": 10447, "Status</w>": 10448, "Instrument</w>": 10449, "verloren</w>": 10450, "fläche</w>": 10451, "gewöhn": 10452, "Zustimmung</w>": 10453, "Nahr": 10454, "Via</w>": 10455, "VIT": 10456, "sü": 10457, "zö": 10458, "Mindest": 10459, "Did</w>": 10460, "überall</w>": 10461, "mindestens</w>": 10462, "Work": 10463, "Davon</w>": 10464, "BERG</w>": 10465, "Formular</w>": 10466, "Mission</w>": 10467, "instrument</w>": 10468, "copy</w>": 10469, "advantage</w>": 10470, "angeboten</w>": 10471, "Fal": 10472, "Mech": 10473, "fail": 10474, "erneu": 10475, "haft</w>": 10476, "luß</w>": 10477, "Abend</w>": 10478, "ausgestattet</w>": 10479, "Beihilfe</w>": 10480, "Schlaf": 10481, "dels</w>": 10482, "delegation</w>": 10483, "concept</w>": 10484, "subst": 10485, "Amelia</w>": 10486, "arta</w>": 10487, "NEW</w>": 10488, "consult": 10489, "samer</w>": 10490, "authorities</w>": 10491, "Ideen</w>": 10492, "Lebensmittel": 10493, "Prioritätsachsen</w>": 10494, "tonnes</w>": 10495, "listed</w>": 10496, "recommendations</w>": 10497, "recogni": 10498, "Ambassador</w>": 10499, "mitglied</w>": 10500, "AB</w>": 10501, "BY": 10502, "Meiner</w>": 10503, "TUR": 10504, "agen": 10505, "bz": 10506, "fi</w>": 10507, "ga": 10508, "außer</w>": 10509, "adjust": 10510, "hol</w>": 10511, "Abschließend</w>": 10512, "ehrt</w>": 10513, "Wege</w>": 10514, "erhält</w>": 10515, "Staatssekretärin</w>": 10516, "players</w>": 10517, "transparent</w>": 10518, "equal</w>": 10519, "Civil</w>": 10520, "urement</w>": 10521, "PROCEDURE</w>": 10522, "IP": 10523, "Vom</w>": 10524, "vit": 10525, "reduction</w>": 10526, "ons": 10527, "außerdem</w>": 10528, "eins</w>": 10529, "ommun": 10530, "genheit</w>": 10531, "sely</w>": 10532, "bett</w>": 10533, "Viet": 10534, "richtungen</w>": 10535, "anderung</w>": 10536, "ishment</w>": 10537, "Subsidiar": 10538, "transfer</w>": 10539, "implemented</w>": 10540, "machine</w>": 10541, "victims</w>": 10542, "Klar": 10543, "RE</w>": 10544, "Spo": 10545, "Sir</w>": 10546, "Search</w>": 10547, "Saint</w>": 10548, "dynam": 10549, "pas": 10550, "wishes</w>": 10551, "zeiten</w>": 10552, "anas</w>": 10553, "ticket</w>": 10554, "red": 10555, "white</w>": 10556, "aves</w>": 10557, "ISO</w>": 10558, "compon": 10559, "sicht": 10560, "rict</w>": 10561, "BEI</w>": 10562, "Secretariat</w>": 10563, "LEB": 10564, "glauben</w>": 10565, "commitment</w>": 10566, "Canada</w>": 10567, "Behandlung</w>": 10568, "participation</w>": 10569, "Everyone</w>": 10570, "verkehrs": 10571, "referred</w>": 10572, "verbessert</w>": 10573, "consequences</w>": 10574, "Zwischen": 10575, "Cc": 10576, "Jes": 10577, "TRO": 10578, "fare</w>": 10579, "ix</w>": 10580, "Inc</w>": 10581, "Angst</w>": 10582, "ffs</w>": 10583, "edings</w>": 10584, "reib": 10585, "starts</w>": 10586, "gewün": 10587, "Assem": 10588, "Ski": 10589, "Phase</w>": 10590, "Kommun": 10591, "criptive</w>": 10592, "Georgieva</w>": 10593, "Santa</w>": 10594, "traffic</w>": 10595, "Poker</w>": 10596, "Bevölkerung</w>": 10597, "Holiday</w>": 10598, "46": 10599, "Sehen</w>": 10600, "Tom</w>": 10601, "remember</w>": 10602, "schauen</w>": 10603, "leading</w>": 10604, "eitet</w>": 10605, "suite</w>": 10606, "tom</w>": 10607, "Maja</w>": 10608, "COST</w>": 10609, "discrimin": 10610, "tigkeiten</w>": 10611, "Serbia</w>": 10612, "shower</w>": 10613, "bara</w>": 10614, "class</w>": 10615, "Begri": 10616, "allgemeinen</w>": 10617, "Hamburg</w>": 10618, "Retur": 10619, "industrial</w>": 10620, "kulturel": 10621, "Aufenthalt</w>": 10622, "SD": 10623, "Sein</w>": 10624, "TON": 10625, "fach</w>": 10626, "fantas": 10627, "häre</w>": 10628, "kal": 10629, "ernen</w>": 10630, "thi": 10631, "thening</w>": 10632, "bear</w>": 10633, "REC": 10634, "Marie</w>": 10635, "Waren</w>": 10636, "critical</w>": 10637, "Managing</w>": 10638, "scale</w>": 10639, "jekte</w>": 10640, "Kollege</w>": 10641, "Nummer</w>": 10642, "default</w>": 10643, "Weiß": 10644, "persönlich</w>": 10645, "Rechnung": 10646, "integri": 10647, "Come</w>": 10648, "Fonds</w>": 10649, "Identi": 10650, "represented</w>": 10651, "conduc": 10652, "opou": 10653, "Prospective</w>": 10654, "ARI": 10655, "Mitte</w>": 10656, "Meeting</w>": 10657, "SCHUT": 10658, "Überprüfung</w>": 10659, "explo": 10660, "ximately</w>": 10661, "durchaus</w>": 10662, "overall</w>": 10663, "opinions</w>": 10664, "Dienstag</w>": 10665, "Black</w>": 10666, "precisely</w>": 10667, "Drei</w>": 10668, "hafter</w>": 10669, "Initiativen</w>": 10670, "Microsoft</w>": 10671, "Kallas</w>": 10672, "39": 10673, "Ear": 10674, "GL</w>": 10675, "Zeiten</w>": 10676, "fit": 10677, "kbar</w>": 10678, "lds</w>": 10679, "rac": 10680, "raise</w>": 10681, "riert</w>": 10682, "spann": 10683, "gender</w>": 10684, "after": 10685, "ARCH</w>": 10686, "obvious</w>": 10687, "vorlie": 10688, "Entwurf</w>": 10689, "betroffen</w>": 10690, "sole</w>": 10691, "steller</w>": 10692, "wären</w>": 10693, "EICH": 10694, "starten</w>": 10695, "verbessern</w>": 10696, "erzielt</w>": 10697, "BORG</w>": 10698, "Kurzbeschreibung</w>": 10699, "stattfinden</w>": 10700, "setting</w>": 10701, "rahmen</w>": 10702, "Procedure</w>": 10703, "Ccile</w>": 10704, "Bla": 10705, "List</w>": 10706, "PL": 10707, "Well": 10708, "kap": 10709, "sth": 10710, "wall</w>": 10711, "Ägyp": 10712, "illu": 10713, "Anne</w>": 10714, "growing</w>": 10715, "Councils</w>": 10716, "print</w>": 10717, "Worten</w>": 10718, "facil": 10719, "Grundlage</w>": 10720, "perfec": 10721, "applications</w>": 10722, "tourism</w>": 10723, "Claude</w>": 10724, "VERFAHREN</w>": 10725, "FRAN": 10726, "Plu": 10727, "äst": 10728, "urban</w>": 10729, "schlagen</w>": 10730, "Vorgehen</w>": 10731, "COUR": 10732, "Darin</w>": 10733, "Irish</w>": 10734, "attle</w>": 10735, "voller</w>": 10736, "watch</w>": 10737, "speaking</w>": 10738, "durchgeführt</w>": 10739, "leistungs": 10740, "PPE</w>": 10741, "satisfac": 10742, "somit</w>": 10743, "PREPARATION</w>": 10744, "Wien</w>": 10745, "ras</w>": 10746, "tack": 10747, "uner": 10748, "onien</w>": 10749, "diversity</w>": 10750, "beantworten</w>": 10751, "provisions</w>": 10752, "derzei": 10753, "RAL</w>": 10754, "vorbehalten</w>": 10755, "great": 10756, "Ministers</w>": 10757, "Zusammenfassung</w>": 10758, "beschrän": 10759, "versor": 10760, "Corpor": 10761, "Stardoll</w>": 10762, "seriously</w>": 10763, "großes</w>": 10764, "Farbe</w>": 10765, "Sekunden</w>": 10766, "Niemand</w>": 10767, "acious</w>": 10768, "WESTER": 10769, "HEAL": 10770, "Basis</w>": 10771, "ECO": 10772, "HOL": 10773, "NER</w>": 10774, "Nicht": 10775, "cin": 10776, "dend</w>": 10777, "ieten</w>": 10778, "ty": 10779, "iti</w>": 10780, "iler</w>": 10781, "entlich</w>": 10782, "akt</w>": 10783, "suche</w>": 10784, "cked</w>": 10785, "zip": 10786, "TITU": 10787, "egu": 10788, "eger</w>": 10789, "Bezug</w>": 10790, "Urmas</w>": 10791, "expensive</w>": 10792, "Euch</w>": 10793, "Karl</w>": 10794, "Putin</w>": 10795, "drück": 10796, "kestein</w>": 10797, "Customs</w>": 10798, "susp": 10799, "häufig</w>": 10800, "optimis": 10801, "Bolkestein</w>": 10802, "Based</w>": 10803, "Tom": 10804, "Tir": 10805, "ox</w>": 10806, "sk</w>": 10807, "Revolution</w>": 10808, "wegs</w>": 10809, "ENS</w>": 10810, "apest</w>": 10811, "impossible</w>": 10812, "string</w>": 10813, "bilität</w>": 10814, "Board</w>": 10815, "sorry</w>": 10816, "wichtigste</w>": 10817, "delivery</w>": 10818, "Druck</w>": 10819, "pleasant</w>": 10820, "Ausführungen</w>": 10821, "AGEN": 10822, "Dam": 10823, "HEIT</w>": 10824, "gkeit</w>": 10825, "jün": 10826, "kür": 10827, "inakzeptabel</w>": 10828, "chter</w>": 10829, "anne</w>": 10830, "represents</w>": 10831, "articles</w>": 10832, "stets</w>": 10833, "promote</w>": 10834, "tob": 10835, "ziem": 10836, "Berg": 10837, "ghter</w>": 10838, "Franco</w>": 10839, "thermore</w>": 10840, "Luft</w>": 10841, "Konz": 10842, "konzent": 10843, "Road</w>": 10844, "vernünf": 10845, "Technologie</w>": 10846, "SEARCH</w>": 10847, "Fire": 10848, "spät</w>": 10849, "PAET</w>": 10850, "Payments</w>": 10851, "mündliche</w>": 10852, "Überwachung</w>": 10853, "kontaktieren</w>": 10854, "Dring": 10855, "HIL": 10856, "Ry": 10857, "zut": 10858, "itate</w>": 10859, "rierung</w>": 10860, "died</w>": 10861, "usual</w>": 10862, "scho": 10863, "deckt</w>": 10864, "wier": 10865, "gangenen</w>": 10866, "Gew": 10867, "Viel</w>": 10868, "head": 10869, "Competi": 10870, "Amts": 10871, "effects</w>": 10872, "estic</w>": 10873, "currency</w>": 10874, "mieten</w>": 10875, "scope</w>": 10876, "Straßen": 10877, "Regul": 10878, "Besuchen</w>": 10879, "Besucher</w>": 10880, "Texti": 10881, "Reservi": 10882, "Beschluss</w>": 10883, "Dienst</w>": 10884, "analysis</w>": 10885, "Choose</w>": 10886, "Gelegenheit</w>": 10887, "En</w>": 10888, "Telec": 10889, "yl</w>": 10890, "orca</w>": 10891, "const": 10892, "Defiz": 10893, "echte</w>": 10894, "offered</w>": 10895, "Carl</w>": 10896, "Ratspräsident</w>": 10897, "Märkte</w>": 10898, "amoun": 10899, "targets</w>": 10900, "Capital</w>": 10901, "cheap</w>": 10902, "damage</w>": 10903, "entsprechend</w>": 10904, "Kunst</w>": 10905, "Test": 10906, "cam</w>": 10907, "cant</w>": 10908, "isi": 10909, "eim": 10910, "did": 10911, "spar": 10912, "genü": 10913, "ourth</w>": 10914, "guest</w>": 10915, "Power</w>": 10916, "super</w>": 10917, "Forestry</w>": 10918, "getary</w>": 10919, "Arbeitnehmer</w>": 10920, "bereitet</w>": 10921, "piece</w>": 10922, "wichtiges</w>": 10923, "Bemüh": 10924, "entscheiden</w>": 10925, "Herzlichen</w>": 10926, "Ziffer</w>": 10927, "Beginn</w>": 10928, "weisung</w>": 10929, "Modernis": 10930, "HTML</w>": 10931, "Ernährung</w>": 10932, "55": 10933, "Bess": 10934, "KÄ": 10935, "Mun": 10936, "PO</w>": 10937, "SC</w>": 10938, "Wein</w>": 10939, "tickets</w>": 10940, "remarks</w>": 10941, "radi": 10942, "fixed</w>": 10943, "nahe</w>": 10944, "darin</w>": 10945, "secure</w>": 10946, "Italian</w>": 10947, "anderem</w>": 10948, "Daniel</w>": 10949, "depends</w>": 10950, "weiteres</w>": 10951, "influ": 10952, "gewähl": 10953, "according</w>": 10954, "Bernard</w>": 10955, "Blu": 10956, "Ehr": 10957, "GER</w>": 10958, "Port</w>": 10959, "Wollen</w>": 10960, "gers</w>": 10961, "jemand</w>": 10962, "senti": 10963, "Thanks</w>": 10964, "accounts</w>": 10965, "debt</w>": 10966, "opening</w>": 10967, "rural</w>": 10968, "cook": 10969, "findings</w>": 10970, "Alger": 10971, "geladen</w>": 10972, "Intervention</w>": 10973, "prevention</w>": 10974, "gewo": 10975, "Folgende</w>": 10976, "OLL": 10977, "Isl": 10978, "Sonn": 10979, "NATO</w>": 10980, "Zeitraum</w>": 10981, "Pflan": 10982, "Zusch": 10983, "Haltung</w>": 10984, "Schwerpunkte</w>": 10985, "arrival</w>": 10986, "feature</w>": 10987, "Java</w>": 10988, "Dienste</w>": 10989, "eingerichtet</w>": 10990, "adequ": 10991, "Iceland</w>": 10992, "Brazil</w>": 10993, "Ado": 10994, "affairs</w>": 10995, "ci</w>": 10996, "fand</w>": 10997, "liste</w>": 10998, "ni</w>": 10999, "reig": 11000, "verdient</w>": 11001, "forums</w>": 11002, "bequ": 11003, "wirken</w>": 11004, "überprüft</w>": 11005, "fuge": 11006, "niedri": 11007, "Descriptive</w>": 11008, "Law</w>": 11009, "FORSCH": 11010, "Walter</w>": 11011, "British</w>": 11012, "democratic</w>": 11013, "reflec": 11014, "betreffen</w>": 11015, "planned</w>": 11016, "Kompromiss</w>": 11017, "Mechan": 11018, "Fei": 11019, "busin": 11020, "famili": 11021, "erin</w>": 11022, "wegung</w>": 11023, "ERWEIT": 11024, "RESEARCH</w>": 11025, "tsetzung</w>": 11026, "STA</w>": 11027, "daraus</w>": 11028, "fuer</w>": 11029, "Roger</w>": 11030, "gete": 11031, "Vereinigten</w>": 11032, "tains</w>": 11033, "Baltic</w>": 11034, "Stimmerklär": 11035, "definitely</w>": 11036, "amerikan": 11037, "wachsen": 11038, "EGF</w>": 11039, "deliber": 11040, "Wachstum": 11041, "developing</w>": 11042, "animal</w>": 11043, "decide</w>": 11044, "INSTITU": 11045, "carefully</w>": 11046, "Kürze</w>": 11047, "briefly</w>": 11048, "bzw</w>": 11049, "HEALTH</w>": 11050, "Bay</w>": 11051, "Mandel": 11052, "Zü": 11053, "kont": 11054, "reduced</w>": 11055, "itz</w>": 11056, "essions</w>": 11057, "oul": 11058, "verlieren</w>": 11059, "Intro": 11060, "internationalen</w>": 11061, "unden": 11062, "guli": 11063, "geschrieben</w>": 11064, "warded</w>": 11065, "EAST</w>": 11066, "Beson": 11067, "velop</w>": 11068, "carry</w>": 11069, "Nachrichten</w>": 11070, "Fuß": 11071, "nummer</w>": 11072, "Facebook</w>": 11073, "holidays</w>": 11074, "limits</w>": 11075, "Systeme</w>": 11076, "Institutionen</w>": 11077, "Statistiken</w>": 11078, "zahlreiche</w>": 11079, "WHO</w>": 11080, "Adopted</w>": 11081, "Aqu": 11082, "Dollar</w>": 11083, "Edit": 11084, "Hence</w>": 11085, "Io": 11086, "efer": 11087, "fan": 11088, "ius</w>": 11089, "thous": 11090, "alities</w>": 11091, "ENLAR": 11092, "aufgenommen</w>": 11093, "Unterkunft</w>": 11094, "106</w>": 11095, "accessed</w>": 11096, "Antnio</w>": 11097, "Serbien</w>": 11098, "RANDE</w>": 11099, "kurz": 11100, "journey</w>": 11101, "advantages</w>": 11102, "Auswärtigen</w>": 11103, "Without</w>": 11104, "86": 11105, "Pic": 11106, "PAL": 11107, "aj": 11108, "rd</w>": 11109, "winners</w>": 11110, "einig</w>": 11111, "einverstanden</w>": 11112, "territ": 11113, "quick</w>": 11114, "Absatz</w>": 11115, "ielt</w>": 11116, "fizi": 11117, "Buch</w>": 11118, "Additional</w>": 11119, "followed</w>": 11120, "Straße</w>": 11121, "Kolleg": 11122, "Stellvertreterin</w>": 11123, "Liechten": 11124, "governance</w>": 11125, "Abgeordnete</w>": 11126, "COMMUNIC": 11127, "Portal</w>": 11128, "ziemlich</w>": 11129, "BA</w>": 11130, "Has</w>": 11131, "IV": 11132, "Sie": 11133, "average</w>": 11134, "ren</w>": 11135, "ardo</w>": 11136, "schu": 11137, "verhin": 11138, "profile</w>": 11139, "genutzt</w>": 11140, "uta</w>": 11141, "covers</w>": 11142, "umgesetzt</w>": 11143, "meat</w>": 11144, "Chile</w>": 11145, "Vienna</w>": 11146, "ELLE</w>": 11147, "heal": 11148, "Worum</w>": 11149, "proposes</w>": 11150, "surro": 11151, "geför": 11152, "LEG": 11153, "Beiträge</w>": 11154, "Teilnahme</w>": 11155, "Zusätz": 11156, "Network</w>": 11157, "Loud</w>": 11158, "LICHEN</w>": 11159, "guidelines</w>": 11160, "INSGESAMT</w>": 11161, "40": 11162, "Dri": 11163, "Rh": 11164, "Rome</w>": 11165, "Sund": 11166, "gol": 11167, "wom": 11168, "öl</w>": 11169, "reference</w>": 11170, "stood</w>": 11171, "versi": 11172, "gestri": 11173, "andt</w>": 11174, "tured</w>": 11175, "COSTA</w>": 11176, "ITAL": 11177, "updated</w>": 11178, "fraud</w>": 11179, "couple</w>": 11180, "Vassilious</w>": 11181, "regionale</w>": 11182, "Sanktionen</w>": 11183, "KLÄR": 11184, "bewusst</w>": 11185, "Legisl": 11186, "Risiken</w>": 11187, "professional</w>": 11188, "näher</w>": 11189, "Hoffnung</w>": 11190, "Frits</w>": 11191, "Gold</w>": 11192, "IE</w>": 11193, "IRA": 11194, "Navigation</w>": 11195, "ERS</w>": 11196, "ARBEIT": 11197, "contrary</w>": 11198, "trying</w>": 11199, "freien</w>": 11200, "wärtig</w>": 11201, "entific</w>": 11202, "rechts": 11203, "SPE": 11204, "einfache</w>": 11205, "Barbara</w>": 11206, "MAN</w>": 11207, "continues</w>": 11208, "plementary</w>": 11209, "Sektor</w>": 11210, "furt</w>": 11211, "ikanen</w>": 11212, "bemerk": 11213, "Videos</w>": 11214, "Koordinierung</w>": 11215, "Bestellung</w>": 11216, "campaign</w>": 11217, "absurd</w>": 11218, "ommunications</w>": 11219, "COURT</w>": 11220, "Ah": 11221, "Bran": 11222, "CAM": 11223, "Flä": 11224, "None</w>": 11225, "blue</w>": 11226, "fla": 11227, "kept</w>": 11228, "willi": 11229, "atis</w>": 11230, "becomes</w>": 11231, "sparen</w>": 11232, "Any": 11233, "cic</w>": 11234, "Schad": 11235, "REG": 11236, "obili": 11237, "Gerä": 11238, "Sozi": 11239, "Vielfalt</w>": 11240, "Prices</w>": 11241, "Description</w>": 11242, "submitted</w>": 11243, "54530</w>": 11244, "erkennung</w>": 11245, "Head</w>": 11246, "Commitments</w>": 11247, "Frühere</w>": 11248, "Johannes</w>": 11249, "Accession</w>": 11250, "GESUND": 11251, "fühlen</w>": 11252, "behandeln</w>": 11253, "Dublin</w>": 11254, "sicherlich</w>": 11255, "controls</w>": 11256, "famous</w>": 11257, "likely</w>": 11258, "Brasilien</w>": 11259, "CF": 11260, "DU": 11261, "Gir": 11262, "NAF": 11263, "Rü": 11264, "ax": 11265, "fei": 11266, "bean": 11267, "newsletter</w>": 11268, "prosp": 11269, "worldwide</w>": 11270, "INEN</w>": 11271, "hohe</w>": 11272, "CoR</w>": 11273, "geleitet</w>": 11274, "USS</w>": 11275, "Chan": 11276, "brauch</w>": 11277, "Qual": 11278, "spoke</w>": 11279, "tained</w>": 11280, "chosen</w>": 11281, "Bestand": 11282, "Milliar": 11283, "Tourism</w>": 11284, "BARNI": 11285, "schlecht</w>": 11286, "Balkans</w>": 11287, "automatisch</w>": 11288, "Generaldirektion</w>": 11289, "expenditure</w>": 11290, "Byr": 11291, "Festival</w>": 11292, "Hein": 11293, "Transp": 11294, "fresh</w>": 11295, "hop": 11296, "nam</w>": 11297, "onal</w>": 11298, "store</w>": 11299, "acci": 11300, "shilfe</w>": 11301, "edback</w>": 11302, "Auditors</w>": 11303, "räger</w>": 11304, "parad": 11305, "welcher</w>": 11306, "tre</w>": 11307, "struk": 11308, "VIS</w>": 11309, "URL</w>": 11310, "Optionen</w>": 11311, "begriffen</w>": 11312, "180</w>": 11313, "MARG": 11314, "anctions</w>": 11315, "Tai": 11316, "Gran</w>": 11317, "Bedenken</w>": 11318, "ebenso</w>": 11319, "Volk</w>": 11320, "Olymp": 11321, "farmers</w>": 11322, "occa": 11323, "kompli": 11324, "ambitious</w>": 11325, "AIDS</w>": 11326, "Kapitel</w>": 11327, "Stellungnahmen</w>": 11328, "collection</w>": 11329, "FRIED": 11330, "glad</w>": 11331, "Cra": 11332, "Med": 11333, "Rest</w>": 11334, "han": 11335, "stopp": 11336, "ehm": 11337, "became</w>": 11338, "gezogen</w>": 11339, "probably</w>": 11340, "concrete</w>": 11341, "short": 11342, "sell</w>": 11343, "Mario</w>": 11344, "Einigung</w>": 11345, "Fortsetzung</w>": 11346, "compati": 11347, "Liikanen</w>": 11348, "operations</w>": 11349, "Add</w>": 11350, "GUB</w>": 11351, "appeal</w>": 11352, "Schiff": 11353, "yoto</w>": 11354, "Instrumente</w>": 11355, "Drogen": 11356, "planning</w>": 11357, "satisfied</w>": 11358, "Egypt</w>": 11359, "Adobe</w>": 11360, "Funktion": 11361, "GM": 11362, "Jord": 11363, "Kyoto</w>": 11364, "Mur": 11365, "Neg": 11366, "PT</w>": 11367, "Sing": 11368, "Table</w>": 11369, "filled</w>": 11370, "gave</w>": 11371, "kop": 11372, "ml</w>": 11373, "sat": 11374, "seiten</w>": 11375, "erstellen</w>": 11376, "lige</w>": 11377, "lights</w>": 11378, "Thail": 11379, "usually</w>": 11380, "nos</w>": 11381, "Stunde</w>": 11382, "ERKLÄR": 11383, "Schaffung</w>": 11384, "todays</w>": 11385, "ROM</w>": 11386, "welchem</w>": 11387, "guide</w>": 11388, "Einen</w>": 11389, "Posi": 11390, "Umgebung</w>": 11391, "desi": 11392, "forec": 11393, "Working</w>": 11394, "utzung</w>": 11395, "Invest": 11396, "balcon": 11397, "Weshalb</w>": 11398, "funded</w>": 11399, "absolute</w>": 11400, "Miguel</w>": 11401, "allgemein</w>": 11402, "vollständig</w>": 11403, "craft</w>": 11404, "appointed</w>": 11405, "Bundesministerin</w>": 11406, "reasonable</w>": 11407, "ENLARGEM": 11408, "667</w>": 11409, "ied</w>": 11410, "ris</w>": 11411, "title</w>": 11412, "Thir": 11413, "eingesch": 11414, "losen</w>": 11415, "ecken</w>": 11416, "ruh": 11417, "eping</w>": 11418, "licherweise</w>": 11419, "annis</w>": 11420, "Suites</w>": 11421, "Beim</w>": 11422, "Monaten</w>": 11423, "tively</w>": 11424, "Schiffe</w>": 11425, "mittlung</w>": 11426, "Kanada</w>": 11427, "Mexico</w>": 11428, "avoid</w>": 11429, "hervorra": 11430, "Assembly</w>": 11431, "B5</w>": 11432, "EO</w>": 11433, "UP</w>": 11434, "ao</w>": 11435, "hast</w>": 11436, "kum": 11437, "urch</w>": 11438, "etter</w>": 11439, "luck</w>": 11440, "Schlüssel</w>": 11441, "Peace</w>": 11442, "Farben</w>": 11443, "Kopf</w>": 11444, "steel</w>": 11445, "heutige</w>": 11446, "Overview</w>": 11447, "Somalia</w>": 11448, "Furthermore</w>": 11449, "evaluation</w>": 11450, "commercial</w>": 11451, "Stimmerklärungen</w>": 11452, "Klage</w>": 11453, "Latin</w>": 11454, "Vel": 11455, "Wech": 11456, "ll": 11457, "zed": 11458, "erfordert</w>": 11459, "orah</w>": 11460, "stake</w>": 11461, "sim": 11462, "lots</w>": 11463, "Inhalte</w>": 11464, "igi": 11465, "ham</w>": 11466, "cities</w>": 11467, "plement</w>": 11468, "Project</w>": 11469, "Progress</w>": 11470, "Erzeugnisse</w>": 11471, "räume</w>": 11472, "serve</w>": 11473, "gebiete</w>": 11474, "Maj": 11475, "ekte</w>": 11476, "Buil": 11477, "quests</w>": 11478, "Betrag</w>": 11479, "friend</w>": 11480, "NET</w>": 11481, "sorg": 11482,
[...]
