e r
e n
i n
Ġ a
c h
Ġ t
e s
o n
Ġ d
i s
Ġ s
u n
a n
i t
o r
Ġ w
a t
h e
r e
Ġ m
Ġ f
i e
Ġ b
Ġ p
i on
a r
t e
Ġ c
r o
a l
Ġ e
a s
i ch
l e
Ġ h
Ġt he
Ġ g
Ġ n
Ġ in
Ġ o
Ġ v
u s
Ġ is
Ã ¼
en t
o m
u r
un g
Ġa n
i l
Ã ¤
e l
Ġ k
t er
Ġ un
e d
i g
i r
Ġo f
in g
Ġ l
i c
Ġt o
r a
s t
o l
i m
e t
Ġ re
e m
Ġ z
Ġt h
at ion
t h
o u
Ġb e
Ġd er
d er
Ġ 2
g e
Ġe in
u m
om m
Ġf or
Ġs t
er e
t he
r es
i d
t s
Ġd ie
an d
i es
Ġan d
a m
t en
Ã¼ r
a b
0 0
Ã ¶
Ġis t
Ġ 1
f or
ro p
w e
u t
h r
g en
Ġun d
o t
ich t
Ġ y
Ġa l
o s
b er
Ġ (
Ġv er
a c
d en
v e
is s
e in
u rop
Ġ j
e c
u f
Ġp ro
Ġ i
s ch
d e
v er
k e
Ġ on
Ġs ie
i er
is ch
u l
o w
Ġ r
Ġf Ã¼r
te l
Ġ er
a ch
d ie
es t
l ich
k t
omm iss
a y
Ġw e
Ġw ir
il l
un d
in d
u ch
. .
Ġa re
f f
b e
Ġ im
al l
or t
Ġd e
Ġn e
ommiss ion
s p
Ġc on
o ur
Ġz u
for m
p p
a d
Ġ -
Ġg e
r i
c e
Ġy ou
Ġs e
Ġd as
q u
res s
es s
an n
at e
Ã Ł
us t
Ġs ch
Ġv on
a g
Ġa b
c t
i en
Ġh a
Ġth is
o p
Ġa uf
d as
Ġa us
in is
Ġe urop
l d
Ġd ies
form ation
Ġd en
Ġd es
l y
Ġn ot
it h
Ġn icht
Ġ it
inis ter
s e
m ent
ung en
Ġm it
an t
f t
Ã¼ ber
Ġa t
Ġin formation
en d
Ġs p
i b
ar t
a h
i k
n e
Ġc o
Ġw ill
Ġd o
Ġ le
l a
i a
s o
ol l
n en
e urop
Ã¤ n
s en
u b
is t
w ir
e an
Ġth at
Ġ ch
Ġw ith
Ġh o
m en
Ġn o
l and
z e
i ve
h en
i f
an k
Ġw er
Ġ2 00
h er
g r
on t
Ġ Ã¼ber
ou ld
h t
us s
o d
ie l
i v
as e
er s
Ġw as
Ġs ind
th is
Ġha ve
Ġe u
Ġ 3
Ġe x
Ġ es
isch e
m r
Ġs o
a in
id ent
it y
it e
or e
Ġs ich
a k
Ġm e
Ġein e
Ġ en
Ġv or
Ġal l
Ġun s
ion s
Ġ he
Ġm inister
ro m
u p
Ġa s
es ch
Ġw h
i al
u g
Ġs h
Ã¤ r
im m
Ġwer den
te d
s te
c k
Ġf in
p ress
an g
Ġ ent
Ġc ommission
u re
l o
Ġc om
Ġ us
Ġ um
Ġa m
a ge
el l
.. .
a il
m e
Ġ res
o k
Ġ ich
ig e
Ġre p
it te
d ies
r an
ac k
Ġw or
w h
Ġb y
u e
i p
Ġ .
Ġh ab
Ġa r
ein e
ic e
0 1
Ġp l
Ġc an
l os
ar d
b en
er n
Ġ 4
r Ã¤
Ġun ter
Ġwir d
ic k
Ġh er
3 2
Ġ or
a hr
ung s
Ġa d
in e
a p
ch e
as t
h al
ab le
u d
Ġ :
Ġh as
g er
Ġt e
th er
Ġd em
he it
Ġi h
Ġ ro
Ġm a
Ġho tel
ar k
ec t
Ã¶ n
a f
Ġ Ġ
i re
ter n
a us
i o
Ġ qu
le ase
Ġy our
Ġk ommission
z en
ts ch
Ã¼ s
d u
Ġcon t
Ġre g
c l
Ġ 5
we it
Ġco un
om e
Ġm ore
w er
Ġl i
9 9
isch en
tel l
ul t
Ġa uch
Ġm Ã¶
g ra
a u
Ġal so
r u
ou t
Ġf rom
omm en
l ie
Ġh at
Ġg o
Ġf ra
s ie
Ġp ol
Ġl o
on e
b s
th at
a re
e u
ig en
as s
ation s
ar y
m an
Ġw ould
Ġm an
Ġhab en
a v
id e
p t
Ã¤ t
be it
Ġk Ã¶n
Ġw ar
Ġp er
Ġ( +
a kt
Ġg r
i z
m er
is e
Ġa g
Ġli ke
em ent
h in
Ġm o
Ġo ur
Ġinformation en
et z
n er
Ã¤ ische
a ft
Ġb er
r it
c c
c il
f er
ro und
gra m
Ġa pp
ig n
o te
Ġz ur
ac t
Ġr at
ch en
Ġg esch
el t
Ġeurop ean
a ir
Ġst at
p l
es e
m it
Ġne w
en s
wh at
Ġth ere
Ġp ar
g t
europ ean
Ġun ion
Ġ 0
m s
rÃ¤ s
Ã¼ n
t o
ĠmÃ¶ ch
Ġf re
Ġde b
h l
Ġfin an
z u
ke it
p ro
a ke
w as
lich e
f in
Ġp ress
Ġs te
h o
em ber
b le
Ġn ach
her r
Ã¶ r
Ġver y
in k
rÃ¤s ident
ub l
a uf
ig ht
t ra
er v
re ich
b r
Ġp res
Ġ 7
Ġp o
ct ion
k te
Ġ 6
ac e
or d
Ġt ra
Ġg en
o g
Ġc omm
Ġb es
gr und
it ion
Ġk ann
Ġs ein
am e
Ġs it
Ġcom p
s el
ier t
im e
ib t
Ġw ie
weit ere
k l
Ġher r
Ġ2 01
Ġcoun cil
k ont
b ack
w o
Ġs a
f Ã¼
g round
il ung
Ġs u
u te
Ġ ...
Ġb et
us e
Ġh ier
c o
b ar
Ġp art
e ar
th ere
st en
am ent
at ed
i le
f ol
Ġ ra
f r
Ã¤n der
Ġg ro
2 00
n o
Ġab out
Ġne ed
ter grund
Ġm ust
all y
r y
Ġ 9
Ġre lease
en n
Ġ |
Ġ 8
back ground
f ra
Ġj ust
Ġan ge
il d
v el
p ort
hin tergrund
re t
c on
Ġ up
Ġwe it
ier en
Ġm r
ĠkÃ¶n nen
Ġg es
Ġa ff
Ġv ie
Ġno ch
1 0
Ġf e
Ġw ur
Ġm ar
bs ite
d o
Ġp re
Ġs ec
Ġwh at
europ Ã¤ische
g es
Ġb o
t z
p er
b ut
Ġpro gram
Ġbe en
Ġf ol
y ou
Ġdies e
Ġz e
Ġb r
te t
itte ilung
l l
Ġbe i
Ġ2 2
Ġd is
Ġ u
Ġf ind
in t
al e
Ġa v
el s
ne h
at en
Ġp r
Ġpro ble
air s
x t
an ce
3 0
ch t
Ġv ote
n ah
f en
w ie
Ġ1 2
Ġih re
ah l
kont akt
Ġsh ould
Ġpro du
m inister
Ã¼s sen
Ġz um
icht ig
t re
f e
Ġaff airs
at ive
f ahr
Ġse e
p r
Ġs oll
it al
on g
Ġme hr
m a
te il
u ÃŁ
Ġe m
Ġrep ort
Ġp un
n ach
ing s
Ġal s
m ar
p h
Ġm Ã¼ssen
le gen
Ġf r
Ġi hr
Ġin ter
er t
Ġd a
i an
Ġwor k
st imm
er al
is h
Ġm in
Ã¼ ck
Ġm y
sp ra
Ġein en
ent s
em itteilung
ur ch
Ġon e
c y
ie d
b o
Ġse hr
Ġn ur
on d
ac ts
) .
n ow
Ġpro c
Ġs y
Ġg ibt
Ġst r
for e
ur es
v or
Ġpres ident
h ow
Ġ1 0
c ial
Ġn ow
g et
w s
ig h
c ont
Ġh ere
Ã¶ ff
Ġc los
oll ow
e x
Ġdeb ate
Ġp rÃ¤sident
ic al
Ġt ime
spra che
w or
Ġal le
Ã¤ ischen
Ġt ake
tsch aft
ch n
ubl ic
p ol
Ġt ran
c om
Ġo der
dies e
Ġc l
Ġj ed
an z
re at
ay s
sch l
Ġin tern
in a
Ġp os
los sen
h n
Ġl a
Ġeu ro
Ã¤n d
Ġg er
Ġ2 9
kl Ã¤r
Ġh and
etz t
on s
iel en
Ġd i
00 0
Ġb ed
an ge
Ġd ar
a pp
ail able
p art
er g
f l
ation al
ut z
heit en
Ġ +
Ġd ire
em ein
Ġst ay
Ġp e
Ġpar l
ommiss ar
or s
u x
Ġa cc
al s
k ommen
Ġb est
r at
s s
Ġaus sprache
p le
it s
Ġd ec
Ġg u
g lie
stimm ung
Ġp h
1 2
Ġfol gen
Ġpol ic
l in
v en
Ġd ank
ir st
ver y
Ġof f
Ġz we
w hen
Ġad d
re e
Ġs ol
Ġo ut
ig t
it ik
Ġdas s
3 5
w ar
Ġav ailable
Ġdies er
Ġih nen
Ġm ark
al t
f Ã¼r
as sen
Ġin d
Ġl ie
Ġuns er
Ġf l
Ġ1 9
j ect
Ġan der
Ġar beit
ar beit
Ġqu est
g lich
ĠmÃ¶ch ten
1 1
st a
Ġk eine
Ġwur de
Ġf o
Ġsu pp
Ġin v
Ġm ich
Ġp ri
Ġfin den
ment s
Ġb en
Ġ22 9
Ġb is
Ġs erv
Ġp ers
Ġb el
ge b
th ank
ate g
Ġb ere
ier ung
w ann
el y
h and
Ġg et
Ġan y
Ġpl ace
Ġp rop
Ġab stimmung
at s
i um
ur ther
Ġan t
Ġsch l
w ick
y p
Ġgesch lossen
Ġze it
Ġo p
Ġm uss
Ġ1 4
Ġe t
i i
ut ion
Ġh os
Ġgo od
it Ã¤t
Ġwe bsite
Ġy ear
u en
w Ã¤
kt ion
Ġ1 1
Ġeurop e
t r
st r
os e
v ed
vel op
Ġclos ed
Ġm ember
d es
ra uch
Ġpolic y
Ġ1 99
Ġf ollow
Ġeurop Ã¤ischen
tel s
Ġange legen
am men
le t
Ġm ed
Ġproble m
Ġsp e
Ġk on
Ġber icht
d a
glie d
n et
o v
Ġon ly
z ie
Ġ ,
Ã¶ s
Ġj o
Ġdies em
ĠÃ¼ber nach
us ammen
Ġb ar
at z
hal t
Ġo b
Ġth ese
Ġk l
o ther
ent lich
l es
Ġcon s
Ġer klÃ¤r
Ġhab e
Ġ2 0
Ġl and
Ġein er
Ġsa id
b el
ste m
Ġcommission er
Ã¼s sel
ĠÃ¼bernach ten
Ġu hr
g an
is m
Ġm en
at er
em b
Ġd urch
Ġst a
n ung
c ome
Ġm ach
Ġc our
ff en
Ġdo es
Ġangelegen heiten
Ġh in
en z
ĠmÃ¶ch te
e ign
ver s
Ġw o
w ed
it ies
Ã¤ ch
n is
u ation
Ġm on
ib le
Ġm ein
Ġ1 5
Ġag ain
Ġro om
ow n
l ung
ĠĠ ĠĠ
Ġge gen
s tell
Ġhos tels
ab e
d ay
ter s
ra g
Ġk now
id en
fahr en
w Ã¤r
ig er
Ġm uch
Ġim port
ig ung
Ġt r
cl us
Ġk o
Ġpun kte
Ġt wo
Ġw ere
m o
Ġb us
2 0
u es
Ġa ct
ab er
Ġj ahr
Ġstat t
k s
sch e
Ġf irst
Ġapp ro
c omm
ent ion
Ġit s
Ġ %
we ver
ig keit
ic es
r ie
ur g
w el
st at
p ar
Ġs c
al le
neh men
ke hr
nah men
em s
et t
Ġreg ion
Ġv iel
Ã¤ l
Ġs tell
io us
ich ts
c es
ir on
Ġa ber
Ġfor eign
ag es
l ine
Ġ end
Ġw el
Ġd u
Ġde velop
wÃ¤r t
sch en
imm t
Ġweit er
f ul
Ġmark et
k en
Ġc ase
Ġhe l
a x
s on
Ġc le
Ġein em
. )
the y
Ġeurop a
Ġver s
ur r
Ġm od
Ġ200 9
Ġre l
Ġver b
press emitteilung
Ġg el
wir tschaft
Ġc ol
sch aft
u al
w it
it i
h ier
Ġt er
hal ten
ze it
Ġk ein
ux emb
ent r
m ail
Ġar t
ic ult
Ġfind et
re i
Ġ x
Ġst and
lie ÃŁ
â Ĥ
âĤ ¬
or y
um ent
i der
Ġo ther
m al
le ct
Ġb esch
m ore
Ġc ar
an s
Ġt un
fÃ¼ hr
u er
cont acts
f ach
om ic
ut es
Ġen erg
Ġthe m
Ġne ue
in s
Ġprop os
Ġthe y
il ity
Ġproc ess
le ich
Ġm or
Ġw ant
h a
un t
4 0
st Ã¼
Ġis s
if ic
Ġdire ct
Ġv ot
w n
g ar
ic t
j e
ere in
1 5
Ġn at
g el
Ġg emein
Ġparl ament
Ġres p
Ġm ay
uss els
Ġg ra
Ġb l
op er
Ġvie ws
Ġre ch
v iron
Ġprogram me
Ġimport ant
tra g
Ġv is
Ġd et
Ġex p
re ch
Ġin st
man y
c ommission
en den
Ġre d
viron ment
Ġdies en
on der
op le
2 5
Ġpers on
g l
ol og
) :
i ament
lich en
o c
Ġwor d
1 3
or g
Ġan s
le g
Ġk omm
Ġe con
. :
an ts
Ġrep res
Ġs ub
if ied
Ġtran sp
in n
Ġ Ã¶ff
Ġp ublic
v ielen
Ġinv est
Ġcont act
Ġent wick
Ġma ke
d em
Ġsich er
al k
Ġw ichtig
Ġaus wÃ¤rt
w ort
isch er
iss e
Ġfra ge
en ce
Ġr ight
Ġ Ã¤nder
Ġm ill
la use
Ġ1 3
w elt
Ġsit uation
wed en
Ġus e
Ġun der
Ġre qu
Ġsy stem
Ġas s
Ġ200 7
it ed
imm er
Ġsupp ort
st and
fol ger
Ġgro ÃŁ
Ġb ut
Ġge ht
p s
Ġz usammen
Ġpo int
Ġs er
u tsch
ing e
Ġ1 8
Ġem p
Ġuns ere
Ġwor ld
Ġs ome
w ard
Ġdi ff
Ġa c
Ġin s
iv es
gen ommen
bel g
j o
Ġw ell
Ġto o
if all
z ial
Ġmit glied
Ġb in
p res
iss en
Ġst ate
ÃŁ nahmen
Ġ /
pt ion
ar n
Ġo ver
b ere
s l
Ġf un
it Ã¤
Ġzwe i
for t
Ġ1 6
Ġk e
urr ent
Ġag re
Ġquest ion
Ġm at
et h
Ġbe g
am en
Ġge b
hal b
Ġpe ople
Ġf Ã¼
Ġe very
Ġcon c
m ark
Ġd el
Ġlo ok
Ġk ommissar
sch ri
un den
Ġthere fore
l er
Ġd at
Ġth ink
i ent
Ġf urther
th ese
ic s
am t
Ġw Ã¤
Ġad op
Ġf all
a uch
Ġs im
l uxemb
Ġunter stÃ¼
Ġcon clus
Ġj etzt
Ġ ir
s h
re d
Ġre al
Ġrat es
Ġ1 7
Ġha pp
h Ã¶r
ur n
h ne
ff e
ĠauswÃ¤rt ige
o ch
Ġr icht
iv en
un ter
Ġfor m
ail s
4 5
Ġte chn
Ġfollow ing
ul ar
el le
Ġ !
Ġf ar
Ġrepres ent
Ġ201 0
in ess
is ten
b al
wit ter
Ġ200 8
ro l
at h
Ġ ur
Ġp lease
v ie
app lause
der n
th ing
Ġeurop Ã¤ische
Ġw ay
Ġge w
Ġs uch
Ġ3 0
Ġv om
ic ip
y s
Ġ2 5
1 9
Ġv al
am p
Ġs el
re ad
Ġl ast
Ġw elt
be ifall
zie h
ur al
i x
Ġp age
Ġon line
folger ungen
a z
Ġsp ec
Ġc or
Ġpol it
Ġdevelop ment
Ġh ow
g h
Ġb itte
se e
Ġte il
r icht
Ġl ink
Ġlo c
v is
Ġl ang
Ġg est
Ġn un
Ġth an
k ret
w end
Ġ âĤ¬
Ġconclus ions
ab en
Ġver tre
Ġe l
Ġein fach
r is
Ġdies es
un s
Ġs k
1 6
t ing
4 6
gen eral
Ġmin utes
Ġschl uss
el n
Ġsec ret
h men
la ge
mit tel
sch lieÃŁ
f all
g re
Ġver fÃ¼
Ġim mer
ie t
Ġn or
be i
Ġa f
Ġvot es
Ġt witter
Ġle g
af ts
k o
Ġb as
Ġpl ay
oper ation
ro w
Ġin to
Ġstr ateg
ri ff
Ġe v
igh ts
Ġm ir
Ġgr und
at es
Ġd own
i ÃŁ
am it
neh mer
Ġf ran
p re
Ġwh o
Ġfre e
Ġg reat
Ġc ann
Ġprogram m
br ussels
pres ident
Ġmill ion
Ġjed och
Ġth ank
uch t
ug h
Ġop en
g o
Ġhe ute
i ze
Ġf und
Ġd r
we bsite
press e
Ġd an
Ġv o
Ġcle ar
Ġcomm un
Ġintern et
Ġbus iness
z ung
0 9
Ġan genommen
Ġs m
n isse
il t
Ġagre ement
h ol
Ġpress emitteilung
m ain
b an
t a
f ran
cl ud
Ġk om
ic a
ĠmÃ¶ glich
Ġg anz
Ġthe ir
0 2
b st
no v
Ġc ent
ec ts
fra ge
h ere
land s
Ġm ain
Ġwie der
p un
il fe
Ġ ide
p rÃ¤sident
Ġweit ere
Ġprodu c
Ġadop ted
Ġjust ice
Ġet was
re g
er ung
be wer
Ġb rauch
Ġs ay
Ġg ut
9 8
ust ri
Ġmo b
Ġein z
Ġpri or
Ġfra gen
j ust
g est
Ġle ben
se kret
br Ã¼ssel
ur s
Ġs om
nah me
Ġcann ot
1 4
Ġb u
7 5
Ġa kt
Ġb re
k a
0 3
man ent
zieh ungen
Ġman y
Ġpos s
Ġch ar
Ġst Ã¤nd
ess en
un de
Ġagain st
Ġb ro
Ġfra u
af Ã¼r
ord nung
utsch land
Ġj an
Ġschluss folgerungen
Ġgro up
w ay
Ġwh ich
Ġt ak
hl en
Ġw enn
Ġn um
j a
t ry
wh y
f Ã¤
Ġbes te
b es
ah er
Ġproc ed
Ġma de
Ġne xt
Ġdet ails
Ġer fol
Ġper manent
rit t
Ġrech ts
o us
um an
Ġvor schl
Ġqu al
Ġpro te
Ã¤l t
lo y
son st
Ġw oll
an c
for der
Ġfinan zen
Ġwe b
p lease
Ġte xt
ur ity
Ġpro t
Ġda zu
Ġa ction
Ġst ill
Ġfinan z
or ts
Ġde p
Ġrepresent ative
Ġp ass
Ġj un
Ġwh y
an ia
Ġa ir
an ien
Ġa gr
Ġm al
e g
Ġhel p
es ts
1 8
le d
Ġare a
b l
Ġh ome
Ġyear s
k ommissar
tern al
m p
ĠÃ¶ff entlich
r ist
Ġh al
is p
u de
Ġme as
Ġb ild
wor k
in c
Ġwir k
Ġsecret ary
Ġc as
Ġa u
ank reich
t ran
ge ben
op e
ow s
Ġk ont
ig es
b et
Ġco st
Ġt om
sp e
d ar
an der
Ġo per
Ġre form
pol itik
9 7
Ġacc ess
Ġconc ern
35 2
Ġi i
Ġd id
Ġa ut
Ġe ff
ho wever
g esch
Ġf am
d f
Ġdis c
Ġch ange
k un
Ġd ay
Ġs et
Ġspe ak
Ġmen schen
Ġs l
2 2
9 6
Ġmo st
Ġso cial
Ġdiff er
Ġecon omic
Ġg l
Ġst ar
an y
w are
ho f
Ġe ur
Ġlie gt
Ġg ar
ze ich
it en
Ġsoll te
Ġstat es
2 01
bo ok
Ġ2 8
sekret Ã¤r
if e
Ġso zial
Ġf il
we is
ie den
Ġb ack
Ġen vironment
ul l
our g
e p
al th
ten s
id es
ver kehr
Ġh ol
Ġn et
Ġfo und
europ a
icult ure
Ġst art
cl ub
ce pt
Ġwur den
Ġn Ã¤ch
Ġw ort
Ġp ra
ach e
Ġsoll ten
ot t
tr ies
d om
re chen
abe i
lin ie
u age
Ġserv ice
Ġe le
Ġm eine
fra u
1 7
Ġz ahl
Ġj ah
Ġre ad
5 0
Ġex am
Ġer geb
up t
ol ution
Ġe d
Ġdo k
Ġj ul
ungs ant
Ġto day
Ġre c
z ahl
pl an
ok oll
Ġma ÃŁnahmen
Ġgen eral
Ġte le
Ġha us
Ġcour se
mar kt
k ann
Ġth en
ut y
Ġb ank
ie der
Ġth ree
Ġam end
in nen
w ischen
Ġ2 4
ik el
Ġdec is
Ġn r
Ġpun kt
Ġd one
etz ung
Ġ ?
in formation
ĠerklÃ¤r te
Ġs ame
lo ad
Ġsec urity
s ol
Ġmor gen
Ġentwick lung
Ġc ap
l ang
Ġtra de
p e
o b
ou gh
war um
ie le
ud get
Ġcoun tries
il i
p o
Ġa gen
riff t
Ġf ut
Ġfinan ce
Ġproduc ts
m in
Ġw hen
ubl ik
ra ft
au en
sta aten
ats sekretÃ¤r
s it
) ,
Ġiss ue
Ġd rei
Ġw issen
ges amt
g em
Ġgemein s
Ġwith out
Ġp ort
w a
ĠverfÃ¼ g
ad t
Ġtransp ort
Ġm ean
pp e
Ġh ad
3 3
en g
Ġhostels club
le x
w ill
ie ve
Ġw en
Ġrel ations
Ġi f
Ġc urrent
ru ct
Ġin c
du c
Ġor gan
ver fahren
ul gar
Ġl ong
l ar
it t
Ġp at
Ġsit zung
uf f
e h
p ri
Ġas k
Ġs um
Ġp ay
Ġpro v
Ġprot okoll
Ġt ag
Ġ29 5
Ġp a
8 6
k ommission
Ġihr en
1 99
l at
hr en
Ġb le
Ġh is
Ġnum ber
in ter
or row
ach t
Ġc ould
ul ation
ec k
Ġsie he
Ġfolgen de
Ġre as
Ġe as
Ġd ann
Ġh igh
Ġsh all
icip ants
te m
Ġv oll
a ut
be ziehungen
ÃŁ en
Ġ est
Ġor der
re ib
Ġsicher heit
Ġf est
ar i
m on
Ġo wn
Ġmach en
it ems
Ġappro ved
Ġquest ions
s lo
v a
ec e
Ġko sten
Ġste ht
w ays
Ġ 000
Ġpl an
c i
gen d
Ġent sche
kun ft
ow er
Ġk m
Ġunter nehmen
read y
g emein
ul es
9 5
o f
Ġ Ã¤
ie chen
at ing
Ġvie w
ien st
em o
ver n
in ts
k on
Ã¤ ft
Ġp ark
Ġg re
rit ten
m ed
Ġg lo
pro gram
ick en
Ġk le
Ġre cht
in es
Ġind ust
Ġb ie
Ġm us
Ġcont in
Ġsec ond
Ġ &
b y
Ġall es
Ġsp iel
ter reich
Ġmeas ures
ze ug
Ġbere ich
ustri a
s er
Ġtom orrow
Ġj a
Ã¼r lich
eth ing
Ġwoll en
Ġparl iament
Ġfut ure
s y
Ġk ur
Ã¶s terreich
Ġ *
ard s
Ġsch on
Ġp df
ĠunterstÃ¼ tz
ement s
Ġpri v
f re
r en
ĠkÃ¶n ig
Ġmed ien
v ention
Ġfinan cial
Ġvers ion
ber icht
Ġer ste
la gen
f ten
v erein
iechen land
Ġs ur
Ġre ce
or en
il y
ver tre
Ġre f
a de
g ang
Ġsel bst
0 5
Ġg leich
is ation
Ġpro f
Ġposs ible
Ġs ect
Ġp ack
dies er
Ġenerg y
Ġ rom
am er
Ġr is
Ġf av
la ub
qu est
fran ce
at t
ie f
Ġe ben
c ri
i as
Ġ200 0
Ġ2 1
Ġdat a
qu e
ing en
Ġc re
s ter
Ã¶ ÃŁ
Ġt re
Ġbe isp
Ġal ready
Ġim p
Ġwar en
k i
Ġbe gr
kt ur
Ġco operation
ett bewer
sl ow
le as
uf t
er k
Ġd ate
al d
Ġk ing
Ġ2 7
fr ankreich
Ġcom e
Ġme et
ism us
entr al
f urther
Ġh uman
ic ation
Ġbrauch en
Ġup d
Ġ2 3
ug al
is te
Ġein ige
co un
v es
ial og
Ġintern ational
Ġhapp en
er st
Ġr ights
h Ã¤lt
Ġf act
Ġw ind
Ġvis it
Ġz iel
m y
ess ion
ol itik
Ġwir tschaft
Ã¶r ter
ital ien
0 4
Ġnew s
m Ã¶
Ġcont acts
ich te
itte e
Ġ @
Ġk ommen
Ġl age
Ġk ar
we ise
Ġa id
Ġg ilt
uch en
Ġd afÃ¼r
Ġsom ething
Ġwirk lich
Ġapp l
Ġz immer
m b
Ġs ign
Ġw Ã¼r
Ġse ite
ger many
Ġdok ument
Ġre ally
Ġse hen
Ġsa gen
Ġ200 6
loy ment
r or
Ġbere its
de utschland
Ã¼n d
Ġs af
Ġn ame
pun kt
s ub
st Ã¤nd
Ġant wort
Ġne uen
Ġat t
b ed
Ġander e
Ġserv ices
Ġw es
Ġho wever
30 3
ital y
Ġd aten
Ġof fer
Ã¼ h
Ġum welt
Ġpropos al
Ġk ro
te gr
dies es
Ġto ur
e k
Ġrep ublic
ert ain
in o
Ġp al
sch utz
sel f
Ġg ive
ul ts
her lands
f ung
l assen
Ġin nov
n a
el d
ir d
Ġpro je
Ġs an
at ely
Ġf ig
Ġo pp
f ern
it ions
0 6
ich er
r on
Ġt el
Ġdirect ive
Ġrep ublik
he d
teil nehmer
com p
Ġbe fore
Ġver sch
h aus
Ġvo ted
sp ain
sp anien
ĠkÃ¶nig reich
th en
ieder land
ungsant rag
c an
is her
b esch
Ġb lo
ag t
f o
wel che
Ġh ope
Ġwe g
Ġno v
i h
ĠÃ¶ffentlich keit
Ġe ven
Ġgra ph
Ġin iti
Ġans wer
Ġroom s
Ã¶r der
Ġp ap
Ġbes ten
2 4
ear ch
Ġvie le
s a
Ġdisc uss
ant o
Ġt yp
Ġr ules
en e
sp ro
Ġein es
Ġc all
me hr
Ġprote ction
ien ce
des halb
ag ement
Ġr u
Ġzur Ã¼ck
tsch afts
part icipants
Ġd av
Ġho use
Ġunser er
pri or
u c
Ġ4 303
Ġ5 0
Ġihr er
Ġob ject
em p
um s
do ch
Ġander en
o ber
Ġm il
d ec
Ġm et
Ã¶ l
n or
Ġlink s
coun cil
iederland e
Ġf isch
e f
Ġto t
Ġa uÃŁ
Ġa ch
Ġc ity
ann ex
Ġsit ting
st ag
em ark
qu ir
0 7
Ġcour t
Ġn ational
un der
Ġk in
Ġ1 00
sch uss
Ġe qu
Ġvorschl ag
ll en
Ġd ialog
Ġal ways
r itte
Ġe ing
ec ted
Ġn ichts
Ġw at
Ġthe ma
im men
vie w
Ġit al
t ung
schri ft
Ġgest immt
Ġt im
Ġre main
fra gen
Ġst ra
Ġd im
Ġdiffer ent
und heit
sp olitik
Ġm uÃŁ
Ġb udget
tran sp
h ang
Ġg em
Ġste hen
b t
r uf
Ã¤n emark
es en
Ġl ar
Ġfav our
Ġz wischen
par l
Ġe igen
f ind
w enn
ier te
Ġe inge
Ġdan ke
Ã¼r ger
ust om
Ġv ol
in tern
Ġm ot
2 7
belg ien
g s
o ff
Ġwh ere
Ġhe alth
Ġproced ure
Ġjah re
ess er
o unt
Ġd ist
Ġres olution
one y
Ġking dom
n land
Ġfun ktion
Ġsch w
Ġtran s
ro om
Ġch ina
3 7
Ġm io
belg ium
3 4
ol s
Ġbe ing
Ġpo ints
Ġk r
Ġhotel s
Ġ200 1
en de
ĠwÃ¤ re
luxemb ourg
Ġglo bal
ri end
Ġzusammen arbeit
isch es
z ur
u be
n ot
Ġprocess ed
ver b
Ġbe it
wh ere
Ġda ÃŁ
2 1
Ġs ite
at or
el ie
itÃ¤ ts
is ter
Ġge ben
ir land
i vers
Ġr uss
Ġfor ward
gr iechenland
gre ece
i or
Ġe c
Ġangenommen e
z ug
it er
Ġle tz
Ġ200 5
Ġneed s
Ġjust iz
Ġw ish
b itte
Ġex per
parl iament
ro s
t ot
Ġw a
f on
g aben
Ġwel come
m ember
Ġm om
Ġa pr
Ġland wirtschaft
fall s
Ġmit tel
Ġle vel
Ã¶rter te
f ast
sp l
Ġa part
ic ular
Ġus ed
Ġse lect
Ġre t
u k
Ġin ner
ta ur
ie ld
ru ktur
Ġmach t
Ġcont rol
Ġh ar
a ustria
d r
ell en
Ġcomp le
quest ion
igt es
Ġke y
ah n
b ulgar
Ġad v
Ġtra in
Ġver w
Ġdo c
Ġpre is
lich er
Ġl ist
Ġch ild
luxemb urg
anto ine
ot o
z iel
Ġbet ter
Ġsch n
Ġmod ified
ro ugh
Ġein mal
v al
ri but
Ġm ak
j ects
Ġv an
ire land
tot al
Ġkl ar
ur ing
g abe
ab ility
Ġbel ieve
schri ften
Ġmitglied staaten
Ġp ut
Ġsm all
Ġres ults
i ver
Ġl ife
Ġex c
c a
er Ã¶rterte
um p
Ġcon f
ge hen
Ġso ft
un ited
Ġst o
um ents
Ġv ide
Ġkro es
b ank
ten d
kt or
Ġgro w
k Ã¤
r ation
s icht
in ce
Ġmat ter
n iederlande
Ġst ud
ult ur
g ress
Ġminister in
Ġth ings
ĠkÃ¶n n
Ġregion al
b ild
Ġ Ã¼
is ed
den mark
Ġ4 5
Ġcomm ittee
Ġcomp et
Ġin n
Ġbre ak
Ġentsche id
Ġfe w
Ġdown load
Ġtechn olog
Ġpart icular
t ag
Ġen de
af ter
vertre ter
Ġt ax
Ġaf ter
rÃ¤ ge
Ġrequ ire
Ġspec ial
Ġs eine
Ġb em
et s
Ġeuro stat
d ire
z um
te chn
Ġm emo
Ġherr n
n at
Ġt reat
d Ã¤nemark
Ġle t
0 8
Ġ200 3
ze pt
sch weden
Ġpos ition
Ġge hÃ¶r
ult ure
Ġapr il
Ġch o
Ġd abei
Ġin fr
Ġo hne
fin land
u ts
Ġerfol g
fin nland
im in
Ġagr iculture
s weden
Ġpart ner
Ġall er
or n
Ġf lo
Ġn Ã¤
3 1
Ġcoun try
v ing
Ġm ad
Ġdes ign
Ġzu kunft
Ġ200 4
Ġ ung
ru ck
verein igtes
l ungs
Ġ2 6
Ġch ang
fer ence
Ġadd ress
quir ies
Ġf ull
Ġin tegr
en erg
Ġin clud
Ġl Ã¤nder
we en
hal ts
Ġv i
Ġdeb ated
Ġit ems
Ġl ab
! !
2 8
cc ess
ab il
Ġgo vern
a gen
d amit
k ar
f te
es c
sie he
Ġenerg ie
Ġ ..
ere i
an a
2 6
Ġtak en
um en
tell t
Ġv erein
as h
Ġo pt
Ġl im
Ġent schlieÃŁ
Ġres taur
is l
g ot
ke y
it or
Ã¶ t
as st
ut zen
f ollow
Ġg ol
europ Ã¤
Ġs ing
b au
v ia
Ġbo ok
Ġc ertain
Ġgo ing
j ed
Ġeinz el
Ġh ilfe
Ġmom ent
Ġdep uty
eh m
k auf
on ia
Ġall en
Ġ7 5
Ġs al
Ġth rough
Ġa k
Ġm oney
net herlands
Ġg ute
Ġpo st
uns ere
Ġf er
Ġ200 2
sonst ige
Ġd ays
ib ility
tem ber
iss ion
3 6
d ition
Ġf riend
Ġc ut
z a
Ġen gl
Ġiss ues
Ġj e
ass ung
Ġch rist
Ġsu ccess
Ġum f
Ġ201 5
Ġla w
hl t
Ġaus ge
Ġagen da
Ã¤t ze
Ġph one
commission er
hand el
aus e
ond s
Ġl Ã¶s
Ġbeisp iel
h ung
tel le
Ġver l
Ġexam ple
z er
Ġc a
Ġgr Ã¶ÃŁ
Ġjan u
Ġstrateg y
y l
Ġpr ice
Ġd Ã¼r
Ġfolgen den
Ġdecis ion
sp r
Ġkomm t
is ts
Ġbe ach
Ġgr Ã¼n
Ġproble ms
Ġa ud
Ġk ind
Ġ3 2
i ff
Ġf ahr
Ġto p
Ġgel d
s etzung
an o
Ġst imm
Ġsta ff
Ġsta atssekretÃ¤r
Ġinst it
s atz
Ġt urn
akt ion
comm end
Ġh Ã¶
ent wick
ing t
Ġbet ween
200 1
Ġn ie
ec on
ach en
Ġen ough
an te
ist ance
Ġen g
re as
ch es
am b
Ġpos it
Ġergeb nisse
Ġs ou
Ġbe im
an frage
Ġb ug
Ġver kehr
d an
n ess
isher ies
Ġm ess
as se
p tember
c ted
Ġbes onder
Ġres earch
Ġd amit
Ġb al
l t
Ġs he
Ġinter ess
Ġs on
ÃŁ e
l le
Ġm er
Ġam er
um welt
Ġv ielen
Ġb il
f irst
ok rat
pr Ã¼
Ġd ou
art ikel
i j
Ġt alk
it es
Ġj u
Ġsh ort
fer enz
mit glied
u ter
Ġin quiries
ent liche
t zen
w ell
ple ment
id ed
Ġsp ra
program m
d ann
s k
Ã¤ ÃŁ
Ġc ustom
ra um
bere ich
l ad
Ġcon st
Ġdo ch
Ġvertre ter
Ġt ur
ar en
ab kommen
Ġfig ures
it ung
Ġresp ons
8 0
v ious
Ġn ah
Ġher aus
Ġer stell
Ġm ag
le tz
Ġwer de
f ts
ar ch
europ Ã¤ischen
Ġb Ã¼rger
part ner
ich ten
Ã¤ hr
Ġbegr Ã¼
Ġamend ment
or te
th or
s ec
tel y
Ġer halten
Ġ ]
w ith
Ġk ol
Ġreas on
am m
Ġfo od
Ġcl ick
ne w
om en
port ugal
v on
Ġe duc
l ess
in en
Ġw ater
ik a
Ġres t
ens ion
Ġer n
en vironment
Ġv ill
Ġsoft ware
n ers
ic ations
Ġno on
econ omic
en nen
Ġi v
Ġpro ject
und es
Ã¤t z
z usammen
Ġbesch Ã¤ft
x im
Ġbo th
itÃ¤ ten
Ġinnov ation
Ġappro ach
b ru
Ġg la
Ġf ac
m eine
z o
re cht
der s
Ġer reich
Ġde f
Ġd aher
is ierung
Ġleg isl
Ġge wÃ¤
Ġmr s
i pp
Ġt ri
4 8
Ġlo g
ver t
Ġpres ent
Ġdar f
c our
Ġact iv
Ġeas y
Ġt as
Ġent er
Ġqu ite
2 9
u ten
at te
sch ung
iti zen
jo y
fin anz
pr us
Ġtot al
stell ung
Ġwir tschafts
sp rech
Ġfol gt
ĠstÃ¤nd igen
Ġs at
c ar
ach st
iel le
Ġbed eu
Ġin t
Ġpro jects
cl ude
Ġqual ity
k omm
l it
Ġn immt
am es
ist an
is en
Ġho ch
Ġop in
Ġg ent
alt ung
gem eine
Ġu k
ze ch
wh o
3 8
im a
Ġges undheit
Ġpolit ical
Ġb ig
Ġst adt
Ġcomm on
Ġdis k
ĠwÃ¼r de
z we
s ome
Ġde fin
Ġl ot
Ġre commend
yp ern
Ġinvest ment
v i
er nen
Ġjahr en
ss er
Ġs ag
Ġk os
Ġab sol
ichts hof
d aher
Ġver trag
c ed
schl uss
Ġrequ est
Ġpol itik
Ġc at
Ġcons um
Ġl ess
g leich
Ġwe iÃŁ
Ġge hen
Ġeff ect
Ġtele fon
z ess
Ã¤n g
Ġim pro
Ġvertre ters
Ġw enden
ik ation
im ate
Ġres erv
Ġsect or
ad a
in i
Ġp ower
Ġ )
le ist
Ġcons ider
u ally
Ġe ib
Ġab ge
Ġl in
h ilfe
Ġne u
Ġgen au
str Ã¶
Ġkin der
st o
Ġtr ue
Ġe ach
Ġh ist
Ġl ive
Ġte am
Ġf our
Ġl at
Ġnat Ã¼rlich
inc ip
Ġb ra
Ġare as
Ġoff ice
u el
Ġw r
we g
w w
200 7
Ġschn ell
rauch er
Ġth ose
Ġmember s
3 9
ation ale
Ġse it
Ġf a
kÃ¤ mp
6 5
Ġs w
Ã¤ d
fin den
Ġcol om
all en
Ġcommun ity
Ġmob il
en ien
europ e
j or
Ġne elie
lang uage
Ġa ug
Ġinst all
ĠfÃ¼ hr
ettbewer bs
Ġb ill
h ip
Ġt ar
Ġ0 2
Ġi p
y n
en zen
te le
an gen
ord in
Ġo ld
ic le
Ġ5 46
hl er
Ġprodu ct
b a
re l
f isch
s erv
t il
Ġihre m
Ġjun e
4 4
g ibt
v ent
ell i
Ġz ust
Ġecon om
Ġst re
Ġra d
Ġjul y
v ak
7 0
ce ed
Ġeduc ation
on a
Ġste ps
Ġbeste ht
Ġt est
Ġpro m
Ġspeak er
ribut ion
ĠverfÃ¼g bar
ro ll
d ings
Ġp ot
qu is
ch er
Ġge f
o ver
Ġ9 3
Ġag ree
Ġg an
Ã¤n de
mo st
Ġver fahren
ste ms
hn t
rit er
ific ation
Ġstell en
ro ss
ste hen
Ġgen er
ven ia
Ġmeet ing
Ġkur z
ĠerklÃ¤r ungen
Ġm ind
ro so
Ġ3 5
Ġcomp any
l Ã¤
s c
Ġricht linie
Ġgla ube
- -
Ġs il
Ġass istance
enn t
ith u
r id
ec ess
Ġle arn
e ib
Ġselect or
8 9
p ly
Ġ 99
n t
wor ten
sch afts
Ġne ver
Ġwat ers
Ġw Ã¼n
Ġc al
Ġth ird
m ut
Ġben utz
Ġcent re
ar s
ĠunterstÃ¼tz ung
Ġd om
ich ter
Ġl assen
od y
Ġadd ed
Ġd ra
Ġe lect
m us
Ġof fen
Ġred ner
Ġk or
itt le
Ġex tre
information en
Ġm ention
Ġpress e
Ġs up
Ġw ahr
le gt
Ġz us
ant wort
6 7
n un
Ġfre i
5 5
b re
ch ten
Ġth ing
Ġunser en
Ġc ris
k ungen
Ġb esser
Ġg d
ag r
c urrent
cl ick
Ġlang uage
is hed
se ite
Ġdem oc
Ġperson al
st Ã¼ck
Ġc itizen
Ġse a
Ġse ptember
Ġp op
Ġh im
Ġle a
is a
6 4
y our
qu al
Ġmon th
Ġa round
ac c
Ġy et
Ġsing le
b ucht
o der
Ġproble me
Ġnov ember
z us
Ġau thor
te xt
et y
iv il
Ġsh are
i ft
Ã¼s se
Ġman agement
Ġmean s
Ġpart ners
Ġmar kt
Ġdav on
l Ã¤nder
u ge
ch ische
Ġf ield
Ġbu ild
Ġdar auf
Ġreg ulation
Ġcomm ents
Ġv ier
ab el
fÃ¤ h
Ġc r
Ġo ption
ĠnÃ¤ch sten
Ġgrow th
ithu ania
Ġa im
ib en
Ġno thing
g ed
in halt
Ġd on
Ġc amp
Ġin de
Ġpro gress
Ġpr incip
Ġac cept
it ors
Ã¼ tz
ent ial
um Ã¤n
comm un
l ungen
Ġm ont
da zu
Ġvide o
t od
Ġs or
Ġde al
ber g
sp rechen
our ce
Ġto ols
Ã¶rder ung
6 0
wer t
Ġre ach
Ġan other
in v
Ġsh ow
Ġl ittle
ot os
sp ect
our ces
ho tel
our s
Ġ201 1
Ġm as
ab l
Ġv ar
Ġsp ort
Ġre fer
ex ternal
no ch
se it
al so
ichtig t
strÃ¶ m
he l
Ã¤ ge
Ġk ultur
ult ation
o hne
Ġb ad
Ġinter est
ĠgroÃŁ e
Ġne hmen
Ġpra ct
b u
Ġd ig
Ġg as
Ġfin al
Ġkein en
Ġcontin ue
fÃ¼hr t
Ġemp loyment
Ġreg ions
Ġgemeins ame
g u
te ilung
Ġcle an
Ġbie tet
d ig
t land
f ect
n es
ut ions
Ġres ult
ĠprÃ¤sident in
ĠstÃ¤nd iger
Ġflo or
st ra
ust ain
umÃ¤n ien
Ġr un
Ġdem okrat
sh ip
ban i
Ġe g
i od
ic ally
Ġtim es
Ġg ru
Ġd ienst
ol a
Ġiniti ative
m as
ig in
Ġcolom bani
le men
op en
Ġpr ices
Ġfr Ã¼h
Ġb on
2 3
Ġn on
Ġn ice
Ġit em
vor schriften
Ġstell vertreter
Ġbeg inn
Ġleben s
ent ly
id ar
pol and
ĠdÃ¼r fen
weit erung
Ġherr en
f ang
Ġf ir
Ġma jor
Ġcurrent ly
p os
Ġc are
Ġmar ch
pol en
wel come
kann t
k ten
Ġp ict
u pp
er o
Ġsch ul
g ment
Ġm Ã¤r
b urg
Ġ29 6
Ġfam il
Ġhand el
Ġ4 0
Ġbreak fast
presse kontakt
j etzt
Ġs en
Ġr Ã¼ck
te id
Ġde fen
Ġdo ing
Ġch eck
Ġwork ing
Ġter ror
Ġpack age
a el
b il
Ġun til
Ġste p
Ġmob ile
Ġin clude
j ud
ition en
4 9
h aben
Ġd amen
Ġro ad
y es
Ġchild ren
Ġcris is
an hang
Ġemp fe
in ner
Ġbe come
Ġloc ation
w ritten
iden cy
Ġstimm e
Ġt Ã¼r
Ġn ecess
Ġfra me
e very
ize prÃ¤sident
Ġe ig
Ġg ed
Ġ2 99
iv id
i ere
ra ine
Ġer st
Ġsch a
Ġdire kt
se hen
Ġan n
Ġrestaur ant
s m
sit z
c or
Ġa way
Ġf al
Ġ201 3
Ġges agt
ater ial
Ġwind ows
g ement
y r
Ġgesch Ã¤
Ġjed er
ĠÃ¤nder ungsantrag
Ġeconom y
n ing
Ġreg el
Ġbes uch
Ġange b
n ote
Ġadd ition
sonst iges
Ġoff ers
200 0
Ġf ed
Ġe ar
Ġwho le
v oll
Ġw icht
Ġent fern
Ġsch ritte
ir a
Ġ199 9
find et
Ġw ww
bes onder
Ġhol id
f rom
Ġbr Ã¼ssel
c el
ag er
bild ung
i que
Ġh ard
ung arn
Ġer sten
Ġih n
8 7
hung ary
Ġwe ek
Ġcon ference
Ġg Ã¤
icher heit
Ġw ahl
Ġbet rifft
Ġkom p
vak ia
in st
ap an
er klÃ¤r
Ġden ke
Ġperson en
Ġjed en
Ġjo int
Ġstand ard
ĠkÃ¶nn te
k om
ks am
Ġval ue
Ġconcern s
Ġinner es
c al
tra de
it ing
d is
ur y
Ġben ef
Ġs end
Ġg ame
e le
k er
w and
Ġsp a
Ġentscheid ung
ap s
Ġkommissar in
Ġsag te
Ġf ile
Ġi ii
reg ion
d i
eu ro
Ġfe bru
Ġho ffe
ese hen
l ing
Ġe f
Ġer war
ma ÃŁnahmen
Ġacc ount
Ġf air
Ġerstell t
ier ungs
4 7
Ġall ow
Ġindust ry
Ġm ig
europÃ¤ ischer
Ġopin ion
Ġt ab
Ġp ie
le ben
m at
in z
Ġz iele
Ġtrain ing
Ġin str
Ġus a
Ġle ft
w es
Ġbug tra
z immer
Ã¤ s
gan gen
Ġd ri
it a
Ġv ass
ck er
ake i
lar gement
s uch
Ġb elli
at ul
richt linie
Ġble ibt
ĠlÃ¶s ung
reib ung
Ġbelli ard
alle d
u elle
ward s
ort un
Ġsp rechen
Ġ id
Ġb alk
Ġd re
Ġm art
Ġl ine
Ã¤n ger
ĠverfÃ¼g ung
Ġ ig
ein t
Ġch allen
fÃ¼hr ung
kommissar in
slo venia
schrift liche
on en
we gen
Ġver teid
red it
b as
Ġ3 1
mit ted
Ġword s
n ur
Ã¼ d
cy prus
Ġarbeit s
Ġt on
Ġl ange
Ġhe ad
Ġp an
th ers
get her
d aten
Ġextre m
8 5
on ger
slow enien
Ġcor re
j an
Ġc ulture
Ġwor den
lat via
Ġd inge
Ġk at
c kt
g a
af ten
ll ig
Ġversch ieden
c zech
l ithuania
uf en
Ġr ate
est onia
Ġor igin
Ġopp ortun
h es
z ypern
Ġp ur
Ġp leas
ain s
serv ice
Ġbugtra q
Ġb or
Ġge org
Ġsol ution
Ġdiff icult
Ġsim ply
i ar
fl icht
ts che
Ġar g
ll t
est land
lich es
Ġha upt
ili ou
got i
v ement
Ġne ues
Ġro le
ch te
he ute
Ġf ast
Ġun ivers
Ġregion en
iet y
b uch
Ġzwe ite
igkeit en
Ġc ard
om at
et zen
ateg or
s z
Ġb it
Ġre v
w ichtig
Ġnot wend
con s
ĠunterstÃ¼ tzen
h Ã¶
lit auen
Ġw all
Ġger many
Ġgent lemen
m et
Ġm ac
Ġbe findet
Ġgre en
ell ent
Ġm ult
Ġsie ht
Ã¶ff net
let tland
Ġab ruf
Ġ201 4
ĠÃ¤ uÃŁ
u le
Ġo l
Ġcom fort
Ġeurop Ã¤
Ġs ince
200 5
Ġprodu kte
fort un
is es
ĠĠ Ġ
weit er
Ġex ist
p age
Ġerreich en
kÃ¤mp fung
b ung
k ung
Ġhe iÃŁ
Ġma i
au er
rÃ¤ gt
Ġr en
a um
Ġf ax
ur teil
rech te
Ġlook ing
ra gen
un ikation
Ġsch wer
iv ed
h il
os s
Ġreg ard
pro chen
Ġbere it
d s
achst um
ic o
iv ing
Ġger ne
Ġl iste
Ġbr ief
8 8
Ġr ichtig
ru le
Ġneed ed
Ġarbeit en
Ġcon n
Ġm iss
Ġre leas
Ġfor t
Ġco de
Ġgu ests
10 40
tsche chische
m inis
Ġro lle
Ġstat ements
c le
w ahl
Ġne ar
ĠgeschÃ¤ fts
Ġa ktion
Ġwo hl
Ġpropos als
en ces
ra d
ih re
uns er
Ġresp ect
t wo
er dem
Ġach ie
te ile
ig ation
Ġst op
id d
ress e
Ġab le
Ġble iben
all er
ruct ure
Ġaug ust
p ers
Ġsaf ety
Ġst immen
am a
Ġra hmen
Ġbem erk
fol gen
Ġfam ily
Ġ201 2
Ġt ro
Ġb uch
Ġcitizen s
st adt
Ġwer t
Ġentfern t
Ġhier zu
ins gesamt
Ġframe work
Ġg iven
ber t
lich keit
Ġprodu kt
Ġspec ific
z Ã¼
Ġ ess
Ġver antwort
ver al
Ġas so
Ġinter ior
cont ents
sub ject
Ġ14 2
Ġdefen ce
at her
n icht
Ġcon clud
Ġsy stems
Ġverb raucher
Ġb undes
ge w
Ġde leg
r Ã¤n
Ġger man
o int
ke i
Ġcost s
Ġg on
Ġno te
Ġer forder
Ġreg ul
Ġunder stand
tod ay
s ache
b on
Ã¼n ft
Ġser ious
Ġver Ã¤nder
ein en
Ġar ch
Ġsim ple
Ġsch utz
c ke
Ġfe el
ump ing
l i
Ġbesch l
Ġloc ated
Ġnecess ary
es te
ik en
du ction
stag ung
Ġtelefon isch
Ġver kauf
ii i
Ġn amen
ri k
Ġwith in
u gen
str ateg
a id
c us
Ġbr ussels
Ġsub s
Ġbas is
Ġt ry
Ġart ikel
) ;
Ġm and
Ġhin zu
Ġleg al
e ut
Ġf an
Ġk Ã¼
9 3
Ġt or
Ġo ct
end et
bl ick
slo vakia
p ublic
Ġsol idar
ages ordnung
entr um
Ġm inis
Ġl es
Ġbest imm
Ġben Ã¶t
ĠÃ¤nder n
plement ation
ich en
Ġin form
Ġen joy
Ġk ap
ov o
b est
un e
Ġwas ser
Ġmein er
Ġst uff
Ġver wend
Ġposit ive
Ġf lex
se qu
wer de
% .
r ang
um e
Ġnah m
besonder e
Ġan al
if y
ell schaft
Ġnat ur
at iv
Ġl u
aus schuss
pl ay
pol it
Ġproje kt
Ġsch we
Ġzahl en
Ġsto ck
umen te
Ġbedeu tet
Ġc entral
Ġa fr
Ġm ass
st ate
Ġz ie
Ġbin nen
Ġkont akt
k ur
land wirtschaft
Ġunser em
fortun ately
he ad
Ġunter sch
Ġfolgen des
bet rifft
l ink
Ġver p
Ġwr ong
ro at
ir t
and e
hin weis
ĠwÃ¤ hr
f assung
Ġpriv ate
Ġget an
Ġakt iv
re icht
ra cy
Ġber lin
Ġbar roso
s he
an lage
auf en
sta at
Ã¤ch st
Ġret urn
d own
kl icken
Ġclos e
iden ce
i us
Ġsch o
Ġfra uen
Ġind ivid
Ġins gesamt
Ġreg ist
Ġbie ten
m ich
m ein
ĠgÃ¤ ste
Ġv ia
Ġam b
Ġhat te
8 1
z ember
agr iculture
gemein s
k re
ak et
Ġproced ures
m l
ic ial
Ġer sch
Ġjo b
Ġprior ity
f onds
Ġt able
tell en
Ġmein ung
Ġgraph ics
Ġgon z
Ġmed ia
just ice
d av
ing ungen
Ġfe hler
Ġer wÃ¤
rol le
sprech partner
ein ige
Ġsch Ã¶n
Ġpres idency
9 4
en a
on es
m itteilung
Ġab kommen
Ġnot ified
Ġsou th
zie ht
Ġf ul
reib en
Ġkosten los
slow akei
Ġengl ish
d abei
k r
ith er
iz ed
Ġco ver
Ġben ach
Ġ93 96
Ġbild ung
spe kt
m and
Ġn ight
Ġv Ã¶
Ġbe iden
mar ia
Ġergeb nis
ĠauÃŁ en
ichter stat
de b
Ġeurop as
Ġso c
f a
r al
Ġfor tsch
Ġit self
Ġ8 0
Ġd am
Ġn a
Ġk ons
yp e
Ġsl ides
re gel
ver w
ier ten
Ġsub ject
Ġeben falls
Ġhand elt
Ġstrateg ie
d ing
aren cy
ch an
lie gen
Ġev ent
re form
Ġper fect
Ġinv ol
stell en
Ġass ess
Ġlar ge
ĠgehÃ¶r t
p a
ar enz
en k
Ġt ick
Ġne goti
Ġper iod
at ives
an ies
f el
i os
Ġch e
Ġpe ace
Ġminis try
f u
Ġblo g
7 7
Ġrat stagung
Ġjun i
Ġinfr ast
Ġ3 4
Ġatt ention
Ġtreat y
Ġabruf bar
Ġsch ritt
Ġres ources
Ġverb ess
rech ts
Ġschw ier
it el
Ġmak es
ul la
i hr
Ġe ast
Ġh ig
pl es
35 5
dire ct
Ġ il
how s
Ġ14 9
ĠĠĠĠ ĠĠĠĠ
Ġpap er
fÃ¤ hr
9 0
es ted
Ġb ath
if en
Ġso on
Ġadd s
Ġfor um
sch n
Ġdar Ã¼ber
r ic
de velop
Ġdec ember
Ġair port
are d
Ġcap ital
r uss
t on
Ġto gether
Ġreas ons
Ġjanu ary
ak te
gra ph
n Ã¤
t es
Ġd ort
Ġan im
Ġr ent
Ġbel g
Ġtyp e
ustain able
Ġden n
Ġlie gen
spro gram
b us
v o
Ġs ure
Ġf Ã¤
Ġk unden
Ġser ver
Ġnet work
is ing
it z
rom ania
m el
r ing
Ġ ort
Ġris k
ĠbeschÃ¤ft igung
Ġc op
Ġsh o
Ġus ers
Ġbel ow
d am
le ction
Ġcommission s
Ġfe at
Ġm aterial
Ġer hÃ¤lt
Ġauf mer
Ġv ice
Ġpr Ã¼
Ġindust rie
d urch
Ġt age
Ġd ont
Ġobject ives
m od
Ġh or
Ġgesch e
ĠmÃ¶glich keit
ar f
Ġl onger
mar quis
on ly
Ġto wn
pre is
y er
transp ort
Ġcompet ition
ik an
5 7
n ungen
Ġ0 7
nat Ã¼rlich
Ġal tern
ach sen
Ġher z
ne xt
Ġfil m
n um
Ã¤ ter
Ġcont ribution
Ġs ug
Ġcl ub
f ree
ch ange
an sprechpartner
Ġr ue
Ġmin uten
Ġwen ig
h nen
r ue
Ġstat ist
Ġges am
bulgar ia
Ġbe hand
ha upt
Ġupd ate
aus sen
ges tellt
Ġbed eut
wichtig ste
Ġbenach r
ar ante
pp orte
ri ka
Ġreg ister
Ġgl Ã¼ck
Ġgem acht
Ġdig ital
Ġwicht ige
b innen
Ġo cc
Ġbet re
Ġfollow s
on y
Ġgraph ik
bulgar ien
Ġaufmer ksam
b in
Ġw rit
Ġf ish
Ġl uxemb
st Ã¤r
there fore
m os
s im
Ġaus schuss
la v
Ġmo dern
Ġ0 4
Ġapart ment
Ġ ident
ar ian
Ġbe c
hn ung
r umÃ¤nien
Ġh Ã¤t
Ġn utzen
act ion
Ġpre ise
un ch
Ġl as
Ġzu g
Ġoper ation
en ch
et te
Ġus ing
lin ien
Ġcas es
201 0
Ġgovern ment
sch aften
Ġfre uen
Ġupd ates
b ab
Ġem ail
ar a
Ġan g
Ġalle m
Ġd uring
Ġpo ol
entwick lung
Ġbenachr ichtigt
Ġc y
al en
fin an
Ġoct ober
Ġs ache
Ġv e
Ã¼ lt
end s
Ġfr ont
Ġcl ass
Ġstell t
Ġevery thing
intern et
Ġsup er
Ġverteid igung
Ġs ide
Ġl is
Ġle ad
Ġar ri
Ġloc al
mÃ¶ glich
ĠentschlieÃŁ ung
Ġholid ay
Ġy es
wh ich
ile d
ĠunterstÃ¼tz t
Ġital ien
Ġ [
Ġauf gabe
zusammen arbeit
o o
Ġex tra
ell es
Ġopt im
Ġslides hows
Ġf ern
Ġor d
all gemeine
Ġ5 00
Ġant worten
Ġwichtig sten
emp loyment
Ġn utz
Ġl ight
Ġhe ar
Ġander s
Ġk raft
Ġder zeit
4 2
l en
r as
ag ing
95 86
m Ã¤ÃŁ
y a
Ġ 00
Ġw est
Ġer reicht
Ġuk raine
Ġqu ick
minister in
an st
Ġstr ong
Ġjul i
Ġinn ern
Ġg ab
Ġim age
g ro
o ve
Ġde utschland
pro du
Ġ199 8
Ġvorschl Ã¤ge
Ġbedeut ung
le it
Ġo st
ungs verfahren
au ÃŁ
just iz
Ġmad rid
is on
Ġg al
Ġexc ellent
f rei
s ver
Ġk ern
Ã¼n f
Ġ29 7
Ġnor th
Ġconclud es
finan cial
le v
wer k
Ġ0 9
Ġdecis ions
Ġs ession
Ġwill kommen
Ġwork s
comp et
6 8
Ġse iten
Ġpar is
do c
j ahr
Ġfo cus
spl an
jud gment
it ution
and s
Ġvot ing
Ġremain s
m als
Ġre chn
ph one
Ġintegr ation
m ann
Ġricht ung
energ y
Ġs am
Ġse veral
Ġcom es
Ġke ep
ĠvÃ¶ llig
d itions
m ag
in ternal
Ġon ce
ri an
op her
Ġhaus halts
Ġak zept
o ung
Ġcl imate
25 5
6 1
Ġh y
Ġl uft
Ġst Ã¤r
Ġgen ug
glie der
c ing
Ġw alk
Ġw omen
ier s
ĠerklÃ¤r ung
Ġkle in
sz l
c d
Ġbe h
Ġme er
Ġproje kte
Ġju gend
fisch erei
b ahn
e ur
aussen beziehungen
4 3
d afÃ¼r
f Ã¶rderung
m m
Ġbe kannt
l ou
Ġf isheries
Ġcertain ly
Ġwrit ing
Ġn ord
if iz
Ġhapp y
Ġprogramm es
ck en
binnen markt
Ġw ider
ar m
ra el
Ġma xim
sec ond
leist ungen
Ġd iv
Ġz uf
4 1
Ġver d
Ġ6 0
Ġfran z
zo gen
Ġb i
ul a
Ġsh op
Ġ7 0
Ġj apan
Ġch ance
Ġent halten
ale z
Ġdialog ue
Ġdoc uments
il le
Ġvor sitz
age gen
Ġmo ve
Ġcont ent
e ch
Ġs ett
hand lungen
Ġfran ce
Ġcommun ication
h ome
Ġcomp uter
Ġstand ards
w ur
on se
Ġsein er
ĠfrÃ¼h stÃ¼ck
c ent
Ġh Ã¤
Ġfor ce
pun kte
Ġgan ze
Ġp et
la us
Ġlegisl ation
Ġgonz alez
w ant
ich tet
Ġan trag
se hr
pl atz
cri pt
Ġig les
Ġt a
Ġm ann
ent ur
Ġapp ly
Ġcomm ent
Ġih m
Ġexper ience
Ġheraus forder
Ġpro ceed
idd le
200 2
Ġsoll en
sta atssekretÃ¤r
hand els
il ities
Ġbe wer
Ġgu arante
Ġmus ic
Ġl au
Ġto d
Ġpolic ies
Ġdemokrat ie
Ġst ation
Ġr und
Ġso und
Ġrech te
Ġdoc ument
Ġigles ias
Ġd est
ge wÃ¤
Ġse arch
Ġsch lieÃŁ
Ġpers Ã¶n
eth od
Ġdeleg ation
sp ok
is ion
Ġcomm it
teil t
Ġide al
Ġinc reas
i ation
ie ten
co ver
ov a
Ġ3 355
Ġgen ehm
vis ion
sp ec
Ġact ions
Ġmillion en
ichterstat ter
o un
w ord
00 352
Ġver g
kt ober
if ul
Ġappl ies
ĠmÃ¤r z
.. ..
fer t
mar isa
sy stem
Ġh ours
Ġl os
Ġst abil
Ġprior ities
Ġrechts sache
Ġhand eln
ro ulla
b is
dan ke
i ally
Ġh il
ed om
Ġkl icken
Ġof ten
Ġl ater
Ġre in
Ġintern al
Ġfunktion iert
Ġlab our
5 2
f s
ettbewer b
or ge
or ted
ak ing
Ġdeb atte
Ġresp onse
Ġ Ã¶
im s
Ġst or
Ġstat ement
let ter
Ġextrem ely
1 00
Ġo bs
Ġmo der
d ruck
Ġg ot
Ġmein en
Ġgesche hen
Ġw achstum
gr atul
Ġkann st
Ġt em
ol le
ste in
Ġbesonder s
a ud
Ġver tra
la uf
Ġmich el
Ġmonth s
h u
is iert
m ary
Ġ ).
Ġal t
d ok
ws a
Ġsl ow
Ġinclud ed
Ġfed eral
w Ã¼r
Ġ199 7
Ġhist or
p al
Ġun ited
Ã¼n st
Ġer k
Ġdiscuss ion
Ġrequire d
Ġdemoc racy
ou g
Ġpropos ed
Ġopp os
p ose
Ġt v
Ġent sch
Ġexp ect
ic ient
Ġsch le
Ġletz ten
energ ie
Ġme isten
pporte ur
p rÃ¤
besch reibung
Ġaller dings
5 9
8 3
e z
ot ing
Ġnotwend ig
minis tr
b ott
Ġo thers
Ġk am
qu es
ct ions
Ġt ell
Ġl am
Ġse en
Ġ3 255
Ã¤l le
Ã¼nd et
Ġdou ble
Ġs Ã¼d
Ġw to
Ġstell ung
inv est
d ate
ies en
l ant
an ces
Ġw ed
Ġbinnen markt
Ġt en
zeich net
Ġsoc iety
b are
u z
or gan
prior ity
Ġafr ica
d ienst
Ġh on
Ġl ad
tell ung
Ġhel fen
aut iful
ĠtÃ¼r kei
Ġo s
Ġlo ve
app oint
Ġconn ect
Ġall gemein
mb h
ic les
Ġle ast
ass er
Ġpart icip
Ġricht ige
Ġamend ments
Ġmess age
6 6
l ast
s ind
Ġp c
Ġe us
Ġfriend ly
Ġl ib
Ġbe ant
Ġwar um
Ġgel ten
Ġfun ction
t ion
Ġf acts
ik o
Ġsol che
Ġhal te
Ġvoll stÃ¤nd
Ġinfr ing
fahr t
ce p
Ġus er
Ġpre m
Ġhal ten
Ġhappen ed
c ol
Ġis land
ze igt
Ġex ternal
Ġhelp ful
Ġsum mit
5 1
at ory
Ġs av
Ġbenutz er
un Ã¤chst
Ġz entral
Ġj av
Ġest abl
at ors
Ġkl ima
vie le
ko sten
Ġbil der
ĠheiÃŁ t
Ġasso ci
Ġw in
Ġex act
bo ten
Ġstr eng
Ġdim ension
de ut
Ġsh ar
Ġcho ice
m il
we il
Ġrece ive
cour t
ang er
rit ts
a den
Ġs ent
Ġs ens
Ġc e
Ġy oung
icult ural
pe ter
a uss
Ġs ant
ad o
Ġma ÃŁ
Ġbu y
strateg ie
ien ste
Ġgemein schaft
Ġbas ed
Ġrece ived
Ġtas k
9 2
f il
g te
Ġste uer
Ġchang es
u ppe
ge legt
Ġcon ditions
hintergrund informationen
Ġbo ard
leg al
lad ies
v iel
at o
Ġm ut
Ġf ace
at ten
Ġk ennt
ain ed
k Ã¶n
z y
ec spok
la den
lo ok
Ġprincip le
Ġ ut
Ġs inn
Ġc ru
iss ions
Ġer weiterung
Ġfor schung
Ġprov ide
Ġern st
h Ã¤ng
Ġ $
Ġt ut
la in
Ġ3 3
Ġher vor
ord ing
Ġph oto
201 3
Ġin fl
den nis
are l
Ġo il
ig ten
our n
unter nehmen
ĠentschlieÃŁ ungsantrag
Ġc d
Ġg mbh
iv al
Ġpl atz
Ġclear ly
m ad
Ġan wend
Ġj os
Ġsp ace
la x
Ġwen iger
Ġinteress e
Ġmention ed
i ro
ungs st
Ġfund s
Ġ ic
Ġp ubl
alt a
Ġfil es
Ġent ire
Ġask ed
Ġc alled
Ġgr and
d et
Ġde utsch
ug s
Ġappl ication
Ġinstit ution
sver letz
8 2
Ġet wa
Ġwel che
Ġt ats
Ġs em
un ion
Ġb ur
Ġk re
ac y
ind ung
Ġent zieht
hil fen
h le
s om
z uf
Ġsp ielen
as mus
Ġl Ã¶
ug ht
ktion en
Ġide a
Ġactiv ities
fÃ¤h igkeit
Ġf Ã¼nf
Ġzu gang
Ġvass iliou
f isheries
Ġs onder
Ġb an
Ġb ol
ge gen
ne ue
Ġhe art
Ġparlament s
Ġtechn ical
Ġd agegen
Ġsp Ã¤ter
her z
Ġpre vious
Ġaut omat
Ġs ow
Ġw he
Ġthe men
Ġtra vel
Ġger ade
Ġassess ment
sprogram m
a ff
ie te
Ġe ver
Ġer ne
ann t
mr s
ck s
Ġgol f
Ġp ast
ro ffen
Ġg ran
Ġde ut
rie ben
develop ment
ra cht
Ġ6 5
Ġger ichtshof
Ġimp act
Ġbeit rag
Ġempfe hl
Ġb Ã¼
Ġ ill
er ve
re ase
Ġj ud
Ġminister ium
Ġwar m
Ġfe ed
Ġbeste hen
gesch lagen
Ġrespons ibility
Ġeig entlich
t y
z i
Ġa sp
ind ust
Ġ29 8
Ġcre ate
erklÃ¤r ung
b ro
Ġt agesordnung
le ider
ste me
Ġbro ws
kon ferenz
ĠauÃŁ er
n ational
Ġde v
Ġbrauch t
ges etzt
ha ve
Ġpartners hip
Ġk n
Ġtak es
Ġp as
Ġc am
Ã¤r en
Ġgu id
Ġkom ple
Ġchar ge
Ġreleas es
e v
com ing
Ġcomple tely
Ġt at
Ġer g
Ġgesch ichte
Ã¤nder t
ĠgroÃŁ en
bere itung
bewer tung
b or
r ies
u tely
be kÃ¤mpfung
sp rÃ¤sident
Ġgroup s
Ġsicherheit s
x is
Ġm ethod
Ġex press
intern ational
auÃŁ erdem
Ġw ettbewerbs
ra hmen
Ġmon itor
Ġw inter
Ġf ive
ic an
Ġbe endet
Ġmarket s
Ġins besondere
Ġcent er
Ġbuild ing
t ake
Ġc ir
Ġhand els
m ig
Ġun ver
Ġl ernen
ĠÃ¼ber prÃ¼
Ġkos ovo
b ody
Ġd ein
ac cept
ger ichtshof
Ġec u
Ġen largement
ru ction
Ġplay er
cel ona
Ġconsum er
Ġtar get
rel ations
h uman
u ed
Ġn etz
Ġo ber
Ġalle in
Ġjo bs
Ġp rÃ¤
Ġruss ia
c en
p or
Ġm ol
Ġre i
00 00
Ġrep ly
cont act
Ġtran sl
Ġaddition al
Ġd oll
Ġd eine
pp el
Ġrep orts
Ġdim as
Ġful ly
er en
pp en
Ġprodu ction
un fortunately
wir kungen
Ġt u
Ġt Ã¤t
Ġn av
Ġwas te
Ġjah res
ch ina
Ġg ere
iz ation
% )
Ġm ail
le i
ig te
schl ag
ĠÃ¶ff entliche
Ġmat ters
ÃŁ t
Ġs ize
Ġeigen en
Ġb ip
Ġh Ã¶r
Ġde zember
Ġcon vention
gr uppe
Ġfre t
Ġnach halt
Ġbl ick
ĠfÃ¼ hren
Ġfund ament
c ase
o st
wir d
Ġ9 0
Ġsub st
Ġtechnolog y
Ġa ge
Ġc ast
Ġ3 7
mit t
Ġ20 20
iven ess
be g
m lich
w esen
Ã¼ t
Ġas yl
Ġchang ed
Ġverwend et
d or
Ġp ath
Ġbe autiful
for ts
Ġab st
Ġsp ain
Ġel se
Ġerforder lich
w ald
Ġ4 8
p ut
Ġs un
Ġk al
5 6
9 1
Ġe uch
ien en
Ġagen cy
Ġjanu ar
h aps
ation en
la f
Ġerfol gt
bre ak
ir es
Ġer w
Ġangeb ot
en ted
Ġver Ã¶ff
200 9
Ġeinge hen
Ġd ir
un sch
ung e
Ġk amp
gemeins ame
aus ch
Ġsein en
gewÃ¤ sser
Ġc ec
Ġbar n
Ġweiter hin
Ġthank s
Ġvill a
Ġverantwort ung
Ġsubs id
Ġun accept
Ġnor mal
Ġport ugal
Ġital y
Ġfret well
d at
in as
Ġk op
Ġver t
Ġpe ter
Ġkon n
comm on
bal gs
Ġ q
Ġd ro
Ġm el
Ġre ise
sp er
Ġra um
Ġgd p
w ettbewerbs
Ġf ight
Ġauf ge
me er
Ġcho ose
m ay
is f
Ġbe teil
Ġein w
Ġso gar
Ġent hÃ¤lt
ian s
Ġmin im
bere ink
y et
Ġb ulgar
Ġe p
Ġz weit
Ġab ove
ip s
Ġnat ure
Ġir an
Ġpolit ische
oug ht
Ġbe w
Ġfr ieden
gh an
ol f
Ġwe ise
Ġent sp
co unt
Ġfl ug
rie den
Ġpie balgs
Ġachie ved
at iven
ig ungs
Ġhin ter
e ach
Ġm m
Ġbe finden
ill a
ap e
lat est
Ġb ab
ri ft
Ġqual itÃ¤t
Ġaufmerksam keit
Ġunaccept able
b ec
Ġper form
Ġber uf
Ġter ms
Ġart icle
dar Ã¼ber
Ġre view
schlieÃŁ lich
Ġnews letter
Ġcomple te
Ġcorre ct
te x
Ġk a
Ġdar an
7 45
le ge
Ġrec ord
Ġcomfort able
f un
Ġein deut
Ġwor th
Ã¼n fte
Ġdr ing
will kommen
Ġkr ise
Ġapart ments
Ġd v
Ġc rit
Ġan frage
Ġz Ã¤
ad or
Ġse ems
Ġmo unt
Ġbo x
zeug nisse
Ġs omm
ing er
Ġabge ord
s icherheit
Ġd or
Ġm i
Ġb rit
Ġre de
Ġj ean
Ġle icht
Ġgo es
w in
Ġco sta
af en
Ġany thing
Ġcons ult
Ġwo che
Ġsum mer
ĠnÃ¤ he
Ġm use
Ġse par
com es
e ff
Ġc ivil
sp iel
Ġkomm ent
Ġsozial e
Ġfebru ary
z weit
rop ri
Ġcomp anies
Ġmar g
Ġdire ction
7 8
p ay
an e
Ġne uer
Ġapp ear
ili ppe
Ġuntersch ied
h ib
u ages
v ide
on ik
as ur
Ġobject ive
iter ran
7 3
Ġr ub
Ġtra dition
Ġmin ute
Ġinvest itionen
Ġfar m
Ġmot or
Ġgru ppe
ond on
med i
Ġk rie
do es
Ġze igt
Ġum setzung
ell er
ss on
Ġmod el
je kt
Ġevery one
zug ang
Ġpict ure
5 4
re al
ver stÃ¤nd
Ġfisch ler
Ġlea ve
Ġw an
Ġan fang
Ġab s
Ġpl ac
lar ation
ari at
e ben
Ġc reat
ome ter
Ġfre und
clus ion
Ġorgan is
Ã¼ b
ell ing
200 3
Ġfr ankreich
Ġint ro
c op
Ġp en
ne te
Ã¤ch lich
Ġmal m
Ġg ift
Ġan gaben
ir m
Ġfor der
Ġ1 000
Ġstr and
alt ungs
Ġreal ity
l icht
ch rist
al ten
ank en
Ġtur key
Ġnegoti ations
b ia
p on
t t
le ar
Ġv ict
stand en
ĠlÃ¤nder n
Ġchallen ge
Ġpur pose
sverletz ungsverfahren
en gl
Ġl isten
Ġpro zess
Ġso fort
y le
Ġ urg
ter m
ot ion
Ġal b
Ġge Ã¶ffnet
Ġform at
gesch lossen
ĠgehÃ¶r en
ch o
Ġcon gratul
Ġli ber
ĠÃ¤nder ungen
uss ion
Ġwh ite
hal te
Ġfund ing
Ġread y
Ġdon ner
hes ion
compet ition
ne y
mo bil
Ġb a
Ġis rael
Ã¤ uft
Ġof t
ad d
Ġev ents
Ġele ments
Ġd ich
uf ig
ess ere
ire d
Ġscho ol
Ġc ou
Ã¤ re
anc ed
e esc
Ġs ale
Ġs telle
st re
Ġer fÃ¼
Ġber ichterstatter
Ġgar ant
r imin
Ġg laub
Ġk rit
st ar
Ġau gen
Ġtalk ing
ĠfÃ¼hr t
Ġess ential
w ould
Ġs lo
Ġl auf
ful ly
Ġ5 8
ex p
Ġwes entlich
b udget
s am
urs day
Ġh art
ix ed
po st
Ġentsche iden
erst ens
Ġach ieve
Ġlegisl ative
h end
s etzen
Ġm s
Ġm is
Ġme chan
Ġprof ession
6 2
f us
Ġh ung
Ġsch eint
Ġsp anien
au ber
Ġnach t
Ġmein em
Ġakt u
Ġwissen schaft
Ġmil it
Ġa ra
Ġa spe
Ġst u
Ġat tra
Ġpl ann
Ġ4 3
tran s
zeich nung
Ġvorsitz es
c is
f oc
as ter
Ġver ordnung
ore a
Ġges etz
bo th
Ġcost asur
Ġletz te
Ġopportun ity
Ġbec ause
Ġth ough
ab on
ein ander
Ġim plementation
Ġgood s
Ġhe ld
Ġfre edom
wor ks
Ġagr icultural
at ur
se ktor
Ġsp an
Ġdel iver
Ġconcern ed
Ġexact ly
u ern
im p
our cen
Ġind ic
led ge
Ġexam ples
in ation
Ã¤ us
hr t
ag ra
Ġam ount
Ġagreement s
Ġallow ed
he im
Ġg i
il ar
Ġst av
7 2
j Ã¤hr
for schung
fr ist
Ġbis her
Ġinc rease
bereink ommen
Ġch em
stimm ungsst
Ġentwick lungs
uff et
ĠgewÃ¤ sser
Ġabsol utely
Ġal one
Ġ3 00
Ġra pporteur
stimmungsst unde
p ark
Ġbe kommen
Ġbe ziehungen
ĠgrÃ¼n den
ch em
Ġpar ts
Ġ6 4
Ġcl ar
wÃ¤ hlen
inz ip
foc us
Ġth er
Ġdank en
ateg ory
ch s
Ã¼ gen
ur t
Ġl ic
Ġl esen
Ġpriv at
Ġw onder
Ġex plan
745 13
Ġs ix
Ġo uts
ug os
Ġad ministr
Ġfran ch
agen da
6 3
Ġer ster
itte il
Ġpl us
halt ung
Ġdel i
Ġcas ino
k eine
r ig
Ġbet rÃ¤gt
stat ist
ĠgrÃ¼n de
h or
Ġe wsa
ist ic
par ation
Ġgemeins amen
ruct ural
Ġtre ffen
jed er
f eld
Ġk ennen
Ġbe zahl
ok er
Ġ4 75
Ġph otos
Ġfl ash
Ġnat ural
Ġenvironment al
wur f
itteil ungen
b our
c s
zweit ens
Ġt ru
Ġs ustainable
Ġf ire
Ġc ross
Ġn ein
ir l
Ġvor gehen
Ġra il
Ġval id
le cted
and re
ri a
Ġzwe if
Ġf el
Ġv izeprÃ¤sident
Ġl ou
Ġer fahr
Ġmehr ere
Ġkon z
Ġpay ment
Ġeben e
z t
in iti
ie ht
Ġc riter
Ġk an
Ġto ok
em ail
lo g
lie d
weis en
Ġed itors
ecspok es
c as
h aft
w ers
Ġj ac
Ġer he
Ġro und
Ġdat ab
Ġstar ted
Ġpa ar
Ġmus ik
all es
Ġle ider
iv ely
Ġgu ten
Ġsta ats
Ġans atz
Ġlin ux
r Ã¼
t d
Ġv eh
Ġl ate
Ġaus wahl
Ġintern ationale
Ġgegen teil
Ġdirect ly
Ġm ist
os n
ure d
wer den
Ġ28 5
Ġbrows er
Ġfranch ise
v izeprÃ¤sident
in nov
Ġs and
Ġp assen
Ġc la
Ġan ges
im es
ver trag
ult ural
Ġjed em
tr ict
Ġend g
cri ption
iff er
ĠerhÃ¤lt lich
ĠhÃ¤t te
e w
Ġsch rift
200 8
Ġbel ie
Ġev al
Ġdiscuss ed
ĠÃ¼ br
Ġchrist opher
ghan istan
he alth
ce ption
ast rop
Ġsuch en
ĠhÃ¶ ch
roat ia
Ã¤n gt
ip ment
Ġgesch ieht
Ġges amt
Ġsaf e
Ġspra che
Ġst ark
Ġex change
Ġman uel
Ġsta at
Ġeinzel nen
_ _
k le
t ur
Ġp ed
id ung
Ġele kt
w est
ch ter
Ġfr ank
Ġarbeit spl
Ġinde ed
yr ight
Ġfortsch ritte
m t
it ure
te uer
as on
Ġfl ugh
Ġjo in
Ġsc re
Ġcre ated
Ġfundament al
iterran ean
ĠgeschÃ¤fts ordnung
ecspokes antoine
p end
al ter
Ġge legen
Ġbr ing
Ġact ive
Ġgef unden
Ġfal sch
zÃ¼ glich
r upt
ab out
os en
sch ul
Ġyou th
Ġreg ierung
Ġhist ory
Ġregist r
g esehen
Ġsch em
Ġbar celona
verkehr s
Ġfriend s
s al
Ġs n
al ity
ent en
app ro
Ġsol utions
a q
v ielle
Ġg round
Ġl ies
Ġl ag
ress ourcen
200 6
bo ard
Ġant i
Ġfisch erei
Ġmig ration
vielle icht
g as
al og
Ġpre p
Ġhin aus
Ġbarn ier
d ra
Ġge geben
Ġle ist
so cial
Ġpers ons
Ġumf asst
Ġbal ance
Ġkle ine
Ġmak ing
7 4
f asst
it arian
ag ed
Ġpl at
Ġpart y
Ġsta aten
Ġter m
Ġbl ack
ĠnÃ¤ch ste
Ġbeisp iele
Ġindivid ual
Ġwor te
Ġstat us
pro ble
Ġsit u
ges ellschaft
Ġru le
Ġasp ects
Ġm ic
Ġb au
Ġp ages
Ġan mer
Ġto wards
Ġre icht
schl uÃŁ
Ġans icht
Ġur ban
Ġpass iert
Ġlim ited
Ġerwar ten
s b
Ġact ually
Ġwichtig er
Ġaspe kte
p et
t i
Ġf it
Ġe esc
le ment
Ġh ans
Ġin sel
Ġto ol
fin ally
tend ed
ĠbegrÃ¼ ÃŁe
Ġmart in
b all
Ġm ission
em itteilungen
Ġver m
la w
Ġph p
besch Ã¤ft
Ġfer r
Ġpract ice
Ġr ich
be hÃ¶r
Ġge fÃ¤hr
Ġen s
Ġac cep
Ġprov ided
Ġrechn ungs
8 4
sch t
Ġmen u
gest unde
ĠwÃ¼n sche
7 6
t ax
Ġt it
Ġo ktober
ol o
pp ing
Ġge Ã¤ndert
Ġfr Ã¼
ander e
Ġorgan isation
Ġinclud es
Ġs wit
Ġm ap
Ġf ert
Ġmit teilung
Ġup on
bo x
Ġoff icial
Ġprop ert
Ġknow n
olog y
Ġur laub
199 9
Ġgleich e
uc lear
Ġzuf rieden
b i
v ii
Ġm os
le itung
il ia
Ġyour self
Ġsat isf
Ġsen se
e hr
w ach
ig ur
Ã¤n ge
Ġres ort
Ġchar ac
Ġpot onik
m Ã¤r
Ã¼ hren
Ġth ursday
Ġand or
Ġim medi
Ġoper ational
Ġd au
le y
Ġl ux
Ġse x
Ġ199 6
et en
ad urch
ant i
wir tschafts
riter ien
7 1
w ise
Ġ 01
Ġinfring ement
a der
Ġw ettbewerb
Ġ3 6
Ġsa ve
ian o
Ġrad io
Ġpict ures
Ġverschieden e
Ġmalm strÃ¶m
7 9
m eld
n r
Ġp ina
res p
ec u
og le
Ġexp ected
ustri al
ĠbenÃ¶t igen
h y
st ruktur
go od
Ġhal f
c ia
le b
Ġst ruktur
Ġred ing
Ġdokument en
Ġdonner stag
k Ã¼nfte
r ary
t ro
Ġm ight
Ġ4 6
kont roll
Ġgar den
Ġruss land
handel spolitik
Ġdeut lich
Ġw ritten
ri ffen
Ġvor geschlagen
ĠwÃ¤ hlen
j ul
Ġd ruck
Ġv ii
us h
il ien
Ġsch Ã¶
Ġmit glieder
Ġen or
pr ise
Ġeuro s
Ġset zen
schrift lich
Ġverw enden
Ġst unden
ier ungen
Ġkon ferenz
spr uch
Ġb io
ac ity
Ġcom pl
Ġ0 6
reich e
Ġwo chen
ha gen
Ġsecurity focus
kar te
Ġorigin al
Ġdatab ase
j un
ch sel
gen ehm
Ġde ad
Ġpark ing
Ġbeschl Ã¼sse
h as
Ġin fo
el ines
Ġz oll
Ġfor est
Ġapp ropri
Ġgesch enk
Ġ0 3
Ġjo hn
Ġread ing
Ġrec og
Ġal most
ag a
Ġpra kt
duc ed
m i
in de
Ġd anger
Ġs ource
Ġb all
Ġo k
ra ct
Ġre lax
Ġschl Ã¼ssel
Ġkomm unikation
Ġdate i
ĠwÃ¼n schen
Ã¤s st
Ġf uÃŁ
Ġb ald
off ice
Ġdisk ussion
mich ael
p at
Ġver anst
Ġqu ot
sel ves
ll er
Ġkol legen
Ġlat est
second ly
Ġcriter ia
Ġh u
Ġcons ultation
Ġkomm e
Ġwelt weit
sub mitted
c los
ar us
Ġan ne
Ġdet ail
ĠgroÃŁ er
kur z
Ġeindeut ig
Ġs ter
Ġg ern
Ġv irt
Ġk la
ab sch
Ġad resse
Ġ8 5
Ġdar um
Ġweiter en
Ġzus Ã¤tz
region al
deb ate
Ġverg essen
Ġb ir
ill s
Ġsomm er
g n
Ġs in
Ġo sten
Ġst ability
Ġho st
zie hen
Ġwes tern
imin al
Ġann ual
Ġl ack
and id
Ġaut o
Ġt al
it ive
te te
Ġc redit
Ġk un
for d
Ġbest Ã¤t
g i
s upp
t ac
v ote
en der
Ġm ang
and a
Ġde part
Ġsch re
Ġqu e
Ġhapp ens
Ġparticular ly
Ġwan ted
Ġs icht
Ġh ot
Ġre m
Ġver stehen
Ġher unter
Ġ5 5
oun ts
ou th
Ġco ok
Ġadv ant
Ġl ow
Ġdo ppel
Ġ4 4
Ġ199 5
Ġagre ed
haus halts
Ġpleas ed
Ġbeh ind
k m
Ġ #
Ġl ondon
Ġhat ten
Ġag o
Ġmich ael
Ġsk ype
Ġsect ion
entwick lungs
Ġbath room
schn itt
im pro
Ġobs erv
l iste
Ġi re
Ġdes halb
beit rag
Ġmo vement
Ġrat her
olog ie
Ġsign ific
Ġinstr ument
aller dings
Ġaltern ative
os ed
Ġdem and
Ġsy mb
fl Ã¤
Ġgegen Ã¼ber
n d
z wischen
in der
Ġb la
Ġg a
ur d
Ġver he
sch ein
Ġbr ingt
ĠfÃ¼ gte
Ġval ues
Ġweb seite
dar um
er y
Ġa ust
it able
Ġb ern
Ġp ad
Ġre du
Ġ6 7
vers ion
spect ive
Ġs us
re c
Ġn ic
ou l
rat ic
ĠÃ¤nder ungsant
h ar
j on
z el
Ġdis play
Ġjed e
Ġvi ol
b ien
e ven
k ing
Ġver handlungen
Ġer fahren
Ġer hÃ¶
Ġhe ut
200 4
Ġvis ion
Ġopen ed
program me
ch eck
re p
Ġc m
Ġvor be
Ġfin de
ges undheit
lin es
ĠwÃ¼r den
Ġgeorg ie
Ġgenehm igt
i ann
t ime
Ã¤ glich
Ġk ategor
Ġha up
ail y
Ġgr enzen
Ġequ ipment
Ġverein bar
c ies
in ing
Ġf le
Ġl Ã¤sst
iss abon
lo ck
Ġpl en
ile o
Ġ9 2
Ġsc ience
Ġeigen e
Ġall gemeine
io de
Ġ15 0
Ġdirect or
Ġbill ion
Ġfr ench
ĠĠĠĠ Ġ
Ġstav ros
n ein
v y
Ġg ames
ze g
Ġber at
pre ise
ĠÃ¶ffentlich en
Ġmot ion
Ġreach ed
g ing
en ken
Ġm Ã¤n
Ġre lev
Ġpro di
Ġi x
aus sprache
Ġob l
zer land
dav id
k at
m w
o is
r ate
y e
Ġst age
Ġsh ows
Ġprior itÃ¤ten
k ein
Ġp urch
Ġe hr
Ġes p
Ġbet rie
arbeit en
Ġsk i
komm unikation
c z
un a
Ġf ab
Ġb org
Ġp f
fol gt
fahr ens
ĠverfÃ¼ gt
Ġpa ul
mag st
Ġaccep ted
h am
Ġk Ã¼r
Ġsp ir
... ?
Ġgew alt
ĠbegrÃ¼ ÃŁen
Ġfamil ie
a ult
ie ÃŁen
Ġte ile
ffe e
Ġsolidar ity
q l
v Ã¶l
ts e
Ġho ff
5 00
m or
z one
is tet
ent licht
end ing
Ġvor hand
Ġ0 8
Ġbed ingungen
Ġru h
Ġdre am
k el
Ġst immt
Ġlie fer
Ġhin sicht
richt ung
Ġtak ing
Ġvertrag sverletzungsverfahren
Ġschwe iz
b ra
f ax
n s
Ġa head
Ġb ann
uf e
hal f
Ġbed arf
Ġmen sch
ĠÃ¤uÃŁ erst
Ġinvol ved
Ġk Ã¤
Ġre mark
omm od
Ġacc ommod
at is
re ise
Ġte x
Ġ% .
in fr
or k
Ġp la
so zial
Ġkomm un
vertre ten
indust rie
w ind
Ġto uch
im it
ru it
Ġges tellt
Ġkennt nis
Ġire land
Ġst ory
Ġprogram ms
Ġans wers
Ġopt ions
europÃ¤ isches
Ġkons ultation
Ġd g
ab les
den n
Ġ- -
ag re
ze ugen
ip fel
Ġtra ff
Ġsit z
techn ische
Ġquick ly
6 9
Ġab end
Ġcont ains
Ġander es
Ġimport ance
Ġlang uages
Ġbas ic
Ġgol d
Ġaud itors
Ġspra chen
Ġeffect ive
Ġfeat ures
mad am
b at
w asser
Ġph ase
anc a
Ġpass word
Ġdav id
Ġa ward
Ġex port
Ġreg eln
Ġour selves
Ġamer ica
appoint ments
c re
t ar
Ġe ither
l ife
r ied
w ide
id umping
Ġexp lain
Ġdr itte
bas ed
Ġbemerk ungen
nÃ¤ here
Ġouts ide
* *
er c
im ent
ab stimmung
ip l
Ġma x
cc i
Ġbr and
Ġcustom ers
Ġrei he
. -
Ġk il
les en
Ġsum mary
l szl
z if
Ġk it
st off
Ġim ages
Ġaus sch
jo e
Ġstud y
Ġauthor ity
Ġsug gest
p rom
r ichten
Ġg Ã¼n
ur a
Ġle it
Ġpl ans
wie der
Ġter ra
Ġwat ch
Ġfebru ar
Ġbundes minister
g ern
Ġan gel
ens ter
Ġkon kre
Ġassoci ation
f ish
j ah
it iveness
Ġc ategory
Ġn ennen
ub a
mer ger
Ġcomp rom
Ġlea der
fus ions
beschÃ¤ft igung
b by
al a
be ide
arbeit et
Ġlim it
as ch
br ingen
Ġange zeigt
tz dem
fÃ¼hr en
ernen nungen
cons um
b Ã¼
e a
on nen
Ġp in
gen au
Ġge h
Ġvor schriften
Ġfra ktion
Ġinvest itions
bere it
Ġbro ad
amer a
Ġrequire ments
f i
Ġe mer
le icht
Ġg od
Ġl iving
ut t
Ġr ange
Ġ5 2
Ġbet ra
Ġges prochen
Ġpr im
Ġtrans fer
k an
s etz
Ġs agt
Ġin halt
Ġv en
Ġl ay
Ġaus wirkungen
ĠÃ¼ber haupt
Ġfolgen der
Ġzeit punkt
5 3
j u
Ġg utes
Ġne g
Ġne igh
qu elle
ze uge
ak es
Ġtra ck
m ission
n ie
Ġp oker
Ġver ste
Ġwe bs
ain t
Ġrep l
Ġgo ogle
Ġgr enz
Ġspe ziel
Ã¼tz t
Ġscha ffen
en cy
Ġm iddle
be gr
Ġen cour
Ġlo st
Ġcomm er
geb iet
mittel n
nes day
Ġkomp rom
Ġvorhand en
f ace
k raft
l ist
Ġm id
ar te
th ose
Ã¶ st
end es
p id
in ted
Ġwar ten
Ġpart ies
Ġant on
fall en
Ġele ment
Ġaud io
Ġbenef its
Ġw under
ab ly
den noch
co de
Ġfer ien
Ġbab y
h ann
m emo
Ġ ign
at eral
us ion
Ġj em
Ġro t
Ġzwe ck
Ġwo hn
Ġhar mon
commun ications
Ġbenef it
Ġkun st
i ents
Ġa ustria
Ġb ay
Ġh all
Ã¤ ss
uf act
Ġvor gesehen
af rika
Ã¼ck en
Ġtransp arency
Ġbeg innen
Ġver n
ier ter
Ġcon text
Ġcomp lex
ange b
Ġprof it
Ġtru th
c ap
t te
Ġf ail
Ġl ik
Ġz entrum
res earch
Ġfin e
transp arency
k or
Ġa ware
Ġse em
Ã¤t zen
war en
Ġgovern ance
Ġchallen ges
Ġguarante e
t ain
an zen
Ġc ame
Ġein igen
Ġst Ã¤d
ber to
Ġ3 9
Ġsim ilar
Ġf oto
Ġf otos
ro ck
Ġv ari
Ġvor aus
rat es
Ġob vious
Ġdr ink
prior itÃ¤ts
g lo
h at
Ġ Ã¶sterreich
Ġw ein
Ġm ik
os ition
Ġmit arbeit
sen s
av ailable
Ġbr ingen
Ġsupp orted
techn ical
Ġfish ing
b auen
r ich
Ġb and
Ġb ody
il en
Ġse i
Ġemp loy
Ġteil nehmer
Ġinstit utions
first ly
lÃ¤nder n
c od
s um
it ime
Ġm em
Ġm cc
Ġf inis
Ġl Ã¤uft
pro te
Ġmon ate
Ġagr ar
ĠÃ¤ hn
Ġkar te
Ġinfrast ructure
Ġw inn
Ġg ap
Ġber Ã¼ck
Ġ7 4
Ġdou bt
o ten
Ġt agen
il es
Ã¤ ne
Ġex ec
Ġgu est
transp arenz
zwe i
Ġw ays
al ia
Ġe th
Ġsch war
Ġlau tet
Ġferr ero
Ġt ac
Ġd ise
Ġs ays
Ġun it
Ġde ath
av ing
teil en
Ġ199 4
Ġpropert y
i ance
s weise
om as
el and
Ġun ten
Ġer ach
bar ometer
Ġ9 6
Ġem issions
vis it
Ġeinzel heiten
Ġb orn
be fore
Ġdeb ian
ĠnÃ¤ch ster
Ġcap acity
ster dam
ĠkÃ¶nn ten
wald ner
ĠÃ¼br igen
Ġg n
res h
ist a
Ġex pl
Ġspe ed
Ġnet herlands
Ġkm u
Ġmobil tel
flicht ungen
agra ph
z w
Ġa lex
Ġun ique
Ġent sprechen
Ġres trict
Ġper fe
Ġbo ot
Ġtransp arenz
Ġser ies
Ġir ak
Ġear ly
Ġwall strÃ¶m
o graph
Ġs ong
Ġk g
ach ten
op ou
Ġhe ard
hin der
str eng
Ġhome page
Ġhig her
u a
Ġa p
Ġbe f
Ġge wor
Ġar rang
keit en
Ġsein em
Ġze ichen
Ġdet a
Ġlis bon
vide o
er weiterung
Ġl Ã¤nd
ver gen
Ġqu iet
br icht
Ġpo or
Ġ28 2
Ġprov ides
Ġsur ve
Ġanwend ung
ach se
Ġav o
schlieÃŁ end
Ġgemeins am
Ġtour ism
Ġsignific ant
k ap
ent sche
ho use
neh m
geb ung
stÃ¼ tz
Ġbl ue
fo od
yn am
ordin ation
Ġarg ument
two ch
Ġhig hl
kÃ¶n nen
ĠverÃ¶ff entlicht
h Ã¤s
Ġd aily
Ġl issabon
iz ien
ĠÃ¤nder ung
itÃ¤ re
sh op
Ġgre ece
Ġgan zen
Ġbeginn ing
Ġbemerk ung
direct ive
Ġflugh afen
t able
es ten
sch wer
ad resse
art icle
ĠprÃ¤sident en
wÃ¤ hr
bed ingungen
Ġluxemb urg
f le
ab hÃ¤ng
kt ive
Ġfl or
Ġbu ilt
Ġwoll te
Ġtag ung
Ġstre et
Ġbe ide
ak ten
Ġper spekt
fe hl
Ġdi am
Ġcol or
Ġkein er
gre ifen
Ġjan ez
uts che
Ġpubl ished
sper iode
Ġn ieder
Ġ4 1
Ġstat ed
Ġacc ording
Ġgemein schafts
Ġzusammen hang
dar auf
sto ffe
n y
s ince
Ġf ly
Ġc ards
men te
mig ration
n ame
o th
Ġco hesion
Ġpre fer
Ġdiffer ence
Ġpot ential
Ġopportun ities
ĠhÃ¶r en
j ected
es ter
al tet
zeich en
zahl ungen
Ġfisch ere
Ġerfolg reich
qual itÃ¤t
Ġmuse um
Ġp aket
Ġab bott
Ġam ong
Ġrep e
Ġmar ia
Ġav ra
Ġknow ledge
Ġrece ption
Ġcustom er
v ice
Ġs i
us a
Ġ20 2
Ġpolit ischen
Ġinner halb
Ġrespons ible
Ġbon us
m ont
n am
Ġb at
op tion
Ġlie be
Ġbeginn t
Ġbalk ans
Ġrev olution
Ġkamp f
b ac
her es
ht on
Ġpl ug
ud an
enn ung
Ġgrund s
Ġeinz ige
sit zen
spro zess
Ġh enn
Ġo mb
Ġl ake
Ġth ought
ver ordnung
mo us
Ġakt ual
cri be
f Ã¤lle
Ġd raft
ed uc
Ġl it
id s
Ġeurop es
Ġunter bricht
pl ant
Ġvill age
n el
gen er
ri bu
ne elie
Ġcom ing
Ġres ol
ud s
Ġtreat ment
ipp ed
Ġvertra uen
Ġsubsid iar
5 19
or ial
ph as
Ġet c
Ġcommun ications
Ġakt uelle
Ġbalk an
Ġkrie g
i ia
m un
ie g
Ġg ott
Ġv ac
Ġr ural
Ġse k
Ġstand punkt
Ġsitzung speriode
Ġfamil ien
fusions kontroll
f an
Ġd ritt
ter min
Ġz w
Ġth us
id a
Ġse lection
Ġide e
ĠwÃ¤hr end
Ġstatist ics
e ks
z unÃ¤chst
Ġw ine
Ġv inc
Ġserv ed
Ġter min
Ġtechn ische
Ġblo ck
tag ung
Ġengl isch
Ġcongratul ate
g ut
m es
p en
it ation
Ġaus kÃ¼nfte
Ġsp o
iel t
Ġcan c
vert y
Ġdra w
pers on
Ġminim um
Ġt ier
the ir
Ġer laub
Ġat mos
Ġvor teile
Ġze igen
Ġpat ten
n Ã¤ch
Ġp ak
ro t
Ġk all
Ġas hton
Ġ4 00
Ġber ichts
ho ben
entr ale
Ġmob ility
Ġredner in
Ġmonitor ing
ĠÃ¤nderungsant rÃ¤ge
5 8
Ġp oll
Ġv ir
us st
Ġun bed
ic ien
Ġein satz
Ġby r
Ġapp e
arbeit ung
Ġmaxim um
Ġbe half
ge ber
Ġfor sch
Ġden ken
lo c
Ġout come
Ġreal itÃ¤t
ĠÃ¼ b
Ġkonn te
Ġzweit en
Ġgewor den
p f
p rop
y stem
Ġd un
ent er
Ġk riterien
and roulla
ri b
Ġam t
Ġcont ain
rÃ¤s ent
Ġbei hilfen
Ġeurope aid
Ġeng ine
wettbewerbs kommissarin
Ġrechnungs hof
m achen
ar ia
Ġn am
ec ially
Ġex tens
Ġvertre ten
amm lung
Ġanal ys
down load
Ġurg ent
p ass
en largement
ap t
per haps
Ġpat ent
ĠmÃ¶glichkeit en
c ts
u y
Ġf ill
Ġc ra
Ġber g
Ġtr end
Ġgeb iet
Ġwind ow
ourn al
b Ã¼rger
c os
z oll
Ġf ur
Ġp rag
the less
comm ittee
go vern
Ġprote ct
Ġherausforder ung
Ġcomprom ise
Ġerach tens
h is
en joy
Ġc urr
Ġk Ã¼nft
gen cy
uf fer
ne ver
Ġste in
Ġmr d
Ġbeg in
hol d
Ġmeas ure
book ing
Ġmad am
Ġw unsch
Ġf Ã¶rderung
Ġin f
ant idumping
Ġgo al
inst itution
wand el
Ġord nung
Ġeinw Ã¤nde
l ass
n etz
ter en
ver age
Ġer asmus
ib il
ip e
Ġpol and
ens ive
Ġges ellschaft
Ġinstall ation
Ġsor gen
Ġsymb ol
b ie
p aket
Ġf Ã¶r
Ġb ott
am inister
Ġer d
Ġir gend
Ġback ground
Ġnet works
Ġhappen ing
Ġein heit
Ġaus fÃ¼hr
Ġwer k
Ġor al
Ġerwar tet
Ġverschieden en
verstÃ¤nd lich
ribu ted
Ġp or
Ã¤ ude
Ġk ong
th ird
Ġbe vor
Ġme x
Ġrat sprÃ¤sident
vor bereitung
Ġrequ ires
Ġconsum ers
h an
v b
Ġs ort
Ġam sterdam
Ġman ufact
Ġfinan cing
Ġfo ot
ĠlÃ¶s ungen
Ġfield s
Ġguid elines
h re
Ġ ;
ic it
Ġst ructure
and al
Ġinformation s
gr Ã¶ÃŁ
Ġinter ested
Ġph ilippe
Ġmon at
unter stÃ¼tz
Ġteil en
anc ing
Ġrestaur ants
bab we
l am
p ra
s ource
y m
Ġc ultural
Ġan no
ter ror
der zeit
Ġst ore
de p
sp un
ien s
Ġpr int
Ġtr ust
folger ung
open hagen
k as
at tet
Ġm Ã¼
Ġl ives
Ġre ag
Ġz ul
iz ont
Ġpar agraph
Ġstr ing
Ġben utzen
Ġluxemb ourg
Ġavra am
Ġv at
et imes
Ġfl Ã¼
Ġspe ech
fran z
ĠgrÃ¶ÃŁ te
polit ische
e ing
in tegr
Ġt ests
Ġk aufen
am ing
Ġsch en
op h
Ġ3 8
regel ung
d ina
z ent
Ġt Ã¤glich
Ġf ant
Ġan nahme
ra k
art ige
Ġch air
ast ic
Ġro ute
Ġnach bar
Ã¶r per
Ġide as
Ġshe et
Ġwahr heit
Ġrecog n
c am
f ed
g ung
g liche
s es
Ġp il
as es
Ġk ir
Ġ( âĤ¬
Ġred aktion
Ġpra xis
Ġvar ious
Ġinterest ing
Ġestabl ished
n l
Ġb ag
Ġy ork
Ġwe eks
Ġwer te
ho od
kont akte
Ġhos tel
Ã¶s isch
commun ity
Ġdri ve
d umping
k enn
ut ive
Ġal ong
Ġab geschlossen
Ġnot es
Ġch anc
hol m
Ã¼nd liche
Ġtyp es
Ġabsol ut
ĠeuropÃ¤ ischer
este in
Ġdv d
Ġalb um
Ġprep ared
Ġb ud
and o
Ġge fahr
Ġsch reiben
Ġgr iechenland
Ġfre qu
Ġtra gen
cont in
Ġjed es
Ġcall s
dec ken
Ġtri p
l Ã¤nd
s i
en se
Ġc ommen
Ġg ing
ur ance
Ġl ok
Ġbe ar
sch re
ier re
Ġso le
con clusion
Ġgu ide
Ġallgemein en
g reat
n ik
Ġd ynam
Ġw and
Ġre mo
Ġbe zug
Ġver k
Ġver folgt
sp ort
pl ace
co very
bereich e
upp en
Ġbetre ffen
Ġsow ie
tse ite
( %
c ustom
p ack
ion e
ro ad
icht lich
our able
Ġ8 8
Ġwork ers
vor schlag
Ġsupp ly
Ġpri ze
Ġviel leicht
Ġir aq
russ ia
bec ause
h ab
Ġd ol
Ġm alta
Ġe w
Ġst ad
Ġho he
Ġpol en
Ġkle inen
k estein
t est
re port
ar o
al es
Ġg esehen
Ġde ep
cc cc
Ġpart icipants
Ġla unch
ĠĠĠĠ ĠĠ
Ġkap ital
a ffen
is ieren
will st
Ġhuman itarian
37 9
v ol
Ġb ru
Ġc ert
el a
man agement
Ġsim pl
Ġgesam te
k y
ch ar
is er
Ġin tens
ic ated
Ġar ten
Ġgr Ã¼
Ġste el
Ġind ustrial
Ġrel ativ
ict ion
Ġaf rika
Ġdisk ut
Ġterror ismus
Ġef forts
Ġbol kestein
Ġatmos ph
k ultur
m ir
w issen
ar io
Ġan fragen
et ary
den ken
Ġher zeg
Ġangelegen heit
hier zu
Ġresp ond
Ġbeit ritts
Ġpop ular
Ġche ap
innov ation
b ur
n os
Ġc af
Ġc ause
iv ian
Ġstell vertreten
Ġsel f
Ġimpro ve
mÃ¤ÃŁ ig
519 25
Ġl uc
st ud
Ġre ich
ere ign
Ġbet roffen
Ã¶ff nung
leg ung
bu ild
ĠhÃ¤ ufig
Ġn uclear
ms el
Ġx iv
Ġgl ad
Ġfrei heit
gro up
Ġverhe ugen
infr ast
s uchen
es tens
Ġb ahn
Ġcon sequ
Ġge ehr
Ġse he
Ġauf ent
mÃ¶ chten
room s
Ġzust Ã¤nd
Ġterror ism
Ġzie hen
Ġdring end
supp ort
Ġrelev ant
nÃ¤ch ste
s an
w an
Ġm un
us es
ein zel
Ġ5 1
wor tet
Ġsuch e
pri v
Ġ75 3
Ġrecommend ation
d ro
l Ã¶s
Ġthe msel
ul d
des wegen
Ġviel f
haus halt
Ġfir ma
Ġanges prochen
Ġthemsel ves
Ġf as
ten eg
Ġse lected
Ġpar ame
ll i
ĠerklÃ¤r t
ken nen
Ġaf ghanistan
Ġkont rolle
Ġnie mand
Ġconnect ion
rupt ion
educ ation
k erung
m ot
t it
Ġd ue
he et
ro llen
Ġe isen
Ġg ast
ver sch
Ġschl Ã¤
zeit ig
Ġkos tet
Ġlam y
d g
y ear
Ġw ent
00 1
Ġsit es
Ġbet r
Ġschl uÃŁ
Ġconcern ing
Ġeing es
Ġvide os
spr Ã¼
Ġherz lich
s oll
Ġc ur
Ġbe ifall
ste uer
Ġte ach
Ġwirk ung
Ġkont roll
Ġfound ed
Ġelect ric
pers onen
Ġlad ies
Ġerg Ã¤n
p m
p ret
t our
Ġd ur
Ġs ell
an cy
re ten
ar ent
im plementation
Ġre den
Ġre jected
ge fÃ¼hrt
Ġst yle
Ġle dig
iel len
Ġex ception
Ġag entur
Ġ% )
Ġhaus halt
besch l
ipp ing
Ġprincip les
Ġherausforder ungen
wach ung
an im
we b
Ġber ichte
Ġfunktion ieren
Ġcustom s
Ġfac ilities
Ġspa ÃŁ
Ġspir it
Ġledig lich
Ġs etzt
ale x
Ġsy n
Ã¶ff entliche
Ġspiel t
Ġgesundheit s
Ġnutz ung
n ommen
Ġs qu
Ġf and
Ġb ang
Ġb essere
Ġn iel
Ġver stÃ¤r
ess erung
Ġsch m
fr Ã¼
hol en
Ġstart ing
Ġpa id
Ġung e
Ã¼tz liche
Ġcover ed
Ġhenn on
b and
ic i
Ġaus gest
gr uppen
cc o
Ã¶ff entlich
Ġmein es
pe ople
Ġumf assen
Ġreserv ed
Ġschem e
bac co
d el
n issen
Ġf u
Ġver gangen
Ġver fahrens
ron ic
fu hr
Ġakzept ieren
Ġwed nesday
c ement
g al
k os
v ements
w ater
Ġ ressourcen
et a
Ġal ter
Ġkommission s
schl Ã¼ssel
alt ungen
zie le
Ġgew esen
az za
forder ungen
Ġsw iss
Ġcr ime
Ġmont i
spec ial
Ġstreng then
Ġgere cht
Ġprofession al
it o
Ġh Ã¼b
Ã¼ tzen
clus ive
jo int
Ġbereich e
Ġregel ung
Ġanim als
ikan en
Ġunbed ingt
k arel
z ud
Ġp ension
Ġl td
Ġne ben
Ġse ason
Ġvor liegen
Ġ0 5
Ġbed s
je kte
zieh ung
Ġschwier ig
Ġsitu ated
b ett
m ak
r d
Ġw id
he ben
Ġp m
Ġg ives
Ã¼ bereinkommen
Ġver gleich
be isp
Ġim press
Ġcon dition
Ġpl ant
Ġad vert
ine a
Ġfre ue
Ġmor ning
Ġwa iting
Ġfahr en
Ġgru ppen
Ġregul ations
Ġbelg ium
ĠmaÃŁ nahme
l as
z Ã¤
Ġf uer
Ġbe fÃ¼r
Ġle isten
wirtschaft liche
Ġsuccess ful
lÃ¤ ss
Ġaktu ellen
Ġara b
meld ung
vÃ¶l kerung
Ġl Ã¤nger
res t
Ġer Ã¶ffnet
Ġstud io
qual ity
Ġhart mut
a ign
c ard
o le
w Ã¼n
ol d
Ġer ziel
Ġauf bauen
Ġle ute
los s
Ġ4 2
gra f
Ġinter vention
gel d
hÃ¶r en
Ġstellung nahme
Ġimmedi ately
c la
Ġs le
Ġs uff
ich ert
Ġer zeug
wer te
Ġbr ings
Ġbereich en
Ġdate ien
Ġles ung
num mer
Ġexplan ations
fusionskontroll vorschriften
d ienste
hen s
Ġreg ime
Ġtra ding
Ġvers uchen
Ġoppos ite
glo bal
uds man
( )
p an
Ġand roulla
kt iv
Ġsch e
Ġli ikanen
Ġdec ided
Ġgu ter
Ġfest ival
Ġaim s
Ġsolidar itÃ¤t
Ġtick ets
Ġperform ance
Ġzweif el
icien cy
i ot
v ass
w oll
Ġk aum
Ġl y
Ġbe ob
end iture
Ġsp richt
Ġsh own
Ġ8 9
arbeit s
Ġappro val
Ġfinanz ierung
dav on
Ġtick et
Ġliber al
teneg ro
b undes
l an
t im
Ġc ant
as so
Ġh en
Ġh uge
Ġan gem
Ġha use
Ġ4 9
Ġfra gestunde
Ġapp lause
Ġwel chen
Ġspra ch
Ġinfrast ruktur
Ġt emp
Ġw ide
ed ing
Ġst ress
Ġr ande
ap art
Ġmy self
Ġuse ful
pre paration
Ġerk ki
Ġcru cial
h under
Ġ essen
ch ang
Ġt rifft
an as
as cript
im inister
Ġminister s
Ġro y
auf nahme
Ġem phas
Ġacc om
ĠerwÃ¤ hnt
Ġeval uation
Ġwebs ites
Ġf at
Ġz ivil
Ġse chs
Ġwh ile
Ġac ross
vis ions
Ġ04 75
Ġobl ig
Ġmitarbeit er
Ġb ase
ar u
Ġth reat
Ġr ene
Ġsp ac
ex c
Ġop fer
Ġmed ic
Ġfall en
Ġiniti atives
Ġlar gest
Ġsal es
kr ise
c ul
g anz
s ein
ie de
Ġo ben
ic kt
be zogen
Ġum ge
fore ign
Ġmen ge
Ġx ii
daten bank
Ġverbess erung
flÃ¤ che
k op
o j
w al
Ġs auber
Ġh ers
il a
Ã¤ te
Ġwe il
Ġsp ring
ens ions
Ġemp f
Ã¼lt ig
Ġsonder n
Ġcharac ter
jah res
i ffe
o on
t ze
Ġw et
Ġw ants
Ġk auf
Ġbe kÃ¤mpfung
Ġst ructural
ri en
Ġmit twoch
imm ung
Ġunter such
Ġgen ommen
mÃ¶glich keiten
Ġentsp richt
at lant
Ġv alle
Ã¼ ter
Ġan na
ag entur
Ġtra g
co operation
201 2
Ġlevel s
Ġzust immen
Ġlebens mittel
Ġear th
Ġinstr uments
Ġveh icles
o tel
Ġe ffe
om b
Ġst ri
Ġho ffen
ip f
Ġher zen
Ġverb indung
Ġkar ten
Ã¶t ig
behÃ¶r de
ste ad
Ġ8 4
Ġricht igen
acc ess
russ land
l ier
Ġb uffet
Ġver absch
est ic
Ġge eign
ri pt
Ġ5 6
kl us
Ġsu ite
Ġinter ests
stell ungen
Ġbut ton
Ġaccess ion
Ġwa it
Ġincreas ed
Ġdanger ous
Ġesp ecially
Ġcommen ted
h i
er geb
Ġk orea
ed u
um n
for tsch
imm ing
Ġrel ated
Ġpop ulation
Ġanal y
Ġbewer tung
organ isation
dienst leistungen
break fast
es telle
at oren
ro y
Ġk enn
id ing
Ġze hn
net en
Ġhin tergrund
Ġko ordin
gre en
forder t
Ġsozial en
r il
Ġknow s
Ġass emb
jo hn
ander ung
Ġpal ace
verb esserung
Ġaddress ed
Ġna he
Ġscre en
Ġt w
an other
Ġc ab
Ġc aus
ad em
ad dition
Ġ8 00
Ġsozial es
Ġdefin ition
Ġsin ne
s et
Ġr ss
ag ne
ag ue
Ġauf trag
Ġme ter
dies en
Ġih res
Ġbo den
att le
Ġdefin it
Ġunivers ity
Ġf akt
Ġh an
Ġg irl
Ã¼ cke
ge geben
ist isch
fÃ¼ gt
bar keit
Ġpre vention
Ġgeb oren
Ġcamp aign
Ġren ov
ĠbÃ¼ ro
Ġperspekt iven
in os
Ġw ild
Ġj ournal
utz ung
Ġthink ing
Ġeing er
not es
Ġje weil
Ġerne ut
Ġanno un
ĠschlÃ¤ gt
l u
in str
ch ild
Ġs Ã¤
Ġauf gaben
Ġcl ient
Ġur spr
Ġport al
Ġstra ÃŁen
Ġverkehr s
Ġs now
Ġf ear
Ġ5 3
Ġbest and
Ġprior itÃ¤t
Ġeas ily
Ġactiv ity
Ġlearn ing
Ġrun ning
num ber
Ġjac ques
y pt
st art
th us
Ġj our
Ġrat s
Ġpo verty
use ful
ath an
Ġmenschen rechte
umwelt kommissar
initi ative
Ġkall as
Ġh am
Ġge kommen
Ġend lich
Ġwichtig ste
Ġrom ania
Ġson st
Ġconst ruction
Ġpract ical
cle ar
ĠprÃ¼ fen
Ġyes ter
Ġschen gen
k ons
n on
Ġfor get
Ġwe ak
be zÃ¼glich
men ted
Ġ7 3
Ġsu ites
Ġla den
Ġget ting
tr ie
Ġnor m
199 8
Ġtour ismus
Ġinclud ing
Ġlu ck
b ast
r Ã¼ck
Ġan zahl
Ġk en
Ġun abhÃ¤ng
Ġl szl
art a
pro f
Ġdec laration
Ġunser es
zeit en
Ġcar s
Ġcop y
Ġentire ly
Ġswit zerland
unterstÃ¼tz ung
e as
r t
ch mal
Ġre act
Ġde utsche
ib ilities
iz es
Ġ6 00
wo hnung
sta ff
Ġkon zept
Ġkom fort
Ġvoll kommen
Ġkur ze
Ġnachhalt ige
f ield
s ing
Ġver teilt
Ġr umÃ¤nien
Ġwe ge
Ġge fÃ¼hrt
Ġaus reich
Ġnot ice
Ġsp Ã¤t
Ġter rit
Ġconf idence
Ġverl oren
sprech end
-- --
fu hren
Ġmarg ins
l uft
p ap
z ul
Ġv iii
Ġst ake
Ġsp orts
Ã¤n glich
zen z
Ġapp lied
sel be
wÃ¤rt ige
Ġmat ch
finanz ierung
Ġkat astrop
Ġverteidigung spolitik
tur key
Ġneigh bour
3 00
l or
Ġc i
Ġis lands
Ġj ack
fin al
Ġnational en
Ġsat ell
Ġimpro ved
ĠbenÃ¶t igt
Ġf ischer
Ã¤ um
Ġver z
Ġex hib
Ġpar te
Ġange boten
Ġvis a
Ġpay ments
Ġdienst leistungen
open ing
Ġcec af
Ġsepar ate
Ġdeta iled
b it
Ġt rop
Ġw ann
Ġer lÃ¤
Ġcon fl
Ġle on
auf trag
Ġ7 6
ĠunterstÃ¼ tze
Ġur teil
Ġcor por
Ġed itor
Ġreleas ed
Ġcy prus
Ġestabl ish
Ġkop f
prioritÃ¤ts achse
* )
b rit
d re
s eine
en ze
Ġd uty
Ġw ik
Ġh it
em er
Ã¤n gen
Ġch at
Ġbesch rÃ¤n
Ġkar l
jed e
Ġbedeu ten
leit et
Ġerfahr ung
zud em
v an
Ġa spect
Ġs ach
Ġm Ã¼n
Ġin nen
Ġl aufen
Ġbe ge
ver p
Ġab stimmungsstunde
gr Ã¼n
los igkeit
Ġapp re
Ġ6 2
kont rolle
ree vy
Ġprop er
Ġkon st
org ung
Ġ25 0
Ġreserv ation
Ġbehand elt
Ġasyl um
Ġanne x
Ġkla re
k roat
Ġd auer
or der
Ġp ain
Ġg aller
Ġk reat
ff end
Ġsh ip
Ġmo de
fr ench
Ġpr ime
Ġ199 2
Ġreform s
Ġinternational en
jed es
Ġmas ter
Ġfir m
ĠfÃ¤ llen
Ġregister ed
izien z
d id
u h
Ġm ur
Ġn ights
Ġv ital
Ġlo go
tre ffen
Ġsupp orts
Ġsm es
mon ica
Ġequ al
Ã¤hr ung
Ġsho pping
herz lich
Ġappropri ate
consum er
d ort
f air
t l
Ġm ix
Ġk y
am el
qu er
ib el
Ġco ol
Ġall oc
Ġlo ad
Ġdeb t
Ġgro ss
Ġmar itime
schl Ã¤ge
Ġ199 3
Ġexp enditure
Ġdat es
Ġkr ank
Ġpartner schaft
Ġscha ff
wes tern
Ġve get
Ġempfehl ung
Ġarbeitspl Ã¤tze
Ġanmer kungen
Ġ ult
in er
Ġt rÃ¤gt
le istet
Ã¶ hn
Ġver stÃ¤nd
Ġent ry
ĠnÃ¤ mlich
iliou eu
ĠtÃ¤t ig
vass ilioueu
es a
Ġs age
at a
Ġc red
Ġh om
ent y
Ġim plement
ĠÃ¼ber ras
Ġex erc
no thing
Ġfe hlt
Ġbei hilfe
Ġverb ind
Ġstand s
Ġpass wort
ĠerfÃ¼ llt
Ġbann er
g ers
m iddle
n Ã¼tzliche
s achen
Ġa spekt
Ġs v
ur aru
Ġl ind
Ġein sch
Ġst ano
Ġer ror
tsch after
Ġreg ular
Ġph ys
Ġoff ic
Ġmarket ing
Ġtot ally
Ġequ ipped
Ġlin ie
Ġjem and
Ġerlaub t
rib ute
spun kt
e lect
m ill
s ichtig
v ier
it ude
Ġp act
Ġh um
Ġz one
Ġbe in
Ġr i
Ġcon cept
Ġho hen
ific ations
Ġgreat er
Ġvo ice
sit uation
Ġrom a
ĠnÃ¤ her
Ġposit iv
jan u
Ġersch eint
cop yright
f ut
Ġf ro
Ġh Ã¤lt
ak is
Ġvor haben
Ġpress ure
Ġbo tschaft
Ġander er
Ġbank en
v as
ol it
Ġse ktor
Ġaus gaben
rÃ¤ ger
Ġgew innen
Ġsay ing
Ġdok umente
Ġpack ages
Ġeven ing
Ġkor re
Ġdemoc ratic
never theless
ĠhÃ¼b ner
kroat ien
a o
b b
c roatia
d adurch
l ib
m aking
w en
Ġ Ã¶l
Ġc oll
Ġk arel
ra y
gra de
bar en
Ġarbeit et
Ġserv iert
Ġwo od
gl Ã¼ck
Ġgew inn
Ġwen ige
Ġconst itution
Ġaccept able
Ġparticip ation
Ġcir c
Ġglaub en
Ġpad uraru
Ġaccommod ation
Ġmcc reevy
Ġforsch ungs
a j
d rit
Ġd ut
Ġc ore
al is
Ġg ucht
Ġl ines
Ġst ol
Ġver halten
Ġch am
iv ity
ass ador
wel ches
ris en
kon om
Ġmas ch
Ġbor der
Ġempfehl ungen
hann es
h op
Ġk urs
Ġz ypern
Ġas ia
Ġeff icient
Ġtor res
Ġwettbewerbs fÃ¤higkeit
m iss
t ab
z il
at ure
he t
Ġc ele
ent al
Ġcon v
se iten
Ã¤nder ung
10 7
eng th
Ġsign al
Ġdist ributed
Ġempfe hlen
Ġregist ration
n ern
v illa
w enden
Ġf is
us ing
Ġun ions
Ã¤n den
Ġhe av
sel bst
Ġset s
Ġtax ation
Ġincreas ing
c ast
z ed
on ce
Ġm p
Ġc zech
Ġh our
Ġr ing
Ġr iver
Ġco ast
du ct
Ġph il
Ġunternehmen s
Ġadv ance
Ġelect ions
Ġentsch ieden
genehm igung
govern ment
Ġappre ci
k inder
m ack
m ake
is ions
le arn
Ġre aktion
ver se
me et
Ġro ck
Ġpar ad
Ġra ised
Ġ9 7
stimm ungen
fl anzen
Ġoff iz
Ġcar ry
Ġwes teren
Ġverw altung
Ġsw imming
Ġmount ain
Ġerhe b
s af
Ġs enden
Ġb ran
Ġc os
Ġh inge
Ã¼ g
ic as
Ġer r
Ġgr atul
wel tsch
ful l
Ġcol le
Ġwa ffen
Ġcrit ic
jon athan
Ġb ot
Ã¤ st
ver standen
Ġon es
Ġsch iff
Ġvor her
pl iz
Ġpres ented
Ġdevelop ed
Ġmod ell
Ġinvest igation
Ġgleich en
amer ika
Ġatt ack
Ġcompet itiveness
Ġbeschl uss
Ġdeli very
Ġelekt ron
Ġgeorgie va
n ungs
v om
Ġd ipl
Ġs weden
an ten
Ġb se
Ġch amp
Ġdem o
Ġcoun ter
ho de
auf bau
Ġsol chen
hand lung
ues day
olog ical
Ġspiel er
Ġbeach ten
Ġdom ain
Ġjeder zeit
verw altungs
Ġdro gen
Ġfel der
Ġdau ert
Ġterra ce
Ġkomprom iss
prote ction
5 45
w ahr
re pr
ar es
Ġl if
sch auen
ind est
be k
Ġdem on
Ġpr inzip
Ġmy s
Ġgeb rauch
Ġir land
Ġgrund legen
Ġreform en
Ġrec ent
wa gen
Ġprotokoll s
letz t
Ġbit ten
Ġjav ascript
ĠschÃ¶ ne
Ġtraff ic
Ġassemb ly
Ġf enster
Ġe b
ol af
Ġz unÃ¤chst
th ree
ber n
Ġge orge
ak zept
Ġ4 7
av es
akt iv
pro jekt
Ġ7 9
Ġange geben
geb iete
Ġerfol gen
po ol
Ġtechnolog ie
Ġwr ite
Ġanim al
ifiz ierung
Ġbezahl en
Ġfert ig
Ġviol ence
rep ublik
ĠlÃ¤nd lichen
Ġgeeign et
s u
Ġs Ã¼
ar ten
as b
sch w
Ġvor bei
Ġkl im
other wise
ĠverfÃ¼ gen
Ġgal ileo
s v
s ichtigt
re view
Ġn ames
Ġcon ven
ad op
ik er
Ġqu ar
iz in
Ġ9 5
Ġhand s
Ġmed ium
presse kontakte
Ġeinz ig
ows ki
Ġris ks
rel ated
Ġschle cht
Ġplann ing
s ect
Ġb uchen
Ġp ure
il er
am s
ver fasst
Ġge gr
rÃ¤ gen
ick s
Ġad r
Ġnach stehen
Ġsu c
cht est
Ġrel ig
Ġentwick elt
Ġeff iciency
Ġfig ure
ission en
Ġamer ican
Ġrecommend ations
Ġfeat ure
Ġplac es
custom s
c at
m art
Ġm b
Ġk Ã¶rper
Ġre member
Ġpre vent
Ġmed iterranean
uer to
Ġhol d
Ġvol k
Ġangeb ote
mel den
Ġtod d
Ġinfl uen
Ġwhe ther
Ġens ure
inde ed
Ġbyr ne
b uÃŁ
c ec
h ard
y ond
Ġt sche
id ge
ot es
Ġpro to
uch e
Ġge ist
ers te
Ġcol lect
Ġins ide
Ġopen ing
Ġ.. ..
Ġmobil itÃ¤t
Ġmajor ity
Ġbelg ien
f ig
s outh
v oting
or es
Ġf ach
ent wurf
ur en
ic y
st es
Ġst ahl
Ġdo or
Ġ5 9
iz it
Ġges etzt
fl ug
Ġmach ine
Ġconst ant
Ġprom otion
Ġexist ing
Ġtats Ã¤chlich
repr ene
j apan
r asse
Ġk redit
ed s
Ġal ten
Ġaus gang
Ġro s
Ġgen annt
spra chen
Ġdist ance
leist ungs
commun ication
ĠkÃ¼ che
Ġbestimm te
Ġadministr ation
Ġkonz entr
g y
w iesen
Ġs ad
Ġs uffer
or a
men schen
ze igen
Ġes c
ard o
con st
Ġges p
Ġany one
Ġmon etary
Ġ! !
dar an
mÃ¶ chtest
Ġdaten schutz
Ġausge wÃ¤
Ġdef ault
bab ly
Ġdeliver ed
Ġpak istan
b ale
c ould
h on
z z
Ġo d
em a
Ġj ung
all ow
ate ful
ak ova
Ġmin or
stat ement
Ġworld wide
kar ten
Ġbook ing
nÃ¤ heres
appro val
b la
Ġw om
Ġo laf
Ġz war
Ġj Ã¤hr
Ġeurop ol
Ġsp r
Ġbed enken
Ġbank s
car lo
engl ish
Ġanalys is
Ġcurr ency
f lich
h igh
o ts
s or
s end
or ed
Ġf Ã¶rder
al ban
Ġe her
Ġre hn
Ġz ut
Ġpro visions
de fin
ien e
Ġaus bildung
tra gen
no ck
alt ic
Ġbel arus
Ġdevelop ments
Ġover all
Ġoper ations
med ia
Ġsecond s
dig ital
Ġeig ent
Ġabgeord neten
fle isch
ĠfÃ¶r dern
g d
t un
on n
om io
Ġre duction
ann e
Ġcont ract
Ã¶r t
Ġword press
Ġele mente
Ġref uge
komm t
erklÃ¤r ungen
leben s
Ġbor ders
doc uments
wÃ¼r d
Ġmist ake
Ġkonkre te
Ġcele br
c ertain
j er
n io
er ie
in ed
he mal
Ġbe hÃ¶r
ann en
Ġlo bby
Ġnach richt
nach halt
Ġfr att
Ġget s
wÃ¤ lt
Ġcons ist
sh ould
Ġhigh ly
Ġvisit ors
Ġcontrol s
Ġoperation elles
dat um
Ġvict ims
Ġcommer cial
Ġaufent halt
e ec
Ġan sprechen
Ġl icht
ec ks
ne ws
Ġreg ret
Ġgr ateful
Ġsu itable
wor ld
Ġadv ice
Ġgesam ten
Ġtem per
Ġlou is
Ġappe al
Ġconsequ ences
Ġsuc ceed
1 01
e ver
g ere
k n
ac io
sch au
Ġwe chsel
qu in
ap ter
ex am
Ġland es
amb urg
Ġauthor ities
Ġtu omio
. ,
er weise
Ġf Ã¤lle
Ġin sp
ab bott
ow ers
Ġha ving
act ive
Ġbes uchen
fl Ã¼
Ġtransp arent
Ġnumber s
ĠhÃ¶ he
zwe ck
Ġconsider ed
Ġmilit ary
Ġstellvertreten der
o x
Ġc ategor
as ion
Ġh t
Ã¼ hr
el er
Ġst Ã¼ck
ad es
Ġch ann
ick ing
Ġ6 6
Ġges prÃ¤
Ġmark ed
Ġcomple ted
Ġthrough out
home page
Ġbulgar ia
schein lich
Ġberat ung
a ug
Ġn ik
for dern
Ġj ugos
Ġ7 00
Ġra m
Ġ8 3
Ġbest immt
Ġob st
Ġverb unden
Ġart icles
Ġfest gelegt
Ġwirtschaft liche
nor weg
ĠhÃ¶ her
zus ch
ĠeuropÃ¤ er
ĠverÃ¤nder t
Ġinfl ation
Ġgegr Ã¼ndet
er ing
Ġf akten
Ġbe weg
Ġj ose
pp er
Ġge fÃ¼
ust ausch
Ġfin ally
press emitteilungen
kontakt personen
utz t
Ġarbeit nehmer
des ign
Ġcar ried
mark et
Ġur l
Ġdist ribution
Ġconf irm
Ġtechnolog ies
Ġopin ions
Ġnav igation
Ġwesentlich en
Ġd ub
Ġb Ã¼r
Ġc u
us ed
Ã¤ cht
ig a
Ġz imm
kt ions
Ġle id
ma i
mo b
comm it
stand ing
az a
Ġenter prise
Ġcamp ing
Ġcommit ment
ĠvollstÃ¤nd ige
ĠlÃ¶ sen
Ġwonder ful
Ġpurch ase
Ġpla za
build ing
b rech
Ġc ow
Ġv ess
ir ina
Ġre ject
Ġfor ec
Ġfor ms
ul y
ang el
ok ing
els on
Ġimp orts
regel n
dennis abbott
Ġinvestitions bank
h af
s etzt
v ar
an mar
Ġim ple
ag o
end o
Ġpre c
Ġwork ed
Ġ199 0
Ġcol lection
Ġlook s
Ġplay ers
Ġprote cted
Ġstar ten
Ġmet ro
Ġdesign ed
Ġton nen
schluÃŁ folgerung
e es
l io
le ts
Ġn Ã¶tig
ens ichtlich
Ġdis p
Ġfr on
Ġbegr enz
Ġtarget s
Ġstu die
Ġs ides
ir an
Ġab satz
Ġar mut
Ġcoun t
Ġvers and
Ġprof ile
Ġris iko
Ġappl ications
dec ision
Ġbesonder e
Ġamer ikan
Ġbenutz t
une hmen
ĠwÃ¤hr ungs
frei heit
Ġcec ilia
entwicklungs zusammenarbeit
Ġexec utive
adop ted
b ad
b io
e kt
i kt
s telle
in fl
Ġf rit
Ġh ast
Ġsch ne
pro zess
Ġacc ounts
stat tung
olog ische
Ġplay ing
Ġbro ught
Ġnov akova
dec laration
Ġholid ays
Ġef fort
Ġkomple x
hÃ¤s ion
weltsch utz
n ichts
t agesordnung
z ig
Ġw il
Ġb ade
Ġb mw
Ġp rÃ¤sent
Ġre ference
Ġst ard
ann a
Ġat lant
Ġpol ice
Ġman ager
pl Ã¤tze
Ġcas a
Ġcas h
sy steme
ĠhÃ¤t ten
ew g
Ġforest ry
Ġavo id
drit tens
k ts
m ac
t op
ar ge
Ġh Ã¤ngt
ig ungen
Ġre covery
Ã¶ p
ind ik
pp ed
Ġge plant
ann ual
Ġha ut
Ġco ffee
Ġhe im
Ġam ts
Ġro ll
cy cl
Ġspe zial
Ġverb rauch
Ġpolit ics
Ġzahl ungs
Ġinnov ative
uk raine
Ġshar rock
bor der
cis ely
asb ourg
l im
er zeugnisse
Ġw ien
ich erung
Ġn ationale
ze ption
Ġvor an
Ġvor gelegt
Ġcomp on
Ġform ular
Ġfact or
Ġmittel meer
Ġchrist ian
ĠgrÃ¶ÃŁ e
Ġvass il
ĠschlieÃŁ lich
Ġausgest attet
h after
k il
l ab
Ġb aum
Ġin tell
Ġre duced
Ġle b
Ġfre m
Ġfre unde
Ġgra d
Ġfinanz ielle
quest ions
tro tzdem
jun i
f est
m alta
en te
Ġa qu
Ġf resh
Ġc up
Ġl ose
ol id
ien na
Ġsp iele
Ġsh ipping
Ġra pid
Ġ12 0
Ġdoes nt
richt ungen
fÃ¤ llt
bet ter
Ġeff ects
ĠauÃŁ erdem
Ġdim it
intern ationale
verb raucher
Ġlim its
Ġaud it
Ġson n
Ġbesuch er
Ġarri val
Ġbew usst
Ġspan ish
tax ation
Ġvorbe halten
fed eral
) ?
g yp
Ġt aten
Ġf ein
Ġb osn
ich ern
Ġin tend
gr enz
ĠÃ¼ber all
tre ten
ex plan
ov i
Ġdr ugs
Ġrechts vorschriften
Ġatt ach
Ġexper ien
ĠbegrÃ¼ ÃŁt
Ġverbess ert
Ġabs urd
er a
Ġp g
Ġc andid
Ġthe me
Ġin akzept
Ġis ol
Ġto bacco
id o
und s
Ġim mobil
Ġde le
ann i
ann is
Ġsch laf
gr enzen
ĠÃ¼ber zeug
Ġme ters
Ġsh ower
more over
Ġwish es
Ġkol leg
Ġgaller y
f our
Ġf ruit
Ġn om
Ġv ere
Ġan spruch
Ġein t
Ġi phone
Ġim migration
ubl in
Ġcouncil s
Ġsec ure
igh ted
Ġcons ists
fÃ¼hr er
Ġrepresent atives
Ġide en
Ġtre ten
Ġoffer ed
roso ft
mein er
ĠpersÃ¶n lich
Ġprem ium
Ġadvant age
Ġwinn ers
entsche idung
Ġjugos law
k al
Ġun er
Ġand ris
ab schlieÃŁend
Ġpro spective
de zember
af o
Ġdis pos
Ġchar ter
Ġstar ts
Ġimp oss
Ġkro at
Ġverein igten
Ġscha den
Ġkontakt ieren
Ġsett ing
zuf Ã¼gen
infrast ruktur
amel ia
a i
b osn
p do
it zen
ar ily
Ġg Ã¼nst
Ġan p
Ġun be
id ay
qu em
ian a
Ġweiter es
fach ung
oper ations
ĠgroÃŁ es
Ġgew Ã¼n
199 5
erk ennung
Ġupd ated
tele fon
Ġmind estens
pend ent
schwer punkt
sitzen der
g in
Ġ Ã¤r
as k
as ilien
Ġh es
Ġk er
Ġz entrale
os it
Ġhe ll
Ġfra ud
Ġeuropean s
10 2
pr ises
Ġstatt finden
ĠauswÃ¤rt igen
Ġsecret ariat
weis ung
ĠgewÃ¤ hr
mitt lung
Ġquot as
Ġherunter laden
Ġimple mented
f ar
k Ã¼nft
t Ã¼r
t Ã¤us
it ate
at ic
Ġm w
Ġc ell
Ġl ength
rop s
Ġver me
Ġi b
ri j
ag n
se lect
europ es
Ġhe il
Ġra ise
Ġaut om
ari ff
Ġsor ry
Ġrefer red
Ġton nes
cript ive
Ġkomment are
Ġsurve y
Ġc ities
la ut
Ġvor auss
Ġbes tellen
int ro
cht l
ical s
Ġserious ly
det ails
Ġtransl ation
Ġanton io
Ġsqu are
Ġproto col
l ong
n av
on i
on ien
Ġd ritten
Ġn i
we gs
Ġj Ã¼n
sch we
ess ions
Ġsch weden
able d
bar a
Ġpre cisely
Ġdurch aus
Ġsub mitted
Ġpat ient
Ġmeet ings
Ġgol den
Ġerstell en
Ġless ons
Ġstabil itÃ¤ts
Ġbeant worten
Ġerziel t
t v
Ġt ief
Ġs ap
Ġm ond
Ġb od
Ġj ur
ct ive
Ġeuro barometer
Ã¤l ter
Ġwichtig es
Ġcent ury
Ġed ition
Ġlet ter
Ġumf ang
xim ately
Ġwicht igen
inst all
Ġsug ar
Ġklima wandel
Ġstard oll
i at
z iert
Ġm Ã¼ndliche
europ as
Ġ6 1
Ġdevelop ing
ient ific
wend ung
Ġgar ten
prior ities
Ġung arn
prÃ¼ fung
Ġcat alog
Ġzust immung
Ġcr iminal
Ġverbess ern
Ġmoder nis
dep uty
Ġparame ter
Ġimposs ible
b rauch
h ner
Ġw Ã¤ren
Ġf em
Ġn ied
il s
Ġand re
Ġpro ud
Ġer wer
Ġaus s
Ġsp ot
Ġor ient
ger ufen
Ġ6 3
Ġdi vers
Ġfl ag
Ġzeit en
achst ums
Ġaktion splan
Ġang st
impro ving
nie mand
w to
x x
Ġf ixed
uf er
se arch
ik as
Ġch urch
cc ile
wo hl
Ġind ia
Ġconc re
Ġplay ed
Ġsom it
bet rag
ums etzung
acc ession
sm all
produ kte
invest itionen
ĠfrÃ¼ her
Ġomb udsman
Ġsek unden
f am
u ell
Ġo m
ou ts
Ġbe yond
ul s
ri ktive
Ġsp am
ne u
Ġfin land
Ġwor ten
Ġ7 1
Ġtra um
con n
Ġbed ro
Ġdurch gefÃ¼hrt
sekret ariat
dar in
Ġsur round
prÃ¼ ft
lad im
Ġdoll ar
dor f
Ġhung ary
Ġjour ney
f ers
k now
m ult
t nam
Ġs ir
Ġb ul
Ġc er
Ġn u
Ġn ick
Ġy ugos
ahr ungs
reich en
Ġfe hl
Ġfind ings
Ġac quis
Ġentscheid ungen
Ġern Ã¤hrung
Ġaktion en
Ġdigital en
Ġverd ient
Ġcou ple
Ġendg Ã¼lt
kurz beschreibung
ibil itÃ¤t
in ar
Ġa st
Ġa verage
Ġp ick
Ġh orn
Ġis o
Ġver hÃ¤lt
Ġro se
Ġste ts
Ġbel ong
acht ung
Ġgrow ing
Ġintegr ated
Ġdam age
Ġmaterial s
Ġsant a
Ġlic ense
Ġdeli ber
Ġvinc ent
d k
it ious
Ġm erk
Ġis lam
ig em
ge org
Ġha hn
Ġho f
Ġdis cover
Ġmen Ã¼
Ġappro x
Ġfar be
Ġproduc ed
Ġpa et
comp anies
Ġdef icit
ĠeuropÃ¤ isches
folgen de
look ing
Ġgelegen heit
ĠkÃ¼r ze
Ġremark s
Ġsuff icient
Ġinakzept abel
a a
c m
Ġf ell
Ġb ind
ol i
res erv
Ġal ban
Ġad o
Ġste uern
Ġdar in
Ġsc ope
Ġinst ance
Ġrepres ents
Ġtour ist
every thing
Ġplann ed
Ġplat form
w achstum
er Ã¶ffnung
Ġa cht
Ġs und
Ġw ald
Ġc amera
Ġh und
Ġfor mal
Ġpro zent
be im
Ġen h
Ġnach richten
fr ieden
vor lage
Ġander em
Ġmember ship
Ġfil ter
199 7
Ġcontin ued
fre und
Ġmil k
dire ktion
every one
Ġbestimm ungen
Ġkit chen
addition al
Ġeinger ichtet
c p
Ġp our
ig end
st u
Ġth ous
de x
ort ion
Ġden en
Ġminister ial
rÃ¤ fte
Ġ7 7
Ġdec or
Ġ199 1
Ġresp ekt
bes uchen
Ġstra ight
!! !
Ġpleas ant
polit ical
ml aga
Ġlis ted
Ġappear s
engl isch
Ġniel son
h ist
Ġt isch
Ġs aint
Ġv el
Ġan lage
Ġl iter
ab stimmungsstunde
Ġauf fassung
Ġle hr
Ġaff ected
Ġmon tenegro
Ġrepres ented
Ġhol z
Ġmean ing
nor way
Ġverl ieren
zus Ã¤tz
dat a
Ġrail way
opou lou
c in
k amp
z ne
in ese
Ġt ages
or ary
ar ies
Ġan zu
Ġr Ã¤
Ġim pl
Ġsp read
so le
rÃ¤ ume
ma ja
Ġdar aus
Ġzeit raum
ĠÃ¶ff nen
Ġworld s
Ġadop tion
Ġdep ends
Ġsan ter
zusammen setzung
Ġwahl en
Ġtab ak
Ġfarm ers
Ġkategor ie
woll en
c r
f urt
Ġs we
Ġe co
Ġg one
Ġto urs
Ġein verstanden
ver l
Ġres erve
Ġar ms
Ġdec ide
des criptive
Ġconclus ion
Ġport ug
ĠgrÃ¶ÃŁ ten
Ġcare fully
Ġbrief ly
ĠÃ¼berprÃ¼ ft
Ġbelie b
Ġtit le
Ġaust ral
d ed
g ast
s ur
is o
Ġp od
Ġc art
Ġc ors
Ġh i
st abil
Ġal te
op s
europ ol
hen ce
Ġ5 4
Ġpress emitteilungen
Ġ8 7
Ġinter pret
Ġkon fl
Ġcor azza
Ġcommun ities
Ġfam ous
Ġmil ch
Ġbal con
aud io
Ġdeutsch en
loc ation
Ġneighbour hood
gyp ten
k rie
Ġ ereign
in form
re che
Ġf onds
Ġz iffer
Ġver wir
Ġver folgen
Ġr and
Ġco ordination
if ik
Ġbes itz
ieren de
Ġexp orts
Ġgeb Ã¤ude
Ġspec ies
Ġdan iel
dr Ã¼ck
tele kommunikation
tele communications
Ġinstitution en
Ġmilit Ã¤r
f are
i op
o inted
s ustainable
Ġt ack
on om
or al
Ġb ak
ion en
te mp
Ġh amburg
um ption
ri p
Ġsch iffe
her ine
mit tag
ake te
Ġind ien
Ġsc en
ugh ter
go ing
Ġspeak ing
Ġfav or
nor th
Ġabsol ute
Ġgener ation
Ġmeer es
rimin ation
Ġconfl ict
Ġstol z
d rei
r ight
Ġw olf
re chn
ent in
Ġk ill
sch reiben
be auftrag
Ġmit te
Ġent reprene
Ġcom b
Ġam az
Ġar m
Ġar men
wer ke
Ġ9 1
Ġ9 8
Ġwork shop
Ġpropos es
Ġaccess ed
Ġzahl reiche
Ġcontin ues
Ġverwend ung
4 00
Ġl od
Ġfor mer
for um
Ġ( )
Ġr ise
so ft
Ġunter nehmer
Ġad vis
Ġad just
co st
fr ont
Ġwel cher
Ġsel ten
ruct ures
Ġcontin u
Ġsal z
Ġnah en
Ġimpro vement
ather ine
Ġzie mlich
Ġbehand eln
Ġfacts heet
Ġvereinbar ung
l s
t itel
Ġe yes
Ġv ul
ur i
Ġun employment
Ġl ower
Ġto ler
ad v
Ġco vers
Ġwith dra
Ġex t
Ġum gesetzt
los e
herr n
you th
Ġkon sequ
wÃ¤rt ig
dem oc
Ġeinfach e
med iterranean
Ã¼h ungen
Ġital ian
Ġfa iled
Ġtry ing
pay ments
Ġvielf alt
Ġvassil ious
d ont
o cco
s Ã¼d
un ivers
Ġb Ã¶
Ġb rian
le hen
ig ner
Ġbe comes
Ġst rom
Ġver f
Ġwe gen
Ġdo g
Ġvor bereitung
Ġcont rary
Ġdis count
Ġsicher lich
Ġstrateg ic
Ġeben so
ingt on
chten stein
dis cover
lou d
Ġface book
Ġmechan ism
Ġvern Ã¼nft
Ġangem essen
child ren
Ġcham ber
Ġconcre te
c atherine
j os
Ġbe vÃ¶lkerung
Ġle gen
Ġeu re
ok ko
av i
pro gress
wo hner
Ġsol ar
schlieÃŁ en
bed arf
Ġcat herine
Ġtod ays
Ġprem ier
Ġautomat isch
Ġpas cal
star tseite
ergeb nisse
Ġfratt ini
commit ments
m ass
Ġf ests
Ġp i
Ġn ations
Ġv ent
ver handlungen
Ġdies el
se ptember
Ġch osen
Ġme ant
Ġmin i
25 8
dem okrat
mittel meer
Ġnor way
gest immt
Ġbro wn
anc ic
Ġiniti ativen
Ġpan or
Ġwalk ing
Ġadministr ative
jul i
Ġspo ke
545 30
c all
n one
o y
t ype
Ġw on
Ġc roatia
Ġg ipfel
Ġv ista
Ġan ony
em ann
ÃŁ burg
Ġli ft
iz ient
cont rol
Ġfollow ed
Ġwel chem
ha up
Ġke pt
Ġricht linien
Ġkol lege
Ġtas te
Ġfortsch ritt
verw altung
Ġbec ame
Ġhil f
Ġbulgar ien
Ġexerc ise
b isher
y t
Ġs ah
Ġs ources
ĠÃ¼ber nehmen
Ġcom bin
Ġus d
aus wÃ¤rtige
Ġli zenz
Ġcl ients
Ġmon aten
Ġwell ness
zeich nis
Ġconf igur
Ġtax i
Ġsup erv
Ġamb itious
Ġga ve
Ġhighl ight
Ġdefinit ely
Ġfrit s
d uring
Ġa wa
at om
re in
Ġc lo
ed ia
Ġbe k
Ġfor dern
for cement
ec d
Ġpro bably
Ġer hol
ap est
Ġro b
Ġgen ieÃŁen
Ġbes tellung
wor um
hand elt
Ġjahr hunder
Ġregion ale
Ġdel ay
Ġfar ben
ci j
Ġjav a
Ġcast le
Ġcrit ical
Ġadvert ising
j ourn
t ained
Ġa z
Ġd rag
Ġb os
Ġc in
Ġbe quem
Ġst unde
00 27
we ite
Ġge heim
me ister
tell er
au ÃŁen
fra gt
Ġav iation
Ġsc ore
Ġgrund lage
emp fehl
ĠmÃ¤r kte
staat liche
aff ung
Ġhoff nung
Ġleit linien
Ġroy al
? ?
s ign
in ary
Ġd ark
Ġd ry
il ing
Ġk yp
ou d
ik al
Ġex ter
Ġres idence
cl imate
man s
Ġgr unde
Ġ201 6
Ġfe e
Ġcol d
Ġmor al
Ġexp ensive
further more
Ġpal acio
Ġstellvertreter in
Ġflex ible
herz lichen
Ġheut ige
Ġrestrict ive
s ir
s Ã¤tze
Ġs is
it ale
or ah
Ġp urs
ge iz
am i
Ġauf genommen
Ġent tÃ¤us
wh ile
spra ch
Ġsol d
des cription
ov ina
Ġverb esser
Ġgeb iete
Ġsk y
ob ject
Ġvar iety
Ġfeed back
Ġabgeord nete
Ġkrit ik
franz Ã¶sisch
a w
s ara
ch inas
Ġt itel
Ġb zw
Ġin tended
us te
Ġan teil
Ġein ig
ere fer
Ġer weit
be teil
Ġim per
Ġaus druck
pr inzip
Ġmehr heit
Ġkom pliz
Ġchar lie
leist ung
Ġprom ote
Ġgef Ã¶rder
wes halb
ĠschlieÃŁ en
Ġstor age
Ġheut igen
Ġdise ase
Ġs org
or ca
Ġc s
ich e
le hnt
Ġo t
Ġan liegen
Ġbe hinder
od a
Ġvor ge
me as
Ġper haps
Ġgr atis
Ġdeb orah
Ġinter essen
fÃ¼hr ungs
Ġbeg onnen
Ġgest r
Ġglo bale
Ġvol le
Ġvol ks
Ġnie mals
Ġerforder t
Ġcop yright
Ġbehand lung
rian ou
Ġmethod s
count ry
ĠzÃ¤ hlt
mÃ¤r kte
Ġfinis h
pra kt
m ap
z entrum
in al
an teil
Ġf eld
Ġh altung
Ġj er
ec o
Ġzu cker
Ġsch Ã¤
Ġaus nahme
ly mp
ub le
ain e
ure ment
Ġqu ant
Ġpol ize
man aging
Ġpun kten
arbeit sprogramm
Ġko cij
ha i
Ġjun cker
sub s
Ġtop ic
Ġsatisf ied
Ġcook ies
Ġkyp rianou
Ġkocij ancic
g ub
h aving
o hl
Ġb ist
Ġan schluss
il ateral
Ġun n
Ġum gebung
Ġunter kunft
Ġper cent
Ġapp oint
Ġ7 2
Ġdi ent
Ġtr ends
schen gen
Ġweiter er
Ġinvest ments
Ġfran co
Ġaid s
Ġasso zi
ĠprÃ¼ fung
stÃ¤r kung
date i
Ġveranst altung
Ġausreich end
p la
Ġa post
Ġd ienste
Ġs mo
Ġv ienna
um in
ke ep
ail and
that s
Ġmo ving
Ġ19 89
15 0
201 1
lar ge
Ġrom ano
Ġfa q
Ġmand ate
Ġped ro
Ġenor mous
Ġschre yer
Ġuntersuch ung
Ġvess els
4 10
5 46
6 64
d on
p ot
Ġd einen
Ġs ar
Ġe leg
Ġh op
Ã¤ ki
wo hn
Ġra ce
Ġbed au
Ġgu ard
vers ammlung
Ġwo hnung
Ġins urance
Ġprior itÃ¤ts
Ġask ing
Ġcre ation
Ġmer c
ĠgÃ¼n ther
Ġdiam ant
m ess
t yp
y ing
Ġd ach
Ġp ir
Ġo lymp
Ġre zeption
Ġr io
qu ote
gr an
eu er
sta ats
vis ual
199 6
Ġappl ic
Ġdaten bank
Ġvertrag s
Ġdiv ided
christ ian
cho ose
rÃ¼ st
ĠschluÃŁ folgerungen
Ġspac ious
Ġmys ql
p ed
s ucht
v ivian
Ġt iere
he bung
Ġin halte
Ġk ulture
Ġk Ã¼nst
Ġz er
ut a
Ġr up
me chan
che z
Ġgesch affen
Ġpar a
wo gen
Ġmehr eren
Ġtr uly
Ġteil nahme
Ġgl ass
sicht igen
Ġzus atz
ausschuss es
Ġil legal
Ġocc up
Ġadvant ages
Ġht ml
m ol
o ffen
o ktober
Ġt uesday
Ġd essen
Ġs pp
Ġp ill
Ġth omas
am end
Ġver fassung
ver tra
Ġwe ap
Ġdies bezÃ¼glich
sen den
iv ier
Ġcont ents
Ġgo als
fr Ã¼h
Ġmin der
Ġsc ript
stand ard
Ġdan ach
Ġris iken
verb ind
Ġfac ing
Ġmig uel
ĠzusÃ¤tz liche
verp flichtungen
p i
u ens
v at
we chsel
os ter
ag ain
Ġcont ribut
Ġbo at
ex per
Ġget roffen
Ġir ish
Ġrom e
aktion splan
ĠauÃŁen beziehungen
Ġdepart ment
Ġehr geiz
agre ement
apart ment
ĠgewÃ¼n sch
c raft
f igur
w all
Ġt ill
Ġver lassen
Ġj es
Ġge fallen
Ġsp ok
Ġent gegen
br uch
thank s
Ġbusiness es
nov ember
ous ly
sol che
Ġpriv acy
Ġinstr umente
Ġmiss ing
gew icht
Ġstreng th
Ġkonn ten
ĠzÃ¤ hlen
Ġneg ative
ĠflÃ¼ chtl
janu ar
Ġdemon str
v it
an en
Ġm all
Ġf if
al er
Ġe arn
kt ors
Ġsch Ã¼tzen
Ġha fen
Ġvor rang
Ġtra y
ish ing
Ġwel comes
Ġvers ions
Ġhal b
spe zif
Ġkin nock
ĠbeschÃ¤ft igungs
Ġdom in
Ġdra mat
inv ites
mas ch
Ġproceed ings
__ __
Ġprofit ieren
Ġelectric ity
Ġsle ep
. (
f und
k orea
s udan
on line
it et
Ġb attle
Ġp flicht
ar g
ed ienst
Ġsch ule
Ġsp aren
ze hn
ĠÃ¼ber gang
Ġvor ange
ran ge
ap ril
Ã¤t igkeit
Ġgesch Ã¼tzt
fol ge
Ġprodu ktion
Ġoff ensichtlich
Ġmod els
Ġgel angen
Ġgra f
Ġsk in
clud ing
Ġweb cam
Ġtele phone
Ġhuman itÃ¤re
Ġbeit ritt
Ġexper t
Ġbem Ã¼hungen
Ġmess ages
Ġshare d
Ġhil ft
Ġpen alt
ĠgÃ¼n ter
intro duction
d ays
e e
k u
l ight
or ies
al y
le iter
Ġcon duct
form at
qu ate
op les
Ġus es
Ġwor se
ger icht
mo der
Ġmod ule
Ġcar l
Ġsan ktionen
verw enden
lou is
Ġcommit ted
Ġparticip ate
lÃ¶s ung
schlÃ¼ssel ung
Ġado be
zne imit
b essere
j ean
l is
Ġt ie
Ġt ib
Ġd os
Ġp ret
Ġc ott
Ġe chte
Ġst ig
ach s
Ġim ag
Ġsp end
Ġle d
Ġle bt
Ġch inas
od or
Ã¼s s
vel y
ges etz
Ġacc ident
ĠĠĠĠ ĠĠĠ
Ġwirklich keit
licher weise
dan ach
Ġoption en
inst it
ele kt
Ġbeant wortet
ĠvollstÃ¤nd ig
Ġfit ness
arte ment
Ġextens ion
Ġreag ieren
frÃ¼ here
brech ung
6 00
f lex
k ern
re is
Ġe ye
Ġo ce
Ġbe gan
Ġer leben
Ġzu vor
Ġge prÃ¼ft
Ġat tend
Ġsp ann
her ing
are t
ho den
app e
Ġspe zif
Ġrel ates
Ġkein es
Ã¼nd ung
Ġabge lehnt
Ġpan el
Ġhear ing
Ġwed er
Ġdev ice
Ġarrang ements
c er
er te
Ġa xis
Ġh yp
Ġl oss
Ġal c
Ġr uns
kt op
Ġle iden
Ġus ually
wo od
ma ÃŁ
Ġlie chtenstein
ĠerklÃ¤r en
vers orgung
Ġverb re
Ġagen cies
Ġkin dern
Ġeigen es
with out
sto ck
Ġinde x
Ġmult ip
Ġhon est
Ġerne uer
mÃ¤r z
p ension
t witter
er zeug
an lagen
Ġm essen
Ġe du
ic ul
Ġst il
Ġer zeugnisse
Ġer kennen
Ġch ines
ug g
ste uern
ure au
ell os
pro t
Ġfl at
Ġfl ight
Ġmill iar
Ġser ve
gesch ichte
Ġ27 31
Ġru he
Ġstra ÃŁe
Ġverw altungs
ĠnÃ¤ here
Ġmag az
Ġdisk rimin
cons ider
Ġmand elson
Ġstellung nahmen
ĠkÃ¤ mp
Ġverste he
Ġinf os
cla ude
infl ation
Ġmw st
zneimit tel
f riend
k urs
s w
v olle
er ation
Ġt iron
Ġin it
Ġz erst
se h
Ġgen Ã¼
Ġbed room
Ġlang frist
Ġposs elt
eg u
Ġest ate
prior itÃ¤ten
Ġdefin ed
Ġschul d
Ġpleas ure
Ġhor izont
Ġchair man
Ġcategor ies
Ġtiron i
k ategor
w ettbewerb
Ġ ue
Ġd rop
Ġw al
Ġp uerto
Ġg am
Ġv itor
Ġj en
Ġpro vision
ul f
Ġge p
Ġwor ry
aus sch
tell te
Ġup grade
ph ilippe
son der
Ġnat o
Ġlang sam
Ġnor wegen
ander s
Ġsan ctions
Ġequ ality
Ġpreis en
Ġchang ing
Ġtas ks
Ġinde pendent
Ġsor ge
sequ ently
ĠfÃ¤ h
clos ure
bundes minister
Ġkroat ien
h Ã¤
n immt
r um
s il
v in
v iii
Ġt ritt
an i
le bt
Ġk lage
Ġk risen
Ġre ader
Ġse ven
ers ucht
ern t
Ġcont ribute
Ġmar ke
Ġclos ely
Ġappro ximately
rie b
Ġsk ills
Ġgl as
ĠgrÃ¶ÃŁ er
Ġreason able
Ġenter prises
Ġelect ronic
Ġperfect ly
bus iness
Ġlib rary
Ġdor f
teuer ung
Ġbir th
Ġemploy ees
Ġd us
Ġd ublin
Ġs ustain
re y
re hens
te am
Ġn ar
Ġk as
et ten
Ġein igung
Ġst amm
Ġ1 10
Ġr ies
ru h
Ġmo vie
herr ing
Ġbo y
Ġdec la
Ġrequ ests
my anmar
Ġtrans ition
Ġhy per
Ġfranz Ã¶s
leb hafter
Ġmem ory
d iv
h Ã¼
Ġs ac
an ze
Ġm l
Ã¼ ÃŁ
ter t
Ġz ert
Ġr as
Ġmit tag
vor schlÃ¤ge
Ġgu inea
comm er
Ġwel fare
Ġcol our
hol t
Ġfound ation
ĠfÃ¤ llt
Ġkern el
Ġrechn ung
Ġgerichtshof s
Ġdein er
exp ected
vergen ce
Ġatmosph ere
Ġky oto
w unsch
z im
or ia
Ġm u
Ġb ib
Ġe cho
Ġh ong
Ġn os
Ġst ick
ow ina
Ġch a
wer ts
Ã¤t zung
Ġfre ie
Ġhier fÃ¼r
Ġant nio
Ġbar r
Ġkor rig
Ġpie ce
spec ific
Ġautomat ically
break down
Ġerw achsen
Ġerfahr ungen
ĠhÃ¶ch st
ĠmÃ¤n ner
explan ations
g ipfel
r ent
s up
Ġd adurch
Ġe is
Ġto ld
et ze
Ġwe ather
Ġge leistet
Ġmit einander
if i
Ġfinan ces
ho ch
ink en
Ã¤nder ungen
Ġcour ses
Ġnum mer
Ġinteress ant
Ġconsum ption
Ġdienst ag
Ġzug Ã¤nglich
som it
verwaltungs behÃ¶rde
k anz
u hr
in y
at ible
Ġb og
Ġg Ã¼ltig
Ġk de
ig ent
ic ate
Ġre vie
Ġand r
ach er
ag ues
se bast
Ġ5 7
Ġper spective
Ġcomp ar
Ġmed ical
Ġentwick lungen
Ġcor ner
Ġeas tern
ruf en
Ġschnell er
vent ions
Ġinform ed
best imm
Ġocc ur
ifiz iert
Ġvergangen heit
1 12
l Ã¶
Ġ ),
er asmus
is ms
Ġs la
an ke
Ġe at
ic ke
Ġto des
em inister
Ġal p
Ġha ft
Ġden mark
Ġvor teil
do or
ex tra
Ġhin zufÃ¼gen
Ġkont in
nat as
Ġschul den
Ġschwer punkte
ĠverÃ¤nder ungen
Ġrent al
christ opher
Ġvirt ual
Ġruh ig
tÃ¼r kei
a is
f angen
i wan
n ice
z unehmen
Ġf ans
ie gel
Ġh alt
um m
de te
Ġwe ight
Ġvor bereit
hal tet
Ġsupp lement
Ġgemein schaften
Ġover view
Ġfall s
bes teuerung
zeich nen
Ġorgan ised
Ġmet res
ĠdÃ¼r fte
Ġeng agement
Ġfour th
Ġbra zil
ĠprÃ¼ f
Ġbur den
Ġfail ure
Ġbat ter
Ġanaly se
an on
st al
st ructural
Ġal arm
Ġzu ge
Ġaus sehen
Ġch inese
elt re
Ġpar alle
Ġup load
ieren der
Ġsy steme
Ġmed izin
Ġjo e
Ġhin weis
ĠfÃ¼ le
Ġnum er
Ġselbst verstÃ¤ndlich
Ġbeit rÃ¤ge
Ġbig gest
Ġarch ive
Ġvac ation
Ġdub ois
d ri
Ġf ix
Ġn iederlande
Ġn ationen
el ine
ab stimmungen
ve c
ec a
de leg
isch arge
Ġam ounts
Ġhier bei
Ġ8 2
Ġpre paration
Ġinv ite
Ġexp and
Ġaut or
Ġpap ier
Ġconf ir
ĠÃ¼ bereinkommen
Ġzus ch
Ġlead ing
Ġdev ices
ĠerfÃ¼ llen
wieder aufnahme
third ly
Ġbalcon y
a ik
b n
c ivil
h me
j en
s ite
er war
ig i
Ġre isen
Ġj unge
all o
ann ten
Ġcont est
hin weise
fin ancing
Ġgro s
Ġmar got
ma x
Ġx p
Ġgeb racht
Ġsm art
ĠstÃ¤nd ig
Ġrelations hip
Ġhigh est
verb rauch
Ġbook s
Ġtest ing
Ġflex ibility
Ġcommit ments
Ġsinn voll
Ġbetrie b
Ġperfe kt
tit le
alex andre
Ġdiamant opoulou
5 35
i be
r ant
t p
or gt
for ums
iss ens
Ġle hnt
Ġno ted
Ġex it
af r
lie ben
Ġsol cher
Ġgel Ã¶st
rei ber
Ġentwick eln
pres idency
Ġdep osit
Ġlab or
Ġerreich bar
Ġlog in
Ġpresent ation
Ġrecommend ed
ĠÃ¤uÃŁ ern
Ġbetre ffend
Ġzentral bank
Ġmut ter
Ġberuf liche
vergen z
wÃ¤hr end
ĠÃ¼b erein
Ġappreci ate
o h
s icher
re de
as ts
st ill
et he
Ġbe ein
Ġand ors
Ġer inner
form ular
Ġha ir
Ġus b
Ġqu o
Ġlo unge
Ġfre ien
Ġtra v
Ġbes org
fe bru
ph an
fl uss
Ġpe oples
Ġter rasse
Ġsect ors
Ġstud ents
Ġkomp et
zÃ¼ ge
li ke
Ġcam ps
Ġkommun al
Ġeinges etzt
haf te
k Ã¼
k ter
z es
Ġa le
Ġt ariff
Ġc ad
al tern
Ġg ib
res umption
Ġver lang
Ġse at
Ġauf t
la ufen
Ġme at
au x
ho ff
Ġprodu ce
Ġdank bar
Ġstar s
dec isions
ash ion
ĠgewÃ¤ hlt
zwe if
Ġregard ing
ĠstÃ¤r ker
Ġklein er
Ġplug in
Ġgrunds Ã¤tz
ipf eltre
Ġfis cal
z ub
Ġ ice
Ġd ah
Ġd inner
Ġm ller
Ġn ull
Ġan hang
Ġfor got
Ã¶ der
sch a
Ġex tended
Ġcont rad
Ġlo ts
Ġmar iann
Ġproc urement
Ġass ist
unter brechung
hol ders
over view
Ġear lier
Ġverp flichtungen
Ġaktiv itÃ¤ten
Ġlead s
beg riffen
Ġabst ained
Ġplen ary
Ġrepl ac
ĠstÃ¤d te
Ġrepe at
Ġgeehr te
Ġoffic er
5 96
o use
p ak
v w
v otes
es h
Ġp ix
Ġv Ã¶l
Ã¼ se
for ce
Ġal ias
Ġr asch
ess ive
ze ÃŁ
los en
tell ungen
Ġgen u
Ġgen utzt
Ġra re
Ġfr ied
Ġsy m
Ġform ul
Ġgew inner
Ġsom etimes
Ġaut ob
Ġbank ing
po int
Ġsur pr
Ġsign ed
Ġstock s
Ġakzept iert
Ġleist ung
Ġbahn hof
h ou
n g
u ert
x elles
Ġt enn
Ġp av
Ġp sy
Ġg ain
st ieg
Ġdes ktop
end ar
Ġwas h
Ġent ries
auf schlÃ¼sselung
Ġcomm and
ret urn
Ġop ens
stand s
Ġsome one
Ġele ction
zahl en
Ġeas ier
Ġmot iv
Ġglobal isierung
Ġruss ian
environment al
fÃ¤h ig
Ġverp flich
Ġgarant iert
Ġmic rosoft
Ġhaup ts
1 000
c ulture
f p
n utzen
s wit
y en
Ġm und
Ġp ierre
ri z
ess ler
Ġwer bung
Ġgesch mack
Ġcomp rehens
com ed
gest atten
Ġkont o
kun fts
Ġcat ch
ĠfÃ¼hr te
Ġsil ence
mich el
angeb ot
Ġvalle y
ĠerlÃ¤ uter
Ġbeweg ung
Ġpret ty
n n
y b
or ient
te k
Ġc ry
al m
Ġv a
Ġbe at
Ġbe coming
sch on
ul i
all gemein
Ġmo ved
Ġsa w
bar bara
Ġbus quin
20 7
reg ist
Ġzahl ungen
Ġpay pal
kommission s
dire ktor
Ġbrit ish
Ġrene w
ĠbÃ¼r gern
f ac
s ide
t ats
t urn
z ure
Ġt auch
is minister
is lat
Ġc ro
Ġg b
Ġein s
Ġver ring
Ġab sch
Ġsp reche
ah re
ah me
Ġch f
Ġex tend
Ġent wurf
Ġdeb ates
bar er
bo ts
Ġinst alled
Ġfinanz iellen
Ġrec ently
Ġplan et
Ġlab el
Ġpost s
Ġcal cul
acc ording
ado x
aff t
Ġsubst ances
tex te
vizeprÃ¤sident in
Ġbetrie bs
ju gend
Ġign or
angeb ote
priv ate
Ġnachstehen den
nav igation
d ialog
o ire
z ip
Ġa wards
Ġf la
Ġf ont
ro ger
Ġan hÃ¶r
ed ps
ver anst
Ġab fall
Ġcom bat
Ġcont ra
Ġpol ack
hin dern
Ġpo ten
Ġ6 8
Ġmay stadt
Ġbeg riff
Ġgew iss
Ġleg it
Ġgrund satz
Ġbil den
forts etzung
Ġemer gency
Ġagrar politik
Ġwand el
fut ure
Ġin zwischen
Ã¤ ck
ol as
em issions
Ġbe wegen
Ã¶ ger
ber ge
Ġne hme
Ġdes cription
Ã¼ber schre
ib ly
ist ische
Ġex ists
Ġwh om
Ġro bert
pt y
iz za
Ġra ums
rat s
bel arus
ban on
Ã¤lt ig
Ġbild t
Ġvorschlag s
ros lav
Ġplac ed
Ġrich ard
Ã¤ss ig
ĠberÃ¼ck sichtigt
Ġkeiner lei
Ġdispos al
le iten
Ġan erkennung
Ġk u
Ġaus gabe
Ġdes cri
Ġdo ha
ak en
Ġcomp la
ret ary
do va
Ġbar s
wel chen
Ġinst ruct
ĠfÃ¼ hlen
Ġadop t
Ġteil nehmen
general sekretariat
Ġplay a
Ġsozial politik
Ġak p
Ġlat in
Ġmass age
Ġstrong ly
Ġnorth ern
Ġhistor ic
last ung
ĠspÃ¤ter en
ĠverÃ¶ff entlich
Ġther ap
sum mary
Ġdritt lÃ¤ndern
Ġyester day
Ġdeliber ation
drÃ¼ck lich
z in
Ġt Ã¶
Ġs ud
Ġf assen
Ġn one
Ġo z
Ġv ene
Ġan streng
Ġl v
em issionen
Ġdie d
Ġ1 12
ut ral
ein er
Ġde termin
Ġent sprechend
Ġman ual
bo tschafter
com ple
Ġger ing
Ġsol ve
Ġprop ose
Ġrequ ested
Ġpass ieren
Ġstar ke
sy stems
Ġwes entliche
fo hlen
Ġbudget ary
ĠstaatssekretÃ¤r in
Ġmind est
Ġarbeits markt
ga ard
ĠwÃ¤hr ung
Ġsett ings
Ġsow ohl
haushalts plan
Ġspeziel le
nachhalt ige
k Ã¼r
o z
w at
z ust
Ġd ienen
Ġw it
as te
Ġv in
ent decken
Ġre ichen
ne ter
ran ce
Ġbet t
Ġmar io
ium s
Ġkon kret
Ġob jekt
Ġweiter gehen
Ġir re
ĠâĤ¬ )
prÃ¤sident in
Ġtre as
Ġpal est
fern er
sa gen
Ġmet al
Ġsou l
Ġtar if
Ġbundes ministerin
Ġverd ienen
Ġbi ke
Ġerw art
Ġintro duction
Ġstaats minister
Ġbang emann
ĠbehÃ¶r den
hÃ¤sion spolitik
Ġcandid ate
Ġrup el
kanz ler
1 10
g elt
k w
s n
it age
Ġm c
Ġb urg
Ġauf s
end um
Ġus ual
me x
Ġman age
ide al
ens wert
hl te
br ing
geb aut
Ġbeg ins
16 2
Ġtax es
Ġint ention
Ġschul z
Ġflex ibilitÃ¤t
Ġclass ic
ĠstÃ¤r ken
Ġstabil itÃ¤t
Ġic eland
ĠÃ¼berprÃ¼ fung
Ġexplan ation
beisp iele
l ies
m ic
ch i
he in
Ġp id
Ġp oul
Ġc row
Ġver boten
ag g
rom e
iz Ã¼g
Ġfre ude
Ġnoch mals
Ġmar c
Ġbed Ã¼r
Ã¤l fte
Ġwel comed
40 3
Ġdirect ives
Ġcre ative
Ġbem Ã¼
Ġtop ics
stra ÃŁe
Ġeg ypt
Ġverantwort lich
Ġkomple tt
Ġeval u
streng then
Ġsatell ite
Ġbesorg nis
izÃ¼g igkeit
f ight
j ac
is rael
Ġf ot
Ġver urteil
ier n
Ġer de
Ġer weiter
ann te
lie gt
iert es
Ġfe hlen
Ġbus h
ler nen
Ġbild ungs
Ġstra f
Ġshort ly
hel p
rik an
Ġbestimm ten
Ġphoto graph
Ġslo venia
Ġdisplay ed
8 00
h m
h ans
Ġd Ã¤nemark
Ġs amm
Ġb altic
Ġp ip
st ation
ad s
Ġsch atz
Ġab schluss
se its
ant rag
ne uer
so weit
Ġno ise
ĠÃ¼ber nahme
ak ter
Ġunter sche
Ġber ichtig
ord on
grund lage
Ġ8 1
Ġfe es
Ġfam ili
mitglied staaten
Ġfac ility
pos es
Ġarri ved
Ġgran ted
ĠhÃ¶ch ste
proble m
Ġdau ern
ĠbestÃ¤t igt
Ġsubsidiar ity
Ġeisen bahn
sing le
conn ect
Ġentreprene ur
e ig
Ġt ank
Ġs z
Ġb urn
Ġp y
Ġthe or
Ġg ree
Ġder en
kt oren
be handlung
sp ace
ik ations
Ġco oper
ste ht
Ġum weltschutz
Ġres ource
Ġar ray
erv ice
Ġbr ight
pr ices
Ġjo hannes
Ġsc ientific
Ġconc entr
min ute
Ġadv ent
Ġregional politik
Ġdef izit
48 4
Ġpur poses
Ġguarante ed
Ġorganis ations
pon te
Ġfrank furt
ĠerhÃ¶ ht
Ġdise ases
zoll union
Ġherzeg ovina
Ġcolle agues
ahrungs mittel
m ma
p g
z b
Ġt ap
es ien
Ġs zen
Ġs udan
Ġw are
Ġb ureau
ed er
Ġz o
Ã¶ konom
ri o
Ġyou re
Ġyou ll
if ikation
Ġex clusive
ak i
Ġall iance
pro ced
Ġbet rag
fol g
ma ÃŁen
chn et
Ġnat Ã¼r
Ġac p
gre if
Ġev idence
Ġdisc rimination
Ġeing et
amb assador
Ġmess e
vious ly
Ġzust and
Ġfir men
Ġbalk on
ify ing
Ġlau ten
Ġindic ators
Ġbott om
Ġforec ast
b ir
n ight
n ord
en minister
Ġt aus
Ġd rit
it ag
Ġg iving
Ġo lli
um st
Ġfor sten
ies sen
Ġj on
de f
Ġge ograph
ri ffe
ct or
Ġaus sen
aus gaben
Ġsa una
Ġ9 4
fahr zeuge
Ġtran sit
Ġdep end
bl ue
bl att
Ġoper ating
wa ffen
Ġpal Ã¤st
Ġkr iminal
nat ur
Ġfamil ies
region ale
Ġunivers al
Ġausschuss es
Ġdring lichkeit
Ġentsprechen de
Ġpil ot
Ġlaunch ed
Ġmilliar den
t om
y steme
ch mark
Ġd ischarge
Ġs d
Ġm t
Ġin begriffen
ed onia
Ġth res
Ġbe we
ab gabe
for en
ac ov
Ġr h
Ġzu dem
Ġdes erv
Ġso f
Ġher itage
kl ima
Ġbesch lossen
reg ister
eg f
Ġkont rollen
Ġeff izient
Ġpat tern
199 4
verein bar
Ġfact ors
Ġverl Ã¤nger
ĠgrÃ¶ÃŁ ere
Ġinstit ute
Ġgent oo
Ġpract ices
Ġdest roy
Ġveh icle
ĠberÃ¼ck sichtigen
Ġpoll ution
Ġbud apest
Ġdiskut ieren
gal ileo
Ġkoordin ierung
Ġexhib ition
ĠendgÃ¼lt igen
Ġtray nor
erwar tete
596 67
l ag
Ġp ensions
Ġun a
Ġl angen
ic ious
et able
Ġein trag
Ġver sprechen
Ġj ar
Ġr ank
Ġgesch Ã¤ft
ese it
pro jekte
fra ktion
Ġla ws
leich heit
Ġvoll er
Ġdiscuss ions
Ġmittel punkt
sec urity
Ġdri ving
59 258
som etimes
Ġberichterstatter in
Ġlik ely
Ġcorpor ate
Ġphil os
Ġinit ial
d auer
f ill
m uch
u it
Ġp owers
Ġe cht
Ġun e
sp ap
her n
itte es
akt uelle
iz a
vor sitz
Ġbeg ann
Ġaf ford
Ġmain tain
inter vention
Ġrom an
Ġgem Ã¼se
current ly
Ġtab elle
ĠpersÃ¶n lichen
Ġredu ce
Ġsong s
Ġmex ico
const ruction
hon ourable
ĠjÃ¼n g
j i
u i
w f
Ġd j
an fragen
Ġw achstums
Ġf ather
Ġp ag
Ã¼ p
Ġan kunft
Ġan melden
Ġk unde
ic ed
ac in
ac ion
Ġge fragt
Ġsp lit
ist ics
ck ing
Ġfin n
ell or
Ġpl enty
mit glieder
Ġ6 21
Ġaff ect
Ġpre par
Ġhand y
Ġinvest ig
ij n
Ġteam s
Ġtro tzdem
Ġbeteil igung
west liche
begr Ã¼ÃŁ
Ġfinis hed
Ġtuomio ja
a uty
k abel
p c
v ic
Ġb out
Ġh Ã¤lfte
st an
ber gen
Ġwir ksam
sp art
ant on
ze p
af ghanistan
io x
kl ar
Ġra b
Ġ10 40
Ġkl ass
Ġdurch fÃ¼hrung
Ġgegen seit
Ġgel ungen
Ġcol lege
Ġau th
Ġmet hode
abil ities
Ġbesonder en
Ġsat ur
zus tellen
hel ene
Ġtab les
Ġschwier igkeiten
Ġstatist iken
Ġsound s
Ġslow enien
Ġill ust
Ġsuggest ions
Ġfrequ ently
Ġherzeg owina
kos ovo
Ġzimm ern
ĠÃ¼berzeug t
Ġspok en
b c
it ect
Ġb ird
Ġp orts
Ġh imm
ur laub
Ġl ust
Ġth ailand
Ġbe zieht
Ġfor ts
ab or
Ġal ph
Ġse g
Ġsp ect
art ig
Ġex cept
Ġall ah
Ġpl ays
Ġwar ning
Ġgesch rieben
Ġpar adox
Ġvie tnam
wor te
Ġeuro zone
Ġout put
Ġhos p
Ġunder t
Ġposs ibility
Ġsl ight
prior itÃ¤t
Ġvol ume
Ġverkauf en
Ġstock holm
Ġhon ourable
Ġinfring ements
Ġabst immen
Ġkomment ar
Ġstu dies
Ġcharac ters
Ġsus pend
dro gen
Ġcompon ents
rÃ¼st ung
frÃ¼h stÃ¼ck
9 00
c ity
Ġn ation
Ġin stead
Ġk ov
Ġk rist
ge hend
Ġein iges
id ad
am in
Ġsie ben
ff er
Ġdes k
ank a
up o
Ã¤r m
fra gestunde
Ġfr iday
20 20
Ġmain ly
Ġprot est
Ġpass ed
att form
Ġput in
Ġarbeits losigkeit
mod ell
Ġocc asion
Ġshop s
ĠverstÃ¤nd nis
Ġheav y
Ġext ent
Ġtenn is
b ach
n ic
r ub
z te
Ġun fair
ig ible
Ġz un
Ġj ungen
ier end
Ġer greifen
Ġwe ist
Ġzu erst
wir ken
Ġas ien
Ġfin nland
Ġpl ants
Ġdem ands
Ã¶r d
Ġ7 8
anz ahl
Ġmark en
Ġenerg ien
forder ung
Ġrest riktive
Ġfal sche
Ġarch iv
Ġtats ache
Ġschrift lichen
Ġmic ro
Ġobvious ly
Ġbetr ug
Ġunge fÃ¤hr
mob ile
535 93
g at
h Ã¤r
Ġt y
Ġf urn
Ġg un
gen ieÃŁen
ein fach
Ġaus ges
Ġch i
Ġho yer
if s
Ġqu ote
Ġqu oten
man chmal
Ġgr ant
comm ent
stat t
Ġfinanz ierungs
Ġdid nt
Ġrom p
Ġsaf egu
quir y
ruf e
Ġdom estic
eben e
kel sen
prom oting
Ġencour age
Ã¶ffentlich er
glÃ¼ck wÃ¼n
bek istan
Ġrefuge es
afr ica
2 10
a e
d iffer
h us
m ach
s em
Ġ ul
Ġa h
Ġd in
Ġd ed
Ġd ick
Ġl ager
im o
der ung
Ġi o
Ġex em
aus o
pl us
co hol
Ġra y
Ġ9 00
Ã¤nd ler
Ġland wir
Ġsc ale
40 7
gel assen
bal d
bei hilfen
ko dex
Ġkom bin
Ġeng land
Ġless on
sto od
over all
ĠauÃŁer halb
Ġlux ury
Ġdepart ure
Ġbern ard
bÃ¼ ro
Ġew r
Ġimmobil ien
journ ment
Ġsorg f
f red
it ar
Ġb iss
Ã¤ nen
ra in
Ġth or
ou minister
ut to
ein leitung
Ġge fordert
Ã¼ber wachung
Ġcan ada
Ġro ot
Ġro dr
Ġgr Ã¶
Ġherr scht
mar ie
Ġvers ucht
work ing
Ġamend ed
gemein schafts
Ġsur v
Ġsan chez
Ġsto ffe
Ġbal anced
Ġju an
Ġconst it
Ġhard ly
li ber
Ġscho ols
Ġindivid u
Ġdam als
alen der
Ġmount ains
Ġfreund lich
Ġgeorgie vas
Ġresol ved
hab it
Ġcaus es
brit ann
tab elle
Ġconven ient
buÃŁ en
Ġcomprehens ive
g Ã¤
j ak
r ick
Ġ iron
Ġs ms
Ġs atz
Ġc amer
Ġg aza
Ġv it
om er
form er
ĠÃ¼ber wachung
wer be
gra d
fra uen
Ġfol ge
Ġze ich
Ġbr asilien
Ġfl Ã¤
11 5
Ġgew onnen
Ġparliament s
Ġsign s
eld et
fo x
Ġfahr t
Ġschwer punkt
Ġbuch ung
Ġsouth ern
Ġmoder ne
ĠvollstÃ¤nd igen
ĠprÃ¤ z
Ġurg ently
Ġaussch uÃŁ
Ġlik ed
lÃ¤nd ische
ĠmÃ¼n chen
Ġoce an
o thers
p ower
r un
on te
Ġn iger
us er
Ã¤ uÃŁ
Ġbe zeichnung
id em
Ġr Ã¼
Ġwe ar
Ġsch mer
Ġch ile
lie fer
Ġgen der
Ġmin eral
Ġcl ancy
Ġemp fohlen
Ġfar b
ĠâĤ¬ .
Ġchar ges
sa id
Ġhealth y
iod ivers
Ġsav ed
opou los
Ġfant astic
Ġjeweil s
Ġbein haltet
Ġdut ies
Ġweap ons
begrÃ¼ÃŁ ung
b em
c entral
f acts
m ing
Ġt i
Ġs inc
re ifen
Ġg essler
Ġun mittel
Ġl unch
Ġfor th
Ġver sehen
ier ra
sp h
Ġzu ges
ad journment
se veral
ive au
Ġen forcement
Ġman aged
gar ant
Ġsub mit
ĠfÃ¼ llen
Ġfund ed
75 2
Ġspeak ers
Ġja ime
Ġdownload s
techn ologie
Ġgovern ments
Ġausge zeichnet
Ġausge wogen
ĠgrÃ¼n buch
Ġinteress iert
mitglied staat
Ġwirtschafts raum
ĠfÃ¼hr ung
voll stÃ¤nd
Ġgarant ie
Ġbalkan staaten
institution al
Ġfrem den
Ġanp assung
Ġsund ay
r aten
ch air
is c
Ġw ol
Ġp ia
Ġin g
om inister
Ġan er
Ġl en
Ġl ord
Ġein fÃ¼hrung
Ġand reas
ber ger
Ġj ord
Ġer inn
Ġer leb
ri f
Ġsch wÃ¤
Ġsch auen
ub b
ĠÃ¼ber setz
iv a
ang es
Ġum st
io v
cl ass
Ġbes ucht
Ġdis aster
Ġsee ing
Ġinter view
Ġsol ches
iger ung
Ġact ual
Ġwen igen
ser bien
Ġdist r
Ġbon n
ĠverÃ¤nder ung
ĠglÃ¼ck wunsch
Ġoppos ed
Ġsitz ungen
Ġexpl or
Ġremo ved
einzel heiten
Ġpid la
d au
k ov
m utzung
n i
Ġa de
Ġa fra
Ġw ire
Ġc openhagen
Ġn ap
Ġz weiter
Ġbe glÃ¼ckwÃ¼n
Ġver urs
Ġer a
all i
Ġsch lagen
Ġsp ons
Ġle gt
ĠÃ¼ber setzung
Ġall ows
Ġus w
af e
iz ing
to gether
Ġbr enn
Ġvers uch
pres ent
fÃ¤ llen
gesch rieben
ĠnÃ¤ch stes
Ġpark platz
Ã¶l le
Ġkap itel
Ġuntersch iede
Ġarri ve
gro ÃŁ
Ġeinw anderung
Ġverabsch ied
Ġcritic ism
cycl ing
Ġafra id
9 18
e wsa
m aterial
v p
Ġh tel
Ġst im
ab et
Ġ1 30
ber ichte
ac le
ver lÃ¤ss
Ġge he
qu ite
Ġdes erve
iel l
Ġreg ierungen
Ġli ability
Ġpress estelle
ile mma
Ġges pe
Ġcar los
sol idar
comp osition
emp loy
Ġeinge fÃ¼hrt
Ġlab elling
Ġbeispiel sweise
Ġturn ed
Ġpop ul
zimmer beschreibung
direct or
ĠÃ¼berprÃ¼ fen
eff izienz
Ġleist ungs
Ġaktual isiert
beteil igung
Ġanstreng ungen
g g
l ik
p ie
Ġw inner
al te
Ġn Ã¼tz
Ġin come
Ġv ary
Ġk az
Ġun fortunately
gen s
ber ichterstatter
Ġ( %)
Ġj ak
Ġne ither
Ġcon clude
Ġthat s
ger ne
cil iation
Ġcomm ittees
Ġra in
fr ank
Ġpre d
Ġprogram s
Ġem pty
Ġger Ã¤t
Ġind ones
Ġtr ump
Ġrel i
ins besondere
Ġperson ally
Ġfinanz mittel
Ġsur prise
Ġged anken
Ġverp ack
ĠpersÃ¶n liche
Ġhervor heben
Ġnetz werk
Ġdiskut iert
Ġwet ter
Ġhan sen
Ġgirl s
Ġconv inc
zed onien
ethe less
Ġromp uy
r s
Ġa pol
Ġt sch
is k
is ia
Ġw ont
Ġf i
Ġb ah
Ġp akete
Ġv ed
Ġan lass
Ġk laus
ing u
im port
Ġre vision
ot a
urop a
Ġer h
Ġcon dem
Ġch ris
Ġso hn
Ġ4 379
Ġcomp atible
co hesion
Ġzum indest
Ġstr ict
Ġkon text
ater ini
Ġevery body
Ġreal istic
Ġau ge
Ġaccess ible
Ġgem Ã¼t
Ġwa ite
Ġwahr scheinlich
dis c
Ġef ovi
ĠtÃ¤t igkeit
Ġswit ch
Ġcompl icated
tar get
utt le
Ġgrunds Ã¤tze
Ġremo ve
lio the
Ġverme iden
g ab
g ree
u ters
Ġf ashion
as ed
Ġin spect
Ġv oc
Ġun mÃ¶glich
Ġver standen
Ġmit t
Ã¼ber blick
esch rÃ¤n
ungs bereich
Ġad apt
Ġfra g
no body
Ġmar ine
Ġbo el
Ġgu y
Ġthem es
Ġac ts
hÃ¶r t
ko ordin
Ġdiffer ences
Ġtele communications
Ġbegr Ã¼ndet
Ġeinge gangen
dr ic
Ġbem er
Ġinstall ieren
stra fe
Ġconn ected
Ġinform iert
kre is
kÃ¶n n
fun k
hor izont
Ġcla ims
Ġappropri ations
Ġhu bert
integr ation
sect ion
Ġinsp ir
Ġchann el
r and
Ġs r
ie fert
Ġc ents
as en
Ġein stellung
Ġst able
ies o
ul ich
Ġge halten
Ġle hren
ĠÃ¼ber nommen
per i
minister ium
ma xim
Ġclos er
enz o
Ġwieder holen
Ġsozial ausschuss
Ġprov ider
ser bia
Ġtechnolog ien
Ġson nen
Ġtri al
Ġimpro ving
Ġsil va
Ġlearn ed
Ġverbraucher schutz
Ġful fil
kr ank
Ġherz lichen
Ġoppos ition
Ġentsch uld
spiel raum
statist ics
vii ic
clos e
ĠbestÃ¤t igen
Ġalex ander
cos ur
Ġapost ola
aik aterini
f akt
o ft
p es
s how
v ille
en cia
ch ischen
Ġf alle
Ġp flanzen
te ch
om et
Ġbe zeichnet
Ġ( *)
de z
Ġer ik
Ġer Ã¶rter
Ġde fe
op ol
Ġden noch
se x
ack s
Ġunter nommen
Ġher bst
fÃ¼ gen
fÃ¼ llen
Ġ8 6
Ġ8 81
Ġges tern
Ġinter face
Ã¶ff nen
Ġrel ation
Ġbl ind
25 0
az itÃ¤t
Ġdr ug
duc ing
!! !!
Ġamer ika
Ġbuild ings
Ġgas peri
Ġol der
Ġregul atory
Ġunderstand ing
Ġenjoy ed
sim ply
Ġrei hen
Ġberuf s
fun ktion
Ġintro duced
Ġstaat liche
schul d
Ġinsel n
Ġimmedi ate
Ġkategor ien
ĠausfÃ¼hr ungen
edu led
Ġcatalog ue
Ġsatur day
4 379
6 89
b org
d ist
h ad
k au
k rat
o ck
Ġa er
es p
Ġd up
Ġw c
le vel
Ġan b
Ġan forderungen
Ã¤ gen
im b
ein es
press edienst
Ġent stehen
tern oon
Ġli qu
Ġlo y
Ġber aten
co unter
Ġdis app
net ze
inn ing
ob viously
va ert
Ġwirtschaft lichen
Ġlat ter
Ġextre me
Ġfrei will
Ġdeal ing
Ġexist iert
Ġdest ination
Ġgenehm igung
Ġjoin ed
sb uffet
Ġveranst altungen
terror ism
atlant ic
Ġalc ide
zure ich
j Ã¶r
w ere
Ġ {
Ġa hern
Ġn h
Ġo w
Ġo ught
Ġk openhagen
Ġl ied
em en
id den
Ã¼r gen
00 01
Ġy e
Ġal ger
Ġde als
Ġcon vergence
ck et
Ġhab it
Ġgen et
Ġmar ina
Ġant ar
Ġzeit plan
Ġcour age
Ġdirect ory
ilt on
Ġide ale
Ġbre it
Ġnet ze
Ġris ik
Ġletz ter
komm e
Ġconsider ation
Ġdienst leistungs
pos ted
Ġarg uments
Ġbuch st
fert igt
Ġsus p
Ġschwar z
Ġparte ien
Ġveget ables
Ġhes itate
Ġmond ay
Ġmultip le
Ġdeserv es
c ross
k k
n c
r ank
s orge
on ed
re m
Ġp ac
Ġc rist
ent ina
Ġto ile
st op
Ġein wohner
Ġi acov
Ġse as
Ġab hÃ¤ng
ien te
men s
ĠÃ¼ber w
Ġste igen
pr int
mar gin
Ġger icht
Ġkl asse
wed er
Ġtr ied
enden ce
Ġevery where
16 0
16 1
weis ungen
information s
fre ie
Ġfunktion en
Ġenter ed
Ġweek end
Ġbetra chten
Ġaccording ly
Ġverk Ã¼ndet
wissen schaft
Ġmun ich
Ġjugoslaw ien
frieden sprozess
ĠanhÃ¶r ung
g or
j ord
k ka
m ern
it ts
Ġw issens
as i
Ġk ids
Ġl av
Ġbe auty
Ã¼r ich
Ġal mun
sch irm
Ġer m
Ġer leich
Ġab sicht
ers ter
Ġen em
Ġlo vely
Ġwar n
act ions
Ġsa ison
ĠprÃ¤sident schaft
12 0
Ġkon figur
Ġleg islat
Ġposs ibilities
Ġfinanz iert
Ġest onia
fre edom
Ġcare ful
ĠerwÃ¤ hnen
Ġdiv oire
Ġsett lement
Ġforder t
beschl Ã¼sse
eco fin
Ġmall orca
Ġverlang t
f assen
w omen
Ġa th
Ġt ast
re fer
Ġf euer
Ġp le
Ġp ic
Ġc laus
Ġk amen
ge ist
Ġver sp
Ġpro hib
tel lect
Ã¼ber trag
Ġen quiries
Ġhe t
Ġhe at
Ġar zneimittel
Ġma re
du ce
Ġgo vaert
con f
Ġpre jud
Ġla ut
11 7
Ġmon te
Ġgeb Ã¼hren
ĠÃ¤ gypten
Ġson ne
Ġjeden falls
Ġhy g
Ġhil fs
Ġanmer kung
Ġprakt isch
Ġleader ship
contin uation
sprÃ¼ che
instr ument
Ġmasch inen
Ġeigent um
zusÃ¤tz liche
Ġlod ge
Ġpremier minister
Ġerhol ung
meas ures
Ġhyper link
j n
l f
m uss
y an
en h
in fo
Ġa x
Ġw i
Ġf ang
Ġb ritt
Ġn uk
Ġv il
Ġv ig
Ġl ithuania
st Ã¤d
Ġbe ziehen
Ġfor men
Ġver trie
Ġpro of
Ġi z
Ġon going
Ġr ul
das selbe
Ġ3 50
Ġreg ards
Ġpart ition
ges ell
Ġprodu kten
ĠÃ¤nder t
Ġtechn ischen
Ġfran cis
Ġsicherheit spolitik
jed en
amb od
Ġmag ic
Ġwirtschafts politik
flicht ung
Ġverkauf t
Ġerk ennt
Ġic on
ĠvizeprÃ¤sident in
king dom
Ġbru xelles
Ġbetr ugs
clear ly
Ġpenalt y
werts teuer
Ġkommunal vertreter
Ġalmun ia
c b
g ue
g ute
en kt
Ġw achsen
Ġb ik
Ġn ero
Ġto ll
ou ch
we iÃŁ
Ġver ord
ec kt
Ġde alt
Ġcon ver
ad ministr
ud i
Ġber u
ho st
fr ied
fr dric
Ġav ail
Ġsee le
pr ice
Ġmuss te
son sten
Ġvis ible
vis ed
Ġgrund rechte
Ġproduc ers
program ms
Ġkle ines
Ġanswer ed
Ġexper ts
Ġcompet itive
aktion en
Ġpower ful
Ġmac edonia
Ġfort gesetzt
Ġhistor ical
date ien
indust ry
Ġcla im
Ġdrink s
Ġkonzentr ieren
sor ry
ladim ir
Ġdistr ict
8 10
b ig
c u
Ġs tern
Ġb ri
Ġh ill
ur ban
Ġk abel
ic ing
ra pporteur
Ġre is
id as
gen et
sch lagen
Ġaus land
tra ining
Ġbet a
Ġfr ist
Ġmy th
Ġaf ternoon
reg ulation
uff s
Ġpriv aten
Ġpal ma
Ġstre it
Ġsil ver
Ġarch itect
Ġentsch lossen
Ġkonst ru
Ġkorre kt
Ġwom an
Ġwolf gang
ĠvÃ¶l ker
b ul
j ens
k laus
p ierre
w alter
er eding
Ġt immer
Ġd ans
Ġm Ã¼s
Ġb iz
Ġh d
Ġo ett
the t
ess or
Ġsch ed
Ġex isten
Ġdis abled
Ġhin weisen
Ġverb ot
Ġprocess ing
Ġfun ctions
Ġlook ed
Ġeinfach er
bet ten
Ġed it
Ġrom ant
schluss folgerungen
Ġinform ieren
Ġsav ings
ĠÃ¤hn lich
Ġbef assen
beisp iel
Ġkrank heiten
Ġgestr igen
Ġeleg ant
britann ien
ereding eu
Ġtimmer mans
Ġoett inger
d ou
e va
h s
n ationale
o ct
u ay
u tern
er fahren
Ġw ander
Ġb reat
us ch
Ġbe kann
ge orge
Ġein zu
Ġfor ces
am ount
Ġr ig
Ġauf nehmen
me ier
Ġma zedonien
zu ela
con sequently
glich en
Ġjo y
Ġ18 0
Ġsom alia
gem Ã¤ÃŁ
Ġinc or
86 5
Ġorder s
fre ier
ald s
ĠweiÃŁ buch
ĠheiÃŁ en
Ġfeel ing
aid s
Ġersch einen
Ġtut orial
Ġmang o
kat astrop
Ġlay er
Ġurspr Ã¼n
Ġalloc ation
selbst verstÃ¤ndlich
saf ety
krie g
sup er
Ġverpflich tet
tats Ã¤chlich
Ġerwart ungen
Ġhosp ital
2 15
5 75
e ps
r ural
v io
ch ant
Ġk ra
th ink
Ġer mut
Ġne utral
Ġha iti
if ies
Ġher gestellt
ens ation
hl ten
Ġ6 9
wo j
geb Ã¼hren
Ġget rÃ¤n
Ġgra du
Ġpolit ischer
mittel t
Ġhol ding
dom in
comp any
Ġlar ger
Ġafr ican
dok ument
Ġtats achen
Ġattra ctive
Ġmik kelsen
Ġannoun ced
Ġcirc umst
exam ples
gran at
7 00
t ier
Ġt win
es th
re ide
ie gen
Ġp ere
Ġan reg
il o
el la
Ġk ron
Ġj ury
Ġer teilt
sp ielen
ag s
rÃ¤ cht
32 2
ger Ã¤te
au thor
Ġwar s
to o
ieren den
Ġsy mp
Ġhand lungs
Ġviel es
Ġrech ten
Ġbro ek
ĠÃ¶ffentlich er
dar f
ull ing
Ġinnov ations
Ġdesign s
Ġmer ely
Ġdri ver
compet itiveness
Ġtem pl
Ġumge hend
lebens mittel
Ġsonn tag
Ġattach ed
Ġkolleg innen
Ġbesitz t
c are
g ir
l ic
s ink
Ġa ponte
an dern
Ġn g
Ġan meldung
Ġl Ã¤ng
ic ians
ein heit
Ġr id
Ġer fre
be ek
ct ic
iv itÃ¤t
up s
etz ungen
Ġapp le
ho tels
Ġmar co
wor in
Ġbed auer
Ġsol bes
Ġindust ries
Ġvisit ing
Ġmot to
Ġbeit ragen
bild ungs
Ġrespons ibilities
Ġimpro vements
bil anz
Ġcy cl
human itÃ¤re
Ġaust ausch
Ġehr lich
prop os
ĠverstÃ¤r kt
Ġgrundlegen de
Ġgesp ielt
Ġbegrenz t
empfehl ung
vivian eredingeu
kategor ie
strengthen ing
c ultural
d y
i form
k ir
m ien
r ast
Ġs ab
Ġm iÃŁ
ie v
le un
Ġg vo
Ġi wf
sch iff
sp olit
Ġge fahren
Ġge zeigt
das s
aus wirkungen
Ġpol y
fer enzen
pro ject
Ġout look
Ġ14 0
Ġadv anced
Ġflo ors
Ġiv an
komm un
Ġprom ise
ival ent
Ġcreat ing
Ġcongratul ations
Ġaugen blick
Ġkan ada
Ġtex ts
sozial e
Ġexplain ed
Ġkir che
Ġamaz ing
Ġverbesser ungen
Ġbarr iers
Ġsupplement ary
Ġrenew able
Ġthres hold
b ah
v d
v ere
Ġa par
Ġs ik
as is
Ġg ang
Ġn ett
ent ions
Ġan c
Ġbe ige
ge f
Ġver hand
se ien
la via
Ġpl Ã¤ne
Ġad am
av an
br ief
og ne
stimm erklÃ¤rungen
Ġlie ber
wÃ¤ sche
Ġcar bon
fÃ¼hr ungen
oc ate
amen te
Ġwort laut
ruct uring
gemein schaft
ser ver
Ġhar m
Ġstud ien
Ġentscheid end
Ġung laub
Ġsing ap
sto ÃŁ
Ġinstall iert
Ġcal endar
Ġgeorg ia
Ġreturn ed
amend ment
bestimm ungen
Ġmitt ler
a ÃŁt
g b
l v
w he
ch ung
ch tet
Ġt ree
Ġd ial
Ġd ilemma
Ġb ou
Ġp ul
al i
Ġg ordon
Ġo u
Ġl Ã¤ch
Ġz it
Ġein kauf
res den
ac o
sch Ã¶n
Ġon to
Ġr ichten
ach ing
Ġge boten
Ġsch wed
Ġsch loss
Ġes per
Ġfre itag
ret ung
Ġpr ison
nah m
Ġem eta
Ġbed rooms
Ġel tern
inc reas
pe z
Ġkosten frei
uk an
esc u
partner schaft
ĠfrÃ¼h jahr
hil f
link s
Ġtradition al
ĠgefÃ¤hr lich
resp ond
nehm bar
klus ive
Ġphys ical
Ġdisp ute
ipfeltre ffen
c ow
n it
p cd
r in
y iz
Ġt esten
Ġd iss
Ġf elt
Ġp it
as ien
Ġr ide
est a
und i
Ġcon go
inis t
Ġwill ing
Ġent decken
av iation
Ġmo ther
pl ac
Ġger ichts
Ġproblem at
Ġmach ines
Ġunder stood
Ġbut t
Ġoper a
Ġaut os
Ġpack aging
ĠzurÃ¼ck ge
Ġglobal en
Ã¤ÃŁ t
Ġhaupt stadt
ĠauÃŁen handel
Ġsure ly
mm ern
Ġgerichtshof es
Ġbeteil igt
eben so
sens us
Ġgn u
chang es
exc ellent
cec ilia
Ġschlaf zimmer
Ġdivers ity
Ġdiskrimin ierung
spart ner
Ġgespe ichert
pcd d
c itizen
at i
Ġc ens
Ġk ale
Ġl uf
im ated
Ġbe kÃ¤mp
Ġst ich
os sen
Ġim mun
Ġma us
aus bildung
Ġproble men
com b
ven ue
Ġfl ow
11 1
Ġmor occo
Ġbl u
Ġbild et
Ġfil led
ih nach
Ġdiscuss ing
sec retary
finanz ielle
Ġreserv ations
euro barometer
Ġdri vers
Ġident ified
Ġnutz er
ĠfrÃ¼hstÃ¼ck sbuffet
Ġkre is
Ġmel den
Ġgi ul
Ġregistr ieren
Ġmun icip
Ġterrit orial
Ġdipl omat
ĠprioritÃ¤ts achsen
Ġtib et
swit zerland
f ire
r c
er d
ch a
re a
Ġm ary
Ġf aster
Ġc v
ro u
Ġn ut
Ġun zureich
Ġein richtung
ber lin
Ġver ified
sch Ã¶
all ing
ant rÃ¤ge
Ġsp ent
Ġle iter
Ġch ic
ers atz
up ea
Ġsh ape
rÃ¤ ft
Ġqu elle
Ġlo i
Ġlo an
av o
Ġber Ã¼h
Ġcomm end
Ġmar okko
igh ten
Ġkon vergenz
unt ary
Ġorgan ization
Ġprof il
Ġchrist mas
Ġkind s
Ġfranz Ã¶sisch
Ġshar es
Ġcru z
Ġmol dau
Ġaktu ell
Ġpassen gers
Ġschrift lich
waren ess
hÃ¤s ions
Ġvere hr
schwe iz
ĠgefÃ¶rder t
Ġgenu ine
Ġdescri bed
a ue
b art
g row
j us
t ow
t ick
v sk
w icht
in den
Ġt s
Ġm aps
th otel
Ġver st
Ġj ames
ag ree
Ġab schnitt
Ġab onn
Ġle aves
Ġhe in
ang t
Ġent rance
iz on
act ory
12 5
Ġcons erv
Ġhel ps
Ġvis ited
45 0
Ġur ge
Ġteil weise
reg ul
Ġ27 34
Ġgener ally
gu y
Ġerst re
Ġcorre cted
ĠverÃ¤nder n
deb atte
sim pl
Ġill usion
may be
Ġbezahl t
rÃ¼ ckt
Ġpassen ger
resp ons
Ġtex te
Ġtraff icking
Ġschwar zen
Ġinformations gesellschaft
Ġatmosph Ã¤re
fig ures
hemal ige
tellect ual
a ust
s is
s ki
z entr
Ġt rat
te q
Ġan nehmen
Ġk ub
Ġz Ã¼rich
res taur
am o
ten ance
Ġj el
Ġi ia
ver kauf
Ġon dre
ul ted
Ġsch icken
Ġdes ired
ib cd
sen se
Ġho uses
cl upea
tell vertreter
Ġapp ointed
Ġste fan
Ġob ama
wÃ¤r ts
Ġenerg ies
org ungs
Ġsupport ing
Ġser bien
Ġsome what
Ġbas iert
ka iser
Ġdou b
Ġtalk o
Ġconsider able
Ġhim self
bil der
sm ann
Ġtable d
Ġwider spruch
Ġmaxim al
Ġsens ible
Ġsens itive
Ġcir cle
Ġsubst ant
Ġrecord s
Ġfire fox
institution elle
Ġrecogn ition
Ġrelativ ely
Ġhen ri
Ġgratul iere
Ġthous and
Ġinterpret ation
Ġtack le
Ġbout ique
woj tek
yiz hou
Ġondre j
k Ã¼nd
m acht
t ige
u able
} :
er leben
Ġa vec
Ġd ance
is ine
un ruh
he inz
ie ben
Ġh Ã¼
Ã¤ ten
Ġl pez
Ġre yn
isch em
Ġcon sensus
ste chn
aus wahl
Ġrat ing
kont rollen
ry an
Ġges tellte
Ġbr idge
anz ar
nis hed
Ġko operations
Ġprocess es
40 4
Ġvis its
leg ungen
Ġ16 0
Ġgreat est
clud ed
ĠnÃ¤ch te
Ġhar eng
Ġconf ident
Ġdefin iert
Ġmass nahmen
Ġaktiv iert
ĠĠĠĠĠĠĠĠ Ġ
Ġhaushalts plan
Ġhervor ragen
mitt lungs
Ġentscheiden de
ĠschÃ¶ nen
Ġobserv ed
Ġberat ungen
Ġoblig ations
Ġproper ly
Ġgratul ieren
ĠausgewÃ¤ hlt
kÃ¼nft ige
ĠkÃ¼nst ler
wat ch
d p
h aber
m ixed
u he
u um
z entral
Ġa y
Ġf ib
ie k
Ġe ight
Ġv ita
ir gend
Ġein druck
ber at
sch war
Ġer b
Ġvor sitzender
01 0
Ġman chmal
Ġgr ie
Ġgr ande
Ġgen auso
con gratul
Ġsol id
Ġlie ben
Ġob jects
wed ish
Ġend s
iven Ã¶l
Ġlink ed
Ġinc red
Ġpat ch
Ġatt itude
Ġfahr zeug
schafts politik
Ġregel mÃ¤ÃŁig
Ġhard ware
Ġarg umente
mein es
fel der
Ġta iwan
ĠÃ¶ k
Ġexpect ations
mil ch
Ġsem ester
Ġkn app
Ġleist ungen
Ġster ne
Ġchanc en
Ġkatastrop hen
Ġheim at
know n
Ġimpl ications
moder nis
febru ar
Ġforgot ten
Ġgree k
Ġcircumst ances
9 06
a qu
b ant
f as
f ine
g Ã¼n
l uc
p op
s at
u ro
v n
x y
is ierte
Ġs ul
un es
it ze
Ġm ah
Ġb ell
Ġc ord
Ġh ang
Ġk amera
ra il
ra ums
th es
am ong
ab sol
Ġal cohol
ac les
Ġpro ved
Ġr um
ind ia
Ġim f
Ġab zu
Ġha ar
Ġco d
ĠÃ¼ber sicht
Ġte uer
Ġpol ish
og el
10 6
Ġbeen den
ma de
ish ment
Ġstr onger
Ġind em
Ġfl ights
Ġschl imm
stell ungs
Ġsc andal
Ġcol ors
gl icht
Ġinvest ition
dem ark
Ġzusammen fassung
Ġsim on
sh are
Ġtechn ik
Ġblo od
Ġapart ament
lad ung
Ġneu igkeiten
Ġrefer endum
durch fÃ¼hrung
produ ktion
Ġjugend her
Ġlad y
Ġut c
ĠlÃ¶ schen
Ġbeteil igten
Ġka ffee
Ġquot a
ĠgrÃ¼ nen
Ġvorliegen den
ĠgesprÃ¤ che
Ġhund red
pla ice
o gen
in stead
is ted
Ġm eld
Ġe en
as ing
Ġre gen
Ġre action
Ġz ero
ay a
sp ar
Ġge be
Ġaus schlieÃŁlich
se urop
wir kung
Ġwer ner
ĠÃ¼ber trag
Ġent ertain
Ġor te
Ġgr enze
Ġmo use
what s
Ġdis appoint
Ġdec lar
Ġph arm
Ġben chmark
geb Ã¤ude
Ġzahl ung
Ġmil es
Ġeing ere
Ġhar bour
zusammen fassung
lÃ¤ uf
sc ape
Ġmult i
cle an
Ġve ter
Ġbeant ra
Ġscre ens
Ġdead lines
mart in
alban ien
Ġanony mous
Ġerweit ert
664 30
congratul ations
f it
p as
r ations
in ations
Ġa ar
an sonsten
Ġf oster
Ġb ung
al ing
Ġh ugh
Ġin cl
Ġl anka
st ay
Ġz y
Ġz ielen
Ġst one
Ġst ructures
ein amerika
ind ones
Ġde te
Ġdas selbe
la ughter
ze ige
Ġent lastung
pro duc
hintergrund information
Ġmar a
Ġbo he
Ġze ile
Ġsee k
Ġbere cht
Ġob tain
Ġmill an
Ġser bia
Ġconc ert
Ġchar akter
spe aking
Ġoper ate
plan ung
ili pp
Ġsur f
Ġtre ated
techn ik
ĠgewÃ¤ hrt
Ġpolitik bereiche
gangen en
akte ure
bahn hof
Ġassoci ated
national er
statist ik
mt liche
Ġnic ola
Ġentsprechen den
Ġkong o
Ġhinge wiesen
ĠgefÃ¼ hl
Ġapplic able
Ġfamili ar
Ġapol og
Ġow ner
sink i
anzar ote
f Ã¤nger
k ol
Ġ Ã¤lter
en ne
Ġa kte
Ġm es
Ġh iv
Ã¼ hrt
ur er
Ġl ists
Ġbe unruh
Ġein setzen
id et
Ġer led
ind ustrial
ad us
ÃŁ te
Ġsch la
ĠÃ¼ber blick
Ġsh uttle
Ġjust ified
Ġfol der
Ġx ml
Ġac qu
bes uch
Ġgar age
zeich nete
Ġversion en
mÃ¶ glicht
Ġexc iting
Ġdownload ed
Ġschul en
ĠrÃ¼ck kehr
Ġlu is
94 107
Ġakzept abel
Ġslow akei
Ġforder ungen
term ine
Ġchem icals
ĠerhÃ¶ hen
Ġcert ific
Ġfakt or
Ġschaff t
alban ia
Ġcu isine
ĠgrundsÃ¤tz lich
Ġautob ahn
d ates
j k
y ard
re isen
Ġb ought
Ġc ache
Ġc ds
ro b
le z
Ġv ater
Ã¤ m
st uffs
et ch
Ġder artige
ge fÃ¼gt
be ob
Ġab gesch
ant as
Ġdo ors
Ġent nehmen
lo cal
Ġro berto
Ġreg ierungs
lie b
Ġtra demark
use hen
Ġsy rien
Ġhand le
ii ia
par is
Ġcol ours
Ġpropos ing
Ġsel ber
Ġstrateg ies
Ġfran s
Ġaut umn
ott i
Ġcap t
Ġgleich zeitig
Ġmil an
Ġschw ach
Ġtur k
Ġempfe hle
87 6
reform en
57 484
Ġost see
aud rey
Ġclar ification
proble me
Ġstruktur fonds
Ġtal ks
Ġprim ary
Ġfand en
Ġmedic ine
Ġeffe kt
Ġparad ise
norweg ian
Ġyugos lavia
Ġparalle l
Ġhimm el
Ġcondem n
wicht ige
Ġbung al
a ub
e per
h ot
z ia
Ġd al
Ġp ays
ar ische
Ġv ivian
ur b
Ġan lagen
Ġan zeigen
ig el
Ġl or
Ġl ud
em ar
Ġver hindern
ac on
ec ken
sch olle
Ġwe ihnach
be ing
Ġab gerufen
ite te
Ġvor n
Ġunter zeichnet
Ġper mitted
ord entlich
Ġspe icher
stat us
Ġmod ul
lieÃŁ en
Ġcent res
prÃ¤sident en
Ġakt ien
Ġaut onom
zahl ung
Ġport o
Ġest land
dec ke
Ġbra bant
Ġaug ier
Ġbon ino
Ġnear by
Ġconclud ed
ĠkÃ¼ mmern
Ġfern er
wÃ¼r dig
Ġinstitution al
Ġrub ber
Ġforder ung
Ġschem es
Ġobserv ations
ĠkÃ¼nft igen
mot or
meet ing
norweg ische
Ġnied rig
friend ly
Ġconfir med
c amp
d imit
f ile
i zen
k ong
o bst
r und
in ens
on ie
Ġb un
Ġb om
Ġb ier
te c
Ġg ale
Ġn y
Ġv ic
Ġis nt
Ġl Ã¤nge
th and
am as
Ġal ko
ein fÃ¼hrung
Ġne un
Ġzu letzt
Ġzu gelassen
Ġaus sicht
Ġch arta
men Ã¼
gr enze
Ġex ceed
Ġme ist
press erefer
ran ts
ack er
Ġher o
ud smann
Ġper u
fol io
Ġalle ine
Ġcl ip
Ġdire ktor
lin ed
Ġfl u
str asbourg
wirtschaft ung
Ġgeb ieten
Ġlink en
Ġlang er
Ġbre ite
Ġfil ms
Ġfact ory
Ġrequire ment
Ġvertreter in
ini que
Ġerst es
Ġunivers itÃ¤t
Ġspecific ally
gew Ã¶hn
auÃŁ er
Ġluft verkehrs
Ġwhe el
wettbewerbs fÃ¤higkeit
Ġconsult ing
add ress
Ġ43 98
statist iken
tac s
Ġmang el
flÃ¤ chen
Ġcommer ce
Ġlit auen
person al
terror ismus
Ġschm id
luft verkehr
Ġerr ors
spezif ische
Ġvitor ino
d raft
f al
p el
r up
u ck
w r
Ġs au
or f
re commend
Ġb Ã¤
Ġb ord
Ġp ier
Ġv s
Ġk ab
ol er
im al
Ġbe halten
ot ic
ac kt
uf el
Ġge g
Ġsch eduled
ag ung
Ġab ol
Ġden k
ne goti
Ġho her
Ġte a
Ġpol n
Ġfe iert
Ġu pper
Ġsupp osed
15 5
ustri an
Ġhol ds
lang uages
Ġown ers
Ġsur face
sa w
Ġret ail
Ġsto pped
Ġverl angen
tod ays
Ġged acht
Ġsubs cribe
Ġabkommen s
fa o
Ġang riff
Ġsam stag
Ġdv ds
Ġprag ue
bie ter
bezogen e
pap ier
Ġlegit im
Ġadvent ure
Ġkriminal itÃ¤t
iodivers ity
j ing
l us
o und
p gi
Ġ ore
in cluding
Ġt ipp
Ġm g
Ġm ine
Ġf ri
Ġb ien
Ġb auen
Ġp ig
Ġp asst
te en
Ġc lock
Ġo ecd
om a
Ġk art
Ġre ct
um b
ab end
Ġj am
ier er
Ġer geben
est abl
Ġzu verlÃ¤ss
Ġse ien
ag on
Ġauf nahme
Ġle er
Ġvor sichtig
Ġad ults
Ġber ichten
Ġapp artement
Ġfre unden
hl ung
Ġste ckt
10 5
Ġmach e
Ġsc ann
Ġgel ernt
Ġmor hu
Ġrepresent ation
Ġvo us
17 2
Ġtyp ical
Ġlea ders
lichkeit en
Ġhor se
Ġident ity
Ġstor ed
Ġverm ieten
Ġnam ed
instr umente
Ġchamp ions
Ġinfluen ce
Ġkonfl ikt
soft ware
Ġjahrhunder t
prakt ische
Ġvorbereit et
% -
b orn
d eck
p ia
er ver
en c
it is
or ter
Ġm im
Ġc ig
Ġc ach
Ġc able
Ġh j
Ġg ate
Ġk el
Ġl akes
Ġl Ã¤ÃŁt
ot te
Ġal pen
Ġer zÃ¤
qu ellen
ag as
Ġsp l
Ġdo gs
la k
Ġch apter
od es
ak a
Ġen c
ip olitik
Ġad ress
Ġro h
Ġmo v
Ġste igt
Ġcomp ris
Ġbet ten
nah er
Ġend ed
Ġvis ual
olog ien
sh ir
Ġbro ken
Ġwoll ten
Ġtele vision
mon itor
Ġmus ter
Ġtim etable
gleich zeitig
fÃ¤h ige
Ġdig itale
Ġclean ing
besonder s
Ġnear ly
mÃ¤ÃŁ igung
Ġgal erie
cent er
Ġjud icial
Ġcorrect ly
Ġkonz ert
meld ungen
Ġobserv ation
Ġauftrag s
Ġfakt oren
Ġcha os
sebast ien
habit ants
Ġhareng us
f Ã¶rder
g ion
n uclear
p ur
r iel
Ġa ck
it ter
Ġw em
Ġm ul
Ġm iet
Ġb Ã¶r
Ġp v
Ġv ib
Ġun anim
Ġbe z
and ro
ies s
Ã¼r en
ri ere
Ġco al
Ġsh ift
Ġher um
Ġlo hnt
Ġbet ragen
Ġra w
Ġstr asbourg
ex port
klÃ¤r ung
Ġlie fern
Ġfl uss
arbeit splan
Ġdel ighted
Ġsk andal
fÃ¤ llig
Ġcall ing
zur ufen
dr ing
ĠkÃ¶nn t
Ġverein ten
ĠbeschÃ¤ft igt
ĠerwÃ¤ hn
ĠerwÃ¤ gung
Ġinvol ves
Ġclub s
Ġ00 01
Ġnord see
Ġce o
Ġbelie bt
Ġofficial s
kap ital
Ġfly nn
Ġestablish ment
ĠwÃ¤hrungs union
bosn ia
umin ium
Ġlandwir te
Ġerinn ern
918 30
ĠnÃ¼tz lich
/ +
j et
p orts
r ier
s ix
t or
Ġt di
Ġs ig
Ġp fer
Ġn Ã¶rd
el ess
ic z
Ġto wer
et was
Ġein fluss
ies t
Ġpro ven
Ġaus geschlossen
Ġwill en
Ġle ts
Ġma j
are lli
wo her
Ġinter im
klÃ¤r t
ss icherheit
Ġget r
Ġschl ag
str asse
Ġend et
Ġrel ating
Ġbl ame
org os
Ġdat um
az z
wend et
bes te
dar lehen
verein fachung
nor men
Ġeing ang
Ġexper ten
jed och
Ġrespons es
Ġfac il
sto ffen
serv ices
mas ter
fang s
Ġsam ple
Ġguarante es
Ġbur ma
Ġexpress ed
Ġlauf enden
Ġcanc er
Ġengine ering
Ġfur nished
Ġbeob achten
asso ci
jahres bericht
grÃ¼n de
Ġschaff ung
Ġlind h
Ġoffiz ielle
Ġbind ing
Ġcontribut ions
Ġvorange gangenen
Ġsuspend ed
Ġbiss chen
f at
h art
m ik
n afo
v ist
es f
Ġw Ã¤chst
Ġf usion
le ad
le chter
Ġbe haup
Ġein stellungen
Ġver we
sch ule
ver g
Ġer z
Ġer gibt
sp ects
Ã¼ber prÃ¼fung
Ġsh ame
Ġro of
man che
Ġcomm od
Ġcomp uters
Ġsu it
Ġdis agree
tre at
Ġserv es
Ġkon vent
ater ale
Ġreal istisch
Ġrechts etzung
fo und
zwe ite
tele phone
Ġann ul
Ġdifficult ies
Ġmult ilateral
Ġol ive
Ġmand at
ech o
eff ect
park ing
ĠkÃ¼nft ige
Ġstad tz
546 29
ĠfÃ¤h igkeiten
ĠerÃ¶rter t
d ac
e ast
l ow
m ina
n ar
p endence
t u
w ing
Ġd resden
Ġs wo
it as
or se
re v
Ġb eseit
Ġp lain
ar ing
Ġc z
Ġun t
Ġun its
Ġl iv
et o
Ġder art
ere als
am ten
Ã¶ gern
Ġsie g
Ġer setzt
ate ver
Ġsch ande
Ġauf bau
Ġat om
gr en
ted ly
Ġcan aria
ahr en
Ġpres ence
fÃ¼ g
Ġpre ced
wor fen
Ġger Ã¤um
11 9
Ġprop ortion
Ġko operation
kehr t
wit t
Ġother wise
Ġval uable
Ġverein fachung
ij k
stellung nahme
Ġlat via
zus etzen
Ġmont ag
Ġkat zen
Ġinvol ve
Ġil leg
Ġdocument ation
Ġcreat es
Ġslo vakia
kle ine
Ġmex iko
Ġzul assen
Ġintens iv
anim al
fortsch reibung
eas y
Ġkatastrop he
Ġkredit karte
ĠjÃ¤hr lich
Ġdele te
Ġpanor ama
exper ience
Ġmagaz ine
Ġinstruct ions
Ġalko hol
5 18
: :
b ud
b uchen
d ress
f enster
i for
j av
k am
n amen
w u
z ert
Ġs izes
he ber
Ã¼ ste
Ġan wes
st ens
um ul
ere cht
ber uf
ver antwort
Ġde gree
Ġge gangen
ess a
ann ahme
Ġsch ick
Ġsch einen
se a
ne ues
Ġvor der
press ion
los er
Ġ4 50
Ġma ur
Ġfra ktionen
bs ter
Ġgr ass
fer ien
zu legen
was te
Ġnach frage
bar go
con c
bel ow
Ġwo hnen
Ġverb rechen
ans ion
Ġbl ut
Ġac adem
bere its
sh ort
Ġcor ruption
Ġbas el
Ġqual itÃ¤ts
Ġexam ine
Ġwen de
sa al
verb ot
Ġstre am
Ġarch ite
Ġlas er
Ġalt stadt
invest ment
Ġjud gment
ĠauÃŁer ordentlich
Ġdream s
sozial politik
ici ary
Ġbosn ien
Ġib iza
Ġkompliz iert
Ġjes us
Ġtodes strafe
comb ating
) -
. ).
7 80
d est
i u
j ose
m id
m Ã¼n
p iel
Ġ ie
re duction
Ġf uss
Ġp om
al et
Ġe zb
le on
Ġg mos
Ġin put
Ġo g
ent o
Ġan ts
Ġk andid
Ġbe weis
der ik
Ġ1 01
Ġr uÃŁ
ill es
sen minister
ist rÃ¤ger
mit tels
fÃ¼ llt
Ġra uch
Ġbo und
Ġsy ria
Ġpos itions
Ġger rit
Ġph are
Ġoff ices
wel le
Ġstell te
Ġzusammen halt
Ġtre mont
nor wegen
Ġgem Ã¤ÃŁ
Ġlet tland
Ġstimm abgabe
Ġeng ag
Ġinteress ante
Ġbil ateral
Ġconst ruct
Ġdra wn
agr ar
Ġfal se
Ġgeorg ien
Ġgeorg ios
Ġprodukt ions
Ġhinzu gefÃ¼gt
Ġvert rÃ¤ge
pay ment
Ġmis under
Ġhung er
Ġrem ind
Ġreag iert
Ġbeob ach
Ġbestand teil
Ġyester days
Ġfif th
ĠkÃ¤mp fen
Ġdus che
Ġcontra cts
Ġforts etzen
Ġfurn iture
Ġconvinc ed
Ġavail ability
+ ?
e val
Ġd ell
Ġw lan
Ġc ot
Ġh oll
Ġh alle
Ġg Ã¼lt
Ġl upo
Ġbe le
Ġbe kommt
Ġr ufen
ind fleisch
Ġco ins
ste p
co sta
fr isten
ret t
Ġmar in
you ll
glie dern
12 7
Ġend orse
elle d
Ġur mas
16 6
Ġsm ith
Ġfut ter
Ġgemeins amer
Ġmeet s
Ġglobal isation
verb indung
ziel le
Ġmag n
Ġinstall ations
Ġbesser en
zus atz
ira q
Ġzie ht
ĠschÃ¶n sten
pa ul
Ġderzeit ige
Ġfunction ing
Ġunterschied liche
Ġentscheiden der
Ġclar ify
Ġdead line
Ġster ben
Ġbla ir
Ġrestrict ions
beschl uss
Ġdut ch
Ġhilf reich
Ġue ber
Ġpix el
Ã¼berschre iten
Ġsafegu ard
liothe k
kaiser granat
Ġdeclar ations
Ġvivian e
a ard
f ab
i ja
k g
m ond
z ard
Ġ ub
Ġf ett
Ġv ip
om Ã¤ki
et ter
Ġre verse
Ġz ig
Ġbe wÃ¤lt
ge ht
Ġr on
Ġer nen
kt ar
Ġwir ks
ind ien
Ġne pal
Ġauf hÃ¶ren
Ġco her
Ġco ordin
Ġno k
Ġfin es
fra ud
Ġwhat s
Ġ29 2
app l
Ġlie b
Ġinst anz
Ġser vers
Ġgest alten
16 3
Ġsm oking
spe ech
ser ie
ĠzurÃ¼ck kommen
Ġtreat ies
Ġverein fach
atte gat
jan i
Ġneues ten
Ġschwier ige
bro chen
Ġrecord ed
Ã¼b ig
Ġhaup tz
Ġvari able
versch mutzung
Ġhers teller
Ġrelig ion
bosn ien
kamp f
Ġvul ner
Ġpoten zial
Ġentrepreneur ship
Ġded icated
Ġliqu id
j ana
p ite
p flanzen
w anderung
in tens
or aum
Ġc ult
Ġc av
Ġo le
ur mas
ir k
th rough
Ġbe ides
os a
Ġver grÃ¶ÃŁ
Ġpro ve
Ġge kenn
Ġse ats
Ġaus drÃ¼cklich
ik i
ĠÃ¼ber tragen
Ġpl ass
Ġro ss
ble iben
ink el
Ġbes itzen
Ġfe et
Ġ10 6
Ġfl as
Ġbis lang
rei ft
Ġx x
Ġgeb urt
Ġspec ified
Ġmain tained
Ġweb seiten
bl ack
bet r
Ġgeneral direktion
Ġkommen den
Ġconf ig
Ġoffen e
irt y
Ġtick er
Ġmol dova
Ġentsp annen
jÃ¤hr ige
har mon
Ġfle isch
Ġencour aging
Ġperfe kte
Ġcaf e
non etheless
Ġverz Ã¶ger
ĠbeschrÃ¤n kt
Ġbege ister
Ġgewinn t
Ġcott on
Ġkov cs
Ġbeantra gt
b log
e qu
e isen
t rat
Ġt ip
Ġs essions
it zer
Ġm ieten
Ġp s
ar tet
le ger
Ġg om
Ã¼ ler
Ġk ok
st ab
ul en
Ġwir kt
Ġse qu
Ġaus ger
so fern
if er
Ġhe mil
ste men
wer tung
ru he
Ġgr at
mer k
Ġpar ents
zu cker
Ġmr president
fe hler
Ġcl oud
ays ia
Ġzwe ier
Ġbar rot
Ġgegen wÃ¤rtig
stell vertreter
Ġgel esen
Ġgeb aut
Ġur sachen
Ġair craft
min uten
kon zept
Ġwes ten
icher ungs
Ġpap andre
Ġeinge b
Ġdist in
Ġtechnolog ical
Ġaddress es
Ġreserv ierung
Ġfa ith
Ġsil ent
stra ÃŁburg
Ġkomp at
Ġmac ro
Ġperiod s
Ġdest o
Ġmut ual
Ġsem inar
Ġcreat ure
Ġmechan isms
Ġlic ens
ĠkÃ¼r z
Ġkil led
kor b
ĠstÃ¤d t
Ġstein meier
Ġgeehr ter
versch ieden
Ġtemp orary
Ġrenov ated
Ġfro h
Ġstamm t
Ġtreas ury
Ġslight ly
) )
3 10
b indung
e qual
k et
l imin
m und
is men
Ġh ik
Ã¼ re
Ġun ann
Ġbe ings
Ġst ufe
Ġver zeichnis
Ġj enn
Ġr an
Ġr uf
ill ance
ess e
ann y
Ġab reise
se ktors
Ġle gend
Ġch amb
Ġvor stellen
Ġhe de
Ġent it
act iv
Ġnach mittag
Ġsein es
Ġmar ie
ph ase
Ġmark s
Ġhin blick
Ġx i
gel aden
Ġred akteure
vis uelle
Ġbro ch
bet rieb
Ġinc ent
Ġeing el
Ġklar en
Ġregional en
dire kt
Ġbook ed
Ġbeach es
Ġlog ic
Ġregel ungen
Ġverp flichtung
Ġkostenlos e
ĠstÃ¤r ke
aud it
Ġkamp agne
Ġmasch ine
Ġbade zimmer
demokrat ische
Ġkulture lle
Ġpsy ch
return s
Ġvene zuela
Ġrodr ig
Ġverabschied et
Ġapartament os
( *)
- ,
d b
d essen
e b
e ches
p asst
s ad
z za
Ġa wareness
ch end
Ġt ort
Ġs achen
Ġw is
Ġf isher
Ġf uel
Ġp hen
Ġp ublik
al ina
le ft
Ġg Ã¼ter
Ġun to
Ġre ve
Ġbe komme
um ps
for sch
Ġge o
Ġauf grund
formation en
Ġes f
ger man
Ã¼s ter
fol d
port al
bo den
fl at
Ġph ot
12 1
Ġspe ichern
Ġkon sens
Ġcour ts
Ġbesch leun
fÃ¼hr ende
Ġbl ank
Ġpolit isch
46 1
Ġdid ier
min im
Ġpriv ile
Ġinternational er
Ġsmall er
Ġexc essive
Ġlet ters
Ġchrist os
ĠbÃ¼rger innen
Ġhoch schul
ced es
Ġoffen en
win den
Ġatlant ic
indik atoren
Ġsalz burg
Ġsorgf Ã¤ltig
689 09
Ġbedauer lich
Ġplass nik
1 30
f ir
h Ã¤us
j au
o ben
r unde
s kodex
er in
Ġw ahre
Ġm ixed
Ġh ann
ic ts
ol t
Ġr Ã¶
Ġge fÃ¤llt
Ġaus gel
Ġch ain
ure ly
rÃ¤ umen
Ġunter bre
Ġro sa
Ġlo ved
Ġwar rant
ll ung
Ġ12 5
Ġmod elle
Ġmod ules
Ġbesch reibung
unt il
Ġmay or
Ġmitglied staat
Ġel igible
Ġtext il
Ġpass ion
gesch Ã¤
zahl t
Ġref lect
spl Ã¤ne
Ġcontrol led
Ġfac es
bas is
Ġcorre ction
ĠkÃ¼ ste
Ġamb ition
Ġkostenlos en
Ġkons ult
durch schnitt
Ġfern ando
Ġbewer tet
ĠschlieÃŁ t
word s
som ething
Ġfight ing
Ġlux us
Ġwochen ende
wind igkeit
Ġfischere ipolitik
Ġdynam ic
Ġauss age
Ġkonsequ enzen
democ ratic
Ġnumer ous
Ġversehen e
Ġstadtz entrum
Ġhede gaard
g ross
g olf
k unden
m oney
z io
er keit
Ġs ierra
it Ã¤r
Ġw ines
Ġw ille
Ġin habitants
Ġv ort
ur m
Ġl apt
et wa
Ġth un
we ge
Ġver hinder
Ġpro sper
Ġr ud
Ġse ktoren
ft a
ib iot
ist ent
Ġch ief
Ġch ecks
ak h
ak s
Ġuns inn
heit erkeit
Ġqu ellen
lie f
iz er
Ġtra ged
Ġtra cks
wo zu
fra me
pr im
ss ystem
Ġdurch schnitt
Ġexp lo
Ġmain tenance
gest altung
Ġmenschen rechts
Ġed el
Ġtele kommunikation
kommission sprÃ¤sident
Ġorder ed
Ġkr anken
member s
Ã¤d t
Ã¤d chen
Ġcal m
Ġsuper ior
leit linien
Ġindic ator
frist ige
Ġrecog nis
Ġaussch Ã¼sse
Ġsuggest ion
begr enz
Ġap ache
Ġsubsidiar itÃ¤t
prop osed
aro und
Ġtsche chische
Ġbosn ia
Ġbedro hung
Ġscore board
Ġminder heiten
Ġhemil Ã¤
limin ary
f Ã¼nf
k ette
Ġa w
Ġs ql
Ġf ue
Ġb icy
Ġn az
us ter
Ġk ukan
Ġl anzarote
Ġst ir
Ġst yl
and reas
Ġy ang
Ġer kannt
art agung
ne ar
Ġle ht
Ġle hne
Ġrep orted
Ġcoun ts
Ġlo ck
Ġgen annten
sel ben
Ġbo ck
Ġprodu ziert
erg ie
Ġacc ur
Ġout standing
35 0
Ġnun mehr
zung e
Ġorgan ic
Ġequ ally
Ġung leich
Ġinstit ut
65 65
Ġcare er
Ġachie vement
Ġsant os
Ġexpress ion
ĠtÃ¤t igkeiten
Ġforder e
Ġcou p
atur en
vertrag sverletzungsverfahren
Ġvorgeschlagen en
rec og
Ġwinn ing
Ġflor enz
Ġomb udsmann
soll te
ĠbÃ¼ro krat
Ġconsist ent
beauftrag ter
Ġconfigur ations
prot okoll
deleg ation
Ġexplor er
Ġkale vi
tow ards
b ind
b lo
b oda
e xt
f ix
h z
w art
y ch
ch ste
Ġthe ater
Ġn it
Ġn ahrungsmittel
ic ted
im plement
th ings
Ġr unde
Ġr Ã¼big
ill y
pp elt
ly ing
Ġsp ass
ne ed
Ġho using
iv alds
Ġex cluded
wh ite
Ġro th
Ġfre ut
Ġfre ivalds
Ġmar n
vor sitzender
12 2
wÃ¤ l
Ġviel zahl
Ġwel ches
Ġwel coming
Ġart ik
Ġart ist
amt ierender
Ġgew isse
Ġwieder um
anc er
Ġstar tet
po ints
Ġproje kten
Ġfac ult
Ġbill ige
Ġnotwend igkeit
Ġdeleg ations
sprogram me
Ġord ner
uz zo
Ġsubst ance
Ġorganis ieren
Ġsitu ations
Ġrepl ace
ĠÃ¼brigen s
bÃ¼rger schaft
meet ings
Ġconstant ly
menschen rechte
Ġpatient en
Ġfell ow
Ġassozi ations
Ġsmo oth
mechan ismus
Ġausges prochen
Ġio annis
Ġstim ul
Ġbritt an
Ġphen omen
1 45
f lo
l one
Ġ ug
Ġt enden
Ġs ail
Ġp ent
Ġp ab
Ġe ich
Ġh under
Ġan sehen
ic ante
ol es
Ġz alm
th y
Ġfor ums
00 3
we ile
sch i
Ġer teilen
Ġwe isen
Ġge handelt
Ġab road
Ġab gestimmt
Ġar ena
rÃ¤ glich
wer fen
Ġwar tet
Ġnach denken
Ġem u
Ġhin dern
mail s
leg te
vis a
Ġel imin
Ġchar les
Ġeff izienz
Ġspeak s
Ġhaus es
Ġparliament ary
Ġach ten
28 5
Ġumf aÃŁt
abkommen s
Ġgener ated
Ġdefen se
Ġbereit gestellt
minis trat
Ġamb assador
Ġzug ute
Ġta jani
uz z
Ġlib anon
Ġdoll page
Ġglaub wÃ¼rd
Ġerhe bt
Ġregistr ierung
Ġenor m
prom otion
Ġalex and
Ġnachbar schaftspolitik
stud io
Ġerzeug t
Ġsche it
rechn ungs
Ġdecla red
Ġprejud ge
575 17
hÃ¤sions fonds
Ġondrej ika
2 11
5 37
c te
e igen
g riffen
t ten
w alk
in land
Ġs ight
an u
an aly
Ġc uba
Ġe ea
Ġg Ã¶
Ġg Ã¶n
Ġv as
ur on
st Ã¤nde
Ġre vised
Ġz im
Ġst ubb
Ġj n
ver halten
Ġwe ger
ind ic
ind ivid
ub en
Ġhe ct
lo aden
me at
Ġwor st
Ġte ch
Ġyour s
fol glich
10 49
Ġbo oth
Ġbr un
fe el
Ġfr endo
Ġkl ick
Ġstand ort
Ġbesch rieben
Ġbeg un
Ġgew issen
ys sen
Ġnor men
Ġerfol gs
Ġqual ifications
bl ing
Ġkont akte
Ġeur atom
Ġele cted
Ġtre es
Ġpap outs
techn ology
ift ung
Ġkomp on
Ġsho es
Ġderzeit igen
handels kommissar
0000 0000
Ġlisten ing
Ġzweif ellos
Ġmist akes
Ġarbeitspl atz
Ġprep are
Ġhu ber
Ġsicht bar
mw st
Ġliefer ung
Ġkonkre ten
Ġnam ens
Ġprag mat
ĠgrÃ¼ ne
Ġdur ation
Ġcred ibility
Ġexperien ced
Ġbod ies
Ġforth coming
Ġsched ule
katastrop hen
Ġunann ehm
Ġtraged y
f is
k lich
k la
Ġd alli
Ġs ri
un er
he il
Ġc lause
Ġc rops
ro v
le are
Ġh ir
Ġan fÃ¼hren
Ġun able
Ġre cycling
res trict
ab a
sch affung
ver hÃ¤lt
Ġer sta
kt is
Ġzu gestimmt
Ġaus stellung
Ġaus ged
Ġaus einander
Ġle hnen
Ġminister prÃ¤sident
ug ar
Ġar ts
Ġar me
pro c
pro v
Ġ9 207
com pl
Ġ19 80
Ġschl icht
Ġiss ued
Ġrech nen
Ġke ys
Ġloc ations
Ġchar ged
fre qu
sa ve
Ġobject ions
Ġturn ing
Ġbil anz
Ġvar ian
Ġkat alog
Ġnatur ally
Ġfocus ed
Ġschle chte
Ġrub iano
ĠzusÃ¤tz lich
gesundheit s
Ġlay out
prioritÃ¤ts achsen
Ġsimpl ification
ĠzustÃ¤nd ig
asso zi
Ġgebrauch t
ĠsÃ¼ den
object ive
masch inen
aussch uÃŁ
natas ja
Ġerleb nis
iov anni
andern falls
kommun ikations
Ġbohe z
! .
0 25
a ustausch
b ill
b ias
c ut
c rist
d in
f c
f ass
f az
g ive
j une
k ie
m use
p u
r ust
r ical
y i
z ellen
Ġa ustrian
re ct
Ġf Ã¤hr
Ġb our
Ġp ush
Ġc te
al ed
Ġn v
Ġn ine
Ã¤ fen
Ġk no
Ġbe er
Ġfor st
Ġfor ese
Ġal ters
ac a
Ġer mÃ¶glicht
ill o
qu ier
Ġdes ire
end lich
la va
ĠÃ¼ber legungen
iv o
Ġme ister
Ġhe ath
Ġqu art
cl es
air y
Ġfre ier
ho le
Ġtra il
Ġsa al
Ġange wand
con ference
Ġweit gehend
Ġem b
fl ash
12 8
war ten
Ġant rÃ¤ge
Ġsc ene
Ġcol ogne
Ġcar te
Ġexp los
Ġgeb Ã¼hr
Ġnor den
Ġexam ined
Ġergeb nissen
tem pt
Ġsaf er
mehr ere
Ġdialog s
Ġret ten
Ġfahr er
Ġfahr zeuge
Ġtri ps
ordin ary
hel en
ĠstÃ¤r kung
ev ents
entsche id
Ġwerk zeug
grÃ¶ÃŁ e
Ġverbind ungen
lab our
Ġadjust ment
Ġpolize i
ĠflÃ¼chtl inge
ĠÃ¼bergang s
Ġkeines wegs
Ġmariann e
Ġhaupts Ã¤chlich
Ġschmer z
Ġreli able
gir das
Ġanwes end
0 20
e te
e pp
t ri
w ider
Ġd ress
un ters
Ġw ifi
ie ts
Ġg or
Ġin quiry
Ġan zeige
Ġein kommen
sp iele
ang aben
Ġman a
pl atte
ph ys
Ġla ur
Ġhand lung
ors ki
Ġany where
Ġtr ick
Ġgra b
Ġbut ter
jo in
Ġgeb eten
ĠwÃ¤ hler
Ġbild schirm
Ġsozial er
Ġrec ip
Ġdecis ive
eng leichheit
Ġgeld buÃŁen
Ġbig ger
ernen nung
hel m
ager rak
Ġtab ellen
hÃ¶ he
best Ã¤nde
sim on
Ġincreas es
51 752
cre ate
Ġmanufact uring
Ġjeweil igen
ĠerlÃ¤ utern
Ġincreasing ly
Ġdimit rij
Ġni inist
Ġswe et
Ġcontinu ing
elekt ron
ĠpalÃ¤st inens
Ġbewe gt
Ġack now
k in
l ive
o ge
s and
u in
u ana
Ġd b
Ġs wedish
it ary
Ġw ach
re gen
Ġm Ã¼nd
Ġb ow
Ġe ve
Ġg y
Ġz a
Ġbe ef
Ġfor d
and ou
Ġ( %
sch aden
Ġge zogen
Ġvor feld
Ġad min
ther es
man ager
Ġper mit
Ġmo ves
bar celona
bo ot
ats on
Ġland scape
kehr en
Ġass ign
Ġgew icht
Ġaf rikan
Ġsm ile
199 3
Ġexper iment
Ġklar stellen
ba um
Ġdemokrat ische
such e
cons ultation
rad io
fil m
Ġbrit ain
behÃ¶r den
vÃ¶l ker
Ġabend essen
schwer punkte
ĠergÃ¤n zen
tour ism
Ġbege g
ĠÃ¼berras cht
government al
Ġyugos lav
Ġworkshop s
ĠbedÃ¼r f
natur ally
Ġannul led
Ġants u
b sp
i qu
k ul
l ern
m ie
n ad
p ract
s Ã¤
s ach
t ings
t ube
v ir
Ġ ict
Ġt ang
Ġt ips
Ġd ign
or ing
Ġp fe
ro chen
us al
Ġk une
st rom
am an
Ġy a
Ġr s
pp t
Ġge arbeitet
Ġnicht ig
ant a
Ġno vel
ak ische
Ġvor ne
up date
wh iting
Ġpl attform
ire ct
are a
Ġgesch ah
ace ut
no st
con dition
vor auss
part icip
Ġsol ved
stell er
comm ents
stand ards
Ġgeb lieben
Ġoper ators
kun st
ob il
gem isch
erk ki
Ġremain ed
Ġern annt
Ġdef ine
Ġshare holders
ĠauÃŁen politik
90 403
Ġmaxim ale
gegen wÃ¤rtig
ĠbÃ¼ cher
Ġmail ing
Ġsubsid ies
fun ction
Ġmotor way
appro x
aq un
ĠmÃ¤n gel
Ġschweiz er
nehm ern
Ġprefer ences
aug ust
hÃ¼ tung
hoff entlich
Ġpalest in
ifs ud
eschrÃ¤n kt
produc ts
Ġcompris es
b ol
b se
b ieren
c ir
c ad
h os
m om
p il
u j
w il
w ig
z ieren
Ġt ested
an wal
Ġf inger
Ġb ast
Ġh amer
Ġin j
Ġan a
Ġan genehm
Ġun certain
Ġto urn
Ġre med
Ġre ferenz
Ġz in
ver fahrens
be ziehung
sp rat
Ġzu haus
ri os
ann ung
Ġab we
ien ne
ien ces
Ġmit ten
Ġle ichte
iv an
ahr t
ap ital
beit ritts
fer nen
Ã¼n den
but t
Ġhin weise
Ġgegen d
clus ions
Ġko hÃ¤sionspolitik
Ġviel mehr
lieÃŁ t
Ġtun a
Ġur gency
general direktion
pre m
Ġgeneral sekretÃ¤r
Ġtag s
Ġeben en
Ġvol untary
off icial
Ġklar heit
Ġbra un
Ġtar ja
ĠwÃ¼n sch
seit dem
gu inea
Ġtro uble
Ġess ence
ĠschÃ¶n es
Ġzug riff
Ġcy cle
Ġfern seh
spec ies
Ġhistor ische
Ġten er
Ġwarm ly
Ġdoll ars
Ġfarm ing
Ġvir us
einzel plan
Ġvorliegen de
Ġzivil gesellschaft
Ġcaus ed
Ġeinsch rÃ¤n
Ġtemper ature
flÃ¼ gel
Ġconfirm ation
hist ory
Ġappoint ment
Ġhyp oc
Ġjon as
Ġwire less
Ġtempl ate
negoti ations
ĠruÃŁ land
, -
g art
h allo
i w
p assen
u ellen
Ġt ail
un employment
Ġw Ã¤r
Ġm ons
Ġm ifsud
Ġc ater
al p
al most
Ġin clusive
ent schlieÃŁ
ur ers
ur teilung
Ġun o
ed a
th ly
th omas
Ġbe hoben
id el
ver zeichnis
Ġer fordern
ri x
Ġha ust
Ġdes igner
ger Ã¤t
lie be
Ġlo bster
Ġbo ost
geb racht
mo dern
ĠgroÃŁ britannien
Ġback up
Ġrece iving
Ġremain ing
Ġschn elle
abil itÃ¤t
Ġshe ll
Ġrest ructuring
komm ent
Ġpolitik er
bu y
Ġnon sense
gro ÃŁe
Ġwachstum sp
ane ous
Ġunterschied lich
Ġintro duce
jun ktur
Ġdoppel zimmer
Ġbathroom s
Ġbetra chtet
Ġhighl ights
Ġrepe ated
Ġresol ve
Ġgott es
Ġchanc ellor
Ġlok ale
Ġcorpor ation
Ġinfluen za
Ġtsche chischen
defin ition
Ġereign isse
ĠvernÃ¼nft ig
ĠgenÃ¼ gt
Ġtarif a
Ġverord nungen
Ġanreg ungen
emar ie
Ġmov ies
Ġpapouts is
Ġniinist Ã¶
a ve
g ga
h orn
l ay
m att
n ia
s ich
w olf
Ġa rom
ch ron
Ġt ruck
Ġp aint
Ġc el
ro te
ro st
Ġk b
Ġbe arbeiten
ge halt
Ġein richtungen
00 4
os h
Ġver h
ver Ã¤nderung
uch ten
Ġse gment
Ġsch atten
ik ett
Ġle banon
Ġent steht
Ġcan cel
ern ame
Ġlo hn
pl ans
Ġfre derik
Ã¶r en
Ġbo tschafter
30 2
Ġstay ed
Ġhin nehmbar
hier fÃ¼r
olog na
Ġinvest ieren
Ġ16 15
spe ed
201 5
Ġorgan isiert
Ġbill igt
Ġip od
gu id
dis k
Ġnote book
Ġbestimm ter
Ġreturn s
mod al
Ġdiv ision
lei hen
imp orts
jÃ¤hr liche
gn ose
Ġrem ote
Ġsurve illance
Ġdeep ly
cccc cccc
Ġstrengthen ed
buÃŁ e
flÃ¼ ge
Ġnied r
Ġbak oy
ikal ien
Ġunn ecess
ĠgewÃ¼nsch te
comment ing
gÃ¤ ste
Ġanb ieten
dou ble
Ġsik orski
Ġhugh es
Ġnok ia
andou ros
a ele
d ank
h ig
j aminister
o zy
p se
r ico
s inn
s urely
w ass
Ġd Ã¼ster
Ġs ke
Ġw ins
Ġf on
Ġb art
Ġb jer
al ger
us z
Ġl ights
ic ars
st Ã¤t
Ġst ufen
ber s
ac p
iss on
Ġcon ciliation
Ġge klÃ¤rt
ri ks
Ġmit gliedern
Ġco ckt
Ġso weit
Ġrep ar
Ġcont roll
Ġbes orgt
Ġsit zen
kont o
Ġsa uli
bar sch
Ġaff ects
10 9
Ġmar s
vor geschlagen
Ġger Ã¤te
Ġarbeit sk
Ġ11 6
Ġspe eches
Ġhel sinki
Ġtun nel
Ġgemein de
jo hannes
fort able
Ġur heber
Ġprogramm ing
201 4
Ġris ing
Ġstra ÃŁburg
Ġbudget s
Ġeinge leitet
Ġtri b
lemen te
Ġroad s
wahl en
Ġaltern ativen
som alia
Ġbau ern
Ġsatisf action
Ġplen um
wind ows
gener ation
Ġparte i
wahr scheinlich
Ġmittelmeer raum
Ġvorauss etzungen
Ġacquis ition
Ġkonfl ik
Ġscen ario
Ġfavor ite
Ġawa it
allgemein es
koordin ierung
maxim um
Ġbetrugs bekÃ¤mpfung
restaur ant
witt ling
1 40
b lock
f ive
g ely
g Ã¤nge
l ux
o yer
u ers
u ous
Ġ \
er m
Ġt id
Ġd c
Ġd ining
Ġd iox
at ures
Ġm ale
Ġm outh
ie hlt
Ġb v
Ġc f
al ys
Ġe ag
Ġn an
Ġin te
Ġo j
Ġv acc
ter e
Ġl an
Ġre cover
Ġein stimm
for get
Ġal uminium
sp an
Ġaus nahmen
Ã¼ber greif
Ġle ather
Ġle hre
Ġch ef
Ġsich ern
Ġen able
Ġsh ad
Ġunter st
Ġad ministrat
gra ce
Ġber ichterstat
zu erst
Ġpres ents
Ġcomp ensation
Ġfe iern
Ġ12 3
Ġreport ing
mar itime
Ġstr en
utz er
Ġacc ord
Ġschl immer
unt ing
gar ten
oc ol
Ġair lines
Ġeur oraum
kar in
Ġkor ruption
Ġinde pendence
Ġmont oyer
Ġfir ms
Ġerwar te
Ġhead ing
Ġwohl stand
deb ian
Ġoptim al
Ġkam mer
Ġerg riffen
tex ts
Ġmuse ums
Ġregistr iert
Ġsex y
Ġdirector ate
Ġstad ium
Ġkontroll iert
Ġkommissions mitglied
Ġimpress ive
Ġwik icars
Ġregular ly
Ġerheb lich
Ġquar ter
Ġsuffer ing
Ġimag ine
Ġrevie ws
Ġberu ht
Ġreyn ders
Ġzuhaus e
Ġbjer reg
b rechen
h ope
i am
j em
k riterien
m g
n em
Ġ ress
in ne
ch ile
or igin
Ġw atson
Ġf ass
Ġb omb
Ġp iet
ro le
ro vers
Ġan zurufen
Ġk new
Ġto lle
der t
um bien
Ġfor ests
ere gel
and em
ab fall
Ġr ic
Ġr ivier
Ġer lebt
Ġaus bau
la unch
ub s
ĠÃ¼ber zeugen
ak er
Ġad ult
Ġges icht
Ġav en
Ġav ast
pr ime
pr incip
Ġdire kte
ual a
ĠÃ¶ff net
Ġass ets
Ġform ats
Ġeinfach en
Ġstrateg ien
Ġinternet seite
Ġbro k
Ġrechts sachen
laub en
Ġmet hoden
Ġcomple ment
Ġumf eld
Ġprom oting
55 1
ĠrÃ¼ck en
Ġverteid igungs
Ġmiss ed
kur se
Ġdam ages
trans fer
Ġrelax ing
vol umen
Ġeffe ktiv
Ġrats vorsitz
ĠunabhÃ¤ng igkeit
Ġhinge gen
Ġprec ise
Ġintell igen
ĠgÃ¼nst ig
Ġhorn y
Ġot to
commer cial
pak istan
kommissions mitglied
Ġauth ent
Ġade quate
865 70
ĠgetrÃ¤n ke
associ ation
Ġkune va
b ran
f if
l ondon
m Ã¤
w inning
y g
in sel
Ġs s
Ġm d
Ġf assung
Ġp el
te in
Ġc ss
Ġh ilton
Ġn l
Ġn ennt
Ġn izza
Ġin kl
ent decke
ur teile
Ġk im
ed ig
Ġl t
st ability
Ġre ward
Ġst ays
Ġst range
we in
Ġpro spects
Ġr ichtet
be wahr
all s
Ġsch Ã¤d
Ġab use
end ung
Ġ3 88
Ġsh ot
Ġres ident
Ġby tes
ick a
ungs maÃŁnahmen
ud es
ĠmÃ¶ gliche
Ġber uh
ho ts
Ġnach folger
Ġgen aue
Ġcomp let
kl asse
Ġpre v
Ġdis miss
Ġem ission
schl iess
Ġout door
Ġlie fert
Ġ15 5
Ġko hÃ¤r
Ġcol umn
hier bei
ĠauswÃ¤rt iges
Ġfun ktions
fran co
Ġvorschl Ã¤gen
Ġele v
Ġnews room
Ġec b
Ġletz t
Ġumf ass
ness es
Ġdef end
Ġgef angen
region en
Ġwert voll
Ġnatur a
regel ungen
handels fragen
Ġslow ly
Ġtagesordnung spunkt
Ġunver zÃ¼glich
human itarian
Ġmi roslav
Ġvorgehen sweise
cas a
Ġpaul o
ĠÃ¤hn liche
ĠlÃ¤nd liche
ĠkÃ¼nft ig
Ġrenov iert
Ġausgang spunkt
certain ly
Ġalban ia
avi our
instit ut
Ġsurpr ised
ĠbemÃ¼ hen
ifikation en
employ ed
Ġanc ient
grow th
Ġtourn ament
Ġbjerreg aard
8 33
k lagen
n utzung
v ereign
w olle
er ts
in ute
in sofern
ch st
Ġs me
ie b
Ġh idden
Ġan reise
Ġk amer
Ġl ived
ab eth
for est
ut ation
be an
be vÃ¶lkerung
Ġzu kunfts
ant ly
Ġco ach
Ġsh ips
Ġcommission ers
Ġum satz
Ġad ap
ast richt
Ġte e
Ġro utes
Ġkommission sprÃ¤sident
tsch aften
Ġcoun ty
wer b
are tte
rit ion
ĠmÃ¶ch test
Ġfre il
11 8
Ġany more
Ġstand ing
gl as
bere cht
Ġval ion
Ġgest artet
Ġdr Ã¼cken
Ġjun ior
Ġhelp ed
Ġwirk liche
Ã¶l n
nor m
Ġlar gely
Ġtalk ed
car l
Ġprom ises
Ġbesser es
Ġcheck ed
sm oking
Ġschwe ine
pporte urs
ĠstÃ¤r k
Ġpc s
Ġshar ing
bro ad
Ġnav ig
Ġground s
Ġdeta ill
Ġbetreffen den
Ġwechsel n
Ġobst acles
stabil itÃ¤ts
democ racy
Ġsuperv is
subs id
Ġhaft ung
zip lin
rub rik
facts heet
ĠabhÃ¤ng ig
Ġerstre ckt
/ -
2 20
l ers
r us
t own
er ba
Ġs j
at em
Ġm our
ro bat
ro Ã¶konom
le ih
Ġo h
Ġan z
ed e
ir ak
Ġl und
im edia
Ġth yssen
Ġst ations
am ar
ac s
Ġj Ã¼rgen
ill i
Ã¼ber mittlung
Ġsp ending
Ġdo ctor
Ġho le
iel ler
Ġ3 60
ell ow
ell fisch
Ġpl Ã¤tze
ungs schreiben
ap el
ger ade
10 4
Ġze al
Ġmehr wertsteuer
ph oto
Ġ10 4
Ġdec line
11 6
Ġbere chnet
Ġend ors
Ġresp ected
unter sch
Ġev il
Ġgreat ly
Ġrechts staat
Ġport folio
Ġown ed
amer ikas
can ada
ih nen
Ġtrans fers
Ġung ew
recht liches
pos s
inz wischen
Ġachie vements
develop ing
ĠglÃ¼ck lich
produ kt
Ġkomple tte
Ġdein em
mitt ler
Ġgesetz gebung
Ġorganisation en
Ġobl igation
fish ing
Ġfoto graf
Ġfoot ball
Ġexception al
Ġumfassen de
Ġly on
Ġemphas ise
green land
Ġmatch ing
Ġintell igent
Ġerwachsen e
Ġdetermin ed
Ġeingere icht
Ġswo boda
Ġgekenn zeichnet
Ġrivier a
7 16
f ruit
h om
j ar
k es
k inen
m Ã¼ndliche
o il
r ut
r ens
Ġ Ã¤lt
er hÃ¶
ch anc
is ierungs
Ġs es
an mer
an forderungen
Ġw art
Ġw wu
he iro
Ġf tp
ar re
as yl
Ġv ierte
Ġl Ã¤dt
Ġto ugh
Ġz en
Ġz auber
res ults
sch o
Ġr d
est ar
Ġge we
Ġsch ein
se villa
Ġmit tl
Ã¼ber sicht
Ġsp iegel
Ġrep air
ben e
ger t
Ġro aming
ect es
aus bau
Ġapp art
Ġra p
fr on
con clusions
ux e
ple uron
Ġget reide
Ġob tained
Ġbrauch e
Ġtext ile
Ġoper ates
Ġeconomic s
dec kt
Ġmet all
Ġeinge halten
Ġsal v
Ġbesonder es
Ã¤tz ungen
Ġlog ik
Ġcat al
rid o
agr icultural
Ġshow ing
Ġfed eration
Ġfront iers
Ġbi om
ĠsÃ¼d afrika
Ġbeteil igen
Ġthough ts
Ġther es
Ġlack ing
consum ers
setz ungen
rich ard
Ġerd gas
Ġprint ing
Ġstrengthen ing
Ġgerecht igkeit
chang ed
Ġerheb liche
Ġchann els
Ġmodernis ierung
Ġfem ale
igem inute
Ġthous ands
temp orary
entin ien
Ġcombin ation
Ġbedau ern
Ġcro wn
jac ques
vereinbar ung
Ġdestroy ed
Ġbird s
Ġschmid t
Ġentit led
Ġhindern isse
Ġzim babwe
Ġmittl ere
pleuron ectes
1 35
] .
p flicht
r n
u ese
w ieso
Ġa ce
Ġd ab
Ġm Ã¤dchen
Ġf ing
Ġc urs
Ġe ll
Ġg t
Ġg arn
Ġg ym
us sen
Ã¼ ckt
ent ially
Ġan gen
Ġl ern
Ġl yr
ra gend
st age
id is
and en
uch s
Ġcon vert
ad ia
Ġab and
Ġaus zu
Ġvor stellung
Ġhe ktar
Ġent standen
Ġhab t
Ġunter wegs
akt ual
auf gaben
Ġcomp act
kl ass
Ġges etze
Ġfind est
Ġpri x
ii id
Ġmed ik
Ġ% ).
Ġcar lo
Ġdel la
Ġcor respond
pre vious
Ġerfol ge
Ġhelp ing
mÃ¶ gen
bank en
prÃ¼ fen
Ġdarf ur
Ġeffect iveness
Ġmobil telefon
Ġkurz em
mus ik
Ġrefer ring
Ġmart ony
Ġhead s
Ġbeh aviour
Ġverg n
Ġtem po
Ġsteuer ung
Ġspan ischen
initi ativen
Ġschrift liche
struktur ierung
Ġspeziel l
Ġferien wohnung
Ġham as
Ġci olo
Ġexperien ces
Ġcell s
hist or
north ern
vertra uens
ĠgewÃ¼nsch ten
anton io
Ġiacov ou
citizen s
Ġfacult ad
ĠglaubwÃ¼rd igkeit
Ġscheit ern
Ġmartony i
c ategory
j es
l isten
p df
z id
Ġd oss
it Ã¤ren
at on
at iver
Ġm laden
Ġf liegen
Ġb iodiversity
Ġc ure
Ġe den
Ġh ug
Ġg ig
Ġg ay
Ġk av
Ġun eing
Ġun zul
Ġl ac
st Ã¶
Ġand ree
Ã¶ die
Ġal m
Ġ( ).
de ar
Ġr ational
Ġer satz
Ġge Ã¤uÃŁ
ann oun
op f
wir kt
Ġex clus
Ġen lar
Ġhe ating
Ã¤r kt
Ġrep ro
ard in
Ġher man
beit ritt
Ġgr Ã¼nd
Ġzur zeit
Ġra c
Ã¤nder ungsantrag
Ġph Ã¤n
ven e
11 3
Ġjo z
Ġsc an
Ġart ists
Ġval encia
Ġmir ror
Ġcann es
ĠmÃ¶glich en
14 2
75 0
75 1
Ġbre men
Ġgar rido
Ġinc ident
Ġeinge ben
dire kte
Ġflo od
Ġshe ep
Ã¤tz t
Ġkos kinen
Ġold est
yes ter
Ġangeb racht
Ġwall s
met hode
Ġcy ber
mÃ¤ÃŁ ige
Ġstor ies
zuf Ã¼hren
ev p
Ġtransl ated
Ġflug zeug
Ġcompl iance
kein er
Ġbundesminister ium
Ġbroad cast
kan ada
Ġzw ang
Ġcert ification
bur ma
Ġparame ters
Ġeinges tellt
Ġaccom pl
Ġkrank heit
Ġgrad in
Ġkorrig iert
veranst altungen
proced ure
aust ral
monitor ing
518 83
Ġunannehm bar
Ġmladen ov
b g
c f
c ur
i ques
p her
z entrale
Ġw ise
Ġb uen
Ġp ets
Ġc ress
Ġthe odor
Ġun verbind
Ġbe ab
Ġbe ziehung
Ġand al
ot ions
Ġr ica
Ġde ar
Ġauf zu
Ġle ichter
oll ar
ĠÃ¼ber sch
ak p
ran s
ark ozy
tra um
Ġ9 001
Ġpr on
Ġpr inted
fe ed
Ġem otion
Ġfr ust
bo y
vor geschichte
Ġph ilipp
Ġzwe cke
Ġcons olid
Ġsta ates
Ġx l
40 9
Ġexp ansion
Ġevery day
Ġdan ish
Ġwieder aufbau
fÃ¤ ll
ander er
Ġoper ator
Ġset up
Ġmost ly
kon fl
Ġimp osed
Ġinner en
Ġeinzel ne
Ġfahr rad
sc ale
Ġcitizen ship
Ġeig entliche
Ġcorre ctions
Ġschwe igeminute
mÃ¶glich en
Ġbuy ing
Ġkre bs
Ġgere gelt
Ġconsult ations
Ġkil ometer
utt gart
Ġload ed
Ġattack s
Ġminor ities
Ġsustain ability
Ġdah in
Ġcompla ints
Ġeinget ragen
zep te
Ġhyg iene
spolit ische
d ur
f ant
m mer
r ise
Ġd ict
is st
an ch
it rea
Ġm assen
Ġb ret
Ġb ios
Ġb jÃ¶r
Ġin klusive
Ġv ou
im on
ab schluss
ve z
ill on
ad i
ri ble
Ġyou tube
ag ua
Ġle aving
uss ions
ben utzen
ben ita
Ġad idas
aus stattung
Ġ201 7
Ġra pporteurs
Ġfe ko
Ġbr ink
35 9
Ġviel er
uer ung
Ġvis um
Ġform ula
Ġpolit icians
Ġdown loaden
Ġfil me
Ġpay ing
Ġplan ung
fo ot
Ġforward ed
Ġstud ent
ches ter
Ġposit iven
Ġbug s
Ġmer cosur
Ġclick ing
car mel
Ġfa ult
onen te
ĠÃ¤uÃŁ erte
Ġtor re
Ġmann er
Ġhistor ischen
invest itions
Ġklima anlage
Ġsem in
Ġzugang s
ĠauÃŁer gewÃ¶hn
ĠhÃ¶r t
Ġabst ain
Ġlauf e
ĠgefÃ¤hr det
jul y
Ġrem ov
Ġfly ing
ipf els
Ġtuomio jaminister
kil de
Ġfein d
Ġsuperv ision
Ġworry ing
ĠfranzÃ¶s ischen
commer ce
Ġkontin ent
comple te
Ġniger ia
Ġaner kannt
Ġsymp ath
Ġapar thotel
schÃ¶ ne
Ġvulner able
Ġeich el
quier do
Ġcress on
d os
f otos
m d
n iger
r ung
u is
w ine
Ġt il
Ġd k
Ġs as
Ġp ink
le iste
Ġh Ã¤ndler
Ġn iveau
Ġin ev
Ġv ogel
il legal
el te
ing o
Ġl ap
th iop
Ġ2 40
ge ted
Ġst ages
Ġst rik
00 2
00 32
Ġwe iss
Ġcon duc
Ġcon gress
ann emarie
Ġab en
op tim
Ġaus stattung
la ps
Ġex che
ug uay
ck ling
ail a
Ġunter brochen
Ġmo od
Ġgen eva
Ġges te
Ġaff ili
Ġmar o
Ġdis grace
Ġdar lehen
12 6
Ġ19 88
Ġ11 5
des k
Ġkon k
ov sk
mo ve
leg isl
Ġright ly
Ġmat t
Ġdat ens
Ġ17 0
az itÃ¤ten
Ġgest altet
Ġtim or
Ġausge fÃ¼hrt
Ġkol le
gleich es
Ġoption al
Ġterror ist
ĠĠĠĠĠĠĠĠ ĠĠ
mod us
haupt stadt
Ġanwend ungen
Ġelse where
Ġbrit ische
Ġterm ine
ĠmÃ¤n nern
Ġign ore
Ġseem ed
Ġexpl ore
Ġrecogn ise
Ġteach ing
Ġimpress ion
elect ronic
cec af
Ġcin ema
Ġpercent age
Ġzerst Ã¶rt
Ġrevie wed
Ġwash ington
gesell schaften
Ġpere ira
whe ther
ĠberÃ¼h m
Ġdoub ts
Ġaar ts
Ġangewand t
d ale
g is
i ber
k rÃ¤fte
l ene
m are
v ens
re gend
Ġp ull
Ġc es
Ġc res
Ġk uba
Ġun recht
st ahl
st ars
Ġ2 30
Ġst immer
Ġver letz
be weg
be wÃ¤lt
Ġge plan
Ġge kauf
Ġmit ge
Ġle der
ste igen
ip zig
Ġro w
Ġqu er
ĠmÃ¶ gen
ru ckt
iz ite
pl en
Ġcomp ared
Ġbet onen
Ġ22 0
Ġem ma
pol icy
Ġcl in
Ġbest immen
Ġind ik
Ġarbeit sprogramm
Ġmein ungs
Ġser ie
Ġsim babwe
Ġgest attet
ko operations
199 2
Ġwaren korb
verb esser
Ġwa gen
Ġbra in
Ġbenutz ung
gew alt
dam als
Ġjapan ese
ĠÃ¶ konom
mil k
weil en
Ġaufge fÃ¼hrt
sicherheit s
jÃ¤hr igen
Ġplen artagung
Ġven ice
Ġbef ug
web seite
lÃ¤ss lich
Ġemphas is
Ġalloc ated
learn ing
Ġreaktion en
Ġcow enminister
mac ro
verbraucher schutz
Ġjugoslaw ische
Ġbelong s
Ġalban ien
Ġdecor ated
Ġreplac ed
garant ie
Ġmim ica
Ġexche quer
b iss
d agegen
h ast
m ean
m ethod
r ine
in akis
Ġa hren
Ġt reib
he cht
Ġm ecu
Ġm uy
Ġb read
ro bert
al ways
as pe
Ġin clusion
Ġan schlieÃŁen
el f
ic us
ic eland
ra m
em e
Ġth re
ou red
Ġein ander
Ġein leitung
ab ove
ut age
Ġj i
ke ys
Ġer land
Ġer halte
be ben
ne ben
Ġle ague
so on
ist ing
Ġ3 000
Ġen large
ial e
dies em
Ġag ent
Ġber ta
pl Ã¤ne
to c
Ġsit tings
Ġ10 5
ex pl
utz utage
Ġacc eding
Ġinv ited
Ġbel o
Ġany way
Ġdel icious
Ġval inakis
richt linien
Ġstrateg ische
Ġfran ois
Ġfinanz rahmen
Ġgleich gewicht
Ġproje kts
Ġeing esch
Ġmom ents
dr Ã¼cken
Ġturn s
Ġ35 2
Ġfrei zeit
zÃ¼ g
Ġbeschl uÃŁ
Ġpet it
Ġjahres bericht
ĠzusÃ¤tz lichen
Ġaward ed
Ġmedic ines
Ġempf angen
Ġrats formationen
Ġcoll abor
Ġcer em
georg ia
Ġaustral ia
auÃŁen beziehungen
subs cribe
Ġverurteil t
Ġprohib ited
Ġarchitect ure
Ã¼berschreiten de
Ġverhinder t
Ġphenomen on
Ġpab riks
assozi ations
Ġandree va
Ġjoz ias
Ġahren kilde
Ġberta ud
4 20
b altic
g Ã¼ter
l ia
n as
p akt
u ted
er df
Ġt anz
an fÃ¼hrungs
Ġw ies
re lax
Ġc ul
Ġc ub
al itÃ¤t
Ġn erv
Ġan w
Ġan pass
il itÃ¤t
Ġl un
ic on
ic ans
ol is
Ġre iter
Ġbe wert
Ġein fuhr
Ã¶ tz
Ġy ah
Ġver schl
lich ten
qu oten
ia k
Ġso vereign
Ġen rico
Ġall tag
ste hend
Ġent fernen
lo v
Ġum frage
Ġres id
Ġar c
Ġro lf
Ġma astricht
akt ions
Ġges ell
nah ost
ven ted
Ġsupp lies
Ġinv o
Ġcons ulted
Ġtr ig
Ġbesch e
gel n
rech er
13 8
Ġac robat
Ġdel uxe
Ġur s
Ġgest Ã¤rkt
Ġrechts grundlage
Ġzahl t
Ġgemeins ames
Ġpa olo
Ġpark plÃ¤tze
sy ria
fre izÃ¼gigkeit
Ġoffer ing
spro chen
Ġequ ivalent
Ġtrans action
Ġamer icas
Ġmag net
finanz hilfe
ĠfÃ¼hr er
Ġsil guy
Ġoffen bar
erklÃ¤r te
handels beziehungen
Ġmoder nen
appoint ment
last ly
Ġep iso
Ġvict ory
Ġmos cow
Ġkonsultation en
Ġtac s
Ġextens ive
Ġeinheit liche
Ġaccom p
organisation en
Ġreact ions
Ġimplement ing
Ġrapid ly
Ġeco fin
Ġconfigur ation
ĠnatÃ¼r liche
Ġthor ough
Ġerh ielt
Ġverhand lungs
Ġjugendher bergen
Ġcertific ate
Ġspl end
pur pose
Ġschick sal
Ġkompat ibel
unters uch
a ders
b ath
g ate
g ments
j ack
l if
s wert
on ent
is y
Ġs etz
Ġs alt
an wendung
re f
Ġb ers
Ġb alt
Ġp ow
Ġp iano
Ġp uzz
Ġe he
Ġh us
Ġh Ã¤nde
Ġg all
Ġg reg
ter ung
st ru
ol iver
th in
Ġbe urteil
Ġ2 10
Ġy acht
Ġj ou
Ġj nos
de v
Ġer setzen
ff ens
qu ar
Ġsch ott
ag d
op es
Ġmit entscheidung
Ġsp er
Ġsp ar
ne ither
oll i
ist ik
Ġen den
Ġvor genommen
Ġcan on
Ġor ange
ap ans
Ġma ÃŁe
elt a
pl ays
Ġtra ur
Ġbes tellt
Ã¤nder n
vor haben
com ings
Ġpri zes
str and
Ġteil t
Ġbeste uerung
Ġsozial fonds
17 0
gang s
Ġblo gs
Ġblo cks
Ġmet rop
Ġstra w
Ġschw ere
zur Ã¼ck
Ġeng ines
Ġreserv ieren
Ġlat einamerika
gu ide
Ġfair ly
Ġarch ives
Ġsug ges
ĠÃ¶ st
Ġsav ing
zuf rieden
Ġverste ht
arte ments
Ġavo ided
kap itel
Ġterrit ory
Ġult imate
Ġeinzig artig
Ġesc ape
Ġzut re
ĠgesprÃ¤ ch
ĠgewÃ¤hr leistet
stu hl
Ġcombin ed
Ġbedau ere
Ġcontrad iction
Ġtaus end
Ġiz quierdo
Ġexisten ce
Ġgiul io
presserefer at
shir in
mittels icherheit
ĠgÃ¶n cz
Ġhect ares
anwal ts
Ġerland sson
c ience
c alled
e us
e fre
f Ã¤r
g it
g ipfeltreffen
o bs
x i
ch at
Ġd iving
is land
Ġs q
Ġs hr
Ġs ights
un k
Ġp az
Ġh ace
Ġthe at
Ġg h
Ġg ather
Ġin i
Ã¼ ge
Ġan h
Ã¤ hn
ter ne
st il
ol ay
Ġz ip
Ġein schlieÃŁlich
and ris
Ã¶ ten
sch ellfisch
Ġer lassen
Ġer hoben
Ġwe alth
be ides
Ġse o
ag ers
Ġauf sch
ĠÃ¼ber aus
ĠÃ¼ber schre
Ġme ilen
Ġent hus
Ġpl ate
32 6
Ġma v
Ġqu ery
Ġcont rast
Ġpress erefer
enn ium
Ġbei jing
anz ig
Ġger ichte
Ġland schaft
Ġkein em
Ġvot re
Ġbl ess
Ġcor bett
Ġbitte t
reg ular
Ġcas tell
Ġstar b
Ġstar tseite
Ġed ge
Ġprov inz
inter ess
inter pret
mon tenegro
ade quate
dec ember
Ġlar s
Ġgute m
48 89
Ġpie ces
Ġstop s
play er
Ġpeace ful
schn itts
leit ungen
Ġrein for
Ġautomat ic
Ġsun ny
Ġentwicklungs zusammenarbeit
Ġprakt ische
Ġredu ziert
izien te
loc ated
kenn st
ĠzustÃ¤nd ige
ĠstraÃŁen verkehr
Ġnorm ale
Ġdele ted
Ġjur is
iop ia
Ġcomb ating
Ġkorrig ieren
Ġoccur red
Ġentertain ment
Ġerz ielen
effect ive
particip ation
Ġzeal and
6 05
b iet
d vd
e i
f oto
g om
k redit
r ice
er maÃŁen
Ġd h
Ġs ont
or ten
Ġw alter
Ġb n
Ġp t
Ġp fl
Ġp uts
Ġp ending
Ġh ide
Ġh Ã¤nden
Ġthe ory
Ġg if
Ġo we
Ġl Ã¤
ra p
Ġz ahn
Ġz ones
Ġein iger
Ġst ip
Ġy ves
os aw
ach ed
Ġim men
sp ir
Ġge ar
ri um
Ġab l
Ġaus sprechen
Ġat tempt
so c
men gen
ted t
Ġ: :
Ġro ugh
ass ungs
Ġbet rÃ¤cht
Ġra uchen
Ġem issionen
Ġdi ag
stat ut
alle in
zeit punkt
Ġdirect ions
Ġinvest or
see verkehr
president s
Ġwieder holt
ĠstÃ¤nd ige
Ġqual it
Ġdep th
eg ypt
Ġkur zen
ĠkÃ¶nigreich s
spro ble
ator ium
Ġwa ve
Ġverw and
Ġcompet ence
Ġak vis
Ġgla v
Ġfac ed
Ġlog os
Ġsw ift
Ġroad map
ĠgÃ¤ sten
ĠkÃ¼ sten
Ġaktiv ieren
Ġident itÃ¤t
Ġschle chter
Ġzentral en
Ġwin berg
Ġhervor ragend
Ġkre uz
Ġchem ical
hor st
Ġped er
Ġsatisf actory
asch utz
Ġspeziel len
Ġbott le
road s
Ġintens ive
Ġcondition ing
Ġsonst ige
ĠunabhÃ¤ng ig
Ġelektron ische
Ġschne e
Ġamts sprachen
Ġadvis ory
Ġehrgeiz ig
masch ine
Ġdecla re
zim babwe
Ġconcentr ate
bem erk
Ġzweier lei
implement ing
mom ent
Ġunnecess ary
ĠgeÃ¤uÃŁ ert
4 33
c n
c reat
k az
l ana
s ho
s ized
u eller
er folg
Ġs elling
un as
Ġb aut
Ġp est
Ġg il
Ġin land
Ġv b
us d
us ions
ur ies
ter dam
Ġl uk
th aus
um mer
Ã¶ k
Ġj etz
Ġr ennen
Ġr hein
Ġcon fer
Ġcon version
ad option
Ġge ziel
Ġsch r
Ġsch Ã¼ler
Ġab ility
Ġab fÃ¤lle
Ġit er
Ġno body
ze k
ĠÃ¼ber nimmt
Ġex klus
Ġsich ere
ang hai
rÃ¤ der
Ġher berge
hal le
Ġro ut
are ta
man uel
Ġfre izÃ¼gigkeit
kl im
con vention
fahr er
mar ch
Ġstr ugg
ex tens
app ropri
Ġgu ys
Ġmark os
Ġ19 87
let t
bel la
Ġbus y
ha ust
Ġtransp osition
Ġsuch t
Ġcent ro
bet ween
Ġdisc ip
Ġpa ula
acht ungs
Ġfest ge
slo vak
Ġgre et
Ġsect ions
Ġversch w
Ġschw imm
Ġmittel n
Ġadv ise
Ġpost al
Ġinteress ieren
Ġged uld
Ġdifficult y
Ġfort fahren
gemeins amer
gemeins ames
Ġvertra uens
Ġunver Ã¤ndert
Ġage ing
Ġrub rik
budget ary
frist ig
Ġsn acks
Ġandor ra
Ġfle et
infr ing
agre b
prote ct
oph ie
Ġglad ly
Ġteach ers
Ġwid ely
Ġhen rik
Ġkenn zeichnung
Ġult im
Ġparad ies
ĠfÃ¶rder t
Ġfron tex
Ġeint rÃ¤ge
georg ien
verl Ã¤nger
Ġaccident s
bring ung
sph Ã¤re
stÃ¤d te
verschieden e
gemisch ter
b ay
c ie
e quality
p in
v est
w id
er l
en o
Ġt an
Ġt us
Ġt ub
or ders
Ġm ate
Ġb ands
Ġe ch
Ġe hre
Ġv iv
st immen
Ġre construction
Ã¶ se
Ã¶ hnen
Ġver an
Ġj azz
Ġpro be
de utsche
ier liche
Ġge ber
Ġse ver
Ġauf treten
Ġaus wÃ¤hlen
Ã¼ber nahme
ub ere
ers tellen
Ġme tern
ern ob
aus fÃ¼hrungen
lie hen
Ġgr asser
Ġtra ce
bar es
Ġra us
Ġange passt
fahr zeugen
bo a
Ġeuro just
Ġben ita
Ġbel ief
Ġkl ingt
stell t
rei ze
15 8
Ġgra ve
eth yl
bei ro
pre par
Ġvo or
Ġbro ther
pe ace
inter ne
Ġfest gestellt
Ġmus sten
Ã¼h le
Ġnov otel
spro du
Ġcho ices
follow ing
Ġmoment an
ij s
finanz audit
schluss antrÃ¤ge
Ġeib s
seit ige
Ġexist ieren
Ġmand atory
best and
polit ischer
ĠschÃ¶n heit
auss tellung
Ġwhe eler
Ġlisten ed
ining rad
Ġneg ativ
Ġtermin al
Ġbyr nem
Ġcra zy
het or
Ġchamp ion
lim ited
ladim r
Ġkompet enz
Ġcontrad ict
Ġrab att
Ġzun ehm
Ġenem y
Ġincor rect
215 48
Ġconserv ation
Ġsubstant ial
906 77
Ġberecht igt
ĠbÃ¼rokrat ie
muse um
vÃ¶lker ungs
Ġdign ity
komment are
ernob yl
m ale
m ium
u u
z illa
Â £
er ik
Ġt ieren
an p
ie fer
Ġp es
Ġp hr
Ġh uss
Ġin fect
el i
Ġun real
im er
et schen
Ġst y
ies ta
ot yp
os i
ein richtungen
Ġpro zeÃŁ
ver wendung
ill er
ind a
be halten
Ġsp ell
gr and
01 4
Ġunter r
Ġpol o
Ġlo b
Ġfinan ced
tra ff
enn a
con i
kontakt ieren
ital ter
Ġmy ster
Ġla id
klÃ¤r ungen
Ġdar stellung
ss ern
35 3
Ġkl Ã¤ren
Ġgegen stand
Ġappro ve
ax is
bei hilfe
Ġleben sl
Ġfinanz dienstleistungen
Ġgeneral s
Ġsum mar
Ġref und
amer icas
Ã¶ÃŁ t
nor mal
Ġzusammenarbeit en
Ġconf usion
Ġlog ical
Ġeffect ively
Ġstre cke
Ġcal a
hel lo
di am
Ġregul ierung
Ġrent en
Ġpet r
prÃ¤ vention
Ġconnect ions
fil es
Ġernst haft
stre am
Ġclar ity
kle in
sal do
Ġrelax ation
ĠfuÃŁ ball
Ġdiskussion en
Ġgeh minuten
Ġfant ast
Ġlok alen
Ġdol om
Ġvergangen en
Ġfuer te
omb udsman
Ġtw ice
Ġken ne
Ġbein halten
mass nahmen
ĠgenÃ¼ gend
hÃ¤ ufig
natas ha
Ġsurpr ising
regist ration
liber al
kÃ¶nn ten
fakt or
ĠbekÃ¤mp fen
Ġcach ia
analy se
Ġkompon enten
vorgeschlagen e
thiop ien
2 95
c ue
h ungen
k und
k risen
o bl
r ules
s ugar
t ig
t ief
t aste
w inter
in x
in ated
Ġt ape
es co
or o
Ġw itt
he ar
Ġf ok
Ġf Ã¶der
Ġb ull
Ġb lieb
Ġp se
Ġp ity
Ġp pe
Ġp ump
ro ws
Ġg reift
Ġv eg
om la
Ġk Ã¶ln
ra b
Ġbe fehl
ge kommen
omm er
Ġ1 35
os ing
iss es
tel n
est yle
se il
end it
ne z
Ġwer ke
Ġex ek
Ġhe ight
Ġas h
ell ence
ell aneous
Ġro ten
Ġma is
af rd
Ġqu ad
Ã¼s sl
Ġman che
iz z
Ġmo el
to bacco
con nor
Ġbo om
Ġprodu ces
ex terne
Ġant ibiot
Ġmon opol
ett a
zeit raum
Ġgra v
ris iko
Ġakt ive
Ġplan en
Ġcontin ent
vention en
Ġkar in
Ġtour isten
Ġpal m
comp uter
ivers ary
member ship
Ġshort comings
Ġint oler
ĠfÃ¼hr ungs
mat ik
Ġbor ne
Ġmiss brauch
Ġflex ibel
Ġzie gen
Ġinvol vement
Ġbol d
Ġguid ance
mor occo
Ġhinsicht lich
cap ital
Ġvoraus schau
lÃ¤nd ischen
Ġcert ified
soll ten
Ġumge kehrt
Ġempf iehlt
Ġkreat ur
Ġring holm
Ġdipl om
Ġangegeben en
ĠbehÃ¶r de
Ġlehr er
Ġimper ial
fund ing
Ġedu ard
Ġbib liothek
Ġbeein fl
altern ativ
Ġbemer kte
ĠmÃ¼s ste
propos al
Ġesper sen
akh stan
Ġglav any
n berg
n dez
o i
p ubl
q vist
r ingen
u ber
v ald
Ġt ube
Ġd Ã¤n
Ġs ot
or m
re ach
re vision
Ġm isch
ie tet
Ġp ace
as ia
le isten
Ġan halten
Ġan bieter
el ong
ter er
ra els
Ġth read
Ġbe et
the it
am ic
ab teilung
Ġver arbeit
den a
sch er
de utsch
ul u
Ġr ichter
Ġwir ken
sp reis
op ard
ant es
Ġco des
Ġle ipzig
ist ol
Ġch ron
Ġme als
Ġen vis
ru cted
Ġmo on
Ġapp ell
Ġzur ich
pro duction
ace k
bar th
Ġra ises
Ġpos ted
Ġpe k
12 4
sta ates
vers uchen
wed nesday
Ġtr s
Ġtr ennen
mo unt
Ġbus es
par te
Ġsc ot
Ġtun isia
Ġmade ira
eg al
Ġgl ance
Ġtele com
Ġamend ing
sit zung
Ġpat ents
lat in
sy rien
Ġdokument ation
Ġdim ensions
ĠhÃ¶ here
reas oned
with in
achst an
Ġhoch wert
Ġauthor ised
Ġsor gt
Ġlebens mitteln
kom ple
Ġnegoti ation
Ġwest lichen
Ġzuf all
Ġhon our
Ġtransl ate
Ġpassen de
inde x
Ġruh ige
Ġunge he
Ġri beiro
Ġmccreevy minister
Ġcolle ague
hard t
exam ple
Ġcompon ent
adv ocate
Ġwithdra wn
demokrat ie
ĠschÃ¤ uble
Ġjen sen
Ġerinner ung
agg f
Ġbureau c
ĠjÃ¼ng sten
gef unden
jus ted
respons ible
schwar zer
Ġconstruct ive
Ġpapandre ouminister
forsch ungs
Ġrecognis ed
ĠmÃ¼nd lichen
Ġlyr ics
1 75
5 01
a head
k ord
n ism
r ische
w els
y stems
Ġa e
ch ts
is tern
Ġs ak
it em
Ġw ake
Ġm ort
Ġf c
Ġf ru
Ġf Ã¼ssl
Ġp ear
Ġe i
Ġg ps
Ġn ro
Ġo ste
Ġo asis
Ġo connor
Ġv r
Ġan leitung
ir at
Ġl us
st one
Ġre ine
Ġpro mo
ver gleich
Ġge pf
Ġsch Ã¤tzen
ag te
Ġab stimmungen
op t
end a
ib bean
ist ischen
Ġwer be
iv ir
Ġex clusion
Ġso il
Ġent weder
Ġum gehen
Ġro ots
Ġlo ans
ass ess
Ġman aging
Ġgr ub
Ġmo tel
Ġrat io
Ġdeb atten
br asilien
og a
Ġbet ont
do ck
Ġpr in
bo gen
schl Ã¼sse
fl ugh
Ġgu tsch
12 3
Ġfl ows
Ã¼ssel dorf
Ġmach te
Ġgel iefert
15 4
Ġgemein t
Ġexp os
olog ischen
mark ts
ris k
Ġleg ally
hol z
hol ds
Ġakt ions
Ġdiffer enz
coun ts
Ġeing abe
Ġgem isch
ĠgrÃ¶ÃŁ eren
Ġbesonder er
ĠbeschÃ¤ft igen
Ġpot ato
Ġnecess arily
Ġfal schen
ĠgeschÃ¤ fte
Ġmart ine
Ġol den
num mern
sim babwe
Ġnachhalt igen
beg inn
Ġschre ck
Ġpin heiro
Ġmik ro
alex ander
Ġkommissions vorschlag
Ġerzeug er
iede te
fortsch ritte
prof it
Ġmur der
Ġmeant ime
Ġbos se
Ġerweit ern
Ġhop es
Ġguard ian
Ġmerc ure
Ġgep Ã¤ck
Ġgros sen
chair man
wr ite
Ġrodrig ues
2 18
a im
m me
o a
o e
r ichtig
t us
t Ã¤glich
y o
z icht
ch ing
is ierten
or gen
Ġw Ã¤l
al b
Ġe k
Ġe ck
Ġe chten
Ġh ut
Ġh unde
Ġn as
Ã¤ g
el ten
Ġk idd
Ġl amp
Ġst uttgart
the men
id al
and r
ab s
Ġal ps
os ph
Ġver de
ver ring
Ġr hetor
Ġer sucht
be w
ess andro
Ġsch ad
ag ger
Ġab lauf
Ġme g
Ġme al
Ġen gel
Ġvor Ã¼ber
ard a
Ġag es
kl ick
Ġze ilen
Ġbed ien
Ġacc eler
lin ux
Ġsol o
Ġarbeit geber
Ġmich aele
Ġbel Ã¤uft
Ġ14 5
Ġspe isen
Ġhin nehmen
Ġko st
Ġgel ingen
Ġperson nel
Ġsub jects
Ġsicher er
Ġmitglied schaft
19 4
see te
Ġtext iles
Ġnet to
Ġcap abilities
33 10
Ġpat ients
Ġsum me
Ġgre y
val ue
Ġexc urs
tend lich
Ġverein igte
Ġbil dern
ww w
lÃ¤ s
Ġnever theless
Ġlebens qualitÃ¤t
Ġneues te
Ġable hnen
rechts vorschriften
produ ct
det a
rahmen programm
vide os
Ġwesentlich er
imp act
Ġindic ated
Ġpropert ies
resp ect
Ġjohn son
mi roslav
Ġprim arily
Ġaudio visual
ĠstÃ¤d ten
Ġarrang ement
Ġfant as
priv at
Ġagentur en
Ġliberal isation
Ġtrag Ã¶die
Ġwom ens
Ġaustral ien
object ives
Ġbirth day
Ġcompar ison
Ġbeein druck
Ġtrav elling
Ġcompla int
Ġuntersche iden
ĠnatÃ¼r lichen
Ġexcept ions
import ant
ĠlÃ¤ng st
Ġkatastrophen schutz
Ġauftrags wesen
Ġprosper ity
ĠfÃ¤hr t
ĠdÃ¼ster haus
Ġvergn Ã¼gen
Ġgekauf t
biss au
0 30
b ow
b ip
e am
h aften
k ulture
n an
t um
v re
w ire
x ten
z imm
it glied
or i
or azza
Ġw Ã¶rter
re iten
Ġp ec
Ġh ay
Ġg riff
Ġg ained
el en
Ġk ond
Ġk rat
Ġk alender
ig o
Ġl ulling
Ġto chter
Ġein bezogen
um es
res olution
ein d
ver stÃ¤r
ier bar
Ġr ang
Ġwir st
Ġge legt
Ġab ges
Ġdes cribe
Ġco in
Ġle v
gr Ã¶n
ĠÃ¼ber leben
Ġvor lage
Ġum gang
Ġunter staatssekretÃ¤r
32 0
sie ht
Ġsu iten
Ġ... ?
Ġbet rÃ¤ge
use ppe
Ġmar ri
mar iann
ph p
igh ter
ange hÃ¶r
Ġstay ing
Ġdec e
Ġsol ana
geb Ã¼hr
ii ibcd
Ġwel thand
Ġvers us
je kten
Ġinvest ors
Ġsel ben
Ġeinz igen
Ġed ps
aut om
Ġkur se
Ġtrans actions
esc orazza
Ġsag ten
minis try
Ġamb iente
gemeins am
Ġclass es
Ġluft verkehr
52 407
Ġjud ge
international er
Ġkop ie
trans fers
Ġprivat sphÃ¤re
innov ative
Ġflugh Ã¤fen
iann ual
bra zil
Ġrot ary
Ġharmon isierung
cod ec
Ġflor ence
Ġeinheit lichen
infrast ructure
Ġsell al
wÃ¼n sche
Ġspac es
Ġcab in
Ġfirm ly
Ġcos y
ĠrÃ¤ ume
Ġportug uese
Ġereign is
Ġgeheim nis
Ġexpert ise
Ġlangfrist ige
Ġsamm eln
Ġdrit ter
Ġpia zza
Ġlied texte
Ġfrancis co
klaus el
Ġpharm aceut
ĠerwÃ¤hn te
ĠphÃ¤n omen
Ġurs ula
Ġhuss ein
nism Ã¤ÃŁ
Ġolden burg
a ire
e ffe
e hemalige
f ungs
f aro
g ie
l g
l od
m is
m ov
n ick
p oll
s ow
t in
v il
v ill
z eln
Ġa ub
Ġt amp
es tet
Ġd s
Ġd airy
re j
Ġm cd
ro g
Ġh ire
Ġo c
Ġo v
Ã¤ gypten
ig ern
Ġl ug
ra ising
Ġre vers
Ġbe ck
um weltschutz
Ġst an
Ġst orn
Ġj im
Ġi k
Ġi kt
Ġr inder
be zug
ct ors
op ho
Ġwill st
la is
Ġho c
uss y
Ġro bin
zen s
Ġcont rovers
99 780
Ġgr ill
iz iert
hin ter
Ġste he
Ġtra m
wo che
Ġup gra
Ġbo ats
Ġbr ut
Ġpr ender
Ġfr ucht
ex isten
pol ize
Ġhand ling
Ġbed anken
app ed
Ġdec k
Ġsupp l
vers icherung
Ġdu an
ins ert
Ġgra z
oper ational
Ġur sache
reg ierung
Ġorgan ized
Ġziel t
annex es
Ġnational er
Ġstud enten
Ġinn ere
Ġausge fÃ¼llt
dan uta
ij ten
partner schafts
Ġbill ig
stehen de
sc ience
Ġcamp o
pos ition
Ġarg entina
Ġbereit et
Ġrahmen bedingungen
gew iesen
Ġschwe igen
Ġmass ive
Ġche ese
Ġstatist ik
Ġang ola
ĠschlieÃŁ e
Ġut il
bro ws
Ġvert retung
Ġabgeord neter
Ġmarg areta
verstÃ¤nd nis
exp orts
Ġfire wall
ĠbestÃ¤t igung
Ġbla u
Ġpf ad
Ġven edig
Ġperspekt ive
Ġzul Ã¤ssig
adem ie
Ġhom es
sichtig ung
Ġconstitution al
bern ard
Ġgesp annt
Ġregret table
Ġportug ies
ĠenttÃ¤us cht
wohn ungen
Ġerneuer bare
Ġzert ifik
Ġoz ean
bir ma
ĠverlÃ¤nger ung
Ġsinc er
Ġlapt op
Ġaben teuer
, ...
/ /
a verage
d ated
e vent
g ent
h app
i ate
j am
k it
m ind
y oung
in ery
re public
Ġf ate
ie w
Ġb und
Ġe ads
Ġh r
Ġh ur
ig ration
ol ven
Ġz agreb
we ar
ul se
Ġr ass
Ġr indfleisch
kt ure
Ġaus sagen
Ġeurop af
Ġle one
ze j
Ġes te
ok raten
32 7
Ġad mit
ap hne
ast ung
Ġro jo
Ġgr Ã¶s
Ġber gen
ame ter
enn ess
ild et
con ven
Ġprogram men
Ġger ichtet
Ġ19 86
Ġarbeit splan
zeit plan
15 7
Ġexp o
13 7
Ġans ichten
Ġunder ground
Ġass et
ĠgroÃŁ em
Ġemp fang
Ġke eps
19 1
Ġwelt wirtschaft
pre vention
Ġrechts mittel
tran sl
bet ra
zahl ungs
Ġmus st
slow akische
can o
Ġdialog ues
Ġfavour ite
iver se
Ġstud ios
Ġenergie effizienz
Ġsuccess fully
ĠbÃ¼rger meister
Ġactiv ate
vi ol
Ġabge geben
hip s
Ġprom pt
ĠverfÃ¼gbar en
55 9
Ġmarkt wirtschaft
Ġann iversary
Ġton io
Ġanal og
Ġanim ation
Ġdelegation en
ecspok escorazza
Ġban anen
ĠprÃ¤ vention
Ġcast ro
Ġentwicklungs hilfe
Ġdemand ing
Ġvereinbar ungen
Ġharmon isation
Ġbud d
Ġdynam ik
Ġbetroffen en
Ġsyn thet
Ġgerecht fertigt
Ġurspr ung
grÃ¼n buch
elect ric
janu ary
Ġkorre ktur
aktiv itÃ¤ten
Ġminor ity
Ġsmo ke
Ġverbre itet
Ġgros se
ĠgrÃ¶ ÃŁen
Ġjord an
ĠbeglÃ¼ckwÃ¼n schen
Ġbri vio
Ġbiz arre
chant al
Ġbeige fÃ¼gt
Ġmunicip al
Ġschwarzen berg
lead ing
Ġtener ife
Ġexclus ively
Ġstrugg le
eam onn
% ).
0 50
5 30
5 14
d al
f ur
g ht
r ass
t Ã¤tigkeit
u ung
w i
er mÃ¤ÃŁigung
en p
Ġa str
Ġt l
Ġt am
an ter
it ert
Ġw ife
Ġm acker
ie u
Ġb h
Ġb uss
Ġp am
Ġc ereals
le banon
Ġh ust
Ġn in
Ġn est
Ġin adequate
Ġv ladimir
Ġun iform
ir i
Ġl ena
st i
Ġre h
Ġz onen
res erve
ab t
Ġver geben
Ġr hy
Ġr iding
.. ...
op el
Ġsp itze
her aus
Ġhe iz
Ġas ter
Ġent deckt
Ġ4 60
Ġ4 73
Ġro llen
Ġange ben
10 8
ges prÃ¤
Ġze ug
Ġ12 6
Ġbed ing
alt ar
wÃ¤ re
Ġob jekte
Ġverb inden
Ġgel Ã¶
bal ance
Ġgest iegen
46 4
Ġair ports
bet rie
Ġfest platte
ari os
Ġindust r
ief st
Ġtour en
Ġopp ose
besch rÃ¤n
zur zeit
Ġput ting
gehen de
Ġpartner schafts
Ġenergie bereich
Ġsal mon
36 0
Ġern ste
Ġconsider ations
ĠtÃ¼r k
Ġabruf e
Ġinfrast ructures
Ġschwier iger
Ġbelg ian
Ġcop ies
Ġlib ya
Ġpubl ish
Ġzweit es
Ġgarant ieren
Ġplat ess
Ġurlaub s
Ġenor me
Ġhost al
Ġbern d
Ġsi im
Ġvinc enzo
Ġbevor zug
Ġlok al
ĠergÃ¤n zte
Ġoblig ed
Ġurspr ungs
Ã¤um t
Ġkonst ant
wen iger
Ġwood s
Ġbran che
gere cht
Ġauss ichten
sÃ¼d afrika
yt la
vertra uen
ĠfranzÃ¶s ische
Ġsla ve
jen igen
Ġcrow ley
def izit
ĠflÃ¤ chen
ĠbeglÃ¼ckwÃ¼n sche
Ġbreat h
Ġunglaub lich
vsk is
seurop Ã¤ische
Ġregierungs konferenz
Ġturk ish
Ġgeg ner
Ġthre aten
Ġzunehm end
6 99
6 6565
h d
m ath
n gl
t ap
t aus
u ing
v et
x it
in wie
Ġt all
Ġd y
Ġb ologna
Ġp ess
Ġh ors
om o
Ġk ari
ter a
Ġl d
Ġl j
ol ge
ge werbe
Ġein fuhren
Ġst ammen
os is
Ġver kÃ¤
Ġver hagen
Ġr ip
kt iven
ien sten
op ing
op hy
Ġco x
Ġle be
Ġch ap
Ġch ose
Ġch ocol
Ġho bby
Ġen abled
aus fuhren
weit ung
tell ten
ĠmÃ¶ bel
ru ijten
Ġapp artements
Ġfre ige
auf t
ord net
Ġcomp ly
Ġ22 2
Ġmehr fach
teil ungen
Ġstr asse
wor auf
Ġla un
war tet
let ters
Ġdurch setzung
Ġmon de
Ġins ert
hol fen
Ġchar m
Ġfinanz ausschusses
Ġmal i
Ġorgan e
Ġpark en
fre uen
Ġglobal er
Ġletz tes
Ġret ro
Ġchild rens
Ġerfolg te
Ġverein bart
Ġtur m
arch iv
Ġlog istics
-- -
Ġdom ains
abl en
ĠtÃ¼r en
47 3
iar ies
Ġol ivenÃ¶l
Ġnear est
Ġtro ika
Ġfortsch ritts
Ġfern and
.... ....
bis lang
Ġstor es
ĠsÃ¼d lich
kÃ¶n ig
Ġpartnership s
Ġnachhalt igkeit
Ġminim al
Ġbox es
Ġsepar ately
Ġentwicklungs fonds
Ġ46 07
pat ent
Ġwatch ing
Ġwohn ungen
Ġaktual isieren
ĠausfÃ¼hr liche
Ġzut iefst
Ġkolleg in
Ġbedro ht
ĠverhÃ¤lt nis
stu die
Ġkonsequ ent
ped ro
Ġsym pt
mex iko
eig nete
Ġalph a
Ġindividu als
Ġverurs acht
lÃ¤uf ige
Ġarchite ktur
Ġtremont i
Ġbroch ure
Ġrud olf
Ġleht omÃ¤ki
Ġstimmer klÃ¤rungen
Ã¶tz lich
interpret ation
Ġprender gast
. /
8 22
g io
g ues
h te
k ok
m n
r ors
v ous
z s
Ġt ue
Ġt rÃ¤ume
Ġd ive
un ning
Ġw ales
ie ur
Ġp upp
al ready
as ters
Ġh Ã¤ngen
Ġg ust
Ġg ingen
Ġo omen
Ġv ap
Ġan gest
Ġan ruf
Ġun ity
ed o
Ġal ive
sch Ã¼re
Ġauf gerufen
Ġdes ert
Ġmit teilen
Ġsp are
Ġch ip
her stellung
Ġall zu
01 1
Ġpl ot
Ġunter sucht
Ġad ri
99 9
mit twoch
Ġnew spap
tra dition
Ġtra iler
Ġcomp an
wo hin
wo hnt
Ġmar ried
Ġmin ib
ex change
Ġla z
part ners
erg Ã¤n
fl u
geb ieten
Ġmed ina
Ġjo o
Ġact ing
Ġsc ar
Ġbesch werden
15 2
Ġpublic ation
Ġadop ts
isten cy
ris y
Ġgrund lagen
Ġproduc er
Ġmal aria
book s
Ġed sb
sol id
aut o
Ġest imated
program men
Ġrecht liche
amer ikan
ingen ommen
Ġtre m
Ġkar ib
ca ution
Ġung erecht
Ġvill as
Ġactiv ated
ĠwÃ¼n scht
zus agen
dig itale
Ġschul dig
burg h
Ġfair ness
Ġmig rations
li isa
Ġgonz lez
ĠhÃ¤ fen
handels abkommen
Ġdest ruction
wÃ¼r de
Ġic ons
Ġwissenschaft liche
Ġchem ikalien
Ġlic ence
Ġlate x
ĠgefÃ¤hr licher
ĠfrÃ¼ hl
Ġmos kau
Ġvirt uelle
ĠÃ¤nderungsant rÃ¤gen
Ġarrang ed
Ġfischere if
Ġaktual isierung
Ġchanc engleichheit
Ġwid th
Ġhers tellung
Ġstri ke
prof ession
Ġkomfort abel
send ung
Ġrefuge e
Ġsucceed ed
Ġleb end
Ġvorauss etzung
Ġerwer ben
Ġsurround ings
Ġrespekt ieren
iling ual
staats minister
icul um
icul ous
Ġbatter y
Ġquo ted
Ġauft rÃ¤ge
Ġcry stal
ĠflÃ¤ che
Ġvoc ational
Ġloy ola
Ġrul ing
Ġsingap ore
ĠbÃ¶r se
usal em
Ġyah oo
verring erung
% ,
4 75
b ungen
d ue
e iro
m ung
p ts
s ize
s burg
t Ã¼
t age
z ierung
er ted
Ġa then
Ġs her
un sten
Ġw als
Ġw ett
he m
re den
Ġf are
ar ma
Ġg iovanni
Ġn ich
Ġv ille
Ġan fangen
Ġk ul
Ġk ear
Ġk attegat
Ġl on
im ed
um ed
for th
gen der
Ġver bringen
ein fuhren
Ġr enn
est o
Ġde i
form al
Ġsch mit
Ġauf preis
Ġch r
Ġvor legen
Ġvor schlagen
Ġsh ap
Ġus ername
Ġum setzen
Ġor ch
Ġqu ark
iz ations
Ġag ents
Ġstat ute
Ġpress ing
Ġpo os
fÃ¼ hl
Ġhier mit
Ġdis hes
Ġ12 7
pr s
uÃŁ t
mar okko
Ġdire cted
Ġph ones
Ġsupp lier
Ġinv ent
tr as
wel cher
unt u
jo b
vie ws
Ġpolit isches
Ġpolit ically
Ġganz es
ep so
Ġcontin ental
Ġhuman ressourcen
Ġversch Ã¤r
Ġpap ers
Ã¶l f
under ing
off er
Ġexc ellence
iff ern
Ġsou ght
finanz ierungs
Ġprom ised
ĠverfÃ¼gbar keit
Ġgef Ã¤ng
Ġelect rical
mus ic
text iles
Ġrefer ences
noch mals
Ġentfern ung
met hoden
rik as
Ġang esehen
Ġluft fahrt
ĠhÃ¤ user
Ġlib yen
Ġsent ence
wesen heit
put in
Ġerw iesen
cop y
hor se
Ġverm ieden
km u
Ġmensch liche
Ġdrink ing
Ġdol met
ĠergÃ¤n zt
Ġgesundheits wesen
ĠbefÃ¼r worte
Ġsche ide
Ġliberal isierung
tim or
Ġverabsch iedete
---- ----
mill ionen
Ġsad dam
indik ator
Ġhorizont al
Ġmund us
Ġcalcul ated
ĠprÃ¤z ise
Ġsinc ere
Ġing red
Ġstrict ly
Ġdisapp ear
administr ation
oct ober
Ġhandlungs bedarf
Ġhervorragen de
Ġzy pr
Ġabgesch afft
minim um
hÃ¤us er
Ġvou cher
Ġaccomp any
moment an
Ġkear ns
5 20
d n
f ungen
g Ã¤nger
g adus
h lich
n bsp
t ie
t as
y ers
z ungen
z ell
in tellectual
on ing
Ġd Ã¼sseldorf
he ld
ar men
Ġc it
Ġe hemal
Ġn ue
Ġn uts
ig or
ir s
ou b
hr er
Ġal ber
Ġer f
ad el
ad ier
Ġse pp
Ġse villa
qu ick
Ġab sen
Ġauf gebaut
Ġvor sitzen
ang o
ell ers
Ġres iden
dies bezÃ¼glich
Ġar be
ard ing
ast a
du an
ult an
Ġfra mes
igen de
Ġman ip
ble d
br and
br idge
Ġange wendet
10 3
do ppel
Ġbo b
per fect
Ġbr ands
Ġdis plays
Ġ12 8
fahr zeug
mar co
Ġ10 2
cont ract
Ġclos ing
Ġdi kt
Ġdi verse
Ġbed anke
Ġlie bl
ism o
Ġtun esien
Ġdirect ors
Ġbl an
gl ena
leg ten
Ġsicher en
Ġhal onen
uff icient
Ġprov ince
Ġupd at
sa ustausch
Ġdifferent ly
Ġkey board
amb ia
ij an
Ġfood stuffs
vi ib
Ġgenau er
Ġtar geted
sc re
Ġelect ron
Ġcr ash
inhalt ung
Ġvar ied
Ġlebens lauf
lichkeit s
Ġhor izon
stÃ¤r ke
Ġzug unsten
Ġoptim istic
Ġkeep ing
Ġbinnenmarkt es
Ġut most
por ate
Ġabs or
Ġalb ums
ĠÃ¼br ig
ĠhÃ¶ch sten
Ġtac is
Ġmanufact urers
lÃ¶s ungen
Ġfas cin
Ġsyn ony
arbeits losigkeit
agentur en
lib anon
tab ak
Ġeinzig art
Ġpure ly
Ġzahlungs fristen
grenz ung
Ġisol ated
fam il
Ġquant ity
spap ier
Ġinspir ation
Ġsr l
Ġtoile t
Ġhauptz iele
Ġincent ives
restrict ive
atem ala
Ġenlar ged
anp assung
codec ision
+ +
c urr
c ott
c ulation
d im
f ly
f anny
g age
k Ã¶
l Ã¼ck
s r
ch apter
on ic
Ġd ingen
un i
he ll
Ġm ere
Ġm ant
ar at
Ġc c
Ġh oney
Ġh Ã¼ter
Ġg az
Ġn d
Ġn enne
Ġo x
Ġun us
st ick
im ents
Ġder og
ge fÃ¤hr
Ġst ro
am ed
ab ria
we bs
ot ive
ver teid
Ġer mÃ¶glichen
ach te
ri as
Ġaus gleich
Ġaus rÃ¼stung
ht ml
Ġvor sicht
Ġwh atever
... ]
Ġar res
Ġ4 98
32 1
32 4
aus fuhr
akt ive
Ġpar c
Ġpo inted
Ġcomp os
con cre
ges am
fe b
Ġinter pre
Ġdar gestellt
app artement
Ġant ti
tr icted
Ġuhr zeit
Ġdurch fÃ¼hren
Ġmein ungen
Ġter rible
Ġbl ow
13 3
ĠfÃ¼ gt
sh ore
45 6
ko hÃ¤sionspolitik
Ġfran ces
Ġrechts akte
Ġgre then
fre ien
Ġsign als
Ġdist ribut
Ġtax pay
Ġcut ting
Ġverl ust
ij us
ĠbegrÃ¼ ÃŁ
Ġstre ets
Ġgener ate
nt ax
mut ual
stra ÃŁen
kom pet
Ġsend ing
rechts sache
Ġord inary
Ġbestehen den
Ġfrieden s
Ġperform ed
mobil itÃ¤t
Ġarbeitspl Ã¤tzen
gn osen
Ġign ored
Ġdun ne
kenn zeichnung
Ã¶ffentlich es
Ġarab ischen
pap er
sect or
Ġforec asts
var ious
uls ory
audio visual
Ġdiesel be
ugg age
Ġtransition al
Ġgib ts
Ġverring ert
Ġgeograph ical
Ġphilos ophy
Ġsurv ive
Ġdisapp ointed
ambod ia
zentr en
876 24
appl ication
Ġhik ing
pract ical
Ġcerem ony
etschen ien
Ġupdat estar
b esser
c ore
n ut
v and
er aum
Ġs ammlung
Ġf iesta
Ġc ake
ro us
le m
Ġn es
Ġun ix
ig et
Ġl ing
Ġl our
Ġl Ã¤rm
Ġz ap
Ġth in
Ġth ick
ab de
ab satz
Ġal i
Ġj ump
Ġim m
Ġde ter
Ġde fr
Ġge fe
Ġse es
Ġse bast
Ġsch ritten
Ġauf forderung
Ġat zo
ib a
ib or
men ge
land verkehr
Ġso eben
Ġvor bild
Ġhe x
me gr
Ġpl c
Ġdem ograph
Ġman if
Ġgesch afft
Ġfre ely
Ġ7 50
Ġpo cket
Ġra ven
fe hlen
ma jor
cont ent
chn ya
Ġcl imb
35 1
Ġind ian
Ġinv ites
let te
Ġkl assen
Ġtr inken
Ġsc rut
Ġvers uche
Ġbesch lieÃŁt
gl ise
Ġzusammen ge
ath on
Ġwelt weite
Ġel ite
Ġsk ip
iet ung
Ġev a
anc ies
dar aus
med ien
Ġ* **
Ġref ers
amer ican
Ġcre w
ichte te
kar l
Ġson y
Ã¤hr ungs
Ġdef izite
vi ia
Ġkor ke
jan ez
Ġachie ving
Ġtro cken
Ġkap azitÃ¤t
fa q
Ġbath ing
Ġmaterial ien
Ġgesche itert
Ġtown s
Ġlas ten
dok umente
Ġraum fahrt
Ġaufge hoben
Ġep idem
Ġka iser
stre it
Ġcross roads
Ġbir ma
Ġnic olas
bie gen
Ġteach er
kop f
Ġbran ch
ĠjÃ¤hr liche
Ġzimm ers
Ġisol ation
Ġanp assen
ĠprioritÃ¤ts achse
Ġchines ische
mex ico
Ġsof ia
Ġunmittel bar
Ġindones ia
Ġpac ific
Ġath ens
domin ik
increas ing
tick ets
Ġvita e
modernis ierung
Ġconduc ted
Ġtrig ger
Ġeuropaf ragen
b ot
d ol
f id
f ri
g old
i ffen
n Ã¤chst
o ter
Ġ ud
on ess
on ian
Ġd Ã¼n
is lav
an ie
an schluss
Ġw uala
Ġm ile
Ġf ond
Ġf este
Ġb ond
Ġp ens
Ġc t
Ġg ange
Ġin coming
Ġis ch
Ġk ot
Ġl aila
ra f
ol ia
Ġbe zÃ¼glich
Ġist an
Ġal ert
ber ater
ac ted
ve y
iss ue
ver fÃ¼g
be y
be autiful
be achten
Ġab stimm
Ġaus geb
Ġaus blick
Ġaus maÃŁ
Ġat las
Ġno isy
Ġwas ch
Ġvor gang
Ġvor sorge
ang ers
Ġent stand
Ġar ise
Ġtra ins
Ġup s
Ġze italter
Ġbr ig
Ġbr id
ichtig ung
fahr ts
ong o
ong ue
ert rand
Ġmin ing
Ġla de
Ġdar unter
Ġind ices
tr ue
Ġgel aden
Ġx v
Ġbl att
gl er
Ġmill er
Ġover come
Ġgew Ã¶hn
ĠâĤ¬ /
16 7
16 15
Ġev ans
ĠmÃ¶glich st
bes tellen
Ġgeneral anwalts
Ġsehen s
ene ch
Ġintegr iert
Ġenergie politik
Ġmoment um
gleich wohl
Ġaim ed
Ġprincip al
Ġdemokrat ischen
Ġfir es
Ġsen ior
87 166
Ġdre wes
ico le
ĠkÃ¼ hl
sim ilar
Ġgran ada
bor ne
real es
Ġba j
Ġattra ctions
Ġsix th
Ġelekt ro
vii us
wach ungs
Ġvorgeschlagen e
entwicklungs kommissar
iann is
Ġpurch ased
Ġbann ed
Ġaccommod ate
Ġwunder bar
wÃ¤hr ung
Ġmanufact ured
Ġverk n
Ġeisen barth
Ġfu els
rest riktive
fut ter
ĠausgewÃ¤ hlten
Ġcelebr ate
Ġjose f
Ġcow en
Ġamerikan ischen
Ġeint ritt
Ġsurround ed
Ġenh anced
Ġvent ure
call s
regist r
Ġtherap y
Ġsd l
klima wandel
present ation
Ġreihen folge
nahm eregel
Ġconfident ial
Ġschla fen
Ġgetr ennt
Ġvorder grund
537 73
Ġvalion is
Ġdab ertrand
Ġepiso de
verlÃ¤nger ung
Ġrhy th
4 11
l ings
o de
r ated
s voll
u den
Ġf ische
Ġf az
Ġb id
Ġp ausch
Ġg elt
Ã¼ bung
ur us
il led
Ġk w
Ġun forget
ig ert
st ad
st av
Ġre b
Ġre ass
Ġz oo
ts am
we ek
Ġver letzt
ve g
ein stellung
ein richtung
Ġi ve
Ġr ice
Ġer Ã¶ffnung
all eng
Ġde aktiv
sp a
ri ppe
Ġse kret
Ġab geben
Ġaus ser
Ġaus fuhr
Ġden kt
hen ri
gr Ã¶
od ation
Ġex changes
Ġso fa
Ġhe d
ste igerung
Ġte fan
Ġro sen
Ġlo ch
ass istance
Ġag gress
Ġber ge
pl ing
ens es
ho he
Ġpart nern
Ġbr Ã¼
ian z
chn ung
Ġdec reas
Ġgu ided
des pite
Ġspe kt
Ġjo aqun
Ġkl Ã¤r
Ġart is
fÃ¼hr te
Ġgra ham
alk an
Ġagre es
Ġmat he
sh irt
Ġgest o
gre es
Ġbas ket
Ġev ident
Ġeinz eln
Ġqual ified
forder ungsschreiben
22 1
Ġgl ac
17 7
Ġprov iding
Ġpark s
Ġruss ische
Ġexc el
Ġsto ppen
Ġerfolg reiche
Ġfahr plan
Ġposit ives
Ġbal i
Ġtur in
Ġheraus geber
Ġeconom ies
Ġdom inique
Ġpresse konferenz
Ġged ank
bas ic
Ġhaupt bahnhof
Ġbrief ing
Ġtro tz
head ing
ifiz ierte
wur de
Ġunver g
Ġunver zicht
vertrag s
Ġhost ing
impro ved
ura j
Ġgeh ts
Ġbay ern
Ġdun kel
Ġaccom pan
Ġmedic inal
eas tern
Ġnik on
Ġjose p
Ġamerikan ische
rip ts
rechn ung
adv ant
Ġrob ot
Ġdrag on
Ġexter nen
Ġleiden schaft
Ġinvestig ations
sph ase
Ġinspect ion
Ġromant ic
Ġrid iculous
Ġmeld ungen
dimit rij
Ġgale a
kam mer
Ġkandid aten
Ġholl and
Ġernen nung
nad ge
Ġhypoc risy
Ã¼bergreif ende
Ġumfass end
Ġzutre ffend
Ġdefr re
Ġistan bul
2 12
7 22
d og
f uÃŁ
h um
k alender
m io
p ing
s un
s ka
t ungen
w achstums
Ġ ion
er be
in tell
Ġt ent
is ure
Ġw ij
at ar
Ġm Ã¤cht
Ġf enech
Ġp lo
Ġp ause
Ġn ass
Ġn ichte
Ġv aj
Ġk rÃ¤
Ġk lin
Ġl ip
Ġl ese
st ufe
Ġre if
Ġth row
Ġein haltung
Ġfor ced
Ġy ield
Ġal girdas
Ġj et
sch m
sch an
sch op
de ep
Ġsie d
Ġr y
Ġr iek
Ġr gion
Ġer fasst
Ġde grees
ad ays
qu et
Ġsch lage
Ġauf gel
Ġdes per
ant worten
Ġsp az
ah a
so und
hen de
gr Ã¼
imm igration
Ġres istance
Ġar my
Ġar bit
Ġar range
Ġpl astic
ben ef
ungs voll
aus ge
wer bung
av a
Ġgr as
Ġpo ols
Ġpart ly
Ġvie wed
Ġbo ards
per form
mar ine
Ġtran qu
Ġsupp lied
Ġben schop
Ġet ienne
Ġmod ular
Ġx iii
ans k
40 8
Ġexp orte
oc i
Ġkomm er
bere iten
16 5
Ġwieder hole
Ġair bus
Ġcas tel
33 7
Ġref used
Ġgleich stellung
Ġsign ature
ĠzurÃ¼ck zu
Ġtim ing
Ġeigen er
Ġtrans form
Ġruss ischen
Ġlandwirtschaft liche
spl ans
Ġverw altet
nat ural
kar inen
Ġverein igtes
Ġca ught
Ġfood s
finanz dienstleistungen
Ġsector al
Ġrad isson
Ġbenutz ern
Ġdeal er
Ġfed er
Ġton y
hÃ¶ chst
Ġverbraucher vertrauens
Ġscho ck
Ġsho ck
wÃ¼r fe
Ġce iling
Ġut ter
Ġkomment ierte
Ġwan dern
Ġlauf zeit
abon n
Ġzoll union
Ġhost s
atis lava
bÃ¼ cher
Ġemer ging
Ġmid i
ĠmÃ¼ ller
integr ated
ergeb nis
fortsch rei
kons ultation
Ġtrop ical
Ġdiscover ed
Ġexter ne
Ġpurs ue
keep ing
Ġdach te
lÃ¶ sen
Ġignor ieren
Ġbesorgnis er
kÃ¶nn te
Ġantar ktis
Ġbik es
Ġunzureich end
Ġgeburt stag
Ġbakoy anni
Ġske pt
Ġkonk urr
Ġpek karinen
seete ufel
Ġsuppl iers
Ġhust inx
oub tedly
Ġliebl ings
d ollar
h tel
k amer
l ater
m ix
p d
s ustain
v adia
Ġa ro
Ġa zer
ch arta
Ġt in
Ġt ired
is ons
Ġs ang
Ġs ake
it ives
at ter
Ġp ok
ar ms
ar agua
Ġc and
el ho
Ġk Ã¼nd
Ġun esco
im ar
im age
Ġein stellen
Ġfor ever
Ġst ret
the ma
Ġver altet
ein satz
Ġer Ã¶ffnen
Ġwe ib
be zeichnung
be wirtschaftung
Ġde termine
sp am
Ġzu kÃ¼nft
qu ake
her zeg
Ġso gen
ain en
Ġvor nehmen
Ġhe uch
Ġsh anghai
Ġar zt
01 6
ud ia
fin es
no ten
Ġpre istrÃ¤ger
Ġmehr wert
Ġem bargo
Ġla ugh
Ġph asen
geb nis
Ġko hÃ¤sionsfonds
Ġcol um
Ġrech ner
Ġinst ant
vie tnam
iet ies
Ġau ction
22 9
po verty
min der
199 0
aut omat
Ġfest legen
Ġspiel s
Ġspiel zeug
fre do
Ġtre ffer
coun tries
Ġwes ter
Ġverw ende
Ġafter wards
Ġausge zeichnete
aktion sprogramm
Ġenter ing
Ġmonth ly
weiter fÃ¼hrende
ĠverÃ¤nder te
li zenz
Ġnegoti ating
Ġfern sehen
Ġnutz t
ĠhÃ¤ uf
Ġvict oria
Ġentwicklungs lÃ¤nder
Ġther mal
initi ativ
Ġweltweit en
Ġcanc n
Ġappe ared
Ġcontain er
Ġ(âĤ¬ )
Ġreich halt
mak re
Ġstress ed
Ġuntersuch ungen
Ġverabsch ieden
Ġnorm ally
Ġcoll ins
Ġverhalten skodex
Ġprinzip ien
Ġwil helm
Ġspam bots
Ġclo thes
empfehl ungen
ĠflÃ¼chtl ings
Ġwit ness
ĠbemÃ¼ ht
eig entlich
Ġundert aking
Ġexem ption
Ġprovider s
Ġfulfil led
krank heit
administr ative
ĠlÃ¤ch er
simpl ification
Ġhj ort
Ġacadem y
frame work
compl iance
crist ina
Ġforst wirtschaft
Ġfrederik sen
Ġreynders minister
Ġkav vadia
Ġcres po
Ġverschw unden
Ġsincer ely
Ġgrethen minister
Ġunverg ess
2 33
8 24
c ro
c ou
d l
d ney
f ia
f uss
g Ã¼nst
h one
j nos
k ennt
l n
l ange
l imit
p ad
p ict
p eg
w om
w ander
ch ed
Ġt end
Ġs ack
Ġs ick
Ġs sl
an w
it ten
it uation
at ik
re ck
Ġm ent
Ġm ater
ie ÃŁ
Ġb s
Ġp u
ar ischen
ar ium
Ġc yn
Ġe hren
Ġg ulf
Ġn ag
Ġo vers
Ã¼ ben
Ġan leger
Ġk ick
Ġun klar
Ġun employed
Ġl ah
Ġre venue
um a
Ġst agn
ab is
Ã¶ ch
Ã¶ ll
os lav
Ġver stoÃŁ
Ġpro xim
sch te
ach ie
est ra
Ġcon cep
Ġse le
Ġse eds
Ġsch ien
Ġsp itzen
sen z
ĠÃ¼ber arbeitet
ĠÃ¼ber arbeitung
Ġes pa
Ġuns icher
Ġcom o
Ġres cue
dies mal
ap olitik
wer ks
gra ben
Ġlo op
Ġlo vers
iz ieren
mer lang
cc c
ubl jana
Ġbet racht
co ordination
Ġweit em
Ġbo ys
Ġav iv
wie gend
uÃŁ en
Ġ10 8
ex hib
Ã¤nd ig
Ġgu esth
Ġfl ach
Ġschl acht
Ġet ikett
Ġ11 8
rag ona
Ġmay be
Ġmill ions
Ġover night
Ġmat ches
Ġgeb unden
Ġir ischen
row se
Ġev ol
ĠmÃ¶glich erweise
Ġmal aysia
Ġgeneral direktor
Ġpat rick
Ġmus lim
Ġprof iles
Ġwaren verkehr
Ġkar tell
Ġatt ent
Ġdav or
Ġspecial ist
28 0
Ġca ution
Ġmer lang
Ġapproach es
Ġlin ien
mus ter
hel fen
Ġbad ly
dis play
Ġbuch ungen
Ġberlin er
ĠschÃ¶n er
kr imin
Ġfocus es
Ġhon or
Ġpubl isher
Ġkn nen
Ġkal ia
Ġentsp annung
imp orte
Ġstark en
Ġtool bar
Ġgarden s
Ġque en
Ġherunter geladen
Ġneigh b
Ġsubsidiar itÃ¤ts
person ally
ĠverstÃ¤r ken
Ġluck y
Ġult ra
glÃ¼ck licherweise
Ġconven ience
ĠprÃ¤sent iert
Ġautom obil
audio visuelle
Ġwithdra w
Ġpill ars
Ã¼ss ig
Ġmessen ger
Ġpip eline
Ġschatz amt
Ġdrit tel
Ġspect rum
liefer ung
Ġbonn ici
Ġpred ict
Ġalger ia
Ġjel ved
Ġerled igt
ĠvergrÃ¶ÃŁ ern
sad ly
recog n
verhÃ¤lt nis
833 34
Ġrechtsstaat lichkeit
Ġinev itable
gom ery
Ġconfer ences
Ġwals h
vand na
Ġvaj gl
2 13
3 01
9 24
m itte
n ya
n Ã¶ten
t an
t aking
t uesday
v ine
v ents
w ien
in om
Ġa ps
Ġd m
Ġd ith
un ions
Ġb ass
Ġb av
Ġp is
Ġp akt
as il
Ġh p
Ġn ou
Ġin tel
Ġin her
Ã¤ ub
Ġk ings
Ġk orn
Ġl uggage
Ġto y
Ġto wels
Ġst ab
Ġst up
Ġst iftung
Ġ1 32
hr te
Ġver br
ac count
Ġj orge
sch ritt
ver hÃ¼tung
Ġsie ger
lich em
Ġwe ich
be amten
Ġde pl
Ġde pression
Ġge werbe
ce ived
ess al
Ġab stra
op ath
ly wood
se igner
Ġsp ur
Ġch art
iv i
iv als
Ġ3 65
ak ts
Ġent lang
Ġum s
me id
Ġwor um
Ġcan ary
Ġad el
ud io
aus ka
Ġqu ell
Ġgr Ã¼ndung
Ġber ger
grund sÃ¤tze
Ġbet onte
per cent
Ġbei behalten
Ġfind s
Ġpr icing
Ġfr isch
Ġfr isten
cy cle
ond rej
Ġdi agra
Ġbed ienen
app en
Ġ19 85
Ġ15 00
Ġgel ingt
19 6
Ġdan ube
hol der
any one
zeich nungen
Ġhigh way
Ġgre ifen
Ġref lected
itÃ¤ts fonds
Ġsal on
Ġstimm te
dan iel
letz te
Ġfa ire
til a
rid or
Ġwahr en
Ġdon or
Ġeg gs
Ġdre h
Ġhead quar
85 1
Ġbundes republik
Ġlu z
Ġkontakt formular
61 404
glieder t
prÃ¤ mien
Ġprevious ly
Ġkal iningrad
Ġbrit ischen
add ed
Ġchem ische
Ġski ing
mor al
Ġgeh abt
Ġencour aged
Ġkomprom iÃŁ
sum mer
stud ien
support ing
Ġangem eldet
Ġtw enty
ĠsÃ¤ mtliche
Ġbedeuten de
schw ung
Ġram ada
mob ility
Ġprec ious
Ġsurround ing
Ġimper ative
ĠgefÃ¶rder ten
Ġzusatz frage
____ ____
Ġtie fe
Ġedu ardo
Ġfried rich
Ġverring erung
Ġignor iert
Ġpalest ine
Ġverurteil en
Ġphotograph y
Ġberichtig ungen
ĠverlÃ¤nger t
Ġprepar ations
Ġcamer on
horizont al
Ã¼bertrag ungen
810 35
Ġng os
Ġerfre ut
Ġincred ible
sat ell
Ġweihnach ten
eisen bahn
Ġersta un
ĠbedÃ¼rf nisse
Ġdoss ier
Ġandal us
laps ed
Ġsplend id
assess ment
Ġmacker el
ĠgelÃ¶ scht
merlang ius
ondrej icka
? !
b og
b endit
f k
h abe
m ur
n isch
s minister
t al
Ġ Â£
Ġa j
es k
Ġs arkozy
un te
Ġf t
Ġb are
Ġp aten
te uropa
al ba
as em
Ġh Ã¶lle
Ġg lie
Ġv iz
us sten
Ã¼ mer
Ġk id
Ġk ug
Ġun changed
Ġl igi
Ġto ys
Ġz entr
th u
Ġbe ars
Ġbe wirken
ge hoben
um frage
ab ge
ab fÃ¤lle
Ġ1 11
ut ing
Ġal gar
Ġpro spect
sch icht
Ġr iga
be kannt
sp ot
sp Ã¤ter
Ġge holfen
Ġyou ve
ag li
Ġaus bildungs
Ġsp alte
ah nen
Ġco ck
Ġle glise
ĠÃ¼ber mittelt
Ġ3 20
ak ed
Ġpl ast
rÃ¤ um
Ġro ws
sie d
Ġpol ar
Ġgr en
Ġgesch ickt
Ġnach zu
Ã¶r ung
Ġ6 50
Ġbet rieben
Ġange legt
Ġbr istol
Ġ12 2
Ġla undering
Ġ19 70
Ġkon junktur
Ġjo omla
Ġrel ate
Ġgel assen
Ġcol lected
fach gebiet
15 3
Ġmay er
Ġmill ennium
Ġass ent
ĠgroÃŁ zÃ¼g
Ġgeb Ã¤
mark en
Ġtechn iques
Ġ! !!
Ġur uguay
Ġdr ingen
Ġvo ters
Ġclear s
14 1
Ġrecht fert
Ġ* .
ren ew
Ġsign ale
ron ius
Ġpap ast
verb and
Ġcertain ty
Ġresearch ers
Ġmer ch
Ġtri um
Ġrecommend s
Ġstre ben
Ġmult ilingual
Ġsubs cription
ena ustausch
schn ell
Ġaltern atives
Ġlas ts
Ġoptim istisch
Ġgal ax
Ġjugend liche
Ġsearch ing
Ġobs erve
Ġober ste
Ġnormal en
Ġnormal erweise
onik i
Ġkrit isch
Ġendg Ã¼ltig
ĠgefÃ¤hr liche
Ġvirt ually
Ġschre ibt
Ġrot terdam
Ġschwar ze
Ġsignificant ly
Ġprefer red
Ġnachbar n
Ġbag s
tour ismus
Ġbang lad
Ġinfrastruktur en
Ġtrag ic
Ġken ya
Ġleon ardo
ĠverstÃ¤nd lich
Ġeinsch Ã¤tzung
Ġandre j
aret ten
Ġmittag essen
Ġkontin u
Ġtariff s
Ġtheor et
Ġcooper ate
Ġkombin ation
ĠschwÃ¤ chen
solidar ity
Ġbuchst aben
enh ancing
ĠzurÃ¼ckge zogen
Ġchic lana
gÃ¼n ter
Ġdisappoint ing
Ġkatzen berger
Ġstyl ish
Ġtamp ere
Ġguesth ouse
b ian
f resh
g v
i ah
m outh
m isc
o den
p son
s ant
s agt
u ite
u als
z ys
z ession
z weiter
z iffer
in av
Ġs ed
un o
Ġw rote
re member
Ġm ie
Ġb Ã¤r
Ġb ucht
Ġe chter
le do
Ġthe ato
Ġg um
Ġg ama
Ġn er
Ġv ast
Ġan wenden
Ġan weisungen
ig l
ic its
st on
Ġre lief
Ġth om
th al
Ġst raft
ul pt
est ro
Ġwir ft
sp aket
Ġcon vers
Ġsch ief
Ġsch Ã¼tzt
la uter
so gar
Ġch rome
gr unde
ip edia
ben utzer
Ġad al
Ġcont ained
av or
Ġgr yb
Ã¼n ften
auf ent
Ġmar gar
Ġbr utto
Ġdis asters
Ġinter reg
get reten
Ġgu itar
ose vic
Ġgegen wÃ¤rtige
Ġtr ich
Ġko hle
20 9
Ġsc iences
Ġspec ify
Ġgest altung
Ġel f
14 3
Ġsozial partner
Ġtele kommunikations
Ġpat ience
Ġref lection
Ġbeit reten
Ġamer icans
Ġactiv ely
Ã¤d igung
Ġcris es
Ġvier tel
Ġmas k
seit ig
every body
Ġocc urs
entwicklung spolitik
Ġitalien ische
Ġrein igung
Ġstor m
Ġfeed s
beg innen
eff icient
Ġelekt riz
vertreten der
nehm ers
Ġcanc ell
Ġcontain ing
Ġcheap er
ĠbefÃ¼r worten
Ġjack son
Ġnachstehen der
Ġcollect ive
tun isia
ecks il
Ġerwer b
kamp agne
Ġaz ores
mechan ismen
verbind ungen
Ġspezif ische
erzeug ung
Ġchines ischen
Ġgb p
Ġauth ors
Ġverpack ung
had dock
Ġkub i
Ġveter inary
Ġbungal ows
function ing
guid elines
Ġshad ow
bran che
Ġbrink horst
bewÃ¤lt igung
gues ts
Ġverkn Ã¼p
Ġgryb auska
3 12
4 01
c ann
c ards
e ken
h ic
k lage
l ate
n om
r altar
v ign
en cies
Ġs ara
an wend
at tra
at ically
re aktion
ter y
Ġl ub
ra w
st Ã¤
em ie
Ġbe vÃ¶lkerungs
der artige
Ġein ladung
Ġfor e
Ã¶ tet
Ġy u
os se
ber ichts
Ġi ber
Ġer t
be at
Ġcon ventions
form en
ad os
Ġvon nÃ¶ten
Ġab u
Ġaus sprachen
art is
Ġch alleng
Ġes a
Ġhe ft
ste xten
Ġum strukturierung
ail le
Ġrep lied
Ġor ts
Ġor phan
au ern
Ġman s
av ier
pt on
beit rÃ¤ge
pro ceed
pro fil
Ġpo le
Ġem ails
ond a
Ġsy ntax
anz a
Ġger aten
Ġhand buch
Ġind isp
Ġfo ol
Ġbere iten
Ġkl ang
Ġmen gen
vers orgungs
ett ing
Ġcle ver
Ġcol on
Ġbesch werde
Ġcar rier
stÃ¼ cke
gar age
Ġass urance
mark os
Ġsim ul
19 7
Ġval ero
Ġel is
schlieÃŁ ende
pre chen
14 7
Ġfinanz mÃ¤rkte
18 9
gesch Ã¤ft
Ġsozial schutz
ob ama
gem a
med izin
ingen te
Ġcre am
Ġfig el
spro zeÃŁ
Ġhar te
techn ologien
kauf en
Ġfer ry
Ġausge geben
stehen den
lÃ¤ ufig
Ġlearn t
Ġmont gomery
inv itation
wand owski
euro just
Ġaccount ing
Ġmart ins
daten schutz
weiter es
Ġregul ated
rang ige
kre bs
Ġabkommen stexten
Ġcover age
Ġkons um
Ġstatist ical
fischerei abkommen
Ġvertra ulich
Ġlad ron
Ġfunction al
Ġzentral er
Ġsteuer zahl
Ġprozess es
mor gen
agre ements
Ġdiam andouros
Ġfur cht
Ġerd Ã¶l
derzeit ige
Ġthreat s
Ġcharacter istics
Ġdefinit iv
kons olid
vier tens
miss ible
Ġoffiz iellen
Ġlif elong
Ġjose ph
Ġimmobil ie
ĠstabilitÃ¤ts programm
Ġmerk el
stabil itÃ¤t
beauftrag ten
Ġpill ar
maÃŁ nahme
Ġbog ar
Ġva it
Ġoz on
Ġaufs ichts
Ġpattern s
Ġumst Ã¤nden
Ġentschuld igung
avan os
Ġverehr ten
Ġerb aut
mÃ¼n zen
Ġcoher ent
Ġpalestin ian
jem and
Ġprev ail
Ġbeab sichtigt
untersuch ung
Ġveg as
stav ros
Ġriek sti
b onds
f arm
g m
g asse
k od
l ager
m ire
o pp
p y
s f
Ġ rop
Ġt ul
on ou
on do
Ġs ven
or io
at ile
he iz
re qu
Ġm ck
Ġf uen
ion i
te ten
Ġc uts
Ġc yr
ro aming
le ments
Ġg host
Ġn em
Ġin door
Ġo slo
om s
il ings
Ġk ak
Ġk alt
ir able
Ġl yn
im ates
Ġre ly
Ġre chen
Ġre ifen
Ġz Ã¶gern
Ġbe arbeitet
Ġbe iget
um fangs
Ġst off
ut o
Ġal ia
os es
den ly
ach es
Ġwe is
ind izes
Ġde kor
Ġne v
Ġzu gleich
Ġge op
Ġse id
Ġaus grenzung
Ġdies mal
Ã¼ber setzung
Ġsp y
wir klich
Ġres tricted
Ġrep rÃ¤sent
Ġqu int
wer ken
etz ug
Ġstat ut
pro bieren
auf forderungsschreiben
br d
br id
br utto
Ġpres erv
Ġgen ossen
Ġcomm ons
fÃ¼ hlen
fol gung
Ġpre z
Ġsec ur
Ġfind ing
int osh
wie gen
Ġem bed
bo ys
Ġstr ings
ws ki
Ġdar gelegt
Ġsol ide
war f
Ġget ragen
Ġant ivir
20 2
Ġmod us
Ġcar ibbean
rech ten
25 3
Ġass ume
Ġsk etch
fran ois
pun kten
Ġchar ming
Ġproced ural
Ġrec ruit
kann te
Ġplan eten
ci as
Ġref le
Ã¶ÃŁ e
Ġimp orte
Ġwirtschaft licher
Ġtour ists
na ire
07 0
Ġentscheid et
tag s
nat ure
Ġmad agas
ĠgrÃ¶ÃŁ ter
Ġnah men
Ġdef icits
Ġdemoc rat
Ġnotwend ige
cons ult
Ġindivid uell
mel de
Ġident ify
Ġitalien ischen
Ġextra ordinary
frei ung
lev ant
Ġbestehen de
Ġmonitor ed
Ġecu ador
Ġnachhalt ig
Ġspan isch
kle idung
Ġtit an
bi ke
Ġsex ual
ecu ted
Ġtal ent
Ġhighl ighted
contin ue
Ġcred its
Ġverbind et
Ġsv ob
wÃ¼rd igkeiten
ĠgewÃ¤hr leisten
install ation
ĠmilitÃ¤r ische
univers ity
Ġgraf ik
Ġloss es
Ġdepend ent
Ġecht es
Ġprepar ing
ĠÃ¼berw acht
nit ten
Ġakte ure
conc ern
eval uation
Ġwach sam
subsid iar
Ġaffili ate
Ġimmen se
Ġglavany minister
verstÃ¤r kte
Ġchocol ate
megr ims
Ġaccompan ied
0 46
6 45
b ury
c laus
d ipl
h Ã¤ndler
i ago
m esser
p uerto
v ict
v gl
v irt
en ing
Ġa se
Ġd umping
Ġd une
Ġs co
an er
Ġm ental
ar be
Ġc ac
Ġh als
ent sp
Ġan zeichen
Ġan schauen
Ġan sprÃ¼che
el lo
Ġun fortun
Ġl l
ol ine
Ġbe zwe
Ġbe hold
Ġbe zeichnen
Ġ2 35
id schan
Ġdie go
Ġand ro
Ġal avanos
ac ular
de part
ver teilung
Ġsie b
ess el
ate ur
Ġsch ily
Ġauf hebung
ib an
Ġco hn
Ġle ktion
Ġle isure
Ġle wandowski
iv ia
Ġ3 17
Ġvor gestellt
ok raft
Ġher ange
Ġad justed
Ġte j
Ġro ze
aus piel
Ġgo e
Ġpol ite
Ã¤t ter
Ġwar nung
Ġour s
Ġfre ight
Ġpres tige
ear ly
Ġges ucht
Ġfe as
Ġmar ktor
Ġbo ots
Ġinter ne
Ġ10 9
part icular
lin ess
Ġsol vit
arbeit sweise
Ġbel le
Ġprop ag
net work
Ġjo hann
Ġhin ein
20 8
Ġter me
Ġresp ects
gl ing
Ġsub div
ĠfÃ¼ hlt
gre g
Ġfinanz krise
18 5
Ġpra ise
Ġexam ination
Ġrece ives
Ġhuman itÃ¤ren
Ġgem eldet
parl ament
find ung
Ġtur no
strÃ¶ ms
Ġproduct ivity
Ġged anke
Ġbesuch e
Ġschwer en
Ġmiss ions
Ġflex ib
fa ÃŁt
Ġord nungs
mÃ¤ÃŁ igen
Ġtell ing
Ġlam berto
Ġoil s
Ġmail and
78 551
Ġphotos hop
haft ung
Ġpassen den
pat rick
Ġpurch asing
prom ote
Ġjem als
Ġap i
Ġfas zin
exc essive
Ġconfl icts
Ġinnen stadt
Ġcoast al
Ġklim aschutz
Ġsuffer ed
gd p
Ġamerikan er
Ġpod cast
Ġrob ust
vivian e
Ġspezif ischen
Ġkeines falls
Ġlangfrist ig
losen quote
Ġszen ario
ĠjÃ¼ng ste
Ġwirksam keit
Ġentschuld igen
Ġerleich tert
Ġproblemat isch
absol utely
Ġbungal ow
Ġadress en
Ġmisunder standing
zard ous
Ġdistin ction
Ġjenn ings
Ġaccur ate
Ġcater ing
Ġarbeitsk rÃ¤fte
Ġsupervis ory
Ġindik atoren
Ġanw ender
fÃ¤r Ã¶
git ta
extens ion
Ġscot land
flugh afen
Ġdith mer
percent age
Ġtrium ph
a ar
c ot
c ris
c any
k rit
n ahrungsmittel
p est
s us
s ay
t ipp
er ne
Ġd l
an aki
it ania
Ġw eine
re du
Ġp ont
ar ently
Ġc ed
Ġc ats
al an
Ġh ud
Ġg Ã¼
Ġg and
Ġv Ã¤
us se
ing ang
Ġto do
et ime
th of
res ol
Ġy ellow
os tels
Ġer l
Ġwe ber
Ġzu grunde
ann o
Ġsch ok
Ġsch ade
Ġsch uhe
Ġab gel
Ġaus gehen
Ġaus fahrt
se y
Ġch alet
Ġvor gaben
Ġres ist
Ġwor ried
ip t
Ġro te
Ġro ger
Ġper l
Ġber ater
Ġgen iessen
Ġbes tell
use eland
Ġra cing
Ġange kÃ¼nd
con solid
Ġem br
ph are
Ġda wn
Ġger inger
Ġmark iert
Ġant anas
Ġant tila
Ġet agen
Ġtr ies
Ġcar tel
Ġcar uana
ans atz
fÃ¼hr ten
alk o
Ġfun k
Ġgeb ill
Ġdel le
unter nehmer
Ġlang em
18 7
Ġorgan ize
kon text
Ġref resh
Ġbegr Ã¼ndung
Ġumwelt freund
Ġcourt yard
Ġnational s
Ã¶t igen
Ġbook ings
ikation en
Ġproduct ive
Ġrad ical
isa ac
Ġvar ies
Ġgas p
Ġsen der
Ġbesuch s
kom p
ĠÃ¤uÃŁ er
ĠgÃ¤ste buch
Ġtem ple
uz zi
Ġban anas
Ġober flÃ¤che
bec ken
Ġhung arian
Ġbezahl ung
Ġstruktur en
rec alling
rep orts
Ġbetrie be
Ġkil omet
Ġmid night
great er
iot is
apart ments
hunder t
Ġjournal isten
ĠbeschrÃ¤n kungen
lib ya
Ġelektron ik
Ġcounter fe
Ġkonzentr iert
Ġacht ung
inform ieren
Ġverf assungs
anze iger
Ġkompet enzen
altern ative
Ġfremden verkehr
Ġjak ub
Ġalger ien
Ġantar ctic
Ġax es
Ġvertrie b
ambod scha
Ġproblemat ik
Ġnut rition
Ġabonn ieren
gÃ¼n ther
indones ien
indones ia
dring lichkeits
hart mut
found ed
Ġgom es
Ġchamb res
Ġeingel aden
geschÃ¤ fts
ĠhemilÃ¤ minister
inland sprodu
erba idschan
niger ia
Ġphr ase
Ġlaun ches
ĠgefÃ¤ng nis
Ġunforget table
Ġnichte inhaltung
initiativ stellungnahme
Ġunfortun ate
3 30
3 18
a al
b uffet
c redit
f ter
g os
g ap
h it
h ire
h ih
h Ã¤ngen
j s
l ot
m Ã¼ssen
p fl
r er
t ests
v r
in burgh
Ġt se
it ative
or ben
or ges
he ckling
re me
Ġf angen
ie gt
Ġb elt
Ġp ub
ar ab
Ġc app
Ġc entrum
al ph
le ute
Ġh ind
Ġg m
Ġg yn
Ġn id
Ġn igel
Ġin no
Ġin tellectual
ur ious
Ġan x
Ġk iss
im und
Ġz iv
Ġein sehen
Ġein laden
am pp
Ã¼r zt
ab bau
ein s
ein fuhr
Ġi an
ver folgen
ver folg
ĠfÃ¼r chte
Ġer be
be le
be finden
all ah
sp orts
Ġge teilt
Ġab el
Ġaus fÃ¼llen
se p
se el
ik istan
Ġle iten
Ġch er
ĠÃ¼ber fl
iel ten
ste el
ure t
Ġum zusetzen
Ġ4 000
32 5
af i
zen zen
Ã¼s st
gra pher
eu ge
ass y
av rou
Ġwar saw
Ġmo e
pro gnose
ho ffen
Ġ7 37
Ġgen ie
Ġange hen
Ġange kommen
tre ib
Ġem ir
ph il
get ting
get ragen
Ġcl uster
part y
Ġdec ken
Ġfl our
Ġ19 76
Ġ19 79
11 4
Ġget estet
gan isation
vers icherungs
wel ve
Ġsc and
Ġx en
Ġbl Ã¼
13 1
leg ungs
ĠgroÃŁ teil
Ġemp ire
Ġsome where
red ner
Ġschluss folgerung
Ġev angel
Ġakt iven
Ġoper ated
Ġaccess ories
gesamt kosten
emo st
Ġgre ens
med ium
Ġmus ical
fre cht
Ġprof essor
mÃ¶ gliche
Ġital ia
27 1
where as
Ġruss lands
Ġkey words
Ġklar er
Ġ45 410
Ġintegr ierte
Ġinnovation en
recht liche
Ġbill strÃ¶m
Ġgener ell
sm art
Ġdam anaki
Ġbi ologische
Ġtell s
organ ic
Ġce ilings
Ġanwend ungsbereich
Ġgran ts
put ins
Ġkop ieren
Ġslo gan
Ġms n
Ġerhe ben
Ġstaat lichen
Ġsn dor
Ġcompl ac
impro ve
ĠerhÃ¶ hung
Ġvorbe halt
Ġpf lege
Ġmensch lichen
wÃ¤hr ungs
Ġzw Ã¶lf
Ġrechnungshof s
ĠausfÃ¼hr lich
spun kte
ĠflÃ¼ ge
tit les
Ġsyn chron
Ġniel s
addition ally
Ġfear s
Ġci amp
Ġelektron ischen
Ġeb ay
Ġdatenschutz es
bla uer
tun esien
Ġdimit rios
Ġenh ance
zusÃ¤tz lich
Ġwithdra wal
Ġbek rÃ¤ft
Ġhong kong
dri ve
Ġzo om
Ġalph abet
mach ung
Ġindones ien
Ġnuk leare
Ġharm ful
ĠfrÃ¼hjahr stagung
berat ung
ĠÃ¼bertrag ung
Ġtipp s
betr ug
Ġconfig ure
Ġpublik um
Ġbicy cle
Ġforese en
Ġadministrat or
Ġadap ted
Ġendors ed
Ġuneing eschrÃ¤nkt
Ġxl stat
investitions umfangs
tief see
Ġintoler able
Ġpess im
Ġscrut iny
Ġgedank enaustausch
Ġmerlang us
Ġpapast avrou
imund as
2 96
5 50
9 4889
d ip
d ritte
f alt
j ournal
k ale
o cc
p ac
p hin
s ession
t Ã¤t
v s
en cour
in th
ch ris
Ġt z
Ġt ight
Ġt Ã¤us
Ġd Ã¤
un ten
Ġw y
at gut
Ġm erg
Ġf its
Ġb oss
ar l
te borg
Ġc us
Ġg ert
Ġk au
ic ism
ra c
Ġre zept
th ur
Ġbe zogen
Ġbe weisen
Ġbe fasst
Ġfor emost
Ġdie t
Ã¶ sen
we iss
os c
ver me
Ġr it
Ġr ie
sp aren
ad min
Ġge il
Ġse ed
Ġsch alt
Ġsch Ã¼ssel
se k
ik on
Ġch airs
if ier
Ġwer fen
ĠÃ¼ber lassen
Ġvor wÃ¤rts
Ġwh iting
ack en
ern er
Ġunter suchen
Ġor ban
Ġro u
Ġro bo
99 0
Ġman chen
Ġman agers
av our
Ġwar craft
mer cosur
pl attform
rÃ¤s id
Ã¶r tern
Ġ12 1
Ġmehr sprach
mar ke
mar got
bo le
Ġsy ner
Ġ10 3
Ġpos ter
Ġpe er
Ġbest Ã¤nde
Ġlie f
Ġ19 68
Ġant idumping
Ġop enness
str ong
Ġwo hin
own ed
Ġweiter ge
13 4
Ġgeb Ã¼hrt
Ġdel ors
Ġir c
Ġlang s
ris iken
16 8
Ġbas ically
reg ierungs
14 4
gesch oss
alth ough
Ġhol en
wa ff
Ġtransport ation
eng ine
inter est
Ġfest zulegen
mb ol
Ġru led
Ġdist ingu
Ġtrans mission
Ġlist ing
Ġklar es
Ġsto od
ernen ergie
Ġpolitik en
Ġmobil funk
Ġbill igte
sc ientific
Ġsil ber
Ġkultur en
Ġgru be
Ġfal con
wes ens
Ġarbeits zeit
Ġunivers ities
Ġable hnung
schn itte
Ġclass ified
Ġlis boa
Ġhy dro
Ġerk enn
Ġjud iciary
Ġpas sport
Ġober en
ost see
Ġeindeut ige
Ġworth y
Ġappear ance
Ġlauf ende
Ġrail ways
ti rol
Ġball s
Ġhoff entlich
Ġliefer te
ĠkÃ¤ ufer
Ġremark able
Ġkommun ikations
Ġprofit iert
Ġguest book
Ġdeath s
ieg elt
Ġvac uum
Ġstructure d
rak is
Ġsimpl ified
bur ger
Ġvielf Ã¤ltig
Ġfu hr
Ġrene wed
Ġrene wal
atlant ik
ĠbeschrÃ¤n ken
lib yen
south ern
Ġeigent ums
top ical
Ġbaum wolle
far ben
amend ments
Ġdramat ic
sw iss
mic rosoft
Ġphotograph s
Ġeffizient er
kabel jau
Ġty rol
Ġconstit utes
genet ically
Ġmittler weile
Ġapolog ise
Ġkart off
rev olution
etter ing
Ġhann over
indic ative
proc ess
sÃ¤ mtliche
Ġletzt lich
konfl ikt
Ġbefug nisse
Ġbewert ungen
partnerschafts abkommen
brows er
Ġalgar ve
misc ellaneous
etzug ang
3 40
6 10
d istance
e o
e it
g ol
j r
k ind
m ord
m Ã¤ss
p hen
s zen
t w
u elles
v als
w ish
z van
Ġ ere
Ġa pt
Ġt t
Ġs id
Ġs fr
re lat
Ġf iel
Ġb Ã¼nd
ro c
Ġe ating
Ġg oll
Ġn ative
Ġn iederland
Ġn ason
Ġo jul
ur spr
Ġan sprechpartner
Ġan omer
Ġun best
Ġl id
ic urity
ra ge
ra pid
st unden
Ġre ven
Ġre kord
th ough
and or
we ist
Ġund oubtedly
Ġal ta
Ġal berto
Ġver mitteln
ac i
den k
den s
Ġr uft
Ġr yan
Ġer kl
Ġcon form
Ġge eignete
Ġse p
op fer
Ġauf zug
Ġaus gesetzt
se f
la ins
ub ar
Ġno bel
Ġso usa
rom an
Ġsh ut
Ġar rest
Ġpl ural
los ter
ahr ung
Ġro d
Ġro v
Ġgesch windigkeit
ens uring
tra ck
Ġgen f
Ġgen annte
Ġra ff
enn y
Ġmar cel
Ġpre view
Ġstr asser
rat ing
Ġ19 84
Ġander sson
arbeit er
Ġmed a
enz a
Ġmon ats
Ġtr icks
Ġstatt gefunden
Ġmod ific
Ġgel angt
ific ial
rech ter
olog ischer
13 9
Ġser ial
Ġbin den
Ġfall ing
Ġir rt
45 9
Ġgew id
ix e
16 9
Ġfran c
Ġpass es
18 6
bet re
Ġkur zer
Ġmot ors
Ġcountry side
Ġengl ische
Ġlaw yer
Ġmer ger
Ġtri ple
riter ium
Ġhandel spartner
cor porate
Ġpan ama
best immung
Ġkons olid
Ġassess ed
Ġschwier igen
wÃ¼r den
Ġparticip ating
Ġprem ises
Ġbur undi
Ġguid o
Ġhinter lassen
Ġmalm strÃ¶ms
star ten
Ġslo ts
jÃ¤hr iger
Ġlic ences
Ġkonz ern
Ġgesamt investitionsumfangs
Ġhoff nungen
tar if
Ġmem or
ĠÃ¤hn liches
Ġexpl icit
Ġerlaub en
Ġfrequ ent
Ġbru der
Ġempf Ã¤nger
ĠunabhÃ¤ng ige
prof essor
bb els
Ġtemper atur
gere chte
market ing
Ġmerk male
Ġfests tellen
Ġclo thing
Ġbehinder ten
mol dova
Ġdah inter
ouse k
Ġtheor ie
Ġexem pl
Ġtsch etschenien
Ġbuchst abe
informations gesellschaft
jord an
Ġbekann ten
Ġverehr te
recommend ation
Ġscann er
Ġcot onou
ĠbewÃ¤lt igen
Ġtextil waren
Ġhunder t
faz ilitÃ¤t
ĠwÃ¤r me
Ġcontroll er
schliess ung
Ġmour a
mean while
irat et
betra chten
webs ites
Ġsehens wÃ¼rdigkeiten
agli ari
hih ostels
uret anien
Ġojul and
5 02
b rian
d m
g ott
k b
n ische
o ecd
p akete
x p
y vi
z iation
er er
er haltung
es is
Ġd amp
Ġd ivid
Ġd umm
Ġd irty
Ġd elta
Ġs ib
re ts
re cent
Ġm ec
Ġm ug
Ġm asse
Ġb aden
ar ri
Ġc ass
Ġe ign
om y
Ġan f
Ġof fl
Ġre akt
Ġbe arbeitung
Ġder mot
Ġst ille
Ġal an
Ġsie mens
tel la
Ġer haltung
Ġer zeugen
est y
est re
be ile
Ġge Ã¤nder
ce e
Ġse al
Ġsch reib
ag h
ant wortet
Ġsp enden
Ġwill is
la ÃŁ
ĠÃ¼ber setzt
od i
Ġall erg
Ġhe ader
Ġas ian
Ġas ks
ck ets
ang em
Ġum geben
Ġunter lagen
ud o
af ric
are z
fin ed
Ġgen uss
Ġbes itzer
Ġsa ubere
fÃ¼ llung
Ġmar sh
ges tern
Ġbei hilf
Ġdis abilities
Ġdis advant
Ġpr ide
Ġsee verkehr
Ġsee zunge
Ġinter governmental
vor gaben
Ġnow here
Ġoff shore
Ġfl ower
Ġinv itation
Ġ11 7
Ġkon vert
Ġmach inery
Ġmein t
Ġtr ink
wel comes
Ġsc rat
Ġexp lains
welt weit
Ġzusammen fassen
Ġac id
ĠfÃ¼ gen
mark s
Ġ17 5
mittel Ã¼bertragungen
iÃŁ t
bewer ber
Ġbro t
Ġweb page
Ġgar ca
Ġfound ations
Ġpat ric
mon etary
Ġverw alten
Ġengl ischer
Ġshe l
Ġshe ets
Ġlog ged
Ġreserv es
Ġvier ten
spect ives
abl ing
Ġeg f
pos itive
ele i
Ġverteid igen
Ġwall is
Ġche chnya
unternehmen s
Ġdeutsch er
Ġwhe els
Ġkal ousek
Ġmarg in
Ġmechan ismus
Ġcompl iment
kat alog
Ġkomprom isse
Ġemploy ers
Ġeth ical
Ġgn ome
kap azitÃ¤t
Ġtier schutz
rot barsch
Ġprotect ing
lÃ¤nd liche
soll en
graf ische
Ġoblig ator
estic ides
mill ion
Ġunions bÃ¼rgerschaft
su ite
Ġcamping platz
Ġnom in
ĠendgÃ¼lt ige
Ġvolle m
Ġjer usalem
Ġolymp ic
Ġdramat isch
Ġsustain ed
zub auen
Ġrare ly
Ġfrag ile
Ġlegislat iv
Ġhilfs bereit
dokument en
brief ing
Ġsingap ur
Ġluf traum
Ġpreced ent
Ġbegeister t
Ġartik eln
Ġausged rÃ¼ckt
Ġwachstumsp akt
Ġungew Ã¶hn
erhÃ¶ hung
Ġcurs or
mmer t
Ġbesche iden
appropri ate
Ġwitt ling
Ġringholm minister
grÃ¶n lÃ¤ndische
Ġtrem end
Ġunus ual
Ġarres ted
Ġabstimm ungs
Ġwester welle
ecksil ber
gema ÃŁnahmen
Ġgoe bbels
Ġniederland en
2 40
2 14
6 17
a illes
m indest
n iveau
u ke
Ġ Ã¤ng
Ġt one
or ien
Ġw age
Ġm iert
Ġf s
Ġb ach
Ġb lin
Ġb att
Ġe ase
as ean
Ġh ague
Ġg eral
Ġg att
Ġo uter
Ġo tt
Ġv n
om i
Ġk od
Ġk ris
Ġk rak
ig ter
st ore
st Ã¤tigkeit
Ġz unehmen
Ġth ou
Ġth essal
Ġbe zweif
Ġst ru
ut ze
gen iessen
Ġy o
Ġver lauf
Ġver handlung
iss ues
ein stellungen
ver Ã¤n
Ġr ivers
kt iver
Ġge flÃ¼gel
qu inn
Ġha f
Ġaus w
Ġaus fÃ¼hrung
Ġdo ppelt
ist o
Ġch ips
Ġen counter
ang ler
Ġus age
ran ten
ine es
Ġro st
Ġ5 000
Ġcoun ting
ru ÃŁ
lie derung
Ġnach drÃ¼cklich
br Ã¼ck
og he
Ġbes etzt
Ġbes tellungen
kl ang
Ġu v
Ġsee king
nach richten
Ġmy anmar
Ġhand led
fl ow
Ġpe ak
Ġgu ilt
Ġlie ÃŁ
Ġ19 61
Ġget Ã¶tet
Ġant wer
Ã¶s tedt
Ġjo ke
Ġmon ument
Ġjahr zehn
Ġsc ient
Ġsc ott
Ġvers orgungs
Ġmod ify
hier mit
Ġbesch reiben
fÃ¼hr end
Ġbl umen
Ġwell en
Ġbin ary
hol ung
Ġsom og
Ġposs ibly
eh me
Ġtre u
Ġimp ulse
haus en
Ġgraph ic
ator ies
Ġec ke
abil itation
Ġchrist ine
Ġca ve
ĠdÃ¼r ften
Ġkind es
ĠhÃ¶ re
Ġdefin ieren
gleich en
Ġbra chte
Ġcolom bia
enien cy
Ġgener ationen
mut lich
Ġmarkt es
Ġmas ters
bil ateral
Ġstep hen
ling er
ĠheiÃŁ e
Ġindivid ually
fu els
mod ul
mÃ¶glich keit
Ġoptim ismus
Ġklein ere
oun ted
Ġmeisten s
Ġmol yvi
beg riff
Ġpeter sen
Ġreise fÃ¼hrer
Ġvict im
Ġlou d
cas es
tro ika
Ġdruck en
Ġmang elt
Ġwohn zimmer
Ġplug ins
Ġdraw ing
ĠbefÃ¼r wortet
Ġfat al
Ġcampaign s
Ġsatell iten
Ġwik i
Ġmys q
ĠprÃ¤sent ation
ĠfrÃ¼her en
univers itÃ¤t
Ġfaq s
sicher lich
Ġerinner t
Ġtauch en
ĠverÃ¶ffentlich ung
Ġfinn ish
Ġzeich net
Ġvig il
Ġermut igend
Ġincred ibly
rail way
Ġscandal ous
Ġscreens hots
Ġabol ished
Ġwis dom
individ ual
Ġverh Ã¤ngt
716 07
Ġcorrespond ing
Ġgreg or
infring ement
Ġenvis aged
Ġaub alis
Ġmcd on
happ y
famil ie
Ġraven stein
Ġbesorgniser regend
exhib ition
Ġelis abeth
Ġnid hi
Ġoffl ine
Ġmolyvi atis
0 35
9 13
d rops
f y
f ro
f eind
g iro
l ack
m em
m ine
m ons
n ap
p ic
s ung
u ka
z ones
Ġ Ã¶rt
un ft
an schlieÃŁend
Ġm am
Ġf esth
Ġc au
Ġc entr
Ġc oug
Ġh tt
Ġg our
Ġg ly
Ġg arda
Ġo ch
Ġv ine
Ġv ize
Ġan stieg
Ġan reize
Ã¤ ger
ed it
Ġl ill
Ġl ama
Ġl ingu
Ġl eniency
Ġre generation
Ġbe am
Ġbe wirtschaftung
Ġein st
Ġst akes
gen g
Ġy en
Ġal bert
Ġver teilung
ein schlieÃŁlich
sch uhe
Ġr ush
est am
ay lor
Ġzu behÃ¶r
Ġge ile
Ġse ktors
Ġse eder
ag fl
Ġab schluÃŁ
la ur
ĠÃ¼ber geben
Ġeu er
Ġres ign
Ġar n
01 7
Ġma uer
wer ten
99 6
Ġgesch lechter
pl atten
zu gehen
Ġste am
Ġpo ettering
Ġbes ter
con fl
Ġdis counts
kontakt adresse
ex ec
com fortable
Ġdire kten
12 9
Ġ19 75
Ġ19 78
Ġdu al
wÃ¤rt igen
Ġvers agt
Ġstand en
Ġmor g
Ġparlament ar
oc ation
Ġsituation en
Ġunder est
Ġover look
red ite
red fish
Ġform ed
Ġform ation
Ġel ba
16 4
Ġleg acy
Ġev olution
pre liminary
Ġdep ending
Ġchange over
22 8
Ġtele ph
min i
Ġorgan ise
Ġfest gesetzt
Ġziel setzungen
Ġsaf ari
Ġversch winden
Ġeigen mittel
not wend
Ġcompet ent
zum indest
36 5
Ġverl ag
sk y
car bon
strÃ¶ me
Ġpan els
Ġarg entinien
Ġaktion splans
Ġrespect ive
pers Ã¶n
strateg ien
Ġhor mon
ĠglÃ¼ck wÃ¼nsche
Ġoptim ism
Ġta ught
Ġunver meid
Ġdor thin
Ġgi useppe
sal es
sb ruck
pet itions
ĠfrÃ¼ chte
Ġzufrieden heit
Ġsignific ance
Ġfab re
Ġruh igen
uba i
setz ungs
Ġvari ieren
cod es
Ġamong st
Ġresol utions
ĠmÃ¼ he
Ġniemand em
steuer ung
Ġjack pot
aj ar
kn as
ĠjÃ¼n ger
fam ilien
Ġanzu wenden
Ġanzu zeigen
Ġmerc ury
Ġpenalt ies
Ġverbre itung
ĠfÃ¤h igkeit
Ġalp ine
Ġeinget reten
ĠpalÃ¤st ina
dist ribution
esp ecially
Ġenem ies
Ġprison ers
increas ed
Ġblu et
Ġpoln ischen
lus coni
ĠerzÃ¤ hlen
Ġenc ry
Ġpv c
Ġdell alba
Ġug anda
Ġkonflik te
Ġinte ger
insel n
Ġelev ator
fron tex
Ġsetz te
Ġenthus ias
Ġfok us
Ġgepf legt
Ġrass ismus
Ġzypr ies
Ġmarktor ganisation
dringlichkeits debatte
Ġgewid met
) !
4 30
b om
b ang
b alkan
d ivers
f ano
g ten
h st
h ill
k ab
k Ã¶rper
n us
r end
s ichts
t ungs
w icz
z ut
en ner
Ġt iger
es man
Ġd x
Ġs ic
re quest
ie la
Ġp kw
ar mut
Ġc um
Ġc ort
al de
Ġe bs
Ġe hemalige
as ions
le hnen
Ġh Ã¤r
Ġh unting
Ġg are
Ġg ipfels
Ġin gen
Ġo hr
Ġis a
Ã¼ ch
il der
Ġk und
Ġl ope
ic ia
st ant
ol ive
ol ivenÃ¶l
et ra
th ib
Ġein nahmen
Ġein treten
we hr
den ne
ve ter
ein ladung
Ġj Ã¶r
Ġj ager
ul den
Ġr ib
Ġwe igh
uch te
Ġge oghe
ess ert
Ġsch aut
Ġden is
Ġden ied
Ġnot ifications
se as
se ille
ik s
ne iden
Ġco elho
Ġle ct
ist ans
wir t
Ġhe ik
Ġsh irt
Ġres orts
ud a
Ġte ixe
Ġma ize
cl ar
Ġfra gt
akt uell
hin zu
Ġnach voll
Ġcomp ulsory
kont ingente
Ġbet ting
Ġbet reiben
Ġra ising
Ġjust ify
Ġges und
Ġwur zeln
Ġmar bella
but te
els organisation
ph otos
legen heiten
Ġinter nen
Ġinter active
Ġsy dney
Ġgu atemala
Ġfo x
Ġ11 4
Ġsta es
Ġwo her
Ġwo fÃ¼r
Ġwo oden
Ġko ch
Ġact or
stat td
Ġweiter machen
Ġweiter gegeben
ans wer
ins urance
Ġdel ays
Ġdel icate
sh ipping
Ġreal ize
vie t
19 0
Ġval dis
Ġcann abis
Ġcommun icate
fran ck
18 0
Ġhal be
22 6
50 6
Ġed inburgh
86 1
199 1
Ġcould nt
Ġgre w
Ġ27 0
34 4
ahn sinn
ump f
Ġposition en
Ġpost pon
Ġfer ro
Ġje wel
Ġkol umbien
38 5
Ġlin z
Ġfa i
89 4
ars ki
bre vi
qual itÃ¤ts
Ġwhole hear
Ġpersonen bezogen
Ġfair en
Ġmult imedia
weiter hin
bon us
rechts verfahren
Ġcapital s
Ġarri i
mÃ¶glich erweise
ĠpersÃ¶n liches
cep hal
Ġce ase
Ġsant iago
Ġtransl ations
Ġnav ar
Ġcreat ivity
trans ition
hor izon
Ġjac ob
Ġstark es
Ġregistr ierte
schluÃŁ folgerungen
Ġlux urious
Ġprakt ik
regional politik
ham ed
Ġtrack ing
Ġrepl ies
Ġmcc art
Ġdritt staaten
cccc ccc
ĠverstÃ¤r kte
Ġjournal ist
kons um
Ġweak nesses
Ġstake holders
Ġlif estyle
Ġeinzig artige
Ġangemessen e
Ġbehinder te
Ġkulture llen
Ġminder heit
Ġzuge hÃ¶rt
Ġcad iz
ĠerlÃ¤uter t
Ġfont aine
zust immen
fight ing
Ġschatz kanzler
connect ion
Ġburn ing
ĠgemÃ¼t lich
Ġdefe ats
Ġconver ted
ĠlÃ¤ch eln
Ġdiplomat ic
Ġorte ga
Ġmul der
Ġmagn ific
Ġub untu
Ġzalm minister
Ġalexand ros
Ġzin ss
Ġurheber recht
Ġaven ue
Ġsj Ã¶stedt
Ġrac ism
vald or
profession al
Ġsepp Ã¤nen
Ġbaj uk
ĠlÃ¤cher lich
fuss l
Ġsomog yi
Ġgeoghe gan
stattd essen
2 32
5 40
? .
b os
f ug
f act
f akten
g ain
g Ã¼lt
h Ã¤nge
l issabon
p act
r ale
t at
t ariff
er hebung
er lauben
en i
en cer
Ġa ux
Ġd ran
Ġd warf
Ġw iz
Ġm ild
Ġf f
Ġp us
Ġp ter
ar est
Ġc raft
al o
al icante
Ġg sp
Ġg ains
Ġn ay
Ġn ano
Ġv os
Ġv ak
Ġan ast
Ã¤ her
el beek
Ġun ab
Ġun known
Ġun iverse
Ġl om
Ġl ending
Ġto x
st able
im ag
et c
et tet
Ġth r
th a
Ġbe haupt
Ġein d
Ġst ance
and um
we ich
Ġver arbeitung
ein igung
Ġr in
be ef
ag ner
Ġab d
Ġinformation ssystem
Ġle istet
ze kas
ĠÃ¼ber trie
ak ings
rom ag
Ġent s
lo ys
ip a
Ġunter haltung
ungs los
Ġte en
af rikan
ire kte
Ġman o
Ġwar te
Ġper spectives
mer cedes
hl an
tra vel
br ig
Ġtra p
ute t
Ġbet s
Ġbet reiber
ear th
fr y
Ġange ht
Ġges ichert
Ġpre liminary
Ġbei der
wie viel
ital ia
nach stehend
[...]
