{"[PAD]": 0, "[EOS]": 1, "[BOS]": 2, "[UNK]": 3, "!": 4, "#": 5, "$": 6, "%": 7, "&": 8, "(": 9, ")": 10, "*": 11, "+": 12, ",": 13, "-": 14, ".": 15, "/": 16, "0": 17, "1": 18, "2": 19, "3": 20, "4": 21, "5": 22, "6": 23, "7": 24, "8": 25, "9": 26, ":": 27, ";": 28, "?": 29, "@": 30, "[": 31, "\\": 32, "]": 33, "_": 34, "a": 35, "b": 36, "c": 37, "d": 38, "e": 39, "f": 40, "g": 41, "h": 42, "i": 43, "j": 44, "k": 45, "l": 46, "m": 47, "n": 48, "o": 49, "p": 50, "q": 51, "r": 52, "s": 53, "t": 54, "u": 55, "v": 56, "w": 57, "x": 58, "y": 59, "z": 60, "{": 61, "|": 62, "}": 63, "£": 64, "¤": 65, "¥": 66, "¬": 67, "¶": 68, "¼": 69, "Â": 70, "Ã": 71, "â": 72, "Ġ": 73, "Ĥ": 74, "Ł": 75, "er": 76, "en": 77, "in": 78, "Ġa": 79, "ch": 80, "Ġt": 81, "es": 82, "on": 83, "Ġd": 84, "is": 85, "Ġs": 86, "un": 87, "an": 88, "it": 89, "or": 90, "Ġw": 91, "at": 92, "he": 93, "re": 94, "Ġm": 95, "Ġf": 96, "ie": 97, "Ġb": 98, "Ġp": 99, "ion": 100, "ar": 101, "te": 102, "Ġc": 103, "ro": 104, "al": 105, "Ġe": 106, "as": 107, "ich": 108, "le": 109, "Ġh": 110, "Ġthe": 111, "Ġg": 112, "Ġn": 113, "Ġin": 114, "Ġo": 115, "Ġv": 116, "us": 117, "Ġis": 118, "Ã¼": 119, "ent": 120, "om": 121, "ur": 122, "ung": 123, "Ġan": 124, "il": 125, "Ã¤": 126, "el": 127, "Ġk": 128, "ter": 129, "Ġun": 130, "ed": 131, "ig": 132, "ir": 133, "Ġof": 134, "ing": 135, "Ġl": 136, "ic": 137, "Ġto": 138, "ra": 139, "st": 140, "ol": 141, "im": 142, "et": 143, "Ġre": 144, "em": 145, "Ġz": 146, "Ġth": 147, "ation": 148, "th": 149, "ou": 150, "Ġbe": 151, "Ġder": 152, "der": 153, "Ġ2": 154, "ge": 155, "Ġein": 156, "um": 157, "omm": 158, "Ġfor": 159, "Ġst": 160, "ere": 161, "the": 162, "res": 163, "id": 164, "ts": 165, "Ġdie": 166, "and": 167, "ies": 168, "Ġand": 169, "am": 170, "ten": 171, "Ã¼r": 172, "ab": 173, "00": 174, "Ã¶": 175, "Ġist": 176, "Ġ1": 177, "for": 178, "rop": 179, "we": 180, "ut": 181, "hr": 182, "gen": 183, "Ġund": 184, "ot": 185, "icht": 186, "Ġy": 187, "Ġal": 188, "os": 189, "ber": 190, "Ġ(": 191, "Ġver": 192, "ac": 193, "den": 194, "ve": 195, "iss": 196, "ein": 197, "urop": 198, "Ġj": 199, "ec": 200, "uf": 201, "Ġpro": 202, "Ġi": 203, "sch": 204, "de": 205, "ver": 206, "ke": 207, "Ġon": 208, "Ġsie": 209, "ier": 210, "isch": 211, "ul": 212, "ow": 213, "Ġr": 214, "ĠfÃ¼r": 215, "tel": 216, "Ġer": 217, "ach": 218, "die": 219, "est": 220, "lich": 221, "kt": 222, "ommiss": 223, "ay": 224, "Ġwe": 225, "Ġwir": 226, "ill": 227, "und": 228, "ind": 229, "uch": 230, "..": 231, "Ġare": 232, "ff": 233, "be": 234, "Ġim": 235, "all": 236, "ort": 237, "Ġde": 238, "Ġne": 239, "ommission": 240, "sp": 241, "Ġcon": 242, "our": 243, "Ġzu": 244, "form": 245, "pp": 246, "ad": 247, "Ġ-": 248, "Ġge": 249, "ri": 250, "ce": 251, "Ġyou": 252, "Ġse": 253, "Ġdas": 254, "qu": 255, "ress": 256, "ess": 257, "ann": 258, "ate": 259, "ÃŁ": 260, "ust": 261, "Ġsch": 262, "Ġvon": 263, "ag": 264, "Ġab": 265, "ct": 266, "ien": 267, "Ġha": 268, "Ġthis": 269, "op": 270, "Ġauf": 271, "das": 272, "Ġaus": 273, "inis": 274, "Ġeurop": 275, "ld": 276, "Ġdies": 277, "formation": 278, "Ġden": 279, "Ġdes": 280, "ly": 281, "Ġnot": 282, "ith": 283, "Ġnicht": 284, "Ġit": 285, "inister": 286, "se": 287, "ment": 288, "ungen": 289, "Ġmit": 290, "ant": 291, "ft": 292, "Ã¼ber": 293, "Ġat": 294, "Ġinformation": 295, "end": 296, "Ġsp": 297, "ib": 298, "art": 299, "ah": 300, "ik": 301, "ne": 302, "Ġco": 303, "Ġwill": 304, "Ġdo": 305, "Ġle": 306, "la": 307, "ia": 308, "so": 309, "oll": 310, "nen": 311, "europ": 312, "Ã¤n": 313, "sen": 314, "ub": 315, "ist": 316, "wir": 317, "ean": 318, "Ġthat": 319, "Ġch": 320, "Ġwith": 321, "Ġho": 322, "men": 323, "Ġno": 324, "land": 325, "ze": 326, "ive": 327, "hen": 328, "if": 329, "ank": 330, "Ġwer": 331, "Ġ200": 332, "her": 333, "gr": 334, "ont": 335, "ĠÃ¼ber": 336, "ould": 337, "ht": 338, "uss": 339, "od": 340, "iel": 341, "iv": 342, "ase": 343, "ers": 344, "Ġwas": 345, "Ġsind": 346, "this": 347, "Ġhave": 348, "Ġeu": 349, "Ġ3": 350, "Ġex": 351, "Ġes": 352, "ische": 353, "mr": 354, "Ġso": 355, "ain": 356, "ident": 357, "ity": 358, "ite": 359, "ore": 360, "Ġsich": 361, "ak": 362, "Ġme": 363, "Ġeine": 364, "Ġen": 365, "Ġvor": 366, "Ġall": 367, "Ġuns": 368, "ions": 369, "Ġhe": 370, "Ġminister": 371, "rom": 372, "up": 373, "Ġas": 374, "esch": 375, "Ġwh": 376, "ial": 377, "ug": 378, "Ġsh": 379, "Ã¤r": 380, "imm": 381, "Ġwerden": 382, "ted": 383, "ste": 384, "ck": 385, "Ġfin": 386, "press": 387, "ang": 388, "Ġent": 389, "Ġcommission": 390, "ure": 391, "lo": 392, "Ġcom": 393, "Ġus": 394, "Ġum": 395, "Ġam": 396, "age": 397, "ell": 398, "...": 399, "ail": 400, "me": 401, "Ġres": 402, "ok": 403, "Ġich": 404, "ige": 405, "Ġrep": 406, "itte": 407, "dies": 408, "ran": 409, "ack": 410, "Ġwor": 411, "wh": 412, "Ġby": 413, "ue": 414, "ip": 415, "Ġ.": 416, "Ġhab": 417, "Ġar": 418, "eine": 419, "ice": 420, "01": 421, "Ġpl": 422, "Ġcan": 423, "los": 424, "ard": 425, "ben": 426, "ern": 427, "Ġ4": 428, "rÃ¤": 429, "Ġunter": 430, "Ġwird": 431, "ick": 432, "Ġher": 433, "32": 434, "Ġor": 435, "ahr": 436, "ungs": 437, "Ġad": 438, "ine": 439, "ap": 440, "che": 441, "ast": 442, "hal": 443, "able": 444, "ud": 445, "Ġ:": 446, "Ġhas": 447, "ger": 448, "Ġte": 449, "ther": 450, "Ġdem": 451, "heit": 452, "Ġih": 453, "Ġro": 454, "Ġma": 455, "Ġhotel": 456, "ark": 457, "ect": 458, "Ã¶n": 459, "af": 460, "ĠĠ": 461, "ire": 462, "tern": 463, "aus": 464, "io": 465, "Ġqu": 466, "lease": 467, "Ġyour": 468, "Ġkommission": 469, "zen": 470, "tsch": 471, "Ã¼s": 472, "du": 473, "Ġcont": 474, "Ġreg": 475, "cl": 476, "Ġ5": 477, "weit": 478, "Ġcoun": 479, "ome": 480, "Ġmore": 481, "wer": 482, "Ġli": 483, "99": 484, "ischen": 485, "tell": 486, "ult": 487, "Ġauch": 488, "ĠmÃ¶": 489, "gra": 490, "au": 491, "Ġalso": 492, "ru": 493, "out": 494, "Ġfrom": 495, "ommen": 496, "lie": 497, "Ġhat": 498, "Ġgo": 499, "Ġfra": 500, "sie": 501, "Ġpol": 502, "Ġlo": 503, "one": 504, "bs": 505, "that": 506, "are": 507, "eu": 508, "igen": 509, "ass": 510, "ations": 511, "ary": 512, "man": 513, "Ġwould": 514, "Ġman": 515, "Ġhaben": 516, "av": 517, "ide": 518, "pt": 519, "Ã¤t": 520, "beit": 521, "ĠkÃ¶n": 522, "Ġwar": 523, "Ġper": 524, "Ġ(+": 525, "akt": 526, "Ġgr": 527, "iz": 528, "mer": 529, "ise": 530, "Ġag": 531, "Ġlike": 532, "ement": 533, "hin": 534, "Ġmo": 535, "Ġour": 536, "Ġinformationen": 537, "etz": 538, "ner": 539, "Ã¤ische": 540, "aft": 541, "Ġber": 542, "rit": 543, "cc": 544, "cil": 545, "fer": 546, "round": 547, "gram": 548, "Ġapp": 549, "ign": 550, "ote": 551, "Ġzur": 552, "act": 553, "Ġrat": 554, "chen": 555, "Ġgesch": 556, "elt": 557, "Ġeuropean": 558, "air": 559, "Ġstat": 560, "pl": 561, "ese": 562, "mit": 563, "Ġnew": 564, "ens": 565, "what": 566, "Ġthere": 567, "Ġpar": 568, "gt": 569, "european": 570, "Ġunion": 571, "Ġ0": 572, "ms": 573, "rÃ¤s": 574, "Ã¼n": 575, "to": 576, "ĠmÃ¶ch": 577, "Ġfre": 578, "Ġdeb": 579, "hl": 580, "Ġfinan": 581, "zu": 582, "keit": 583, "pro": 584, "ake": 585, "was": 586, "liche": 587, "fin": 588, "Ġpress": 589, "Ġste": 590, "ho": 591, "ember": 592, "ble": 593, "Ġnach": 594, "herr": 595, "Ã¶r": 596, "Ġvery": 597, "ink": 598, "rÃ¤sident": 599, "ubl": 600, "auf": 601, "ight": 602, "tra": 603, "erv": 604, "reich": 605, "br": 606, "Ġpres": 607, "Ġ7": 608, "Ġpo": 609, "ction": 610, "kte": 611, "Ġ6": 612, "ace": 613, "ord": 614, "Ġtra": 615, "Ġgen": 616, "og": 617, "Ġcomm": 618, "Ġbes": 619, "grund": 620, "ition": 621, "Ġkann": 622, "Ġsein": 623, "ame": 624, "Ġsit": 625, "Ġcomp": 626, "sel": 627, "iert": 628, "ime": 629, "ibt": 630, "Ġwie": 631, "weitere": 632, "kl": 633, "Ġherr": 634, "Ġ201": 635, "Ġcouncil": 636, "kont": 637, "back": 638, "wo": 639, "Ġsa": 640, "fÃ¼": 641, "ground": 642, "ilung": 643, "Ġsu": 644, "ute": 645, "Ġ...": 646, "Ġbet": 647, "use": 648, "Ġhier": 649, "co": 650, "bar": 651, "Ġpart": 652, "ear": 653, "there": 654, "sten": 655, "ament": 656, "ated": 657, "ile": 658, "fol": 659, "Ġra": 660, "fr": 661, "Ã¤nder": 662, "Ġgro": 663, "200": 664, "no": 665, "Ġabout": 666, "Ġneed": 667, "tergrund": 668, "Ġmust": 669, "ally": 670, "ry": 671, "Ġ9": 672, "Ġrelease": 673, "enn": 674, "Ġ|": 675, "Ġ8": 676, "background": 677, "fra": 678, "Ġjust": 679, "Ġange": 680, "ild": 681, "vel": 682, "port": 683, "hintergrund": 684, "ret": 685, "con": 686, "Ġup": 687, "Ġweit": 688, "ieren": 689, "Ġmr": 690, "ĠkÃ¶nnen": 691, "Ġges": 692, "Ġaff": 693, "Ġvie": 694, "Ġnoch": 695, "10": 696, "Ġfe": 697, "Ġwur": 698, "Ġmar": 699, "bsite": 700, "do": 701, "Ġpre": 702, "Ġsec": 703, "Ġwhat": 704, "europÃ¤ische": 705, "ges": 706, "Ġbo": 707, "tz": 708, "per": 709, "but": 710, "Ġprogram": 711, "Ġbeen": 712, "Ġfol": 713, "you": 714, "Ġdiese": 715, "Ġze": 716, "Ġbr": 717, "tet": 718, "itteilung": 719, "ll": 720, "Ġbei": 721, "Ġ22": 722, "Ġdis": 723, "Ġu": 724, "Ġfind": 725, "int": 726, "ale": 727, "Ġav": 728, "els": 729, "neh": 730, "aten": 731, "Ġpr": 732, "Ġproble": 733, "airs": 734, "xt": 735, "ance": 736, "30": 737, "cht": 738, "Ġvote": 739, "nah": 740, "fen": 741, "wie": 742, "Ġ12": 743, "Ġihre": 744, "ahl": 745, "kontakt": 746, "Ġshould": 747, "Ġprodu": 748, "minister": 749, "Ã¼ssen": 750, "Ġzum": 751, "ichtig": 752, "tre": 753, "fe": 754, "Ġaffairs": 755, "ative": 756, "fahr": 757, "Ġsee": 758, "pr": 759, "Ġsoll": 760, "ital": 761, "ong": 762, "Ġmehr": 763, "ma": 764, "teil": 765, "uÃŁ": 766, "Ġem": 767, "Ġreport": 768, "Ġpun": 769, "nach": 770, "ings": 771, "Ġals": 772, "mar": 773, "ph": 774, "ĠmÃ¼ssen": 775, "legen": 776, "Ġfr": 777, "Ġihr": 778, "Ġinter": 779, "ert": 780, "Ġda": 781, "ian": 782, "Ġwork": 783, "stimm": 784, "eral": 785, "ish": 786, "Ġmin": 787, "Ã¼ck": 788, "Ġmy": 789, "spra": 790, "Ġeinen": 791, "ents": 792, "emitteilung": 793, "urch": 794, "Ġone": 795, "cy": 796, "ied": 797, "bo": 798, "Ġsehr": 799, "Ġnur": 800, "ond": 801, "acts": 802, ").": 803, "now": 804, "Ġproc": 805, "Ġsy": 806, "Ġgibt": 807, "Ġstr": 808, "fore": 809, "ures": 810, "vor": 811, "Ġpresident": 812, "how": 813, "Ġ10": 814, "cial": 815, "Ġnow": 816, "get": 817, "ws": 818, "igh": 819, "cont": 820, "Ġhere": 821, "Ã¶ff": 822, "Ġclos": 823, "ollow": 824, "ex": 825, "Ġdebate": 826, "ĠprÃ¤sident": 827, "ical": 828, "Ġtime": 829, "sprache": 830, "wor": 831, "Ġalle": 832, "Ã¤ischen": 833, "Ġtake": 834, "tschaft": 835, "chn": 836, "ublic": 837, "pol": 838, "Ġtran": 839, "com": 840, "Ġoder": 841, "diese": 842, "Ġcl": 843, "Ġjed": 844, "anz": 845, "reat": 846, "ays": 847, "schl": 848, "Ġintern": 849, "ina": 850, "Ġpos": 851, "lossen": 852, "hn": 853, "Ġla": 854, "Ġeuro": 855, "Ã¤nd": 856, "Ġger": 857, "Ġ29": 858, "klÃ¤r": 859, "Ġhand": 860, "etzt": 861, "ons": 862, "ielen": 863, "Ġdi": 864, "000": 865, "Ġbed": 866, "ange": 867, "Ġdar": 868, "app": 869, "ailable": 870, "part": 871, "erg": 872, "fl": 873, "ational": 874, "utz": 875, "heiten": 876, "Ġ+": 877, "Ġdire": 878, "emein": 879, "Ġstay": 880, "Ġpe": 881, "Ġparl": 882, "ommissar": 883, "ors": 884, "ux": 885, "Ġacc": 886, "als": 887, "kommen": 888, "Ġbest": 889, "rat": 890, "ss": 891, "Ġaussprache": 892, "ple": 893, "its": 894, "Ġdec": 895, "Ġgu": 896, "glie": 897, "stimmung": 898, "Ġph": 899, "12": 900, "Ġfolgen": 901, "Ġpolic": 902, "lin": 903, "ven": 904, "Ġdank": 905, "irst": 906, "very": 907, "Ġoff": 908, "Ġzwe": 909, "when": 910, "Ġadd": 911, "ree": 912, "Ġsol": 913, "Ġout": 914, "igt": 915, "itik": 916, "Ġdass": 917, "35": 918, "war": 919, "Ġavailable": 920, "Ġdieser": 921, "Ġihnen": 922, "Ġmark": 923, "alt": 924, "fÃ¼r": 925, "assen": 926, "Ġind": 927, "Ġlie": 928, "Ġunser": 929, "Ġfl": 930, "Ġ19": 931, "ject": 932, "Ġander": 933, "Ġarbeit": 934, "arbeit": 935, "Ġquest": 936, "glich": 937, "ĠmÃ¶chten": 938, "11": 939, "sta": 940, "Ġkeine": 941, "Ġwurde": 942, "Ġfo": 943, "Ġsupp": 944, "Ġinv": 945, "Ġmich": 946, "Ġpri": 947, "Ġfinden": 948, "ments": 949, "Ġben": 950, "Ġ229": 951, "Ġbis": 952, "Ġserv": 953, "Ġpers": 954, "Ġbel": 955, "geb": 956, "thank": 957, "ateg": 958, "Ġbere": 959, "ierung": 960, "wann": 961, "ely": 962, "hand": 963, "Ġget": 964, "Ġany": 965, "Ġplace": 966, "Ġprop": 967, "Ġabstimmung": 968, "ats": 969, "ium": 970, "urther": 971, "Ġant": 972, "Ġschl": 973, "wick": 974, "yp": 975, "Ġgeschlossen": 976, "Ġzeit": 977, "Ġop": 978, "Ġmuss": 979, "Ġ14": 980, "Ġet": 981, "ii": 982, "ution": 983, "Ġhos": 984, "Ġgood": 985, "itÃ¤t": 986, "Ġwebsite": 987, "Ġyear": 988, "uen": 989, "wÃ¤": 990, "ktion": 991, "Ġ11": 992, "Ġeurope": 993, "tr": 994, "str": 995, "ose": 996, "ved": 997, "velop": 998, "Ġclosed": 999, "Ġmember": 1000, "des": 1001, "rauch": 1002, "Ġpolicy": 1003, "Ġ199": 1004, "Ġfollow": 1005, "ĠeuropÃ¤ischen": 1006, "tels": 1007, "Ġangelegen": 1008, "ammen": 1009, "let": 1010, "Ġmed": 1011, "Ġproblem": 1012, "Ġspe": 1013, "Ġkon": 1014, "Ġbericht": 1015, "da": 1016, "glied": 1017, "net": 1018, "ov": 1019, "Ġonly": 1020, "zie": 1021, "Ġ,": 1022, "Ã¶s": 1023, "Ġjo": 1024, "Ġdiesem": 1025, "ĠÃ¼bernach": 1026, "usammen": 1027, "Ġbar": 1028, "atz": 1029, "halt": 1030, "Ġob": 1031, "Ġthese": 1032, "Ġkl": 1033, "other": 1034, "entlich": 1035, "les": 1036, "Ġcons": 1037, "ĠerklÃ¤r": 1038, "Ġhabe": 1039, "Ġ20": 1040, "Ġland": 1041, "Ġeiner": 1042, "Ġsaid": 1043, "bel": 1044, "stem": 1045, "Ġcommissioner": 1046, "Ã¼ssel": 1047, "ĠÃ¼bernachten": 1048, "Ġuhr": 1049, "gan": 1050, "ism": 1051, "Ġmen": 1052, "ater": 1053, "emb": 1054, "Ġdurch": 1055, "Ġsta": 1056, "nung": 1057, "come": 1058, "Ġmach": 1059, "Ġcour": 1060, "ffen": 1061, "Ġdoes": 1062, "Ġangelegenheiten": 1063, "Ġhin": 1064, "enz": 1065, "ĠmÃ¶chte": 1066, "eign": 1067, "vers": 1068, "Ġwo": 1069, "wed": 1070, "ities": 1071, "Ã¤ch": 1072, "nis": 1073, "uation": 1074, "Ġmon": 1075, "ible": 1076, "Ġmein": 1077, "Ġ15": 1078, "Ġagain": 1079, "Ġroom": 1080, "own": 1081, "lung": 1082, "ĠĠĠĠ": 1083, "Ġgegen": 1084, "stell": 1085, "Ġhostels": 1086, "abe": 1087, "day": 1088, "ters": 1089, "rag": 1090, "Ġknow": 1091, "iden": 1092, "fahren": 1093, "wÃ¤r": 1094, "iger": 1095, "Ġmuch": 1096, "Ġimport": 1097, "igung": 1098, "Ġtr": 1099, "clus": 1100, "Ġko": 1101, "Ġpunkte": 1102, "Ġtwo": 1103, "Ġwere": 1104, "mo": 1105, "Ġbus": 1106, "20": 1107, "ues": 1108, "Ġact": 1109, "aber": 1110, "Ġjahr": 1111, "Ġstatt": 1112, "ks": 1113, "sche": 1114, "Ġfirst": 1115, "Ġappro": 1116, "comm": 1117, "ention": 1118, "Ġits": 1119, "Ġ%": 1120, "wever": 1121, "igkeit": 1122, "ices": 1123, "rie": 1124, "urg": 1125, "wel": 1126, "stat": 1127, "par": 1128, "Ġsc": 1129, "alle": 1130, "nehmen": 1131, "kehr": 1132, "nahmen": 1133, "ems": 1134, "ett": 1135, "Ġregion": 1136, "Ġviel": 1137, "Ã¤l": 1138, "Ġstell": 1139, "ious": 1140, "ichts": 1141, "ces": 1142, "iron": 1143, "Ġaber": 1144, "Ġforeign": 1145, "ages": 1146, "line": 1147, "Ġend": 1148, "Ġwel": 1149, "Ġdu": 1150, "Ġdevelop": 1151, "wÃ¤rt": 1152, "schen": 1153, "immt": 1154, "Ġweiter": 1155, "ful": 1156, "Ġmarket": 1157, "ken": 1158, "Ġcase": 1159, "Ġhel": 1160, "ax": 1161, "son": 1162, "Ġcle": 1163, "Ġeinem": 1164, ".)": 1165, "they": 1166, "Ġeuropa": 1167, "Ġvers": 1168, "urr": 1169, "Ġmod": 1170, "Ġ2009": 1171, "Ġrel": 1172, "Ġverb": 1173, "pressemitteilung": 1174, "Ġgel": 1175, "wirtschaft": 1176, "Ġcol": 1177, "schaft": 1178, "ual": 1179, "wit": 1180, "iti": 1181, "hier": 1182, "Ġter": 1183, "halten": 1184, "zeit": 1185, "Ġkein": 1186, "uxemb": 1187, "entr": 1188, "mail": 1189, "Ġart": 1190, "icult": 1191, "Ġfindet": 1192, "rei": 1193, "Ġx": 1194, "Ġstand": 1195, "lieÃŁ": 1196, "âĤ": 1197, "âĤ¬": 1198, "ory": 1199, "ument": 1200, "ider": 1201, "Ġother": 1202, "mal": 1203, "lect": 1204, "Ġbesch": 1205, "more": 1206, "Ġcar": 1207, "ans": 1208, "Ġtun": 1209, "fÃ¼hr": 1210, "uer": 1211, "contacts": 1212, "fach": 1213, "omic": 1214, "utes": 1215, "Ġenerg": 1216, "Ġthem": 1217, "Ġneue": 1218, "ins": 1219, "Ġpropos": 1220, "Ġthey": 1221, "ility": 1222, "Ġprocess": 1223, "leich": 1224, "Ġmor": 1225, "Ġwant": 1226, "ha": 1227, "unt": 1228, "40": 1229, "stÃ¼": 1230, "Ġiss": 1231, "ific": 1232, "Ġdirect": 1233, "Ġvot": 1234, "wn": 1235, "gar": 1236, "ict": 1237, "je": 1238, "erein": 1239, "15": 1240, "Ġnat": 1241, "gel": 1242, "Ġgemein": 1243, "Ġparlament": 1244, "Ġresp": 1245, "Ġmay": 1246, "ussels": 1247, "Ġgra": 1248, "Ġbl": 1249, "oper": 1250, "Ġviews": 1251, "Ġrech": 1252, "viron": 1253, "Ġprogramme": 1254, "Ġimportant": 1255, "trag": 1256, "Ġvis": 1257, "Ġdet": 1258, "Ġexp": 1259, "rech": 1260, "Ġinst": 1261, "many": 1262, "commission": 1263, "enden": 1264, "Ġred": 1265, "vironment": 1266, "Ġdiesen": 1267, "onder": 1268, "ople": 1269, "25": 1270, "Ġperson": 1271, "gl": 1272, "olog": 1273, "):": 1274, "iament": 1275, "lichen": 1276, "oc": 1277, "Ġword": 1278, "13": 1279, "org": 1280, "Ġans": 1281, "leg": 1282, "Ġkomm": 1283, "Ġecon": 1284, ".:": 1285, "ants": 1286, "Ġrepres": 1287, "Ġsub": 1288, "ified": 1289, "Ġtransp": 1290, "inn": 1291, "ĠÃ¶ff": 1292, "Ġpublic": 1293, "vielen": 1294, "Ġinvest": 1295, "Ġcontact": 1296, "Ġentwick": 1297, "Ġmake": 1298, "dem": 1299, "Ġsicher": 1300, "alk": 1301, "Ġwichtig": 1302, "ĠauswÃ¤rt": 1303, "wort": 1304, "ischer": 1305, "isse": 1306, "Ġfrage": 1307, "ence": 1308, "Ġright": 1309, "ĠÃ¤nder": 1310, "Ġmill": 1311, "lause": 1312, "Ġ13": 1313, "welt": 1314, "Ġsituation": 1315, "weden": 1316, "Ġuse": 1317, "Ġunder": 1318, "Ġrequ": 1319, "Ġsystem": 1320, "Ġass": 1321, "Ġ2007": 1322, "ited": 1323, "immer": 1324, "Ġsupport": 1325, "stand": 1326, "folger": 1327, "ĠgroÃŁ": 1328, "Ġbut": 1329, "Ġgeht": 1330, "ps": 1331, "Ġzusammen": 1332, "Ġpoint": 1333, "Ġser": 1334, "utsch": 1335, "inge": 1336, "Ġ18": 1337, "Ġemp": 1338, "Ġunsere": 1339, "Ġworld": 1340, "Ġsome": 1341, "ward": 1342, "Ġdiff": 1343, "Ġac": 1344, "Ġins": 1345, "ives": 1346, "genommen": 1347, "belg": 1348, "jo": 1349, "Ġwell": 1350, "Ġtoo": 1351, "ifall": 1352, "zial": 1353, "Ġmitglied": 1354, "Ġbin": 1355, "pres": 1356, "issen": 1357, "Ġstate": 1358, "ÃŁnahmen": 1359, "Ġ/": 1360, "ption": 1361, "arn": 1362, "Ġover": 1363, "bere": 1364, "sl": 1365, "Ġfun": 1366, "itÃ¤": 1367, "Ġzwei": 1368, "fort": 1369, "Ġ16": 1370, "Ġke": 1371, "urrent": 1372, "Ġagre": 1373, "Ġquestion": 1374, "Ġmat": 1375, "eth": 1376, "Ġbeg": 1377, "amen": 1378, "Ġgeb": 1379, "halb": 1380, "Ġpeople": 1381, "ĠfÃ¼": 1382, "Ġevery": 1383, "Ġconc": 1384, "mark": 1385, "Ġdel": 1386, "Ġlook": 1387, "Ġkommissar": 1388, "schri": 1389, "unden": 1390, "Ġtherefore": 1391, "ler": 1392, "Ġdat": 1393, "Ġthink": 1394, "ient": 1395, "Ġfurther": 1396, "these": 1397, "ics": 1398, "amt": 1399, "ĠwÃ¤": 1400, "Ġadop": 1401, "Ġfall": 1402, "auch": 1403, "Ġsim": 1404, "luxemb": 1405, "ĠunterstÃ¼": 1406, "Ġconclus": 1407, "Ġjetzt": 1408, "Ġir": 1409, "sh": 1410, "red": 1411, "Ġreal": 1412, "Ġrates": 1413, "Ġ17": 1414, "Ġhapp": 1415, "hÃ¶r": 1416, "urn": 1417, "hne": 1418, "ffe": 1419, "ĠauswÃ¤rtige": 1420, "och": 1421, "Ġricht": 1422, "iven": 1423, "unter": 1424, "Ġform": 1425, "ails": 1426, "45": 1427, "Ġtechn": 1428, "Ġfollowing": 1429, "ular": 1430, "elle": 1431, "Ġ!": 1432, "Ġfar": 1433, "Ġrepresent": 1434, "Ġ2010": 1435, "iness": 1436, "isten": 1437, "bal": 1438, "witter": 1439, "Ġ2008": 1440, "rol": 1441, "ath": 1442, "Ġur": 1443, "Ġplease": 1444, "vie": 1445, "applause": 1446, "dern": 1447, "thing": 1448, "ĠeuropÃ¤ische": 1449, "Ġway": 1450, "Ġgew": 1451, "Ġsuch": 1452, "Ġ30": 1453, "Ġvom": 1454, "icip": 1455, "ys": 1456, "Ġ25": 1457, "19": 1458, "Ġval": 1459, "amp": 1460, "Ġsel": 1461, "read": 1462, "Ġlast": 1463, "Ġwelt": 1464, "beifall": 1465, "zieh": 1466, "ural": 1467, "ix": 1468, "Ġpage": 1469, "Ġonline": 1470, "folgerungen": 1471, "az": 1472, "Ġspec": 1473, "Ġcor": 1474, "Ġpolit": 1475, "Ġdevelopment": 1476, "Ġhow": 1477, "gh": 1478, "Ġbitte": 1479, "see": 1480, "Ġteil": 1481, "richt": 1482, "Ġlink": 1483, "Ġloc": 1484, "vis": 1485, "Ġlang": 1486, "Ġgest": 1487, "Ġnun": 1488, "Ġthan": 1489, "kret": 1490, "wend": 1491, "ĠâĤ¬": 1492, "Ġconclusions": 1493, "aben": 1494, "Ġvertre": 1495, "Ġel": 1496, "Ġeinfach": 1497, "ris": 1498, "Ġdieses": 1499, "uns": 1500, "Ġsk": 1501, "16": 1502, "ting": 1503, "46": 1504, "general": 1505, "Ġminutes": 1506, "Ġschluss": 1507, "eln": 1508, "Ġsecret": 1509, "hmen": 1510, "lage": 1511, "mittel": 1512, "schlieÃŁ": 1513, "fall": 1514, "gre": 1515, "ĠverfÃ¼": 1516, "Ġimmer": 1517, "iet": 1518, "Ġnor": 1519, "bei": 1520, "Ġaf": 1521, "Ġvotes": 1522, "Ġtwitter": 1523, "Ġleg": 1524, "afts": 1525, "ko": 1526, "Ġbas": 1527, "Ġplay": 1528, "operation": 1529, "row": 1530, "Ġinto": 1531, "Ġstrateg": 1532, "riff": 1533, "Ġev": 1534, "ights": 1535, "Ġmir": 1536, "Ġgrund": 1537, "ates": 1538, "Ġdown": 1539, "iÃŁ": 1540, "amit": 1541, "nehmer": 1542, "Ġfran": 1543, "pre": 1544, "Ġwho": 1545, "Ġfree": 1546, "Ġgreat": 1547, "Ġcann": 1548, "Ġprogramm": 1549, "brussels": 1550, "president": 1551, "Ġmillion": 1552, "Ġjedoch": 1553, "Ġthank": 1554, "ucht": 1555, "ugh": 1556, "Ġopen": 1557, "go": 1558, "Ġheute": 1559, "ize": 1560, "Ġfund": 1561, "Ġdr": 1562, "website": 1563, "presse": 1564, "Ġdan": 1565, "Ġvo": 1566, "Ġclear": 1567, "Ġcommun": 1568, "Ġinternet": 1569, "Ġbusiness": 1570, "zung": 1571, "09": 1572, "Ġangenommen": 1573, "Ġsm": 1574, "nisse": 1575, "ilt": 1576, "Ġagreement": 1577, "hol": 1578, "Ġpressemitteilung": 1579, "main": 1580, "ban": 1581, "ta": 1582, "fran": 1583, "clud": 1584, "Ġkom": 1585, "ica": 1586, "ĠmÃ¶glich": 1587, "Ġganz": 1588, "Ġtheir": 1589, "02": 1590, "bst": 1591, "nov": 1592, "Ġcent": 1593, "ects": 1594, "frage": 1595, "here": 1596, "lands": 1597, "Ġmain": 1598, "Ġwieder": 1599, "pun": 1600, "ilfe": 1601, "Ġide": 1602, "prÃ¤sident": 1603, "Ġweitere": 1604, "Ġproduc": 1605, "Ġadopted": 1606, "Ġjustice": 1607, "Ġetwas": 1608, "reg": 1609, "erung": 1610, "bewer": 1611, "Ġbrauch": 1612, "Ġsay": 1613, "Ġgut": 1614, "98": 1615, "ustri": 1616, "Ġmob": 1617, "Ġeinz": 1618, "Ġprior": 1619, "Ġfragen": 1620, "just": 1621, "gest": 1622, "Ġleben": 1623, "sekret": 1624, "brÃ¼ssel": 1625, "urs": 1626, "Ġsom": 1627, "nahme": 1628, "Ġcannot": 1629, "14": 1630, "Ġbu": 1631, "75": 1632, "Ġakt": 1633, "Ġbre": 1634, "ka": 1635, "03": 1636, "manent": 1637, "ziehungen": 1638, "Ġmany": 1639, "Ġposs": 1640, "Ġchar": 1641, "ĠstÃ¤nd": 1642, "essen": 1643, "unde": 1644, "Ġagainst": 1645, "Ġbro": 1646, "Ġfrau": 1647, "afÃ¼r": 1648, "ordnung": 1649, "utschland": 1650, "Ġjan": 1651, "Ġschlussfolgerungen": 1652, "Ġgroup": 1653, "way": 1654, "Ġwhich": 1655, "Ġtak": 1656, "hlen": 1657, "Ġwenn": 1658, "Ġnum": 1659, "ja": 1660, "try": 1661, "why": 1662, "fÃ¤": 1663, "Ġbeste": 1664, "bes": 1665, "aher": 1666, "Ġproced": 1667, "Ġmade": 1668, "Ġnext": 1669, "Ġdetails": 1670, "Ġerfol": 1671, "Ġpermanent": 1672, "ritt": 1673, "Ġrechts": 1674, "ous": 1675, "uman": 1676, "Ġvorschl": 1677, "Ġqual": 1678, "Ġprote": 1679, "Ã¤lt": 1680, "loy": 1681, "sonst": 1682, "Ġwoll": 1683, "anc": 1684, "forder": 1685, "Ġfinanzen": 1686, "Ġweb": 1687, "please": 1688, "Ġtext": 1689, "urity": 1690, "Ġprot": 1691, "Ġdazu": 1692, "Ġaction": 1693, "Ġstill": 1694, "Ġfinanz": 1695, "orts": 1696, "Ġdep": 1697, "Ġrepresentative": 1698, "Ġpass": 1699, "Ġjun": 1700, "Ġwhy": 1701, "ania": 1702, "Ġair": 1703, "anien": 1704, "Ġagr": 1705, "Ġmal": 1706, "eg": 1707, "Ġhelp": 1708, "ests": 1709, "18": 1710, "led": 1711, "Ġarea": 1712, "bl": 1713, "Ġhome": 1714, "Ġyears": 1715, "kommissar": 1716, "ternal": 1717, "mp": 1718, "ĠÃ¶ffentlich": 1719, "rist": 1720, "Ġhal": 1721, "isp": 1722, "ude": 1723, "Ġmeas": 1724, "Ġbild": 1725, "work": 1726, "inc": 1727, "Ġwirk": 1728, "Ġsecretary": 1729, "Ġcas": 1730, "Ġau": 1731, "ankreich": 1732, "tran": 1733, "geben": 1734, "ope": 1735, "ows": 1736, "Ġkont": 1737, "iges": 1738, "bet": 1739, "Ġcost": 1740, "Ġtom": 1741, "spe": 1742, "dar": 1743, "ander": 1744, "Ġoper": 1745, "Ġreform": 1746, "politik": 1747, "97": 1748, "Ġaccess": 1749, "Ġconcern": 1750, "352": 1751, "Ġii": 1752, "Ġdid": 1753, "Ġaut": 1754, "Ġeff": 1755, "however": 1756, "gesch": 1757, "Ġfam": 1758, "df": 1759, "Ġdisc": 1760, "Ġchange": 1761, "kun": 1762, "Ġday": 1763, "Ġset": 1764, "Ġspeak": 1765, "Ġmenschen": 1766, "Ġsl": 1767, "22": 1768, "96": 1769, "Ġmost": 1770, "Ġsocial": 1771, "Ġdiffer": 1772, "Ġeconomic": 1773, "Ġgl": 1774, "Ġstar": 1775, "any": 1776, "ware": 1777, "hof": 1778, "Ġeur": 1779, "Ġliegt": 1780, "Ġgar": 1781, "zeich": 1782, "iten": 1783, "Ġsollte": 1784, "Ġstates": 1785, "201": 1786, "book": 1787, "Ġ28": 1788, "sekretÃ¤r": 1789, "ife": 1790, "Ġsozial": 1791, "Ġfil": 1792, "weis": 1793, "ieden": 1794, "Ġback": 1795, "Ġenvironment": 1796, "ull": 1797, "ourg": 1798, "ep": 1799, "alth": 1800, "tens": 1801, "ides": 1802, "verkehr": 1803, "Ġhol": 1804, "Ġnet": 1805, "Ġfound": 1806, "europa": 1807, "iculture": 1808, "Ġstart": 1809, "club": 1810, "cept": 1811, "Ġwurden": 1812, "ĠnÃ¤ch": 1813, "Ġwort": 1814, "Ġpra": 1815, "ache": 1816, "Ġsollten": 1817, "ott": 1818, "tries": 1819, "dom": 1820, "rechen": 1821, "abei": 1822, "linie": 1823, "uage": 1824, "Ġservice": 1825, "Ġele": 1826, "Ġmeine": 1827, "frau": 1828, "17": 1829, "Ġzahl": 1830, "Ġjah": 1831, "Ġread": 1832, "50": 1833, "Ġexam": 1834, "Ġergeb": 1835, "upt": 1836, "olution": 1837, "Ġed": 1838, "Ġdok": 1839, "Ġjul": 1840, "ungsant": 1841, "Ġtoday": 1842, "Ġrec": 1843, "zahl": 1844, "plan": 1845, "okoll": 1846, "ĠmaÃŁnahmen": 1847, "Ġgeneral": 1848, "Ġtele": 1849, "Ġhaus": 1850, "Ġcourse": 1851, "markt": 1852, "kann": 1853, "Ġthen": 1854, "uty": 1855, "Ġbank": 1856, "ieder": 1857, "Ġthree": 1858, "Ġamend": 1859, "innen": 1860, "wischen": 1861, "Ġ24": 1862, "ikel": 1863, "Ġdecis": 1864, "Ġnr": 1865, "Ġpunkt": 1866, "Ġdone": 1867, "etzung": 1868, "Ġ?": 1869, "information": 1870, "ĠerklÃ¤rte": 1871, "Ġsame": 1872, "load": 1873, "Ġsecurity": 1874, "sol": 1875, "Ġmorgen": 1876, "Ġentwicklung": 1877, "Ġcap": 1878, "lang": 1879, "Ġtrade": 1880, "pe": 1881, "ob": 1882, "ough": 1883, "warum": 1884, "iele": 1885, "udget": 1886, "Ġcountries": 1887, "ili": 1888, "po": 1889, "Ġagen": 1890, "rifft": 1891, "Ġfut": 1892, "Ġfinance": 1893, "Ġproducts": 1894, "min": 1895, "Ġwhen": 1896, "ublik": 1897, "raft": 1898, "auen": 1899, "staaten": 1900, "atssekretÃ¤r": 1901, "sit": 1902, "),": 1903, "Ġissue": 1904, "Ġdrei": 1905, "Ġwissen": 1906, "gesamt": 1907, "gem": 1908, "Ġgemeins": 1909, "Ġwithout": 1910, "Ġport": 1911, "wa": 1912, "ĠverfÃ¼g": 1913, "adt": 1914, "Ġtransport": 1915, "Ġmean": 1916, "ppe": 1917, "Ġhad": 1918, "33": 1919, "eng": 1920, "Ġhostelsclub": 1921, "lex": 1922, "will": 1923, "ieve": 1924, "Ġwen": 1925, "Ġrelations": 1926, "Ġif": 1927, "Ġcurrent": 1928, "ruct": 1929, "Ġinc": 1930, "duc": 1931, "Ġorgan": 1932, "verfahren": 1933, "ulgar": 1934, "Ġlong": 1935, "lar": 1936, "itt": 1937, "Ġpat": 1938, "Ġsitzung": 1939, "uff": 1940, "eh": 1941, "pri": 1942, "Ġask": 1943, "Ġsum": 1944, "Ġpay": 1945, "Ġprov": 1946, "Ġprotokoll": 1947, "Ġtag": 1948, "Ġ295": 1949, "Ġpa": 1950, "86": 1951, "kommission": 1952, "Ġihren": 1953, "199": 1954, "lat": 1955, "hren": 1956, "Ġble": 1957, "Ġhis": 1958, "Ġnumber": 1959, "inter": 1960, "orrow": 1961, "acht": 1962, "Ġcould": 1963, "ulation": 1964, "eck": 1965, "Ġsiehe": 1966, "Ġfolgende": 1967, "Ġreas": 1968, "Ġeas": 1969, "Ġdann": 1970, "Ġhigh": 1971, "Ġshall": 1972, "icipants": 1973, "tem": 1974, "Ġvoll": 1975, "aut": 1976, "beziehungen": 1977, "ÃŁen": 1978, "Ġest": 1979, "Ġorder": 1980, "reib": 1981, "Ġsicherheit": 1982, "Ġfest": 1983, "ari": 1984, "mon": 1985, "Ġown": 1986, "Ġmachen": 1987, "items": 1988, "Ġapproved": 1989, "Ġquestions": 1990, "slo": 1991, "va": 1992, "ece": 1993, "Ġkosten": 1994, "Ġsteht": 1995, "ways": 1996, "Ġ000": 1997, "Ġplan": 1998, "ci": 1999, "gend": 2000, "Ġentsche": 2001, "kunft": 2002, "ower": 2003, "Ġkm": 2004, "Ġunternehmen": 2005, "ready": 2006, "gemein": 2007, "ules": 2008, "95": 2009, "of": 2010, "ĠÃ¤": 2011, "iechen": 2012, "ating": 2013, "Ġview": 2014, "ienst": 2015, "emo": 2016, "vern": 2017, "ints": 2018, "kon": 2019, "Ã¤ft": 2020, "Ġpark": 2021, "Ġgre": 2022, "ritten": 2023, "med": 2024, "Ġglo": 2025, "program": 2026, "icken": 2027, "Ġkle": 2028, "Ġrecht": 2029, "ines": 2030, "Ġindust": 2031, "Ġbie": 2032, "Ġmus": 2033, "Ġcontin": 2034, "Ġsecond": 2035, "Ġ&": 2036, "by": 2037, "Ġalles": 2038, "Ġspiel": 2039, "terreich": 2040, "Ġmeasures": 2041, "zeug": 2042, "Ġbereich": 2043, "ustria": 2044, "ser": 2045, "Ġtomorrow": 2046, "Ġja": 2047, "Ã¼rlich": 2048, "ething": 2049, "Ġwollen": 2050, "Ġparliament": 2051, "Ġfuture": 2052, "sy": 2053, "Ġkur": 2054, "Ã¶sterreich": 2055, "Ġ*": 2056, "ards": 2057, "Ġschon": 2058, "Ġpdf": 2059, "ĠunterstÃ¼tz": 2060, "ements": 2061, "Ġpriv": 2062, "fre": 2063, "ren": 2064, "ĠkÃ¶nig": 2065, "Ġmedien": 2066, "vention": 2067, "Ġfinancial": 2068, "Ġversion": 2069, "bericht": 2070, "Ġerste": 2071, "lagen": 2072, "ften": 2073, "verein": 2074, "iechenland": 2075, "Ġsur": 2076, "Ġrece": 2077, "oren": 2078, "ily": 2079, "vertre": 2080, "Ġref": 2081, "ade": 2082, "gang": 2083, "Ġselbst": 2084, "05": 2085, "Ġgleich": 2086, "isation": 2087, "Ġprof": 2088, "Ġpossible": 2089, "Ġsect": 2090, "Ġpack": 2091, "dieser": 2092, "Ġenergy": 2093, "Ġrom": 2094, "amer": 2095, "Ġris": 2096, "Ġfav": 2097, "laub": 2098, "quest": 2099, "france": 2100, "att": 2101, "ief": 2102, "Ġeben": 2103, "cri": 2104, "ias": 2105, "Ġ2000": 2106, "Ġ21": 2107, "Ġdata": 2108, "que": 2109, "ingen": 2110, "Ġcre": 2111, "ster": 2112, "Ã¶ÃŁ": 2113, "Ġtre": 2114, "Ġbeisp": 2115, "Ġalready": 2116, "Ġimp": 2117, "Ġwaren": 2118, "ki": 2119, "Ġbegr": 2120, "ktur": 2121, "Ġcooperation": 2122, "ettbewer": 2123, "slow": 2124, "leas": 2125, "uft": 2126, "erk": 2127, "Ġdate": 2128, "ald": 2129, "Ġking": 2130, "Ġ27": 2131, "frankreich": 2132, "Ġcome": 2133, "Ġmeet": 2134, "ismus": 2135, "entral": 2136, "further": 2137, "Ġhuman": 2138, "ication": 2139, "Ġbrauchen": 2140, "Ġupd": 2141, "Ġ23": 2142, "ugal": 2143, "iste": 2144, "Ġeinige": 2145, "coun": 2146, "ves": 2147, "ialog": 2148, "Ġinternational": 2149, "Ġhappen": 2150, "erst": 2151, "Ġrights": 2152, "hÃ¤lt": 2153, "Ġfact": 2154, "Ġwind": 2155, "Ġvisit": 2156, "Ġziel": 2157, "my": 2158, "ession": 2159, "olitik": 2160, "Ġwirtschaft": 2161, "Ã¶rter": 2162, "italien": 2163, "04": 2164, "Ġnews": 2165, "mÃ¶": 2166, "Ġcontacts": 2167, "ichte": 2168, "ittee": 2169, "Ġ@": 2170, "Ġkommen": 2171, "Ġlage": 2172, "Ġkar": 2173, "weise": 2174, "Ġaid": 2175, "Ġgilt": 2176, "uchen": 2177, "ĠdafÃ¼r": 2178, "Ġsomething": 2179, "Ġwirklich": 2180, "Ġappl": 2181, "Ġzimmer": 2182, "mb": 2183, "Ġsign": 2184, "ĠwÃ¼r": 2185, "Ġseite": 2186, "germany": 2187, "Ġdokument": 2188, "Ġreally": 2189, "Ġsehen": 2190, "Ġsagen": 2191, "Ġ2006": 2192, "loyment": 2193, "ror": 2194, "Ġbereits": 2195, "deutschland": 2196, "Ã¼nd": 2197, "Ġsaf": 2198, "Ġname": 2199, "punkt": 2200, "sub": 2201, "stÃ¤nd": 2202, "Ġantwort": 2203, "Ġneuen": 2204, "Ġatt": 2205, "bed": 2206, "Ġandere": 2207, "Ġservices": 2208, "Ġwes": 2209, "Ġhowever": 2210, "303": 2211, "italy": 2212, "Ġdaten": 2213, "Ġoffer": 2214, "Ã¼h": 2215, "Ġumwelt": 2216, "Ġproposal": 2217, "Ġkro": 2218, "tegr": 2219, "dieses": 2220, "Ġtour": 2221, "ek": 2222, "Ġrepublic": 2223, "ertain": 2224, "ino": 2225, "Ġpal": 2226, "schutz": 2227, "self": 2228, "Ġgive": 2229, "ults": 2230, "herlands": 2231, "fung": 2232, "lassen": 2233, "Ġinnov": 2234, "na": 2235, "eld": 2236, "ird": 2237, "Ġproje": 2238, "Ġsan": 2239, "ately": 2240, "Ġfig": 2241, "Ġopp": 2242, "fern": 2243, "itions": 2244, "06": 2245, "icher": 2246, "ron": 2247, "Ġtel": 2248, "Ġdirective": 2249, "Ġrepublik": 2250, "hed": 2251, "teilnehmer": 2252, "comp": 2253, "Ġbefore": 2254, "Ġversch": 2255, "haus": 2256, "Ġvoted": 2257, "spain": 2258, "spanien": 2259, "ĠkÃ¶nigreich": 2260, "then": 2261, "iederland": 2262, "ungsantrag": 2263, "can": 2264, "isher": 2265, "besch": 2266, "Ġblo": 2267, "agt": 2268, "fo": 2269, "welche": 2270, "Ġhope": 2271, "Ġweg": 2272, "Ġnov": 2273, "ih": 2274, "ĠÃ¶ffentlichkeit": 2275, "Ġeven": 2276, "Ġgraph": 2277, "Ġiniti": 2278, "Ġanswer": 2279, "Ġrooms": 2280, "Ã¶rder": 2281, "Ġpap": 2282, "Ġbesten": 2283, "24": 2284, "earch": 2285, "Ġviele": 2286, "sa": 2287, "Ġdiscuss": 2288, "anto": 2289, "Ġtyp": 2290, "Ġrules": 2291, "ene": 2292, "spro": 2293, "Ġeines": 2294, "Ġcall": 2295, "mehr": 2296, "Ġprotection": 2297, "ience": 2298, "deshalb": 2299, "agement": 2300, "Ġru": 2301, "ĠzurÃ¼ck": 2302, "tschafts": 2303, "participants": 2304, "Ġdav": 2305, "Ġhouse": 2306, "Ġunserer": 2307, "prior": 2308, "uc": 2309, "Ġ4303": 2310, "Ġ50": 2311, "Ġihrer": 2312, "Ġobject": 2313, "emp": 2314, "ums": 2315, "doch": 2316, "Ġanderen": 2317, "ober": 2318, "Ġmil": 2319, "dec": 2320, "Ġmet": 2321, "Ã¶l": 2322, "nor": 2323, "Ġlinks": 2324, "council": 2325, "iederlande": 2326, "Ġfisch": 2327, "ef": 2328, "Ġtot": 2329, "ĠauÃŁ": 2330, "Ġach": 2331, "Ġcity": 2332, "annex": 2333, "Ġsitting": 2334, "stag": 2335, "emark": 2336, "quir": 2337, "07": 2338, "Ġcourt": 2339, "Ġnational": 2340, "under": 2341, "Ġkin": 2342, "Ġ100": 2343, "schuss": 2344, "Ġequ": 2345, "Ġvorschlag": 2346, "llen": 2347, "Ġdialog": 2348, "Ġalways": 2349, "ritte": 2350, "Ġeing": 2351, "ected": 2352, "Ġnichts": 2353, "Ġwat": 2354, "Ġthema": 2355, "immen": 2356, "view": 2357, "Ġital": 2358, "tung": 2359, "schrift": 2360, "Ġgestimmt": 2361, "Ġtim": 2362, "Ġremain": 2363, "fragen": 2364, "Ġstra": 2365, "Ġdim": 2366, "Ġdifferent": 2367, "undheit": 2368, "spolitik": 2369, "ĠmuÃŁ": 2370, "Ġbudget": 2371, "transp": 2372, "hang": 2373, "Ġgem": 2374, "Ġstehen": 2375, "bt": 2376, "ruf": 2377, "Ã¤nemark": 2378, "esen": 2379, "Ġlar": 2380, "Ġfavour": 2381, "Ġzwischen": 2382, "parl": 2383, "Ġeigen": 2384, "find": 2385, "wenn": 2386, "ierte": 2387, "Ġeinge": 2388, "Ġdanke": 2389, "Ã¼rger": 2390, "ustom": 2391, "Ġvol": 2392, "intern": 2393, "Ġmot": 2394, "27": 2395, "belgien": 2396, "gs": 2397, "off": 2398, "Ġwhere": 2399, "Ġhealth": 2400, "Ġprocedure": 2401, "Ġjahre": 2402, "esser": 2403, "ount": 2404, "Ġdist": 2405, "Ġresolution": 2406, "oney": 2407, "Ġkingdom": 2408, "nland": 2409, "Ġfunktion": 2410, "Ġschw": 2411, "Ġtrans": 2412, "room": 2413, "Ġchina": 2414, "37": 2415, "Ġmio": 2416, "belgium": 2417, "34": 2418, "ols": 2419, "Ġbeing": 2420, "Ġpoints": 2421, "Ġkr": 2422, "Ġhotels": 2423, "Ġ2001": 2424, "ende": 2425, "ĠwÃ¤re": 2426, "luxembourg": 2427, "Ġglobal": 2428, "riend": 2429, "Ġzusammenarbeit": 2430, "isches": 2431, "zur": 2432, "ube": 2433, "not": 2434, "Ġprocessed": 2435, "verb": 2436, "Ġbeit": 2437, "where": 2438, "ĠdaÃŁ": 2439, "21": 2440, "Ġsite": 2441, "ator": 2442, "elie": 2443, "itÃ¤ts": 2444, "ister": 2445, "Ġgeben": 2446, "irland": 2447, "ivers": 2448, "Ġruss": 2449, "Ġforward": 2450, "griechenland": 2451, "greece": 2452, "ior": 2453, "Ġec": 2454, "Ġangenommene": 2455, "zug": 2456, "iter": 2457, "Ġletz": 2458, "Ġ2005": 2459, "Ġneeds": 2460, "Ġjustiz": 2461, "Ġwish": 2462, "bitte": 2463, "Ġexper": 2464, "parliament": 2465, "ros": 2466, "tot": 2467, "Ġwa": 2468, "fon": 2469, "gaben": 2470, "Ġwelcome": 2471, "member": 2472, "Ġmom": 2473, "Ġapr": 2474, "Ġlandwirtschaft": 2475, "falls": 2476, "Ġmittel": 2477, "Ġlevel": 2478, "Ã¶rterte": 2479, "fast": 2480, "spl": 2481, "Ġapart": 2482, "icular": 2483, "Ġused": 2484, "Ġselect": 2485, "Ġret": 2486, "uk": 2487, "Ġinner": 2488, "taur": 2489, "ield": 2490, "ruktur": 2491, "Ġmacht": 2492, "Ġcontrol": 2493, "Ġhar": 2494, "austria": 2495, "dr": 2496, "ellen": 2497, "Ġcomple": 2498, "question": 2499, "igtes": 2500, "Ġkey": 2501, "ahn": 2502, "bulgar": 2503, "Ġadv": 2504, "Ġtrain": 2505, "Ġverw": 2506, "Ġdoc": 2507, "Ġpreis": 2508, "licher": 2509, "Ġlist": 2510, "Ġchild": 2511, "luxemburg": 2512, "antoine": 2513, "oto": 2514, "ziel": 2515, "Ġbetter": 2516, "Ġschn": 2517, "Ġmodified": 2518, "rough": 2519, "Ġeinmal": 2520, "val": 2521, "ribut": 2522, "Ġmak": 2523, "jects": 2524, "Ġvan": 2525, "ireland": 2526, "total": 2527, "Ġklar": 2528, "uring": 2529, "gabe": 2530, "ability": 2531, "Ġbelieve": 2532, "schriften": 2533, "Ġmitgliedstaaten": 2534, "Ġput": 2535, "Ġsmall": 2536, "Ġresults": 2537, "iver": 2538, "Ġlife": 2539, "Ġexc": 2540, "ca": 2541, "erÃ¶rterte": 2542, "ump": 2543, "Ġconf": 2544, "gehen": 2545, "Ġsoft": 2546, "united": 2547, "Ġsto": 2548, "uments": 2549, "Ġvide": 2550, "Ġkroes": 2551, "bank": 2552, "tend": 2553, "ktor": 2554, "Ġgrow": 2555, "kÃ¤": 2556, "ration": 2557, "sicht": 2558, "ince": 2559, "Ġmatter": 2560, "niederlande": 2561, "Ġstud": 2562, "ultur": 2563, "gress": 2564, "Ġministerin": 2565, "Ġthings": 2566, "ĠkÃ¶nn": 2567, "Ġregional": 2568, "bild": 2569, "ĠÃ¼": 2570, "ised": 2571, "denmark": 2572, "Ġ45": 2573, "Ġcommittee": 2574, "Ġcompet": 2575, "Ġinn": 2576, "Ġbreak": 2577, "Ġentscheid": 2578, "Ġfew": 2579, "Ġdownload": 2580, "Ġtechnolog": 2581, "Ġparticular": 2582, "tag": 2583, "Ġende": 2584, "after": 2585, "vertreter": 2586, "Ġtax": 2587, "Ġafter": 2588, "rÃ¤ge": 2589, "Ġrequire": 2590, "Ġspecial": 2591, "Ġseine": 2592, "Ġbem": 2593, "ets": 2594, "Ġeurostat": 2595, "dire": 2596, "zum": 2597, "techn": 2598, "Ġmemo": 2599, "Ġherrn": 2600, "nat": 2601, "Ġtreat": 2602, "dÃ¤nemark": 2603, "Ġlet": 2604, "08": 2605, "Ġ2003": 2606, "zept": 2607, "schweden": 2608, "Ġposition": 2609, "ĠgehÃ¶r": 2610, "ulture": 2611, "Ġapril": 2612, "Ġcho": 2613, "Ġdabei": 2614, "Ġinfr": 2615, "Ġohne": 2616, "finland": 2617, "uts": 2618, "Ġerfolg": 2619, "finnland": 2620, "imin": 2621, "Ġagriculture": 2622, "sweden": 2623, "Ġpartner": 2624, "Ġaller": 2625, "orn": 2626, "Ġflo": 2627, "ĠnÃ¤": 2628, "31": 2629, "Ġcountry": 2630, "ving": 2631, "Ġmad": 2632, "Ġdesign": 2633, "Ġzukunft": 2634, "Ġ2004": 2635, "Ġung": 2636, "ruck": 2637, "vereinigtes": 2638, "lungs": 2639, "Ġ26": 2640, "Ġchang": 2641, "ference": 2642, "Ġaddress": 2643, "quiries": 2644, "Ġfull": 2645, "Ġintegr": 2646, "energ": 2647, "Ġinclud": 2648, "ĠlÃ¤nder": 2649, "ween": 2650, "halts": 2651, "Ġvi": 2652, "Ġdebated": 2653, "Ġitems": 2654, "Ġlab": 2655, "!!": 2656, "28": 2657, "ccess": 2658, "abil": 2659, "Ġgovern": 2660, "agen": 2661, "damit": 2662, "kar": 2663, "fte": 2664, "esc": 2665, "siehe": 2666, "Ġenergie": 2667, "Ġ..": 2668, "erei": 2669, "ana": 2670, "26": 2671, "Ġtaken": 2672, "umen": 2673, "tellt": 2674, "Ġverein": 2675, "ash": 2676, "Ġopt": 2677, "Ġlim": 2678, "ĠentschlieÃŁ": 2679, "Ġrestaur": 2680, "isl": 2681, "got": 2682, "key": 2683, "itor": 2684, "Ã¶t": 2685, "asst": 2686, "utzen": 2687, "follow": 2688, "Ġgol": 2689, "europÃ¤": 2690, "Ġsing": 2691, "bau": 2692, "via": 2693, "Ġbook": 2694, "Ġcertain": 2695, "Ġgoing": 2696, "jed": 2697, "Ġeinzel": 2698, "Ġhilfe": 2699, "Ġmoment": 2700, "Ġdeputy": 2701, "ehm": 2702, "kauf": 2703, "onia": 2704, "Ġallen": 2705, "Ġ75": 2706, "Ġsal": 2707, "Ġthrough": 2708, "Ġak": 2709, "Ġmoney": 2710, "netherlands": 2711, "Ġgute": 2712, "Ġpost": 2713, "unsere": 2714, "Ġfer": 2715, "Ġ2002": 2716, "sonstige": 2717, "Ġdays": 2718, "ibility": 2719, "tember": 2720, "ission": 2721, "36": 2722, "dition": 2723, "Ġfriend": 2724, "Ġcut": 2725, "za": 2726, "Ġengl": 2727, "Ġissues": 2728, "Ġje": 2729, "assung": 2730, "Ġchrist": 2731, "Ġsuccess": 2732, "Ġumf": 2733, "Ġ2015": 2734, "Ġlaw": 2735, "hlt": 2736, "Ġausge": 2737, "Ġagenda": 2738, "Ã¤tze": 2739, "Ġphone": 2740, "commissioner": 2741, "handel": 2742, "ause": 2743, "onds": 2744, "ĠlÃ¶s": 2745, "Ġbeispiel": 2746, "hung": 2747, "telle": 2748, "Ġverl": 2749, "Ġexample": 2750, "zer": 2751, "Ġca": 2752, "ĠgrÃ¶ÃŁ": 2753, "Ġjanu": 2754, "Ġstrategy": 2755, "yl": 2756, "Ġprice": 2757, "ĠdÃ¼r": 2758, "Ġfolgenden": 2759, "Ġdecision": 2760, "spr": 2761, "Ġkommt": 2762, "ists": 2763, "Ġbeach": 2764, "ĠgrÃ¼n": 2765, "Ġproblems": 2766, "Ġaud": 2767, "Ġkind": 2768, "Ġ32": 2769, "iff": 2770, "Ġfahr": 2771, "Ġtop": 2772, "Ġgeld": 2773, "setzung": 2774, "ano": 2775, "Ġstimm": 2776, "Ġstaff": 2777, "ĠstaatssekretÃ¤r": 2778, "Ġinstit": 2779, "satz": 2780, "Ġturn": 2781, "aktion": 2782, "commend": 2783, "ĠhÃ¶": 2784, "entwick": 2785, "ingt": 2786, "Ġbetween": 2787, "2001": 2788, "Ġnie": 2789, "econ": 2790, "achen": 2791, "Ġenough": 2792, "ante": 2793, "istance": 2794, "Ġeng": 2795, "reas": 2796, "ches": 2797, "amb": 2798, "Ġposit": 2799, "Ġergebnisse": 2800, "Ġsou": 2801, "Ġbeim": 2802, "anfrage": 2803, "Ġbug": 2804, "Ġverkehr": 2805, "dan": 2806, "ness": 2807, "isheries": 2808, "Ġmess": 2809, "asse": 2810, "ptember": 2811, "cted": 2812, "Ġbesonder": 2813, "Ġresearch": 2814, "Ġdamit": 2815, "Ġbal": 2816, "lt": 2817, "Ġshe": 2818, "Ġinteress": 2819, "Ġson": 2820, "ÃŁe": 2821, "lle": 2822, "Ġmer": 2823, "Ġamer": 2824, "umwelt": 2825, "Ġvielen": 2826, "Ġbil": 2827, "first": 2828, "okrat": 2829, "prÃ¼": 2830, "Ġdou": 2831, "artikel": 2832, "ij": 2833, "Ġtalk": 2834, "ites": 2835, "Ġju": 2836, "Ġshort": 2837, "ferenz": 2838, "mitglied": 2839, "uter": 2840, "Ġinquiries": 2841, "entliche": 2842, "tzen": 2843, "well": 2844, "plement": 2845, "ided": 2846, "Ġspra": 2847, "programm": 2848, "dann": 2849, "sk": 2850, "Ã¤ÃŁ": 2851, "Ġcustom": 2852, "raum": 2853, "bereich": 2854, "lad": 2855, "Ġconst": 2856, "Ġdoch": 2857, "Ġvertreter": 2858, "Ġtur": 2859, "aren": 2860, "abkommen": 2861, "Ġfigures": 2862, "itung": 2863, "Ġrespons": 2864, "80": 2865, "vious": 2866, "Ġnah": 2867, "Ġheraus": 2868, "Ġerstell": 2869, "Ġmag": 2870, "letz": 2871, "Ġwerde": 2872, "fts": 2873, "arch": 2874, "europÃ¤ischen": 2875, "ĠbÃ¼rger": 2876, "partner": 2877, "ichten": 2878, "Ã¤hr": 2879, "ĠbegrÃ¼": 2880, "Ġamendment": 2881, "orte": 2882, "thor": 2883, "sec": 2884, "tely": 2885, "Ġerhalten": 2886, "Ġ]": 2887, "with": 2888, "Ġkol": 2889, "Ġreason": 2890, "amm": 2891, "Ġfood": 2892, "Ġclick": 2893, "new": 2894, "omen": 2895, "portugal": 2896, "von": 2897, "Ġeduc": 2898, "less": 2899, "inen": 2900, "Ġwater": 2901, "ika": 2902, "Ġrest": 2903, "ension": 2904, "Ġern": 2905, "environment": 2906, "Ġvill": 2907, "Ġsoftware": 2908, "ners": 2909, "ications": 2910, "Ġnoon": 2911, "economic": 2912, "ennen": 2913, "Ġiv": 2914, "Ġproject": 2915, "undes": 2916, "Ã¤tz": 2917, "zusammen": 2918, "ĠbeschÃ¤ft": 2919, "xim": 2920, "Ġboth": 2921, "itÃ¤ten": 2922, "Ġinnovation": 2923, "Ġapproach": 2924, "bru": 2925, "Ġgla": 2926, "Ġfac": 2927, "meine": 2928, "zo": 2929, "recht": 2930, "ders": 2931, "Ġerreich": 2932, "Ġdef": 2933, "Ġdaher": 2934, "isierung": 2935, "Ġlegisl": 2936, "ĠgewÃ¤": 2937, "Ġmrs": 2938, "ipp": 2939, "Ġtri": 2940, "48": 2941, "Ġlog": 2942, "vert": 2943, "Ġpresent": 2944, "Ġdarf": 2945, "cour": 2946, "Ġactiv": 2947, "Ġeasy": 2948, "Ġtas": 2949, "Ġenter": 2950, "Ġquite": 2951, "29": 2952, "uten": 2953, "atte": 2954, "schung": 2955, "itizen": 2956, "joy": 2957, "finanz": 2958, "prus": 2959, "Ġtotal": 2960, "stellung": 2961, "Ġwirtschafts": 2962, "sprech": 2963, "Ġfolgt": 2964, "ĠstÃ¤ndigen": 2965, "Ġsat": 2966, "car": 2967, "achst": 2968, "ielle": 2969, "Ġbedeu": 2970, "Ġint": 2971, "Ġprojects": 2972, "clude": 2973, "Ġquality": 2974, "komm": 2975, "lit": 2976, "Ġnimmt": 2977, "ames": 2978, "istan": 2979, "isen": 2980, "Ġhoch": 2981, "Ġopin": 2982, "Ġgent": 2983, "altung": 2984, "gemeine": 2985, "Ġuk": 2986, "zech": 2987, "who": 2988, "38": 2989, "ima": 2990, "Ġgesundheit": 2991, "Ġpolitical": 2992, "Ġbig": 2993, "Ġstadt": 2994, "Ġcommon": 2995, "Ġdisk": 2996, "ĠwÃ¼rde": 2997, "zwe": 2998, "some": 2999, "Ġdefin": 3000, "Ġlot": 3001, "Ġrecommend": 3002, "ypern": 3003, "Ġinvestment": 3004, "vi": 3005, "ernen": 3006, "Ġjahren": 3007, "sser": 3008, "Ġsag": 3009, "Ġkos": 3010, "Ġabsol": 3011, "ichtshof": 3012, "daher": 3013, "Ġvertrag": 3014, "ced": 3015, "schluss": 3016, "Ġrequest": 3017, "Ġpolitik": 3018, "Ġcat": 3019, "Ġconsum": 3020, "Ġless": 3021, "gleich": 3022, "ĠweiÃŁ": 3023, "Ġgehen": 3024, "Ġeffect": 3025, "Ġtelefon": 3026, "zess": 3027, "Ã¤ng": 3028, "Ġimpro": 3029, "Ġvertreters": 3030, "Ġwenden": 3031, "ikation": 3032, "imate": 3033, "Ġreserv": 3034, "Ġsector": 3035, "ada": 3036, "ini": 3037, "Ġpower": 3038, "Ġ)": 3039, "leist": 3040, "Ġconsider": 3041, "ually": 3042, "Ġeib": 3043, "Ġabge": 3044, "Ġlin": 3045, "hilfe": 3046, "Ġneu": 3047, "Ġgenau": 3048, "strÃ¶": 3049, "Ġkinder": 3050, "sto": 3051, "Ġtrue": 3052, "Ġeach": 3053, "Ġhist": 3054, "Ġlive": 3055, "Ġteam": 3056, "Ġfour": 3057, "Ġlat": 3058, "ĠnatÃ¼rlich": 3059, "incip": 3060, "Ġbra": 3061, "Ġareas": 3062, "Ġoffice": 3063, "uel": 3064, "Ġwr": 3065, "weg": 3066, "ww": 3067, "2007": 3068, "Ġschnell": 3069, "raucher": 3070, "Ġthose": 3071, "Ġmembers": 3072, "39": 3073, "ationale": 3074, "Ġseit": 3075, "Ġfa": 3076, "kÃ¤mp": 3077, "65": 3078, "Ġsw": 3079, "Ã¤d": 3080, "finden": 3081, "Ġcolom": 3082, "allen": 3083, "Ġcommunity": 3084, "Ġmobil": 3085, "enien": 3086, "europe": 3087, "jor": 3088, "Ġneelie": 3089, "language": 3090, "Ġaug": 3091, "Ġinstall": 3092, "ĠfÃ¼hr": 3093, "ettbewerbs": 3094, "Ġbill": 3095, "hip": 3096, "Ġtar": 3097, "Ġ02": 3098, "Ġip": 3099, "yn": 3100, "enzen": 3101, "tele": 3102, "angen": 3103, "ordin": 3104, "Ġold": 3105, "icle": 3106, "Ġ546": 3107, "hler": 3108, "Ġproduct": 3109, "ba": 3110, "rel": 3111, "fisch": 3112, "serv": 3113, "til": 3114, "Ġihrem": 3115, "Ġjune": 3116, "44": 3117, "gibt": 3118, "vent": 3119, "elli": 3120, "Ġzust": 3121, "Ġeconom": 3122, "Ġstre": 3123, "Ġrad": 3124, "Ġjuly": 3125, "vak": 3126, "70": 3127, "ceed": 3128, "Ġeducation": 3129, "ona": 3130, "Ġsteps": 3131, "Ġbesteht": 3132, "Ġtest": 3133, "Ġprom": 3134, "Ġspeaker": 3135, "ribution": 3136, "ĠverfÃ¼gbar": 3137, "roll": 3138, "dings": 3139, "Ġpot": 3140, "quis": 3141, "cher": 3142, "Ġgef": 3143, "over": 3144, "Ġ93": 3145, "Ġagree": 3146, "Ġgan": 3147, "Ã¤nde": 3148, "most": 3149, "Ġverfahren": 3150, "stems": 3151, "hnt": 3152, "riter": 3153, "ification": 3154, "Ġstellen": 3155, "ross": 3156, "stehen": 3157, "Ġgener": 3158, "venia": 3159, "Ġmeeting": 3160, "Ġkurz": 3161, "ĠerklÃ¤rungen": 3162, "Ġmind": 3163, "roso": 3164, "Ġ35": 3165, "Ġcompany": 3166, "lÃ¤": 3167, "sc": 3168, "Ġrichtlinie": 3169, "Ġglaube": 3170, "--": 3171, "Ġsil": 3172, "Ġassistance": 3173, "ennt": 3174, "ithu": 3175, "rid": 3176, "ecess": 3177, "Ġlearn": 3178, "eib": 3179, "Ġselector": 3180, "89": 3181, "ply": 3182, "Ġ99": 3183, "nt": 3184, "worten": 3185, "schafts": 3186, "Ġnever": 3187, "Ġwaters": 3188, "ĠwÃ¼n": 3189, "Ġcal": 3190, "Ġthird": 3191, "mut": 3192, "Ġbenutz": 3193, "Ġcentre": 3194, "ars": 3195, "ĠunterstÃ¼tzung": 3196, "Ġdom": 3197, "ichter": 3198, "Ġlassen": 3199, "ody": 3200, "Ġadded": 3201, "Ġdra": 3202, "Ġelect": 3203, "mus": 3204, "Ġoffen": 3205, "Ġredner": 3206, "Ġkor": 3207, "ittle": 3208, "Ġextre": 3209, "informationen": 3210, "Ġmention": 3211, "Ġpresse": 3212, "Ġsup": 3213, "Ġwahr": 3214, "legt": 3215, "Ġzus": 3216, "antwort": 3217, "67": 3218, "nun": 3219, "Ġfrei": 3220, "55": 3221, "bre": 3222, "chten": 3223, "Ġthing": 3224, "Ġunseren": 3225, "Ġcris": 3226, "kungen": 3227, "Ġbesser": 3228, "Ġgd": 3229, "agr": 3230, "current": 3231, "click": 3232, "Ġlanguage": 3233, "ished": 3234, "seite": 3235, "Ġdemoc": 3236, "Ġpersonal": 3237, "stÃ¼ck": 3238, "Ġcitizen": 3239, "Ġsea": 3240, "Ġseptember": 3241, "Ġpop": 3242, "Ġhim": 3243, "Ġlea": 3244, "isa": 3245, "64": 3246, "your": 3247, "qual": 3248, "Ġmonth": 3249, "Ġaround": 3250, "acc": 3251, "Ġyet": 3252, "Ġsingle": 3253, "bucht": 3254, "oder": 3255, "Ġprobleme": 3256, "Ġnovember": 3257, "zus": 3258, "Ġauthor": 3259, "text": 3260, "ety": 3261, "ivil": 3262, "Ġshare": 3263, "ift": 3264, "Ã¼sse": 3265, "Ġmanagement": 3266, "Ġmeans": 3267, "Ġpartners": 3268, "Ġmarkt": 3269, "Ġdavon": 3270, "lÃ¤nder": 3271, "uge": 3272, "chische": 3273, "Ġfield": 3274, "Ġbuild": 3275, "Ġdarauf": 3276, "Ġregulation": 3277, "Ġcomments": 3278, "Ġvier": 3279, "abel": 3280, "fÃ¤h": 3281, "Ġcr": 3282, "Ġoption": 3283, "ĠnÃ¤chsten": 3284, "Ġgrowth": 3285, "ithuania": 3286, "Ġaim": 3287, "iben": 3288, "Ġnothing": 3289, "ged": 3290, "inhalt": 3291, "Ġdon": 3292, "Ġcamp": 3293, "Ġinde": 3294, "Ġprogress": 3295, "Ġprincip": 3296, "Ġaccept": 3297, "itors": 3298, "Ã¼tz": 3299, "ential": 3300, "umÃ¤n": 3301, "commun": 3302, "lungen": 3303, "Ġmont": 3304, "dazu": 3305, "Ġvideo": 3306, "tod": 3307, "Ġsor": 3308, "Ġdeal": 3309, "berg": 3310, "sprechen": 3311, "ource": 3312, "Ġtools": 3313, "Ã¶rderung": 3314, "60": 3315, "wert": 3316, "Ġreach": 3317, "Ġanother": 3318, "inv": 3319, "Ġshow": 3320, "Ġlittle": 3321, "otos": 3322, "spect": 3323, "ources": 3324, "hotel": 3325, "ours": 3326, "Ġ2011": 3327, "Ġmas": 3328, "abl": 3329, "Ġvar": 3330, "Ġsport": 3331, "Ġrefer": 3332, "external": 3333, "noch": 3334, "seit": 3335, "also": 3336, "ichtigt": 3337, "strÃ¶m": 3338, "hel": 3339, "Ã¤ge": 3340, "Ġkultur": 3341, "ultation": 3342, "ohne": 3343, "Ġbad": 3344, "Ġinterest": 3345, "ĠgroÃŁe": 3346, "Ġnehmen": 3347, "Ġpract": 3348, "bu": 3349, "Ġdig": 3350, "Ġgas": 3351, "Ġfinal": 3352, "Ġkeinen": 3353, "Ġcontinue": 3354, "fÃ¼hrt": 3355, "Ġemployment": 3356, "Ġregions": 3357, "Ġgemeinsame": 3358, "gu": 3359, "teilung": 3360, "Ġclean": 3361, "Ġbietet": 3362, "dig": 3363, "tland": 3364, "fect": 3365, "nes": 3366, "utions": 3367, "Ġresult": 3368, "ĠprÃ¤sidentin": 3369, "ĠstÃ¤ndiger": 3370, "Ġfloor": 3371, "stra": 3372, "ustain": 3373, "umÃ¤nien": 3374, "Ġrun": 3375, "Ġdemokrat": 3376, "ship": 3377, "bani": 3378, "Ġeg": 3379, "iod": 3380, "ically": 3381, "Ġtimes": 3382, "Ġgru": 3383, "Ġdienst": 3384, "ola": 3385, "Ġinitiative": 3386, "mas": 3387, "igin": 3388, "Ġcolombani": 3389, "lemen": 3390, "open": 3391, "Ġprices": 3392, "ĠfrÃ¼h": 3393, "Ġbon": 3394, "23": 3395, "Ġnon": 3396, "Ġnice": 3397, "Ġitem": 3398, "vorschriften": 3399, "Ġstellvertreter": 3400, "Ġbeginn": 3401, "Ġlebens": 3402, "ently": 3403, "idar": 3404, "poland": 3405, "ĠdÃ¼rfen": 3406, "weiterung": 3407, "Ġherren": 3408, "fang": 3409, "Ġfir": 3410, "Ġmajor": 3411, "Ġcurrently": 3412, "pos": 3413, "Ġcare": 3414, "Ġmarch": 3415, "polen": 3416, "welcome": 3417, "kannt": 3418, "kten": 3419, "Ġpict": 3420, "upp": 3421, "ero": 3422, "Ġschul": 3423, "gment": 3424, "ĠmÃ¤r": 3425, "burg": 3426, "Ġ296": 3427, "Ġfamil": 3428, "Ġhandel": 3429, "Ġ40": 3430, "Ġbreakfast": 3431, "pressekontakt": 3432, "jetzt": 3433, "Ġsen": 3434, "ĠrÃ¼ck": 3435, "teid": 3436, "Ġdefen": 3437, "Ġdoing": 3438, "Ġcheck": 3439, "Ġworking": 3440, "Ġterror": 3441, "Ġpackage": 3442, "ael": 3443, "bil": 3444, "Ġuntil": 3445, "Ġstep": 3446, "Ġmobile": 3447, "Ġinclude": 3448, "jud": 3449, "itionen": 3450, "49": 3451, "haben": 3452, "Ġdamen": 3453, "Ġroad": 3454, "yes": 3455, "Ġchildren": 3456, "Ġcrisis": 3457, "anhang": 3458, "Ġempfe": 3459, "inner": 3460, "Ġbecome": 3461, "Ġlocation": 3462, "written": 3463, "idency": 3464, "Ġstimme": 3465, "ĠtÃ¼r": 3466, "Ġnecess": 3467, "Ġframe": 3468, "every": 3469, "izeprÃ¤sident": 3470, "Ġeig": 3471, "Ġged": 3472, "Ġ299": 3473, "ivid": 3474, "iere": 3475, "raine": 3476, "Ġerst": 3477, "Ġscha": 3478, "Ġdirekt": 3479, "sehen": 3480, "Ġann": 3481, "Ġrestaurant": 3482, "sm": 3483, "sitz": 3484, "cor": 3485, "Ġaway": 3486, "Ġfal": 3487, "Ġ2013": 3488, "Ġgesagt": 3489, "aterial": 3490, "Ġwindows": 3491, "gement": 3492, "yr": 3493, "ĠgeschÃ¤": 3494, "Ġjeder": 3495, "ĠÃ¤nderungsantrag": 3496, "Ġeconomy": 3497, "ning": 3498, "Ġregel": 3499, "Ġbesuch": 3500, "Ġangeb": 3501, "note": 3502, "Ġaddition": 3503, "sonstiges": 3504, "Ġoffers": 3505, "2000": 3506, "Ġfed": 3507, "Ġear": 3508, "Ġwhole": 3509, "voll": 3510, "Ġwicht": 3511, "Ġentfern": 3512, "Ġschritte": 3513, "ira": 3514, "Ġ1999": 3515, "findet": 3516, "Ġwww": 3517, "besonder": 3518, "Ġholid": 3519, "from": 3520, "ĠbrÃ¼ssel": 3521, "cel": 3522, "ager": 3523, "bildung": 3524, "ique": 3525, "Ġhard": 3526, "ungarn": 3527, "Ġersten": 3528, "Ġihn": 3529, "87": 3530, "hungary": 3531, "Ġweek": 3532, "Ġconference": 3533, "ĠgÃ¤": 3534, "icherheit": 3535, "Ġwahl": 3536, "Ġbetrifft": 3537, "Ġkomp": 3538, "vakia": 3539, "inst": 3540, "apan": 3541, "erklÃ¤r": 3542, "Ġdenke": 3543, "Ġpersonen": 3544, "Ġjeden": 3545, "Ġjoint": 3546, "Ġstandard": 3547, "ĠkÃ¶nnte": 3548, "kom": 3549, "ksam": 3550, "Ġvalue": 3551, "Ġconcerns": 3552, "Ġinneres": 3553, "cal": 3554, "trade": 3555, "iting": 3556, "dis": 3557, "ury": 3558, "Ġbenef": 3559, "Ġsend": 3560, "Ġgame": 3561, "ele": 3562, "ker": 3563, "wand": 3564, "Ġspa": 3565, "Ġentscheidung": 3566, "aps": 3567, "Ġkommissarin": 3568, "Ġsagte": 3569, "Ġfile": 3570, "Ġiii": 3571, "region": 3572, "di": 3573, "euro": 3574, "Ġfebru": 3575, "Ġhoffe": 3576, "esehen": 3577, "ling": 3578, "Ġef": 3579, "Ġerwar": 3580, "maÃŁnahmen": 3581, "Ġaccount": 3582, "Ġfair": 3583, "Ġerstellt": 3584, "ierungs": 3585, "47": 3586, "Ġallow": 3587, "Ġindustry": 3588, "Ġmig": 3589, "europÃ¤ischer": 3590, "Ġopinion": 3591, "Ġtab": 3592, "Ġpie": 3593, "leben": 3594, "mat": 3595, "inz": 3596, "Ġziele": 3597, "Ġtraining": 3598, "Ġinstr": 3599, "Ġusa": 3600, "Ġleft": 3601, "wes": 3602, "Ġbugtra": 3603, "zimmer": 3604, "Ã¤s": 3605, "gangen": 3606, "Ġdri": 3607, "ita": 3608, "Ġvass": 3609, "cker": 3610, "akei": 3611, "largement": 3612, "such": 3613, "Ġbelli": 3614, "atul": 3615, "richtlinie": 3616, "Ġbleibt": 3617, "ĠlÃ¶sung": 3618, "reibung": 3619, "Ġbelliard": 3620, "alled": 3621, "uelle": 3622, "wards": 3623, "ortun": 3624, "Ġsprechen": 3625, "Ġid": 3626, "Ġbalk": 3627, "Ġdre": 3628, "Ġmart": 3629, "Ġline": 3630, "Ã¤nger": 3631, "ĠverfÃ¼gung": 3632, "Ġig": 3633, "eint": 3634, "Ġchallen": 3635, "fÃ¼hrung": 3636, "kommissarin": 3637, "slovenia": 3638, "schriftliche": 3639, "onen": 3640, "wegen": 3641, "Ġverteid": 3642, "redit": 3643, "bas": 3644, "Ġ31": 3645, "mitted": 3646, "Ġwords": 3647, "nur": 3648, "Ã¼d": 3649, "cyprus": 3650, "Ġarbeits": 3651, "Ġton": 3652, "Ġlange": 3653, "Ġhead": 3654, "Ġpan": 3655, "thers": 3656, "gether": 3657, "daten": 3658, "Ġextrem": 3659, "85": 3660, "onger": 3661, "slowenien": 3662, "Ġcorre": 3663, "jan": 3664, "Ġculture": 3665, "Ġworden": 3666, "latvia": 3667, "Ġdinge": 3668, "Ġkat": 3669, "ckt": 3670, "ga": 3671, "aften": 3672, "llig": 3673, "Ġverschieden": 3674, "czech": 3675, "lithuania": 3676, "ufen": 3677, "Ġrate": 3678, "estonia": 3679, "Ġorigin": 3680, "Ġopportun": 3681, "hes": 3682, "zypern": 3683, "Ġpur": 3684, "Ġpleas": 3685, "ains": 3686, "service": 3687, "Ġbugtraq": 3688, "Ġbor": 3689, "Ġgeorg": 3690, "Ġsolution": 3691, "Ġdifficult": 3692, "Ġsimply": 3693, "iar": 3694, "flicht": 3695, "tsche": 3696, "Ġarg": 3697, "llt": 3698, "estland": 3699, "liches": 3700, "Ġhaupt": 3701, "iliou": 3702, "goti": 3703, "vement": 3704, "Ġneues": 3705, "Ġrole": 3706, "chte": 3707, "heute": 3708, "Ġfast": 3709, "Ġunivers": 3710, "Ġregionen": 3711, "iety": 3712, "buch": 3713, "Ġzweite": 3714, "igkeiten": 3715, "Ġcard": 3716, "omat": 3717, "etzen": 3718, "ategor": 3719, "sz": 3720, "Ġbit": 3721, "Ġrev": 3722, "wichtig": 3723, "Ġnotwend": 3724, "cons": 3725, "ĠunterstÃ¼tzen": 3726, "hÃ¶": 3727, "litauen": 3728, "Ġwall": 3729, "Ġgermany": 3730, "Ġgentlemen": 3731, "met": 3732, "Ġmac": 3733, "Ġbefindet": 3734, "Ġgreen": 3735, "ellent": 3736, "Ġmult": 3737, "Ġsieht": 3738, "Ã¶ffnet": 3739, "lettland": 3740, "Ġabruf": 3741, "Ġ2014": 3742, "ĠÃ¤uÃŁ": 3743, "ule": 3744, "Ġol": 3745, "Ġcomfort": 3746, "ĠeuropÃ¤": 3747, "Ġsince": 3748, "2005": 3749, "Ġprodukte": 3750, "fortun": 3751, "ises": 3752, "ĠĠĠ": 3753, "weiter": 3754, "Ġexist": 3755, "page": 3756, "Ġerreichen": 3757, "kÃ¤mpfung": 3758, "bung": 3759, "kung": 3760, "ĠheiÃŁ": 3761, "Ġmai": 3762, "auer": 3763, "rÃ¤gt": 3764, "Ġren": 3765, "aum": 3766, "Ġfax": 3767, "urteil": 3768, "rechte": 3769, "Ġlooking": 3770, "ragen": 3771, "unikation": 3772, "Ġschwer": 3773, "ived": 3774, "hil": 3775, "oss": 3776, "Ġregard": 3777, "prochen": 3778, "Ġbereit": 3779, "ds": 3780, "achstum": 3781, "ico": 3782, "iving": 3783, "Ġgerne": 3784, "Ġliste": 3785, "Ġbrief": 3786, "88": 3787, "Ġrichtig": 3788, "rule": 3789, "Ġneeded": 3790, "Ġarbeiten": 3791, "Ġconn": 3792, "Ġmiss": 3793, "Ġreleas": 3794, "Ġfort": 3795, "Ġcode": 3796, "Ġguests": 3797, "1040": 3798, "tschechische": 3799, "minis": 3800, "Ġrolle": 3801, "Ġstatements": 3802, "cle": 3803, "wahl": 3804, "Ġnear": 3805, "ĠgeschÃ¤fts": 3806, "Ġaktion": 3807, "Ġwohl": 3808, "Ġproposals": 3809, "ences": 3810, "rad": 3811, "ihre": 3812, "unser": 3813, "Ġrespect": 3814, "two": 3815, "erdem": 3816, "Ġachie": 3817, "teile": 3818, "igation": 3819, "Ġstop": 3820, "idd": 3821, "resse": 3822, "Ġable": 3823, "Ġbleiben": 3824, "aller": 3825, "ructure": 3826, "Ġaugust": 3827, "pers": 3828, "Ġsafety": 3829, "Ġstimmen": 3830, "ama": 3831, "Ġrahmen": 3832, "Ġbemerk": 3833, "folgen": 3834, "Ġfamily": 3835, "Ġ2012": 3836, "Ġtro": 3837, "Ġbuch": 3838, "Ġcitizens": 3839, "stadt": 3840, "Ġwert": 3841, "Ġentfernt": 3842, "Ġhierzu": 3843, "insgesamt": 3844, "Ġframework": 3845, "Ġgiven": 3846, "bert": 3847, "lichkeit": 3848, "Ġprodukt": 3849, "Ġspecific": 3850, "zÃ¼": 3851, "Ġess": 3852, "Ġverantwort": 3853, "veral": 3854, "Ġasso": 3855, "Ġinterior": 3856, "contents": 3857, "subject": 3858, "Ġ142": 3859, "Ġdefence": 3860, "ather": 3861, "nicht": 3862, "Ġconclud": 3863, "Ġsystems": 3864, "Ġverbraucher": 3865, "Ġbundes": 3866, "gew": 3867, "Ġdeleg": 3868, "rÃ¤n": 3869, "Ġgerman": 3870, "oint": 3871, "kei": 3872, "Ġcosts": 3873, "Ġgon": 3874, "Ġnote": 3875, "Ġerforder": 3876, "Ġregul": 3877, "Ġunderstand": 3878, "today": 3879, "sache": 3880, "bon": 3881, "Ã¼nft": 3882, "Ġserious": 3883, "ĠverÃ¤nder": 3884, "einen": 3885, "Ġarch": 3886, "Ġsimple": 3887, "Ġschutz": 3888, "cke": 3889, "Ġfeel": 3890, "umping": 3891, "li": 3892, "Ġbeschl": 3893, "Ġlocated": 3894, "Ġnecessary": 3895, "este": 3896, "iken": 3897, "duction": 3898, "stagung": 3899, "Ġtelefonisch": 3900, "Ġverkauf": 3901, "iii": 3902, "Ġnamen": 3903, "rik": 3904, "Ġwithin": 3905, "ugen": 3906, "strateg": 3907, "aid": 3908, "cus": 3909, "Ġbrussels": 3910, "Ġsubs": 3911, "Ġbasis": 3912, "Ġtry": 3913, "Ġartikel": 3914, ");": 3915, "Ġmand": 3916, "Ġhinzu": 3917, "Ġlegal": 3918, "eut": 3919, "Ġfan": 3920, "ĠkÃ¼": 3921, "93": 3922, "Ġtor": 3923, "Ġoct": 3924, "endet": 3925, "blick": 3926, "slovakia": 3927, "public": 3928, "Ġsolidar": 3929, "agesordnung": 3930, "entrum": 3931, "Ġminis": 3932, "Ġles": 3933, "Ġbestimm": 3934, "ĠbenÃ¶t": 3935, "ĠÃ¤ndern": 3936, "plementation": 3937, "ichen": 3938, "Ġinform": 3939, "Ġenjoy": 3940, "Ġkap": 3941, "ovo": 3942, "best": 3943, "une": 3944, "Ġwasser": 3945, "Ġmeiner": 3946, "Ġstuff": 3947, "Ġverwend": 3948, "Ġpositive": 3949, "Ġflex": 3950, "sequ": 3951, "werde": 3952, "%.": 3953, "rang": 3954, "ume": 3955, "Ġnahm": 3956, "besondere": 3957, "Ġanal": 3958, "ify": 3959, "ellschaft": 3960, "Ġnatur": 3961, "ativ": 3962, "Ġlu": 3963, "ausschuss": 3964, "play": 3965, "polit": 3966, "Ġprojekt": 3967, "Ġschwe": 3968, "Ġzahlen": 3969, "Ġstock": 3970, "umente": 3971, "Ġbedeutet": 3972, "Ġcentral": 3973, "Ġafr": 3974, "Ġmass": 3975, "state": 3976, "Ġzie": 3977, "Ġbinnen": 3978, "Ġkontakt": 3979, "kur": 3980, "landwirtschaft": 3981, "Ġunserem": 3982, "fortunately": 3983, "head": 3984, "Ġuntersch": 3985, "Ġfolgendes": 3986, "betrifft": 3987, "link": 3988, "Ġverp": 3989, "Ġwrong": 3990, "roat": 3991, "irt": 3992, "ande": 3993, "hinweis": 3994, "ĠwÃ¤hr": 3995, "fassung": 3996, "Ġprivate": 3997, "Ġgetan": 3998, "Ġaktiv": 3999, "reicht": 4000, "racy": 4001, "Ġberlin": 4002, "Ġbarroso": 4003, "she": 4004, "anlage": 4005, "aufen": 4006, "staat": 4007, "Ã¤chst": 4008, "Ġreturn": 4009, "down": 4010, "klicken": 4011, "Ġclose": 4012, "idence": 4013, "ius": 4014, "Ġscho": 4015, "Ġfrauen": 4016, "Ġindivid": 4017, "Ġinsgesamt": 4018, "Ġregist": 4019, "Ġbieten": 4020, "mich": 4021, "mein": 4022, "ĠgÃ¤ste": 4023, "Ġvia": 4024, "Ġamb": 4025, "Ġhatte": 4026, "81": 4027, "zember": 4028, "agriculture": 4029, "gemeins": 4030, "kre": 4031, "aket": 4032, "Ġprocedures": 4033, "ml": 4034, "icial": 4035, "Ġersch": 4036, "Ġjob": 4037, "Ġpriority": 4038, "fonds": 4039, "Ġtable": 4040, "tellen": 4041, "Ġmeinung": 4042, "Ġgraphics": 4043, "Ġgonz": 4044, "Ġmedia": 4045, "justice": 4046, "dav": 4047, "ingungen": 4048, "Ġfehler": 4049, "ĠerwÃ¤": 4050, "rolle": 4051, "sprechpartner": 4052, "einige": 4053, "ĠschÃ¶n": 4054, "Ġpresidency": 4055, "94": 4056, "ena": 4057, "ones": 4058, "mitteilung": 4059, "Ġabkommen": 4060, "Ġnotified": 4061, "Ġsouth": 4062, "zieht": 4063, "Ġful": 4064, "reiben": 4065, "Ġkostenlos": 4066, "slowakei": 4067, "Ġenglish": 4068, "dabei": 4069, "kr": 4070, "ither": 4071, "ized": 4072, "Ġcover": 4073, "Ġbenach": 4074, "Ġ9396": 4075, "Ġbildung": 4076, "spekt": 4077, "mand": 4078, "Ġnight": 4079, "ĠvÃ¶": 4080, "Ġbeiden": 4081, "maria": 4082, "Ġergebnis": 4083, "ĠauÃŁen": 4084, "ichterstat": 4085, "deb": 4086, "Ġeuropas": 4087, "Ġsoc": 4088, "fa": 4089, "ral": 4090, "Ġfortsch": 4091, "Ġitself": 4092, "Ġ80": 4093, "Ġdam": 4094, "Ġna": 4095, "Ġkons": 4096, "ype": 4097, "Ġslides": 4098, "regel": 4099, "verw": 4100, "ierten": 4101, "Ġsubject": 4102, "Ġebenfalls": 4103, "Ġhandelt": 4104, "Ġstrategie": 4105, "ding": 4106, "arency": 4107, "chan": 4108, "liegen": 4109, "Ġevent": 4110, "reform": 4111, "Ġperfect": 4112, "Ġinvol": 4113, "stellen": 4114, "Ġassess": 4115, "Ġlarge": 4116, "ĠgehÃ¶rt": 4117, "pa": 4118, "arenz": 4119, "enk": 4120, "Ġtick": 4121, "Ġnegoti": 4122, "Ġperiod": 4123, "atives": 4124, "anies": 4125, "fel": 4126, "ios": 4127, "Ġche": 4128, "Ġpeace": 4129, "Ġministry": 4130, "fu": 4131, "Ġblog": 4132, "77": 4133, "Ġratstagung": 4134, "Ġjuni": 4135, "Ġinfrast": 4136, "Ġ34": 4137, "Ġattention": 4138, "Ġtreaty": 4139, "Ġabrufbar": 4140, "Ġschritt": 4141, "Ġresources": 4142, "Ġverbess": 4143, "rechts": 4144, "Ġschwier": 4145, "itel": 4146, "Ġmakes": 4147, "ulla": 4148, "ihr": 4149, "Ġeast": 4150, "Ġhig": 4151, "ples": 4152, "355": 4153, "direct": 4154, "Ġil": 4155, "hows": 4156, "Ġ149": 4157, "ĠĠĠĠĠĠĠĠ": 4158, "Ġpaper": 4159, "fÃ¤hr": 4160, "90": 4161, "ested": 4162, "Ġbath": 4163, "ifen": 4164, "Ġsoon": 4165, "Ġadds": 4166, "Ġforum": 4167, "schn": 4168, "ĠdarÃ¼ber": 4169, "ric": 4170, "develop": 4171, "Ġdecember": 4172, "Ġairport": 4173, "ared": 4174, "Ġcapital": 4175, "russ": 4176, "ton": 4177, "Ġtogether": 4178, "Ġreasons": 4179, "Ġjanuary": 4180, "akte": 4181, "graph": 4182, "nÃ¤": 4183, "tes": 4184, "Ġdort": 4185, "Ġanim": 4186, "Ġrent": 4187, "Ġbelg": 4188, "Ġtype": 4189, "ustainable": 4190, "Ġdenn": 4191, "Ġliegen": 4192, "sprogram": 4193, "bus": 4194, "vo": 4195, "Ġsure": 4196, "ĠfÃ¤": 4197, "Ġkunden": 4198, "Ġserver": 4199, "Ġnetwork": 4200, "ising": 4201, "itz": 4202, "romania": 4203, "mel": 4204, "ring": 4205, "Ġort": 4206, "Ġrisk": 4207, "ĠbeschÃ¤ftigung": 4208, "Ġcop": 4209, "Ġsho": 4210, "Ġusers": 4211, "Ġbelow": 4212, "dam": 4213, "lection": 4214, "Ġcommissions": 4215, "Ġfeat": 4216, "Ġmaterial": 4217, "ĠerhÃ¤lt": 4218, "Ġaufmer": 4219, "Ġvice": 4220, "ĠprÃ¼": 4221, "Ġindustrie": 4222, "durch": 4223, "Ġtage": 4224, "Ġdont": 4225, "Ġobjectives": 4226, "mod": 4227, "Ġhor": 4228, "Ġgesche": 4229, "ĠmÃ¶glichkeit": 4230, "arf": 4231, "Ġlonger": 4232, "marquis": 4233, "only": 4234, "Ġtown": 4235, "preis": 4236, "yer": 4237, "transport": 4238, "Ġcompetition": 4239, "ikan": 4240, "57": 4241, "nungen": 4242, "Ġ07": 4243, "natÃ¼rlich": 4244, "Ġaltern": 4245, "achsen": 4246, "Ġherz": 4247, "next": 4248, "Ġfilm": 4249, "num": 4250, "Ã¤ter": 4251, "Ġcontribution": 4252, "Ġsug": 4253, "Ġclub": 4254, "free": 4255, "change": 4256, "ansprechpartner": 4257, "Ġrue": 4258, "Ġminuten": 4259, "Ġwenig": 4260, "hnen": 4261, "rue": 4262, "Ġstatist": 4263, "Ġgesam": 4264, "bulgaria": 4265, "Ġbehand": 4266, "haupt": 4267, "Ġupdate": 4268, "aussen": 4269, "gestellt": 4270, "Ġbedeut": 4271, "wichtigste": 4272, "Ġbenachr": 4273, "arante": 4274, "pporte": 4275, "rika": 4276, "Ġregister": 4277, "ĠglÃ¼ck": 4278, "Ġgemacht": 4279, "Ġdigital": 4280, "Ġwichtige": 4281, "binnen": 4282, "Ġocc": 4283, "Ġbetre": 4284, "Ġfollows": 4285, "ony": 4286, "Ġgraphik": 4287, "bulgarien": 4288, "Ġaufmerksam": 4289, "bin": 4290, "Ġwrit": 4291, "Ġfish": 4292, "Ġluxemb": 4293, "stÃ¤r": 4294, "therefore": 4295, "mos": 4296, "sim": 4297, "Ġausschuss": 4298, "lav": 4299, "Ġmodern": 4300, "Ġ04": 4301, "Ġapartment": 4302, "Ġident": 4303, "arian": 4304, "Ġbec": 4305, "hnung": 4306, "rumÃ¤nien": 4307, "ĠhÃ¤t": 4308, "Ġnutzen": 4309, "action": 4310, "Ġpreise": 4311, "unch": 4312, "Ġlas": 4313, "Ġzug": 4314, "Ġoperation": 4315, "ench": 4316, "ette": 4317, "Ġusing": 4318, "linien": 4319, "Ġcases": 4320, "2010": 4321, "Ġgovernment": 4322, "schaften": 4323, "Ġfreuen": 4324, "Ġupdates": 4325, "bab": 4326, "Ġemail": 4327, "ara": 4328, "Ġang": 4329, "Ġallem": 4330, "Ġduring": 4331, "Ġpool": 4332, "entwicklung": 4333, "Ġbenachrichtigt": 4334, "Ġcy": 4335, "alen": 4336, "finan": 4337, "Ġoctober": 4338, "Ġsache": 4339, "Ġve": 4340, "Ã¼lt": 4341, "ends": 4342, "Ġfront": 4343, "Ġclass": 4344, "Ġstellt": 4345, "Ġeverything": 4346, "internet": 4347, "Ġsuper": 4348, "Ġverteidigung": 4349, "Ġside": 4350, "Ġlis": 4351, "Ġlead": 4352, "Ġarri": 4353, "Ġlocal": 4354, "mÃ¶glich": 4355, "ĠentschlieÃŁung": 4356, "Ġholiday": 4357, "Ġyes": 4358, "which": 4359, "iled": 4360, "ĠunterstÃ¼tzt": 4361, "Ġitalien": 4362, "Ġ[": 4363, "Ġaufgabe": 4364, "zusammenarbeit": 4365, "oo": 4366, "Ġextra": 4367, "elles": 4368, "Ġoptim": 4369, "Ġslideshows": 4370, "Ġfern": 4371, "Ġord": 4372, "allgemeine": 4373, "Ġ500": 4374, "Ġantworten": 4375, "Ġwichtigsten": 4376, "employment": 4377, "Ġnutz": 4378, "Ġlight": 4379, "Ġhear": 4380, "Ġanders": 4381, "Ġkraft": 4382, "Ġderzeit": 4383, "42": 4384, "len": 4385, "ras": 4386, "aging": 4387, "9586": 4388, "mÃ¤ÃŁ": 4389, "ya": 4390, "Ġ00": 4391, "Ġwest": 4392, "Ġerreicht": 4393, "Ġukraine": 4394, "Ġquick": 4395, "ministerin": 4396, "anst": 4397, "Ġstrong": 4398, "Ġjuli": 4399, "Ġinnern": 4400, "Ġgab": 4401, "Ġimage": 4402, "gro": 4403, "ove": 4404, "Ġdeutschland": 4405, "produ": 4406, "Ġ1998": 4407, "ĠvorschlÃ¤ge": 4408, "Ġbedeutung": 4409, "leit": 4410, "Ġost": 4411, "ungsverfahren": 4412, "auÃŁ": 4413, "justiz": 4414, "Ġmadrid": 4415, "ison": 4416, "Ġgal": 4417, "Ġexcellent": 4418, "frei": 4419, "sver": 4420, "Ġkern": 4421, "Ã¼nf": 4422, "Ġ297": 4423, "Ġnorth": 4424, "Ġconcludes": 4425, "financial": 4426, "lev": 4427, "werk": 4428, "Ġ09": 4429, "Ġdecisions": 4430, "Ġsession": 4431, "Ġwillkommen": 4432, "Ġworks": 4433, "compet": 4434, "68": 4435, "Ġseiten": 4436, "Ġparis": 4437, "doc": 4438, "jahr": 4439, "Ġfocus": 4440, "splan": 4441, "judgment": 4442, "itution": 4443, "ands": 4444, "Ġvoting": 4445, "Ġremains": 4446, "mals": 4447, "Ġrechn": 4448, "phone": 4449, "Ġintegration": 4450, "mann": 4451, "Ġrichtung": 4452, "energy": 4453, "Ġsam": 4454, "Ġseveral": 4455, "Ġcomes": 4456, "Ġkeep": 4457, "ĠvÃ¶llig": 4458, "ditions": 4459, "mag": 4460, "internal": 4461, "Ġonce": 4462, "rian": 4463, "opher": 4464, "Ġhaushalts": 4465, "Ġakzept": 4466, "oung": 4467, "Ġclimate": 4468, "255": 4469, "61": 4470, "Ġhy": 4471, "Ġluft": 4472, "ĠstÃ¤r": 4473, "Ġgenug": 4474, "glieder": 4475, "cing": 4476, "Ġwalk": 4477, "Ġwomen": 4478, "iers": 4479, "ĠerklÃ¤rung": 4480, "Ġklein": 4481, "szl": 4482, "cd": 4483, "Ġbeh": 4484, "Ġmeer": 4485, "Ġprojekte": 4486, "Ġjugend": 4487, "fischerei": 4488, "bahn": 4489, "eur": 4490, "aussenbeziehungen": 4491, "43": 4492, "dafÃ¼r": 4493, "fÃ¶rderung": 4494, "mm": 4495, "Ġbekannt": 4496, "lou": 4497, "Ġfisheries": 4498, "Ġcertainly": 4499, "Ġwriting": 4500, "Ġnord": 4501, "ifiz": 4502, "Ġhappy": 4503, "Ġprogrammes": 4504, "cken": 4505, "binnenmarkt": 4506, "Ġwider": 4507, "arm": 4508, "rael": 4509, "Ġmaxim": 4510, "second": 4511, "leistungen": 4512, "Ġdiv": 4513, "Ġzuf": 4514, "41": 4515, "Ġverd": 4516, "Ġ60": 4517, "Ġfranz": 4518, "zogen": 4519, "Ġbi": 4520, "ula": 4521, "Ġshop": 4522, "Ġ70": 4523, "Ġjapan": 4524, "Ġchance": 4525, "Ġenthalten": 4526, "alez": 4527, "Ġdialogue": 4528, "Ġdocuments": 4529, "ille": 4530, "Ġvorsitz": 4531, "agegen": 4532, "Ġmove": 4533, "Ġcontent": 4534, "ech": 4535, "Ġsett": 4536, "handlungen": 4537, "Ġfrance": 4538, "Ġcommunication": 4539, "home": 4540, "Ġcomputer": 4541, "Ġstandards": 4542, "wur": 4543, "onse": 4544, "Ġseiner": 4545, "ĠfrÃ¼hstÃ¼ck": 4546, "cent": 4547, "ĠhÃ¤": 4548, "Ġforce": 4549, "punkte": 4550, "Ġganze": 4551, "Ġpet": 4552, "laus": 4553, "Ġlegislation": 4554, "Ġgonzalez": 4555, "want": 4556, "ichtet": 4557, "Ġantrag": 4558, "sehr": 4559, "platz": 4560, "cript": 4561, "Ġigles": 4562, "Ġta": 4563, "Ġmann": 4564, "entur": 4565, "Ġapply": 4566, "Ġcomment": 4567, "Ġihm": 4568, "Ġexperience": 4569, "Ġherausforder": 4570, "Ġproceed": 4571, "iddle": 4572, "2002": 4573, "Ġsollen": 4574, "staatssekretÃ¤r": 4575, "handels": 4576, "ilities": 4577, "Ġbewer": 4578, "Ġguarante": 4579, "Ġmusic": 4580, "Ġlau": 4581, "Ġtod": 4582, "Ġpolicies": 4583, "Ġdemokratie": 4584, "Ġstation": 4585, "Ġrund": 4586, "Ġsound": 4587, "Ġrechte": 4588, "Ġdocument": 4589, "Ġiglesias": 4590, "Ġdest": 4591, "gewÃ¤": 4592, "Ġsearch": 4593, "ĠschlieÃŁ": 4594, "ĠpersÃ¶n": 4595, "ethod": 4596, "Ġdelegation": 4597, "spok": 4598, "ision": 4599, "Ġcommit": 4600, "teilt": 4601, "Ġideal": 4602, "Ġincreas": 4603, "iation": 4604, "ieten": 4605, "cover": 4606, "ova": 4607, "Ġ3355": 4608, "Ġgenehm": 4609, "vision": 4610, "spec": 4611, "Ġactions": 4612, "Ġmillionen": 4613, "ichterstatter": 4614, "oun": 4615, "word": 4616, "00352": 4617, "Ġverg": 4618, "ktober": 4619, "iful": 4620, "Ġapplies": 4621, "ĠmÃ¤rz": 4622, "....": 4623, "fert": 4624, "marisa": 4625, "system": 4626, "Ġhours": 4627, "Ġlos": 4628, "Ġstabil": 4629, "Ġpriorities": 4630, "Ġrechtssache": 4631, "Ġhandeln": 4632, "roulla": 4633, "bis": 4634, "danke": 4635, "ially": 4636, "Ġhil": 4637, "edom": 4638, "Ġklicken": 4639, "Ġoften": 4640, "Ġlater": 4641, "Ġrein": 4642, "Ġinternal": 4643, "Ġfunktioniert": 4644, "Ġlabour": 4645, "52": 4646, "fs": 4647, "ettbewerb": 4648, "orge": 4649, "orted": 4650, "aking": 4651, "Ġdebatte": 4652, "Ġresponse": 4653, "ĠÃ¶": 4654, "ims": 4655, "Ġstor": 4656, "Ġstatement": 4657, "letter": 4658, "Ġextremely": 4659, "100": 4660, "Ġobs": 4661, "Ġmoder": 4662, "druck": 4663, "Ġgot": 4664, "Ġmeinen": 4665, "Ġgeschehen": 4666, "Ġwachstum": 4667, "gratul": 4668, "Ġkannst": 4669, "Ġtem": 4670, "olle": 4671, "stein": 4672, "Ġbesonders": 4673, "aud": 4674, "Ġvertra": 4675, "lauf": 4676, "Ġmichel": 4677, "Ġmonths": 4678, "hu": 4679, "isiert": 4680, "mary": 4681, "Ġ).": 4682, "Ġalt": 4683, "dok": 4684, "wsa": 4685, "Ġslow": 4686, "Ġincluded": 4687, "Ġfederal": 4688, "wÃ¼r": 4689, "Ġ1997": 4690, "Ġhistor": 4691, "pal": 4692, "Ġunited": 4693, "Ã¼nst": 4694, "Ġerk": 4695, "Ġdiscussion": 4696, "Ġrequired": 4697, "Ġdemocracy": 4698, "oug": 4699, "Ġproposed": 4700, "Ġoppos": 4701, "pose": 4702, "Ġtv": 4703, "Ġentsch": 4704, "Ġexpect": 4705, "icient": 4706, "Ġschle": 4707, "Ġletzten": 4708, "energie": 4709, "Ġmeisten": 4710, "pporteur": 4711, "prÃ¤": 4712, "beschreibung": 4713, "Ġallerdings": 4714, "59": 4715, "83": 4716, "ez": 4717, "oting": 4718, "Ġnotwendig": 4719, "ministr": 4720, "bott": 4721, "Ġothers": 4722, "Ġkam": 4723, "ques": 4724, "ctions": 4725, "Ġtell": 4726, "Ġlam": 4727, "Ġseen": 4728, "Ġ3255": 4729, "Ã¤lle": 4730, "Ã¼ndet": 4731, "Ġdouble": 4732, "ĠsÃ¼d": 4733, "Ġwto": 4734, "Ġstellung": 4735, "invest": 4736, "date": 4737, "iesen": 4738, "lant": 4739, "ances": 4740, "Ġwed": 4741, "Ġbinnenmarkt": 4742, "Ġten": 4743, "zeichnet": 4744, "Ġsociety": 4745, "bare": 4746, "uz": 4747, "organ": 4748, "priority": 4749, "Ġafrica": 4750, "dienst": 4751, "Ġhon": 4752, "Ġlad": 4753, "tellung": 4754, "Ġhelfen": 4755, "autiful": 4756, "ĠtÃ¼rkei": 4757, "Ġos": 4758, "Ġlove": 4759, "appoint": 4760, "Ġconnect": 4761, "Ġallgemein": 4762, "mbh": 4763, "icles": 4764, "Ġleast": 4765, "asser": 4766, "Ġparticip": 4767, "Ġrichtige": 4768, "Ġamendments": 4769, "Ġmessage": 4770, "66": 4771, "last": 4772, "sind": 4773, "Ġpc": 4774, "Ġeus": 4775, "Ġfriendly": 4776, "Ġlib": 4777, "Ġbeant": 4778, "Ġwarum": 4779, "Ġgelten": 4780, "Ġfunction": 4781, "tion": 4782, "Ġfacts": 4783, "iko": 4784, "Ġsolche": 4785, "Ġhalte": 4786, "ĠvollstÃ¤nd": 4787, "Ġinfring": 4788, "fahrt": 4789, "cep": 4790, "Ġuser": 4791, "Ġprem": 4792, "Ġhalten": 4793, "Ġhappened": 4794, "col": 4795, "Ġisland": 4796, "zeigt": 4797, "Ġexternal": 4798, "Ġhelpful": 4799, "Ġsummit": 4800, "51": 4801, "atory": 4802, "Ġsav": 4803, "Ġbenutzer": 4804, "unÃ¤chst": 4805, "Ġzentral": 4806, "Ġjav": 4807, "Ġestabl": 4808, "ators": 4809, "Ġklima": 4810, "viele": 4811, "kosten": 4812, "Ġbilder": 4813, "ĠheiÃŁt": 4814, "Ġassoci": 4815, "Ġwin": 4816, "Ġexact": 4817, "boten": 4818, "Ġstreng": 4819, "Ġdimension": 4820, "deut": 4821, "Ġshar": 4822, "Ġchoice": 4823, "mil": 4824, "weil": 4825, "Ġreceive": 4826, "court": 4827, "anger": 4828, "ritts": 4829, "aden": 4830, "Ġsent": 4831, "Ġsens": 4832, "Ġce": 4833, "Ġyoung": 4834, "icultural": 4835, "peter": 4836, "auss": 4837, "Ġsant": 4838, "ado": 4839, "ĠmaÃŁ": 4840, "Ġbuy": 4841, "strategie": 4842, "ienste": 4843, "Ġgemeinschaft": 4844, "Ġbased": 4845, "Ġreceived": 4846, "Ġtask": 4847, "92": 4848, "fil": 4849, "gte": 4850, "Ġsteuer": 4851, "Ġchanges": 4852, "uppe": 4853, "gelegt": 4854, "Ġconditions": 4855, "hintergrundinformationen": 4856, "Ġboard": 4857, "legal": 4858, "ladies": 4859, "viel": 4860, "ato": 4861, "Ġmut": 4862, "Ġface": 4863, "atten": 4864, "Ġkennt": 4865, "ained": 4866, "kÃ¶n": 4867, "zy": 4868, "ecspok": 4869, "laden": 4870, "look": 4871, "Ġprinciple": 4872, "Ġut": 4873, "Ġsinn": 4874, "Ġcru": 4875, "issions": 4876, "Ġerweiterung": 4877, "Ġforschung": 4878, "Ġprovide": 4879, "Ġernst": 4880, "hÃ¤ng": 4881, "Ġ$": 4882, "Ġtut": 4883, "lain": 4884, "Ġ33": 4885, "Ġhervor": 4886, "ording": 4887, "Ġphoto": 4888, "2013": 4889, "Ġinfl": 4890, "dennis": 4891, "arel": 4892, "Ġoil": 4893, "igten": 4894, "ourn": 4895, "unternehmen": 4896, "ĠentschlieÃŁungsantrag": 4897, "Ġcd": 4898, "Ġgmbh": 4899, "ival": 4900, "Ġplatz": 4901, "Ġclearly": 4902, "mad": 4903, "Ġanwend": 4904, "Ġjos": 4905, "Ġspace": 4906, "lax": 4907, "Ġweniger": 4908, "Ġinteresse": 4909, "Ġmentioned": 4910, "iro": 4911, "ungsst": 4912, "Ġfunds": 4913, "Ġic": 4914, "Ġpubl": 4915, "alta": 4916, "Ġfiles": 4917, "Ġentire": 4918, "Ġasked": 4919, "Ġcalled": 4920, "Ġgrand": 4921, "det": 4922, "Ġdeutsch": 4923, "ugs": 4924, "Ġapplication": 4925, "Ġinstitution": 4926, "sverletz": 4927, "82": 4928, "Ġetwa": 4929, "Ġwelche": 4930, "Ġtats": 4931, "Ġsem": 4932, "union": 4933, "Ġbur": 4934, "Ġkre": 4935, "acy": 4936, "indung": 4937, "Ġentzieht": 4938, "hilfen": 4939, "hle": 4940, "som": 4941, "zuf": 4942, "Ġspielen": 4943, "asmus": 4944, "ĠlÃ¶": 4945, "ught": 4946, "ktionen": 4947, "Ġidea": 4948, "Ġactivities": 4949, "fÃ¤higkeit": 4950, "ĠfÃ¼nf": 4951, "Ġzugang": 4952, "Ġvassiliou": 4953, "fisheries": 4954, "Ġsonder": 4955, "Ġban": 4956, "Ġbol": 4957, "gegen": 4958, "neue": 4959, "Ġheart": 4960, "Ġparlaments": 4961, "Ġtechnical": 4962, "Ġdagegen": 4963, "ĠspÃ¤ter": 4964, "herz": 4965, "Ġprevious": 4966, "Ġautomat": 4967, "Ġsow": 4968, "Ġwhe": 4969, "Ġthemen": 4970, "Ġtravel": 4971, "Ġgerade": 4972, "Ġassessment": 4973, "sprogramm": 4974, "aff": 4975, "iete": 4976, "Ġever": 4977, "Ġerne": 4978, "annt": 4979, "mrs": 4980, "cks": 4981, "Ġgolf": 4982, "Ġpast": 4983, "roffen": 4984, "Ġgran": 4985, "Ġdeut": 4986, "rieben": 4987, "development": 4988, "racht": 4989, "Ġ65": 4990, "Ġgerichtshof": 4991, "Ġimpact": 4992, "Ġbeitrag": 4993, "Ġempfehl": 4994, "ĠbÃ¼": 4995, "Ġill": 4996, "erve": 4997, "rease": 4998, "Ġjud": 4999, "Ġministerium": 5000, "Ġwarm": 5001, "Ġfeed": 5002, "Ġbestehen": 5003, "geschlagen": 5004, "Ġresponsibility": 5005, "Ġeigentlich": 5006, "ty": 5007, "zi": 5008, "Ġasp": 5009, "indust": 5010, "Ġ298": 5011, "Ġcreate": 5012, "erklÃ¤rung": 5013, "bro": 5014, "Ġtagesordnung": 5015, "leider": 5016, "steme": 5017, "Ġbrows": 5018, "konferenz": 5019, "ĠauÃŁer": 5020, "national": 5021, "Ġdev": 5022, "Ġbraucht": 5023, "gesetzt": 5024, "have": 5025, "Ġpartnership": 5026, "Ġkn": 5027, "Ġtakes": 5028, "Ġpas": 5029, "Ġcam": 5030, "Ã¤ren": 5031, "Ġguid": 5032, "Ġkomple": 5033, "Ġcharge": 5034, "Ġreleases": 5035, "ev": 5036, "coming": 5037, "Ġcompletely": 5038, "Ġtat": 5039, "Ġerg": 5040, "Ġgeschichte": 5041, "Ã¤ndert": 5042, "ĠgroÃŁen": 5043, "bereitung": 5044, "bewertung": 5045, "bor": 5046, "ries": 5047, "utely": 5048, "bekÃ¤mpfung": 5049, "sprÃ¤sident": 5050, "Ġgroups": 5051, "Ġsicherheits": 5052, "xis": 5053, "Ġmethod": 5054, "Ġexpress": 5055, "international": 5056, "auÃŁerdem": 5057, "Ġwettbewerbs": 5058, "rahmen": 5059, "Ġmonitor": 5060, "Ġwinter": 5061, "Ġfive": 5062, "ican": 5063, "Ġbeendet": 5064, "Ġmarkets": 5065, "Ġinsbesondere": 5066, "Ġcenter": 5067, "Ġbuilding": 5068, "take": 5069, "Ġcir": 5070, "Ġhandels": 5071, "mig": 5072, "Ġunver": 5073, "Ġlernen": 5074, "ĠÃ¼berprÃ¼": 5075, "Ġkosovo": 5076, "body": 5077, "Ġdein": 5078, "accept": 5079, "gerichtshof": 5080, "Ġecu": 5081, "Ġenlargement": 5082, "ruction": 5083, "Ġplayer": 5084, "celona": 5085, "Ġconsumer": 5086, "Ġtarget": 5087, "relations": 5088, "human": 5089, "ued": 5090, "Ġnetz": 5091, "Ġober": 5092, "Ġallein": 5093, "Ġjobs": 5094, "ĠprÃ¤": 5095, "Ġrussia": 5096, "cen": 5097, "por": 5098, "Ġmol": 5099, "Ġrei": 5100, "0000": 5101, "Ġreply": 5102, "contact": 5103, "Ġtransl": 5104, "Ġadditional": 5105, "Ġdoll": 5106, "Ġdeine": 5107, "ppel": 5108, "Ġreports": 5109, "Ġdimas": 5110, "Ġfully": 5111, "eren": 5112, "ppen": 5113, "Ġproduction": 5114, "unfortunately": 5115, "wirkungen": 5116, "Ġtu": 5117, "ĠtÃ¤t": 5118, "Ġnav": 5119, "Ġwaste": 5120, "Ġjahres": 5121, "china": 5122, "Ġgere": 5123, "ization": 5124, "%)": 5125, "Ġmail": 5126, "lei": 5127, "igte": 5128, "schlag": 5129, "ĠÃ¶ffentliche": 5130, "Ġmatters": 5131, "ÃŁt": 5132, "Ġsize": 5133, "Ġeigenen": 5134, "Ġbip": 5135, "ĠhÃ¶r": 5136, "Ġdezember": 5137, "Ġconvention": 5138, "gruppe": 5139, "Ġfret": 5140, "Ġnachhalt": 5141, "Ġblick": 5142, "ĠfÃ¼hren": 5143, "Ġfundament": 5144, "case": 5145, "ost": 5146, "wird": 5147, "Ġ90": 5148, "Ġsubst": 5149, "Ġtechnology": 5150, "Ġage": 5151, "Ġcast": 5152, "Ġ37": 5153, "mitt": 5154, "Ġ2020": 5155, "iveness": 5156, "beg": 5157, "mlich": 5158, "wesen": 5159, "Ã¼t": 5160, "Ġasyl": 5161, "Ġchanged": 5162, "Ġverwendet": 5163, "dor": 5164, "Ġpath": 5165, "Ġbeautiful": 5166, "forts": 5167, "Ġabst": 5168, "Ġspain": 5169, "Ġelse": 5170, "Ġerforderlich": 5171, "wald": 5172, "Ġ48": 5173, "put": 5174, "Ġsun": 5175, "Ġkal": 5176, "56": 5177, "91": 5178, "Ġeuch": 5179, "ienen": 5180, "Ġagency": 5181, "Ġjanuar": 5182, "haps": 5183, "ationen": 5184, "laf": 5185, "Ġerfolgt": 5186, "break": 5187, "ires": 5188, "Ġerw": 5189, "Ġangebot": 5190, "ented": 5191, "ĠverÃ¶ff": 5192, "2009": 5193, "Ġeingehen": 5194, "Ġdir": 5195, "unsch": 5196, "unge": 5197, "Ġkamp": 5198, "gemeinsame": 5199, "ausch": 5200, "Ġseinen": 5201, "gewÃ¤sser": 5202, "Ġcec": 5203, "Ġbarn": 5204, "Ġweiterhin": 5205, "Ġthanks": 5206, "Ġvilla": 5207, "Ġverantwortung": 5208, "Ġsubsid": 5209, "Ġunaccept": 5210, "Ġnormal": 5211, "Ġportugal": 5212, "Ġitaly": 5213, "Ġfretwell": 5214, "dat": 5215, "inas": 5216, "Ġkop": 5217, "Ġvert": 5218, "Ġpeter": 5219, "Ġkonn": 5220, "common": 5221, "balgs": 5222, "Ġq": 5223, "Ġdro": 5224, "Ġmel": 5225, "Ġreise": 5226, "sper": 5227, "Ġraum": 5228, "Ġgdp": 5229, "wettbewerbs": 5230, "Ġfight": 5231, "Ġaufge": 5232, "meer": 5233, "Ġchoose": 5234, "may": 5235, "isf": 5236, "Ġbeteil": 5237, "Ġeinw": 5238, "Ġsogar": 5239, "ĠenthÃ¤lt": 5240, "ians": 5241, "Ġminim": 5242, "bereink": 5243, "yet": 5244, "Ġbulgar": 5245, "Ġep": 5246, "Ġzweit": 5247, "Ġabove": 5248, "ips": 5249, "Ġnature": 5250, "Ġiran": 5251, "Ġpolitische": 5252, "ought": 5253, "Ġbew": 5254, "Ġfrieden": 5255, "ghan": 5256, "olf": 5257, "Ġweise": 5258, "Ġentsp": 5259, "count": 5260, "Ġflug": 5261, "rieden": 5262, "Ġpiebalgs": 5263, "Ġachieved": 5264, "ativen": 5265, "igungs": 5266, "Ġhinter": 5267, "each": 5268, "Ġmm": 5269, "Ġbefinden": 5270, "illa": 5271, "ape": 5272, "latest": 5273, "Ġbab": 5274, "rift": 5275, "ĠqualitÃ¤t": 5276, "Ġaufmerksamkeit": 5277, "Ġunacceptable": 5278, "bec": 5279, "Ġperform": 5280, "Ġberuf": 5281, "Ġterms": 5282, "Ġarticle": 5283, "darÃ¼ber": 5284, "Ġreview": 5285, "schlieÃŁlich": 5286, "Ġnewsletter": 5287, "Ġcomplete": 5288, "Ġcorrect": 5289, "tex": 5290, "Ġka": 5291, "Ġdaran": 5292, "745": 5293, "lege": 5294, "Ġrecord": 5295, "Ġcomfortable": 5296, "fun": 5297, "Ġeindeut": 5298, "Ġworth": 5299, "Ã¼nfte": 5300, "Ġdring": 5301, "willkommen": 5302, "Ġkrise": 5303, "Ġapartments": 5304, "Ġdv": 5305, "Ġcrit": 5306, "Ġanfrage": 5307, "ĠzÃ¤": 5308, "ador": 5309, "Ġseems": 5310, "Ġmount": 5311, "Ġbox": 5312, "zeugnisse": 5313, "Ġsomm": 5314, "inger": 5315, "Ġabgeord": 5316, "sicherheit": 5317, "Ġdor": 5318, "Ġmi": 5319, "Ġbrit": 5320, "Ġrede": 5321, "Ġjean": 5322, "Ġleicht": 5323, "Ġgoes": 5324, "win": 5325, "Ġcosta": 5326, "afen": 5327, "Ġanything": 5328, "Ġconsult": 5329, "Ġwoche": 5330, "Ġsummer": 5331, "ĠnÃ¤he": 5332, "Ġmuse": 5333, "Ġsepar": 5334, "comes": 5335, "eff": 5336, "Ġcivil": 5337, "spiel": 5338, "Ġkomment": 5339, "Ġsoziale": 5340, "Ġfebruary": 5341, "zweit": 5342, "ropri": 5343, "Ġcompanies": 5344, "Ġmarg": 5345, "Ġdirection": 5346, "78": 5347, "pay": 5348, "ane": 5349, "Ġneuer": 5350, "Ġappear": 5351, "ilippe": 5352, "Ġunterschied": 5353, "hib": 5354, "uages": 5355, "vide": 5356, "onik": 5357, "asur": 5358, "Ġobjective": 5359, "iterran": 5360, "73": 5361, "Ġrub": 5362, "Ġtradition": 5363, "Ġminute": 5364, "Ġinvestitionen": 5365, "Ġfarm": 5366, "Ġmotor": 5367, "Ġgruppe": 5368, "ondon": 5369, "medi": 5370, "Ġkrie": 5371, "does": 5372, "Ġzeigt": 5373, "Ġumsetzung": 5374, "eller": 5375, "sson": 5376, "Ġmodel": 5377, "jekt": 5378, "Ġeveryone": 5379, "zugang": 5380, "Ġpicture": 5381, "54": 5382, "real": 5383, "verstÃ¤nd": 5384, "Ġfischler": 5385, "Ġleave": 5386, "Ġwan": 5387, "Ġanfang": 5388, "Ġabs": 5389, "Ġplac": 5390, "laration": 5391, "ariat": 5392, "eben": 5393, "Ġcreat": 5394, "ometer": 5395, "Ġfreund": 5396, "clusion": 5397, "Ġorganis": 5398, "Ã¼b": 5399, "elling": 5400, "2003": 5401, "Ġfrankreich": 5402, "Ġintro": 5403, "cop": 5404, "Ġpen": 5405, "nete": 5406, "Ã¤chlich": 5407, "Ġmalm": 5408, "Ġgift": 5409, "Ġangaben": 5410, "irm": 5411, "Ġforder": 5412, "Ġ1000": 5413, "Ġstrand": 5414, "altungs": 5415, "Ġreality": 5416, "licht": 5417, "christ": 5418, "alten": 5419, "anken": 5420, "Ġturkey": 5421, "Ġnegotiations": 5422, "bia": 5423, "pon": 5424, "tt": 5425, "lear": 5426, "Ġvict": 5427, "standen": 5428, "ĠlÃ¤ndern": 5429, "Ġchallenge": 5430, "Ġpurpose": 5431, "sverletzungsverfahren": 5432, "engl": 5433, "Ġlisten": 5434, "Ġprozess": 5435, "Ġsofort": 5436, "yle": 5437, "Ġurg": 5438, "term": 5439, "otion": 5440, "Ġalb": 5441, "ĠgeÃ¶ffnet": 5442, "Ġformat": 5443, "geschlossen": 5444, "ĠgehÃ¶ren": 5445, "cho": 5446, "Ġcongratul": 5447, "Ġliber": 5448, "ĠÃ¤nderungen": 5449, "ussion": 5450, "Ġwhite": 5451, "halte": 5452, "Ġfunding": 5453, "Ġready": 5454, "Ġdonner": 5455, "hesion": 5456, "competition": 5457, "ney": 5458, "mobil": 5459, "Ġba": 5460, "Ġisrael": 5461, "Ã¤uft": 5462, "Ġoft": 5463, "add": 5464, "Ġevents": 5465, "Ġelements": 5466, "Ġdich": 5467, "ufig": 5468, "essere": 5469, "ired": 5470, "Ġschool": 5471, "Ġcou": 5472, "Ã¤re": 5473, "anced": 5474, "eesc": 5475, "Ġsale": 5476, "Ġstelle": 5477, "stre": 5478, "ĠerfÃ¼": 5479, "Ġberichterstatter": 5480, "Ġgarant": 5481, "rimin": 5482, "Ġglaub": 5483, "Ġkrit": 5484, "star": 5485, "Ġaugen": 5486, "Ġtalking": 5487, "ĠfÃ¼hrt": 5488, "Ġessential": 5489, "would": 5490, "Ġslo": 5491, "Ġlauf": 5492, "fully": 5493, "Ġ58": 5494, "exp": 5495, "Ġwesentlich": 5496, "budget": 5497, "sam": 5498, "ursday": 5499, "Ġhart": 5500, "ixed": 5501, "post": 5502, "Ġentscheiden": 5503, "erstens": 5504, "Ġachieve": 5505, "Ġlegislative": 5506, "hend": 5507, "setzen": 5508, "Ġms": 5509, "Ġmis": 5510, "Ġmechan": 5511, "Ġprofession": 5512, "62": 5513, "fus": 5514, "Ġhung": 5515, "Ġscheint": 5516, "Ġspanien": 5517, "auber": 5518, "Ġnacht": 5519, "Ġmeinem": 5520, "Ġaktu": 5521, "Ġwissenschaft": 5522, "Ġmilit": 5523, "Ġara": 5524, "Ġaspe": 5525, "Ġstu": 5526, "Ġattra": 5527, "Ġplann": 5528, "Ġ43": 5529, "trans": 5530, "zeichnung": 5531, "Ġvorsitzes": 5532, "cis": 5533, "foc": 5534, "aster": 5535, "Ġverordnung": 5536, "orea": 5537, "Ġgesetz": 5538, "both": 5539, "Ġcostasur": 5540, "Ġletzte": 5541, "Ġopportunity": 5542, "Ġbecause": 5543, "Ġthough": 5544, "abon": 5545, "einander": 5546, "Ġimplementation": 5547, "Ġgoods": 5548, "Ġheld": 5549, "Ġfreedom": 5550, "works": 5551, "Ġagricultural": 5552, "atur": 5553, "sektor": 5554, "Ġspan": 5555, "Ġdeliver": 5556, "Ġconcerned": 5557, "Ġexactly": 5558, "uern": 5559, "imp": 5560, "ourcen": 5561, "Ġindic": 5562, "ledge": 5563, "Ġexamples": 5564, "ination": 5565, "Ã¤us": 5566, "hrt": 5567, "agra": 5568, "Ġamount": 5569, "Ġagreements": 5570, "Ġallowed": 5571, "heim": 5572, "Ġgi": 5573, "ilar": 5574, "Ġstav": 5575, "72": 5576, "jÃ¤hr": 5577, "forschung": 5578, "frist": 5579, "Ġbisher": 5580, "Ġincrease": 5581, "bereinkommen": 5582, "Ġchem": 5583, "stimmungsst": 5584, "Ġentwicklungs": 5585, "uffet": 5586, "ĠgewÃ¤sser": 5587, "Ġabsolutely": 5588, "Ġalone": 5589, "Ġ300": 5590, "Ġrapporteur": 5591, "stimmungsstunde": 5592, "park": 5593, "Ġbekommen": 5594, "Ġbeziehungen": 5595, "ĠgrÃ¼nden": 5596, "chem": 5597, "Ġparts": 5598, "Ġ64": 5599, "Ġclar": 5600, "wÃ¤hlen": 5601, "inzip": 5602, "focus": 5603, "Ġther": 5604, "Ġdanken": 5605, "ategory": 5606, "chs": 5607, "Ã¼gen": 5608, "urt": 5609, "Ġlic": 5610, "Ġlesen": 5611, "Ġprivat": 5612, "Ġwonder": 5613, "Ġexplan": 5614, "74513": 5615, "Ġsix": 5616, "Ġouts": 5617, "ugos": 5618, "Ġadministr": 5619, "Ġfranch": 5620, "agenda": 5621, "63": 5622, "Ġerster": 5623, "itteil": 5624, "Ġplus": 5625, "haltung": 5626, "Ġdeli": 5627, "Ġcasino": 5628, "keine": 5629, "rig": 5630, "ĠbetrÃ¤gt": 5631, "statist": 5632, "ĠgrÃ¼nde": 5633, "hor": 5634, "Ġewsa": 5635, "istic": 5636, "paration": 5637, "Ġgemeinsamen": 5638, "ructural": 5639, "Ġtreffen": 5640, "jeder": 5641, "feld": 5642, "Ġkennen": 5643, "Ġbezahl": 5644, "oker": 5645, "Ġ475": 5646, "Ġphotos": 5647, "Ġflash": 5648, "Ġnatural": 5649, "Ġenvironmental": 5650, "wurf": 5651, "itteilungen": 5652, "bour": 5653, "cs": 5654, "zweitens": 5655, "Ġtru": 5656, "Ġsustainable": 5657, "Ġfire": 5658, "Ġcross": 5659, "Ġnein": 5660, "irl": 5661, "Ġvorgehen": 5662, "Ġrail": 5663, "Ġvalid": 5664, "lected": 5665, "andre": 5666, "ria": 5667, "Ġzweif": 5668, "Ġfel": 5669, "ĠvizeprÃ¤sident": 5670, "Ġlou": 5671, "Ġerfahr": 5672, "Ġmehrere": 5673, "Ġkonz": 5674, "Ġpayment": 5675, "Ġebene": 5676, "zt": 5677, "initi": 5678, "ieht": 5679, "Ġcriter": 5680, "Ġkan": 5681, "Ġtook": 5682, "email": 5683, "log": 5684, "lied": 5685, "weisen": 5686, "Ġeditors": 5687, "ecspokes": 5688, "cas": 5689, "haft": 5690, "wers": 5691, "Ġjac": 5692, "Ġerhe": 5693, "Ġround": 5694, "Ġdatab": 5695, "Ġstarted": 5696, "Ġpaar": 5697, "Ġmusik": 5698, "alles": 5699, "Ġleider": 5700, "ively": 5701, "Ġguten": 5702, "Ġstaats": 5703, "Ġansatz": 5704, "Ġlinux": 5705, "rÃ¼": 5706, "td": 5707, "Ġveh": 5708, "Ġlate": 5709, "Ġauswahl": 5710, "Ġinternationale": 5711, "Ġgegenteil": 5712, "Ġdirectly": 5713, "Ġmist": 5714, "osn": 5715, "ured": 5716, "werden": 5717, "Ġ285": 5718, "Ġbrowser": 5719, "Ġfranchise": 5720, "vizeprÃ¤sident": 5721, "innov": 5722, "Ġsand": 5723, "Ġpassen": 5724, "Ġcla": 5725, "Ġanges": 5726, "imes": 5727, "vertrag": 5728, "ultural": 5729, "Ġjedem": 5730, "trict": 5731, "Ġendg": 5732, "cription": 5733, "iffer": 5734, "ĠerhÃ¤ltlich": 5735, "ĠhÃ¤tte": 5736, "ew": 5737, "Ġschrift": 5738, "2008": 5739, "Ġbelie": 5740, "Ġeval": 5741, "Ġdiscussed": 5742, "ĠÃ¼br": 5743, "Ġchristopher": 5744, "ghanistan": 5745, "health": 5746, "ception": 5747, "astrop": 5748, "Ġsuchen": 5749, "ĠhÃ¶ch": 5750, "roatia": 5751, "Ã¤ngt": 5752, "ipment": 5753, "Ġgeschieht": 5754, "Ġgesamt": 5755, "Ġsafe": 5756, "Ġsprache": 5757, "Ġstark": 5758, "Ġexchange": 5759, "Ġmanuel": 5760, "Ġstaat": 5761, "Ġeinzelnen": 5762, "__": 5763, "kle": 5764, "tur": 5765, "Ġped": 5766, "idung": 5767, "Ġelekt": 5768, "west": 5769, "chter": 5770, "Ġfrank": 5771, "Ġarbeitspl": 5772, "Ġindeed": 5773, "yright": 5774, "Ġfortschritte": 5775, "mt": 5776, "iture": 5777, "teuer": 5778, "ason": 5779, "Ġflugh": 5780, "Ġjoin": 5781, "Ġscre": 5782, "Ġcreated": 5783, "Ġfundamental": 5784, "iterranean": 5785, "ĠgeschÃ¤ftsordnung": 5786, "ecspokesantoine": 5787, "pend": 5788, "alter": 5789, "Ġgelegen": 5790, "Ġbring": 5791, "Ġactive": 5792, "Ġgefunden": 5793, "Ġfalsch": 5794, "zÃ¼glich": 5795, "rupt": 5796, "about": 5797, "osen": 5798, "schul": 5799, "Ġyouth": 5800, "Ġregierung": 5801, "Ġhistory": 5802, "Ġregistr": 5803, "gesehen": 5804, "Ġschem": 5805, "Ġbarcelona": 5806, "verkehrs": 5807, "Ġfriends": 5808, "sal": 5809, "Ġsn": 5810, "ality": 5811, "enten": 5812, "appro": 5813, "Ġsolutions": 5814, "aq": 5815, "vielle": 5816, "Ġground": 5817, "Ġlies": 5818, "Ġlag": 5819, "ressourcen": 5820, "2006": 5821, "board": 5822, "Ġanti": 5823, "Ġfischerei": 5824, "Ġmigration": 5825, "vielleicht": 5826, "gas": 5827, "alog": 5828, "Ġprep": 5829, "Ġhinaus": 5830, "Ġbarnier": 5831, "dra": 5832, "Ġgegeben": 5833, "Ġleist": 5834, "social": 5835, "Ġpersons": 5836, "Ġumfasst": 5837, "Ġbalance": 5838, "Ġkleine": 5839, "Ġmaking": 5840, "74": 5841, "fasst": 5842, "itarian": 5843, "aged": 5844, "Ġplat": 5845, "Ġparty": 5846, "Ġstaaten": 5847, "Ġterm": 5848, "Ġblack": 5849, "ĠnÃ¤chste": 5850, "Ġbeispiele": 5851, "Ġindividual": 5852, "Ġworte": 5853, "Ġstatus": 5854, "proble": 5855, "Ġsitu": 5856, "gesellschaft": 5857, "Ġrule": 5858, "Ġaspects": 5859, "Ġmic": 5860, "Ġbau": 5861, "Ġpages": 5862, "Ġanmer": 5863, "Ġtowards": 5864, "Ġreicht": 5865, "schluÃŁ": 5866, "Ġansicht": 5867, "Ġurban": 5868, "Ġpassiert": 5869, "Ġlimited": 5870, "Ġerwarten": 5871, "sb": 5872, "Ġactually": 5873, "Ġwichtiger": 5874, "Ġaspekte": 5875, "pet": 5876, "ti": 5877, "Ġfit": 5878, "Ġeesc": 5879, "lement": 5880, "Ġhans": 5881, "Ġinsel": 5882, "Ġtool": 5883, "finally": 5884, "tended": 5885, "ĠbegrÃ¼ÃŁe": 5886, "Ġmartin": 5887, "ball": 5888, "Ġmission": 5889, "emitteilungen": 5890, "Ġverm": 5891, "law": 5892, "Ġphp": 5893, "beschÃ¤ft": 5894, "Ġferr": 5895, "Ġpractice": 5896, "Ġrich": 5897, "behÃ¶r": 5898, "ĠgefÃ¤hr": 5899, "Ġens": 5900, "Ġaccep": 5901, "Ġprovided": 5902, "Ġrechnungs": 5903, "84": 5904, "scht": 5905, "Ġmenu": 5906, "gestunde": 5907, "ĠwÃ¼nsche": 5908, "76": 5909, "tax": 5910, "Ġtit": 5911, "Ġoktober": 5912, "olo": 5913, "pping": 5914, "ĠgeÃ¤ndert": 5915, "ĠfrÃ¼": 5916, "andere": 5917, "Ġorganisation": 5918, "Ġincludes": 5919, "Ġswit": 5920, "Ġmap": 5921, "Ġfert": 5922, "Ġmitteilung": 5923, "Ġupon": 5924, "box": 5925, "Ġofficial": 5926, "Ġpropert": 5927, "Ġknown": 5928, "ology": 5929, "Ġurlaub": 5930, "1999": 5931, "Ġgleiche": 5932, "uclear": 5933, "Ġzufrieden": 5934, "bi": 5935, "vii": 5936, "Ġmos": 5937, "leitung": 5938, "ilia": 5939, "Ġyourself": 5940, "Ġsatisf": 5941, "Ġsense": 5942, "ehr": 5943, "wach": 5944, "igur": 5945, "Ã¤nge": 5946, "Ġresort": 5947, "Ġcharac": 5948, "Ġpotonik": 5949, "mÃ¤r": 5950, "Ã¼hren": 5951, "Ġthursday": 5952, "Ġandor": 5953, "Ġimmedi": 5954, "Ġoperational": 5955, "Ġdau": 5956, "ley": 5957, "Ġlux": 5958, "Ġsex": 5959, "Ġ1996": 5960, "eten": 5961, "adurch": 5962, "anti": 5963, "wirtschafts": 5964, "riterien": 5965, "71": 5966, "wise": 5967, "Ġ01": 5968, "Ġinfringement": 5969, "ader": 5970, "Ġwettbewerb": 5971, "Ġ36": 5972, "Ġsave": 5973, "iano": 5974, "Ġradio": 5975, "Ġpictures": 5976, "Ġverschiedene": 5977, "ĠmalmstrÃ¶m": 5978, "79": 5979, "meld": 5980, "nr": 5981, "Ġpina": 5982, "resp": 5983, "ecu": 5984, "ogle": 5985, "Ġexpected": 5986, "ustrial": 5987, "ĠbenÃ¶tigen": 5988, "hy": 5989, "struktur": 5990, "good": 5991, "Ġhalf": 5992, "cia": 5993, "leb": 5994, "Ġstruktur": 5995, "Ġreding": 5996, "Ġdokumenten": 5997, "Ġdonnerstag": 5998, "kÃ¼nfte": 5999, "rary": 6000, "tro": 6001, "Ġmight": 6002, "Ġ46": 6003, "kontroll": 6004, "Ġgarden": 6005, "Ġrussland": 6006, "handelspolitik": 6007, "Ġdeutlich": 6008, "Ġwritten": 6009, "riffen": 6010, "Ġvorgeschlagen": 6011, "ĠwÃ¤hlen": 6012, "jul": 6013, "Ġdruck": 6014, "Ġvii": 6015, "ush": 6016, "ilien": 6017, "ĠschÃ¶": 6018, "Ġmitglieder": 6019, "Ġenor": 6020, "prise": 6021, "Ġeuros": 6022, "Ġsetzen": 6023, "schriftlich": 6024, "Ġverwenden": 6025, "Ġstunden": 6026, "ierungen": 6027, "Ġkonferenz": 6028, "spruch": 6029, "Ġbio": 6030, "acity": 6031, "Ġcompl": 6032, "Ġ06": 6033, "reiche": 6034, "Ġwochen": 6035, "hagen": 6036, "Ġsecurityfocus": 6037, "karte": 6038, "Ġoriginal": 6039, "Ġdatabase": 6040, "jun": 6041, "chsel": 6042, "genehm": 6043, "Ġdead": 6044, "Ġparking": 6045, "ĠbeschlÃ¼sse": 6046, "has": 6047, "Ġinfo": 6048, "elines": 6049, "Ġzoll": 6050, "Ġforest": 6051, "Ġappropri": 6052, "Ġgeschenk": 6053, "Ġ03": 6054, "Ġjohn": 6055, "Ġreading": 6056, "Ġrecog": 6057, "Ġalmost": 6058, "aga": 6059, "Ġprakt": 6060, "duced": 6061, "mi": 6062, "inde": 6063, "Ġdanger": 6064, "Ġsource": 6065, "Ġball": 6066, "Ġok": 6067, "ract": 6068, "Ġrelax": 6069, "ĠschlÃ¼ssel": 6070, "Ġkommunikation": 6071, "Ġdatei": 6072, "ĠwÃ¼nschen": 6073, "Ã¤sst": 6074, "ĠfuÃŁ": 6075, "Ġbald": 6076, "office": 6077, "Ġdiskussion": 6078, "michael": 6079, "pat": 6080, "Ġveranst": 6081, "Ġquot": 6082, "selves": 6083, "ller": 6084, "Ġkollegen": 6085, "Ġlatest": 6086, "secondly": 6087, "Ġcriteria": 6088, "Ġhu": 6089, "Ġconsultation": 6090, "Ġkomme": 6091, "Ġweltweit": 6092, "submitted": 6093, "clos": 6094, "arus": 6095, "Ġanne": 6096, "Ġdetail": 6097, "ĠgroÃŁer": 6098, "kurz": 6099, "Ġeindeutig": 6100, "Ġster": 6101, "Ġgern": 6102, "Ġvirt": 6103, "Ġkla": 6104, "absch": 6105, "Ġadresse": 6106, "Ġ85": 6107, "Ġdarum": 6108, "Ġweiteren": 6109, "ĠzusÃ¤tz": 6110, "regional": 6111, "debate": 6112, "Ġvergessen": 6113, "Ġbir": 6114, "ills": 6115, "Ġsommer": 6116, "gn": 6117, "Ġsin": 6118, "Ġosten": 6119, "Ġstability": 6120, "Ġhost": 6121, "ziehen": 6122, "Ġwestern": 6123, "iminal": 6124, "Ġannual": 6125, "Ġlack": 6126, "andid": 6127, "Ġauto": 6128, "Ġtal": 6129, "itive": 6130, "tete": 6131, "Ġcredit": 6132, "Ġkun": 6133, "ford": 6134, "ĠbestÃ¤t": 6135, "gi": 6136, "supp": 6137, "tac": 6138, "vote": 6139, "ender": 6140, "Ġmang": 6141, "anda": 6142, "Ġdepart": 6143, "Ġschre": 6144, "Ġque": 6145, "Ġhappens": 6146, "Ġparticularly": 6147, "Ġwanted": 6148, "Ġsicht": 6149, "Ġhot": 6150, "Ġrem": 6151, "Ġverstehen": 6152, "Ġherunter": 6153, "Ġ55": 6154, "ounts": 6155, "outh": 6156, "Ġcook": 6157, "Ġadvant": 6158, "Ġlow": 6159, "Ġdoppel": 6160, "Ġ44": 6161, "Ġ1995": 6162, "Ġagreed": 6163, "haushalts": 6164, "Ġpleased": 6165, "Ġbehind": 6166, "km": 6167, "Ġ#": 6168, "Ġlondon": 6169, "Ġhatten": 6170, "Ġago": 6171, "Ġmichael": 6172, "Ġskype": 6173, "Ġsection": 6174, "entwicklungs": 6175, "Ġbathroom": 6176, "schnitt": 6177, "impro": 6178, "Ġobserv": 6179, "liste": 6180, "Ġire": 6181, "Ġdeshalb": 6182, "beitrag": 6183, "Ġmovement": 6184, "Ġrather": 6185, "ologie": 6186, "Ġsignific": 6187, "Ġinstrument": 6188, "allerdings": 6189, "Ġalternative": 6190, "osed": 6191, "Ġdemand": 6192, "Ġsymb": 6193, "flÃ¤": 6194, "ĠgegenÃ¼ber": 6195, "nd": 6196, "zwischen": 6197, "inder": 6198, "Ġbla": 6199, "Ġga": 6200, "urd": 6201, "Ġverhe": 6202, "schein": 6203, "Ġbringt": 6204, "ĠfÃ¼gte": 6205, "Ġvalues": 6206, "Ġwebseite": 6207, "darum": 6208, "ery": 6209, "Ġaust": 6210, "itable": 6211, "Ġbern": 6212, "Ġpad": 6213, "Ġredu": 6214, "Ġ67": 6215, "version": 6216, "spective": 6217, "Ġsus": 6218, "rec": 6219, "Ġnic": 6220, "oul": 6221, "ratic": 6222, "ĠÃ¤nderungsant": 6223, "har": 6224, "jon": 6225, "zel": 6226, "Ġdisplay": 6227, "Ġjede": 6228, "Ġviol": 6229, "bien": 6230, "even": 6231, "king": 6232, "Ġverhandlungen": 6233, "Ġerfahren": 6234, "ĠerhÃ¶": 6235, "Ġheut": 6236, "2004": 6237, "Ġvision": 6238, "Ġopened": 6239, "programme": 6240, "check": 6241, "rep": 6242, "Ġcm": 6243, "Ġvorbe": 6244, "Ġfinde": 6245, "gesundheit": 6246, "lines": 6247, "ĠwÃ¼rden": 6248, "Ġgeorgie": 6249, "Ġgenehmigt": 6250, "iann": 6251, "time": 6252, "Ã¤glich": 6253, "Ġkategor": 6254, "Ġhaup": 6255, "aily": 6256, "Ġgrenzen": 6257, "Ġequipment": 6258, "Ġvereinbar": 6259, "cies": 6260, "ining": 6261, "Ġfle": 6262, "ĠlÃ¤sst": 6263, "issabon": 6264, "lock": 6265, "Ġplen": 6266, "ileo": 6267, "Ġ92": 6268, "Ġscience": 6269, "Ġeigene": 6270, "Ġallgemeine": 6271, "iode": 6272, "Ġ150": 6273, "Ġdirector": 6274, "Ġbillion": 6275, "Ġfrench": 6276, "ĠĠĠĠĠ": 6277, "Ġstavros": 6278, "nein": 6279, "vy": 6280, "Ġgames": 6281, "zeg": 6282, "Ġberat": 6283, "preise": 6284, "ĠÃ¶ffentlichen": 6285, "Ġmotion": 6286, "Ġreached": 6287, "ging": 6288, "enken": 6289, "ĠmÃ¤n": 6290, "Ġrelev": 6291, "Ġprodi": 6292, "Ġix": 6293, "aussprache": 6294, "Ġobl": 6295, "zerland": 6296, "david": 6297, "kat": 6298, "mw": 6299, "ois": 6300, "rate": 6301, "ye": 6302, "Ġstage": 6303, "Ġshows": 6304, "ĠprioritÃ¤ten": 6305, "kein": 6306, "Ġpurch": 6307, "Ġehr": 6308, "Ġesp": 6309, "Ġbetrie": 6310, "arbeiten": 6311, "Ġski": 6312, "kommunikation": 6313, "cz": 6314, "una": 6315, "Ġfab": 6316, "Ġborg": 6317, "Ġpf": 6318, "folgt": 6319, "fahrens": 6320, "ĠverfÃ¼gt": 6321, "Ġpaul": 6322, "magst": 6323, "Ġaccepted": 6324, "ham": 6325, "ĠkÃ¼r": 6326, "Ġspir": 6327, "...?": 6328, "Ġgewalt": 6329, "ĠbegrÃ¼ÃŁen": 6330, "Ġfamilie": 6331, "ault": 6332, "ieÃŁen": 6333, "Ġteile": 6334, "ffee": 6335, "Ġsolidarity": 6336, "ql": 6337, "vÃ¶l": 6338, "tse": 6339, "Ġhoff": 6340, "500": 6341, "mor": 6342, "zone": 6343, "istet": 6344, "entlicht": 6345, "ending": 6346, "Ġvorhand": 6347, "Ġ08": 6348, "Ġbedingungen": 6349, "Ġruh": 6350, "Ġdream": 6351, "kel": 6352, "Ġstimmt": 6353, "Ġliefer": 6354, "Ġhinsicht": 6355, "richtung": 6356, "Ġtaking": 6357, "Ġvertragsverletzungsverfahren": 6358, "Ġschweiz": 6359, "bra": 6360, "fax": 6361, "ns": 6362, "Ġahead": 6363, "Ġbann": 6364, "ufe": 6365, "half": 6366, "Ġbedarf": 6367, "Ġmensch": 6368, "ĠÃ¤uÃŁerst": 6369, "Ġinvolved": 6370, "ĠkÃ¤": 6371, "Ġremark": 6372, "ommod": 6373, "Ġaccommod": 6374, "atis": 6375, "reise": 6376, "Ġtex": 6377, "Ġ%.": 6378, "infr": 6379, "ork": 6380, "Ġpla": 6381, "sozial": 6382, "Ġkommun": 6383, "vertreten": 6384, "industrie": 6385, "wind": 6386, "Ġtouch": 6387, "imit": 6388, "ruit": 6389, "Ġgestellt": 6390, "Ġkenntnis": 6391, "Ġireland": 6392, "Ġstory": 6393, "Ġprogramms": 6394, "Ġanswers": 6395, "Ġoptions": 6396, "europÃ¤isches": 6397, "Ġkonsultation": 6398, "Ġdg": 6399, "ables": 6400, "denn": 6401, "Ġ--": 6402, "agre": 6403, "zeugen": 6404, "ipfel": 6405, "Ġtraff": 6406, "Ġsitz": 6407, "technische": 6408, "Ġquickly": 6409, "69": 6410, "Ġabend": 6411, "Ġcontains": 6412, "Ġanderes": 6413, "Ġimportance": 6414, "Ġlanguages": 6415, "Ġbasic": 6416, "Ġgold": 6417, "Ġauditors": 6418, "Ġsprachen": 6419, "Ġeffective": 6420, "Ġfeatures": 6421, "madam": 6422, "bat": 6423, "wasser": 6424, "Ġphase": 6425, "anca": 6426, "Ġpassword": 6427, "Ġdavid": 6428, "Ġaward": 6429, "Ġexport": 6430, "Ġregeln": 6431, "Ġourselves": 6432, "Ġamerica": 6433, "appointments": 6434, "cre": 6435, "tar": 6436, "Ġeither": 6437, "life": 6438, "ried": 6439, "wide": 6440, "idumping": 6441, "Ġexplain": 6442, "Ġdritte": 6443, "based": 6444, "Ġbemerkungen": 6445, "nÃ¤here": 6446, "Ġoutside": 6447, "**": 6448, "erc": 6449, "iment": 6450, "abstimmung": 6451, "ipl": 6452, "Ġmax": 6453, "cci": 6454, "Ġbrand": 6455, "Ġcustomers": 6456, "Ġreihe": 6457, ".-": 6458, "Ġkil": 6459, "lesen": 6460, "Ġsummary": 6461, "lszl": 6462, "zif": 6463, "Ġkit": 6464, "stoff": 6465, "Ġimages": 6466, "Ġaussch": 6467, "joe": 6468, "Ġstudy": 6469, "Ġauthority": 6470, "Ġsuggest": 6471, "prom": 6472, "richten": 6473, "ĠgÃ¼n": 6474, "ura": 6475, "Ġleit": 6476, "Ġplans": 6477, "wieder": 6478, "Ġterra": 6479, "Ġwatch": 6480, "Ġfebruar": 6481, "Ġbundesminister": 6482, "gern": 6483, "Ġangel": 6484, "enster": 6485, "Ġkonkre": 6486, "Ġassociation": 6487, "fish": 6488, "jah": 6489, "itiveness": 6490, "Ġcategory": 6491, "Ġnennen": 6492, "uba": 6493, "merger": 6494, "Ġcomprom": 6495, "Ġleader": 6496, "fusions": 6497, "beschÃ¤ftigung": 6498, "bby": 6499, "ala": 6500, "beide": 6501, "arbeitet": 6502, "Ġlimit": 6503, "asch": 6504, "bringen": 6505, "Ġangezeigt": 6506, "tzdem": 6507, "fÃ¼hren": 6508, "ernennungen": 6509, "consum": 6510, "bÃ¼": 6511, "ea": 6512, "onnen": 6513, "Ġpin": 6514, "genau": 6515, "Ġgeh": 6516, "Ġvorschriften": 6517, "Ġfraktion": 6518, "Ġinvestitions": 6519, "bereit": 6520, "Ġbroad": 6521, "amera": 6522, "Ġrequirements": 6523, "fi": 6524, "Ġemer": 6525, "leicht": 6526, "Ġgod": 6527, "Ġliving": 6528, "utt": 6529, "Ġrange": 6530, "Ġ52": 6531, "Ġbetra": 6532, "Ġgesprochen": 6533, "Ġprim": 6534, "Ġtransfer": 6535, "kan": 6536, "setz": 6537, "Ġsagt": 6538, "Ġinhalt": 6539, "Ġven": 6540, "Ġlay": 6541, "Ġauswirkungen": 6542, "ĠÃ¼berhaupt": 6543, "Ġfolgender": 6544, "Ġzeitpunkt": 6545, "53": 6546, "ju": 6547, "Ġgutes": 6548, "Ġneg": 6549, "Ġneigh": 6550, "quelle": 6551, "zeuge": 6552, "akes": 6553, "Ġtrack": 6554, "mission": 6555, "nie": 6556, "Ġpoker": 6557, "Ġverste": 6558, "Ġwebs": 6559, "aint": 6560, "Ġrepl": 6561, "Ġgoogle": 6562, "Ġgrenz": 6563, "Ġspeziel": 6564, "Ã¼tzt": 6565, "Ġschaffen": 6566, "ency": 6567, "Ġmiddle": 6568, "begr": 6569, "Ġencour": 6570, "Ġlost": 6571, "Ġcommer": 6572, "gebiet": 6573, "mitteln": 6574, "nesday": 6575, "Ġkomprom": 6576, "Ġvorhanden": 6577, "face": 6578, "kraft": 6579, "list": 6580, "Ġmid": 6581, "arte": 6582, "those": 6583, "Ã¶st": 6584, "endes": 6585, "pid": 6586, "inted": 6587, "Ġwarten": 6588, "Ġparties": 6589, "Ġanton": 6590, "fallen": 6591, "Ġelement": 6592, "Ġaudio": 6593, "Ġbenefits": 6594, "Ġwunder": 6595, "ably": 6596, "dennoch": 6597, "code": 6598, "Ġferien": 6599, "Ġbaby": 6600, "hann": 6601, "memo": 6602, "Ġign": 6603, "ateral": 6604, "usion": 6605, "Ġjem": 6606, "Ġrot": 6607, "Ġzweck": 6608, "Ġwohn": 6609, "Ġharmon": 6610, "communications": 6611, "Ġbenefit": 6612, "Ġkunst": 6613, "ients": 6614, "Ġaustria": 6615, "Ġbay": 6616, "Ġhall": 6617, "Ã¤ss": 6618, "ufact": 6619, "Ġvorgesehen": 6620, "afrika": 6621, "Ã¼cken": 6622, "Ġtransparency": 6623, "Ġbeginnen": 6624, "Ġvern": 6625, "ierter": 6626, "Ġcontext": 6627, "Ġcomplex": 6628, "angeb": 6629, "Ġprofit": 6630, "Ġtruth": 6631, "cap": 6632, "tte": 6633, "Ġfail": 6634, "Ġlik": 6635, "Ġzentrum": 6636, "research": 6637, "Ġfine": 6638, "transparency": 6639, "kor": 6640, "Ġaware": 6641, "Ġseem": 6642, "Ã¤tzen": 6643, "waren": 6644, "Ġgovernance": 6645, "Ġchallenges": 6646, "Ġguarantee": 6647, "tain": 6648, "anzen": 6649, "Ġcame": 6650, "Ġeinigen": 6651, "ĠstÃ¤d": 6652, "berto": 6653, "Ġ39": 6654, "Ġsimilar": 6655, "Ġfoto": 6656, "Ġfotos": 6657, "rock": 6658, "Ġvari": 6659, "Ġvoraus": 6660, "rates": 6661, "Ġobvious": 6662, "Ġdrink": 6663, "prioritÃ¤ts": 6664, "glo": 6665, "hat": 6666, "ĠÃ¶sterreich": 6667, "Ġwein": 6668, "Ġmik": 6669, "osition": 6670, "Ġmitarbeit": 6671, "sens": 6672, "available": 6673, "Ġbringen": 6674, "Ġsupported": 6675, "technical": 6676, "Ġfishing": 6677, "bauen": 6678, "rich": 6679, "Ġband": 6680, "Ġbody": 6681, "ilen": 6682, "Ġsei": 6683, "Ġemploy": 6684, "Ġteilnehmer": 6685, "Ġinstitutions": 6686, "firstly": 6687, "lÃ¤ndern": 6688, "cod": 6689, "sum": 6690, "itime": 6691, "Ġmem": 6692, "Ġmcc": 6693, "Ġfinis": 6694, "ĠlÃ¤uft": 6695, "prote": 6696, "Ġmonate": 6697, "Ġagrar": 6698, "ĠÃ¤hn": 6699, "Ġkarte": 6700, "Ġinfrastructure": 6701, "Ġwinn": 6702, "Ġgap": 6703, "ĠberÃ¼ck": 6704, "Ġ74": 6705, "Ġdoubt": 6706, "oten": 6707, "Ġtagen": 6708, "iles": 6709, "Ã¤ne": 6710, "Ġexec": 6711, "Ġguest": 6712, "transparenz": 6713, "zwei": 6714, "Ġways": 6715, "alia": 6716, "Ġeth": 6717, "Ġschwar": 6718, "Ġlautet": 6719, "Ġferrero": 6720, "Ġtac": 6721, "Ġdise": 6722, "Ġsays": 6723, "Ġunit": 6724, "Ġdeath": 6725, "aving": 6726, "teilen": 6727, "Ġ1994": 6728, "Ġproperty": 6729, "iance": 6730, "sweise": 6731, "omas": 6732, "eland": 6733, "Ġunten": 6734, "Ġerach": 6735, "barometer": 6736, "Ġ96": 6737, "Ġemissions": 6738, "visit": 6739, "Ġeinzelheiten": 6740, "Ġborn": 6741, "before": 6742, "Ġdebian": 6743, "ĠnÃ¤chster": 6744, "Ġcapacity": 6745, "sterdam": 6746, "ĠkÃ¶nnten": 6747, "waldner": 6748, "ĠÃ¼brigen": 6749, "Ġgn": 6750, "resh": 6751, "ista": 6752, "Ġexpl": 6753, "Ġspeed": 6754, "Ġnetherlands": 6755, "Ġkmu": 6756, "Ġmobiltel": 6757, "flichtungen": 6758, "agraph": 6759, "zw": 6760, "Ġalex": 6761, "Ġunique": 6762, "Ġentsprechen": 6763, "Ġrestrict": 6764, "Ġperfe": 6765, "Ġboot": 6766, "Ġtransparenz": 6767, "Ġseries": 6768, "Ġirak": 6769, "Ġearly": 6770, "ĠwallstrÃ¶m": 6771, "ograph": 6772, "Ġsong": 6773, "Ġkg": 6774, "achten": 6775, "opou": 6776, "Ġheard": 6777, "hinder": 6778, "streng": 6779, "Ġhomepage": 6780, "Ġhigher": 6781, "ua": 6782, "Ġap": 6783, "Ġbef": 6784, "Ġgewor": 6785, "Ġarrang": 6786, "keiten": 6787, "Ġseinem": 6788, "Ġzeichen": 6789, "Ġdeta": 6790, "Ġlisbon": 6791, "video": 6792, "erweiterung": 6793, "ĠlÃ¤nd": 6794, "vergen": 6795, "Ġquiet": 6796, "bricht": 6797, "Ġpoor": 6798, "Ġ282": 6799, "Ġprovides": 6800, "Ġsurve": 6801, "Ġanwendung": 6802, "achse": 6803, "Ġavo": 6804, "schlieÃŁend": 6805, "Ġgemeinsam": 6806, "Ġtourism": 6807, "Ġsignificant": 6808, "kap": 6809, "entsche": 6810, "house": 6811, "nehm": 6812, "gebung": 6813, "stÃ¼tz": 6814, "Ġblue": 6815, "food": 6816, "ynam": 6817, "ordination": 6818, "Ġargument": 6819, "twoch": 6820, "Ġhighl": 6821, "kÃ¶nnen": 6822, "ĠverÃ¶ffentlicht": 6823, "hÃ¤s": 6824, "Ġdaily": 6825, "Ġlissabon": 6826, "izien": 6827, "ĠÃ¤nderung": 6828, "itÃ¤re": 6829, "shop": 6830, "Ġgreece": 6831, "Ġganzen": 6832, "Ġbeginning": 6833, "Ġbemerkung": 6834, "directive": 6835, "Ġflughafen": 6836, "table": 6837, "esten": 6838, "schwer": 6839, "adresse": 6840, "article": 6841, "ĠprÃ¤sidenten": 6842, "wÃ¤hr": 6843, "bedingungen": 6844, "Ġluxemburg": 6845, "fle": 6846, "abhÃ¤ng": 6847, "ktive": 6848, "Ġflor": 6849, "Ġbuilt": 6850, "Ġwollte": 6851, "Ġtagung": 6852, "Ġstreet": 6853, "Ġbeide": 6854, "akten": 6855, "Ġperspekt": 6856, "fehl": 6857, "Ġdiam": 6858, "Ġcolor": 6859, "Ġkeiner": 6860, "greifen": 6861, "Ġjanez": 6862, "utsche": 6863, "Ġpublished": 6864, "speriode": 6865, "Ġnieder": 6866, "Ġ41": 6867, "Ġstated": 6868, "Ġaccording": 6869, "Ġgemeinschafts": 6870, "Ġzusammenhang": 6871, "darauf": 6872, "stoffe": 6873, "ny": 6874, "since": 6875, "Ġfly": 6876, "Ġcards": 6877, "mente": 6878, "migration": 6879, "name": 6880, "oth": 6881, "Ġcohesion": 6882, "Ġprefer": 6883, "Ġdifference": 6884, "Ġpotential": 6885, "Ġopportunities": 6886, "ĠhÃ¶ren": 6887, "jected": 6888, "ester": 6889, "altet": 6890, "zeichen": 6891, "zahlungen": 6892, "Ġfischere": 6893, "Ġerfolgreich": 6894, "qualitÃ¤t": 6895, "Ġmuseum": 6896, "Ġpaket": 6897, "Ġabbott": 6898, "Ġamong": 6899, "Ġrepe": 6900, "Ġmaria": 6901, "Ġavra": 6902, "Ġknowledge": 6903, "Ġreception": 6904, "Ġcustomer": 6905, "vice": 6906, "Ġsi": 6907, "usa": 6908, "Ġ202": 6909, "Ġpolitischen": 6910, "Ġinnerhalb": 6911, "Ġresponsible": 6912, "Ġbonus": 6913, "mont": 6914, "nam": 6915, "Ġbat": 6916, "option": 6917, "Ġliebe": 6918, "Ġbeginnt": 6919, "Ġbalkans": 6920, "Ġrevolution": 6921, "Ġkampf": 6922, "bac": 6923, "heres": 6924, "hton": 6925, "Ġplug": 6926, "udan": 6927, "ennung": 6928, "Ġgrunds": 6929, "Ġeinzige": 6930, "sitzen": 6931, "sprozess": 6932, "Ġhenn": 6933, "Ġomb": 6934, "Ġlake": 6935, "Ġthought": 6936, "verordnung": 6937, "mous": 6938, "Ġaktual": 6939, "cribe": 6940, "fÃ¤lle": 6941, "Ġdraft": 6942, "educ": 6943, "Ġlit": 6944, "ids": 6945, "Ġeuropes": 6946, "Ġunterbricht": 6947, "plant": 6948, "Ġvillage": 6949, "nel": 6950, "gener": 6951, "ribu": 6952, "neelie": 6953, "Ġcoming": 6954, "Ġresol": 6955, "uds": 6956, "Ġtreatment": 6957, "ipped": 6958, "Ġvertrauen": 6959, "Ġsubsidiar": 6960, "519": 6961, "orial": 6962, "phas": 6963, "Ġetc": 6964, "Ġcommunications": 6965, "Ġaktuelle": 6966, "Ġbalkan": 6967, "Ġkrieg": 6968, "iia": 6969, "mun": 6970, "ieg": 6971, "Ġgott": 6972, "Ġvac": 6973, "Ġrural": 6974, "Ġsek": 6975, "Ġstandpunkt": 6976, "Ġsitzungsperiode": 6977, "Ġfamilien": 6978, "fusionskontroll": 6979, "fan": 6980, "Ġdritt": 6981, "termin": 6982, "Ġzw": 6983, "Ġthus": 6984, "ida": 6985, "Ġselection": 6986, "Ġidee": 6987, "ĠwÃ¤hrend": 6988, "Ġstatistics": 6989, "eks": 6990, "zunÃ¤chst": 6991, "Ġwine": 6992, "Ġvinc": 6993, "Ġserved": 6994, "Ġtermin": 6995, "Ġtechnische": 6996, "Ġblock": 6997, "tagung": 6998, "Ġenglisch": 6999, "Ġcongratulate": 7000, "gut": 7001, "mes": 7002, "pen": 7003, "itation": 7004, "ĠauskÃ¼nfte": 7005, "Ġspo": 7006, "ielt": 7007, "Ġcanc": 7008, "verty": 7009, "Ġdraw": 7010, "person": 7011, "Ġminimum": 7012, "Ġtier": 7013, "their": 7014, "Ġerlaub": 7015, "Ġatmos": 7016, "Ġvorteile": 7017, "Ġzeigen": 7018, "Ġpatten": 7019, "nÃ¤ch": 7020, "Ġpak": 7021, "rot": 7022, "Ġkall": 7023, "Ġashton": 7024, "Ġ400": 7025, "Ġberichts": 7026, "hoben": 7027, "entrale": 7028, "Ġmobility": 7029, "Ġrednerin": 7030, "Ġmonitoring": 7031, "ĠÃ¤nderungsantrÃ¤ge": 7032, "58": 7033, "Ġpoll": 7034, "Ġvir": 7035, "usst": 7036, "Ġunbed": 7037, "icien": 7038, "Ġeinsatz": 7039, "Ġbyr": 7040, "Ġappe": 7041, "arbeitung": 7042, "Ġmaximum": 7043, "Ġbehalf": 7044, "geber": 7045, "Ġforsch": 7046, "Ġdenken": 7047, "loc": 7048, "Ġoutcome": 7049, "ĠrealitÃ¤t": 7050, "ĠÃ¼b": 7051, "Ġkonnte": 7052, "Ġzweiten": 7053, "Ġgeworden": 7054, "pf": 7055, "prop": 7056, "ystem": 7057, "Ġdun": 7058, "enter": 7059, "Ġkriterien": 7060, "androulla": 7061, "rib": 7062, "Ġamt": 7063, "Ġcontain": 7064, "rÃ¤sent": 7065, "Ġbeihilfen": 7066, "Ġeuropeaid": 7067, "Ġengine": 7068, "wettbewerbskommissarin": 7069, "Ġrechnungshof": 7070, "machen": 7071, "aria": 7072, "Ġnam": 7073, "ecially": 7074, "Ġextens": 7075, "Ġvertreten": 7076, "ammlung": 7077, "Ġanalys": 7078, "download": 7079, "Ġurgent": 7080, "pass": 7081, "enlargement": 7082, "apt": 7083, "perhaps": 7084, "Ġpatent": 7085, "ĠmÃ¶glichkeiten": 7086, "cts": 7087, "uy": 7088, "Ġfill": 7089, "Ġcra": 7090, "Ġberg": 7091, "Ġtrend": 7092, "Ġgebiet": 7093, "Ġwindow": 7094, "ournal": 7095, "bÃ¼rger": 7096, "cos": 7097, "zoll": 7098, "Ġfur": 7099, "Ġprag": 7100, "theless": 7101, "committee": 7102, "govern": 7103, "Ġprotect": 7104, "Ġherausforderung": 7105, "Ġcompromise": 7106, "Ġerachtens": 7107, "his": 7108, "enjoy": 7109, "Ġcurr": 7110, "ĠkÃ¼nft": 7111, "gency": 7112, "uffer": 7113, "never": 7114, "Ġstein": 7115, "Ġmrd": 7116, "Ġbegin": 7117, "hold": 7118, "Ġmeasure": 7119, "booking": 7120, "Ġmadam": 7121, "Ġwunsch": 7122, "ĠfÃ¶rderung": 7123, "Ġinf": 7124, "antidumping": 7125, "Ġgoal": 7126, "institution": 7127, "wandel": 7128, "Ġordnung": 7129, "ĠeinwÃ¤nde": 7130, "lass": 7131, "netz": 7132, "teren": 7133, "verage": 7134, "Ġerasmus": 7135, "ibil": 7136, "ipe": 7137, "Ġpoland": 7138, "ensive": 7139, "Ġgesellschaft": 7140, "Ġinstallation": 7141, "Ġsorgen": 7142, "Ġsymbol": 7143, "bie": 7144, "paket": 7145, "ĠfÃ¶r": 7146, "Ġbott": 7147, "aminister": 7148, "Ġerd": 7149, "Ġirgend": 7150, "Ġbackground": 7151, "Ġnetworks": 7152, "Ġhappening": 7153, "Ġeinheit": 7154, "ĠausfÃ¼hr": 7155, "Ġwerk": 7156, "Ġoral": 7157, "Ġerwartet": 7158, "Ġverschiedenen": 7159, "verstÃ¤ndlich": 7160, "ributed": 7161, "Ġpor": 7162, "Ã¤ude": 7163, "Ġkong": 7164, "third": 7165, "Ġbevor": 7166, "Ġmex": 7167, "ĠratsprÃ¤sident": 7168, "vorbereitung": 7169, "Ġrequires": 7170, "Ġconsumers": 7171, "han": 7172, "vb": 7173, "Ġsort": 7174, "Ġamsterdam": 7175, "Ġmanufact": 7176, "Ġfinancing": 7177, "Ġfoot": 7178, "ĠlÃ¶sungen": 7179, "Ġfields": 7180, "Ġguidelines": 7181, "hre": 7182, "Ġ;": 7183, "icit": 7184, "Ġstructure": 7185, "andal": 7186, "Ġinformations": 7187, "grÃ¶ÃŁ": 7188, "Ġinterested": 7189, "Ġphilippe": 7190, "Ġmonat": 7191, "unterstÃ¼tz": 7192, "Ġteilen": 7193, "ancing": 7194, "Ġrestaurants": 7195, "babwe": 7196, "lam": 7197, "pra": 7198, "source": 7199, "ym": 7200, "Ġcultural": 7201, "Ġanno": 7202, "terror": 7203, "derzeit": 7204, "Ġstore": 7205, "dep": 7206, "spun": 7207, "iens": 7208, "Ġprint": 7209, "Ġtrust": 7210, "folgerung": 7211, "openhagen": 7212, "kas": 7213, "attet": 7214, "ĠmÃ¼": 7215, "Ġlives": 7216, "Ġreag": 7217, "Ġzul": 7218, "izont": 7219, "Ġparagraph": 7220, "Ġstring": 7221, "Ġbenutzen": 7222, "Ġluxembourg": 7223, "Ġavraam": 7224, "Ġvat": 7225, "etimes": 7226, "ĠflÃ¼": 7227, "Ġspeech": 7228, "franz": 7229, "ĠgrÃ¶ÃŁte": 7230, "politische": 7231, "eing": 7232, "integr": 7233, "Ġtests": 7234, "Ġkaufen": 7235, "aming": 7236, "Ġschen": 7237, "oph": 7238, "Ġ38": 7239, "regelung": 7240, "dina": 7241, "zent": 7242, "ĠtÃ¤glich": 7243, "Ġfant": 7244, "Ġannahme": 7245, "rak": 7246, "artige": 7247, "Ġchair": 7248, "astic": 7249, "Ġroute": 7250, "Ġnachbar": 7251, "Ã¶rper": 7252, "Ġideas": 7253, "Ġsheet": 7254, "Ġwahrheit": 7255, "Ġrecogn": 7256, "cam": 7257, "fed": 7258, "gung": 7259, "gliche": 7260, "ses": 7261, "Ġpil": 7262, "ases": 7263, "Ġkir": 7264, "Ġ(âĤ¬": 7265, "Ġredaktion": 7266, "Ġpraxis": 7267, "Ġvarious": 7268, "Ġinteresting": 7269, "Ġestablished": 7270, "nl": 7271, "Ġbag": 7272, "Ġyork": 7273, "Ġweeks": 7274, "Ġwerte": 7275, "hood": 7276, "kontakte": 7277, "Ġhostel": 7278, "Ã¶sisch": 7279, "community": 7280, "Ġdrive": 7281, "dumping": 7282, "kenn": 7283, "utive": 7284, "Ġalong": 7285, "Ġabgeschlossen": 7286, "Ġnotes": 7287, "Ġchanc": 7288, "holm": 7289, "Ã¼ndliche": 7290, "Ġtypes": 7291, "Ġabsolut": 7292, "ĠeuropÃ¤ischer": 7293, "estein": 7294, "Ġdvd": 7295, "Ġalbum": 7296, "Ġprepared": 7297, "Ġbud": 7298, "ando": 7299, "Ġgefahr": 7300, "Ġschreiben": 7301, "Ġgriechenland": 7302, "Ġfrequ": 7303, "Ġtragen": 7304, "contin": 7305, "Ġjedes": 7306, "Ġcalls": 7307, "decken": 7308, "Ġtrip": 7309, "lÃ¤nd": 7310, "si": 7311, "ense": 7312, "Ġcommen": 7313, "Ġging": 7314, "urance": 7315, "Ġlok": 7316, "Ġbear": 7317, "schre": 7318, "ierre": 7319, "Ġsole": 7320, "conclusion": 7321, "Ġguide": 7322, "Ġallgemeinen": 7323, "great": 7324, "nik": 7325, "Ġdynam": 7326, "Ġwand": 7327, "Ġremo": 7328, "Ġbezug": 7329, "Ġverk": 7330, "Ġverfolgt": 7331, "sport": 7332, "place": 7333, "covery": 7334, "bereiche": 7335, "uppen": 7336, "Ġbetreffen": 7337, "Ġsowie": 7338, "tseite": 7339, "(%": 7340, "custom": 7341, "pack": 7342, "ione": 7343, "road": 7344, "ichtlich": 7345, "ourable": 7346, "Ġ88": 7347, "Ġworkers": 7348, "vorschlag": 7349, "Ġsupply": 7350, "Ġprize": 7351, "Ġvielleicht": 7352, "Ġiraq": 7353, "russia": 7354, "because": 7355, "hab": 7356, "Ġdol": 7357, "Ġmalta": 7358, "Ġew": 7359, "Ġstad": 7360, "Ġhohe": 7361, "Ġpolen": 7362, "Ġkleinen": 7363, "kestein": 7364, "test": 7365, "report": 7366, "aro": 7367, "ales": 7368, "Ġgesehen": 7369, "Ġdeep": 7370, "cccc": 7371, "Ġparticipants": 7372, "Ġlaunch": 7373, "ĠĠĠĠĠĠ": 7374, "Ġkapital": 7375, "affen": 7376, "isieren": 7377, "willst": 7378, "Ġhumanitarian": 7379, "379": 7380, "vol": 7381, "Ġbru": 7382, "Ġcert": 7383, "ela": 7384, "management": 7385, "Ġsimpl": 7386, "Ġgesamte": 7387, "ky": 7388, "char": 7389, "iser": 7390, "Ġintens": 7391, "icated": 7392, "Ġarten": 7393, "ĠgrÃ¼": 7394, "Ġsteel": 7395, "Ġindustrial": 7396, "Ġrelativ": 7397, "iction": 7398, "Ġafrika": 7399, "Ġdiskut": 7400, "Ġterrorismus": 7401, "Ġefforts": 7402, "Ġbolkestein": 7403, "Ġatmosph": 7404, "kultur": 7405, "mir": 7406, "wissen": 7407, "ario": 7408, "Ġanfragen": 7409, "etary": 7410, "denken": 7411, "Ġherzeg": 7412, "Ġangelegenheit": 7413, "hierzu": 7414, "Ġrespond": 7415, "Ġbeitritts": 7416, "Ġpopular": 7417, "Ġcheap": 7418, "innovation": 7419, "bur": 7420, "nos": 7421, "Ġcaf": 7422, "Ġcause": 7423, "ivian": 7424, "Ġstellvertreten": 7425, "Ġself": 7426, "Ġimprove": 7427, "mÃ¤ÃŁig": 7428, "51925": 7429, "Ġluc": 7430, "stud": 7431, "Ġreich": 7432, "ereign": 7433, "Ġbetroffen": 7434, "Ã¶ffnung": 7435, "legung": 7436, "build": 7437, "ĠhÃ¤ufig": 7438, "Ġnuclear": 7439, "msel": 7440, "Ġxiv": 7441, "Ġglad": 7442, "Ġfreiheit": 7443, "group": 7444, "Ġverheugen": 7445, "infrast": 7446, "suchen": 7447, "estens": 7448, "Ġbahn": 7449, "Ġconsequ": 7450, "Ġgeehr": 7451, "Ġsehe": 7452, "Ġaufent": 7453, "mÃ¶chten": 7454, "rooms": 7455, "ĠzustÃ¤nd": 7456, "Ġterrorism": 7457, "Ġziehen": 7458, "Ġdringend": 7459, "support": 7460, "Ġrelevant": 7461, "nÃ¤chste": 7462, "san": 7463, "wan": 7464, "Ġmun": 7465, "uses": 7466, "einzel": 7467, "Ġ51": 7468, "wortet": 7469, "Ġsuche": 7470, "priv": 7471, "Ġ753": 7472, "Ġrecommendation": 7473, "dro": 7474, "lÃ¶s": 7475, "Ġthemsel": 7476, "uld": 7477, "deswegen": 7478, "Ġvielf": 7479, "haushalt": 7480, "Ġfirma": 7481, "Ġangesprochen": 7482, "Ġthemselves": 7483, "Ġfas": 7484, "teneg": 7485, "Ġselected": 7486, "Ġparame": 7487, "lli": 7488, "ĠerklÃ¤rt": 7489, "kennen": 7490, "Ġafghanistan": 7491, "Ġkontrolle": 7492, "Ġniemand": 7493, "Ġconnection": 7494, "ruption": 7495, "education": 7496, "kerung": 7497, "mot": 7498, "tit": 7499, "Ġdue": 7500, "heet": 7501, "rollen": 7502, "Ġeisen": 7503, "Ġgast": 7504, "versch": 7505, "ĠschlÃ¤": 7506, "zeitig": 7507, "Ġkostet": 7508, "Ġlamy": 7509, "dg": 7510, "year": 7511, "Ġwent": 7512, "001": 7513, "Ġsites": 7514, "Ġbetr": 7515, "ĠschluÃŁ": 7516, "Ġconcerning": 7517, "Ġeinges": 7518, "Ġvideos": 7519, "sprÃ¼": 7520, "Ġherzlich": 7521, "soll": 7522, "Ġcur": 7523, "Ġbeifall": 7524, "steuer": 7525, "Ġteach": 7526, "Ġwirkung": 7527, "Ġkontroll": 7528, "Ġfounded": 7529, "Ġelectric": 7530, "personen": 7531, "Ġladies": 7532, "ĠergÃ¤n": 7533, "pm": 7534, "pret": 7535, "tour": 7536, "Ġdur": 7537, "Ġsell": 7538, "ancy": 7539, "reten": 7540, "arent": 7541, "implementation": 7542, "Ġreden": 7543, "Ġrejected": 7544, "gefÃ¼hrt": 7545, "Ġstyle": 7546, "Ġledig": 7547, "iellen": 7548, "Ġexception": 7549, "Ġagentur": 7550, "Ġ%)": 7551, "Ġhaushalt": 7552, "beschl": 7553, "ipping": 7554, "Ġprinciples": 7555, "Ġherausforderungen": 7556, "wachung": 7557, "anim": 7558, "web": 7559, "Ġberichte": 7560, "Ġfunktionieren": 7561, "Ġcustoms": 7562, "Ġfacilities": 7563, "ĠspaÃŁ": 7564, "Ġspirit": 7565, "Ġlediglich": 7566, "Ġsetzt": 7567, "alex": 7568, "Ġsyn": 7569, "Ã¶ffentliche": 7570, "Ġspielt": 7571, "Ġgesundheits": 7572, "Ġnutzung": 7573, "nommen": 7574, "Ġsqu": 7575, "Ġfand": 7576, "Ġbang": 7577, "Ġbessere": 7578, "Ġniel": 7579, "ĠverstÃ¤r": 7580, "esserung": 7581, "Ġschm": 7582, "frÃ¼": 7583, "holen": 7584, "Ġstarting": 7585, "Ġpaid": 7586, "Ġunge": 7587, "Ã¼tzliche": 7588, "Ġcovered": 7589, "Ġhennon": 7590, "band": 7591, "ici": 7592, "Ġausgest": 7593, "gruppen": 7594, "cco": 7595, "Ã¶ffentlich": 7596, "Ġmeines": 7597, "people": 7598, "Ġumfassen": 7599, "Ġreserved": 7600, "Ġscheme": 7601, "bacco": 7602, "del": 7603, "nissen": 7604, "Ġfu": 7605, "Ġvergangen": 7606, "Ġverfahrens": 7607, "ronic": 7608, "fuhr": 7609, "Ġakzeptieren": 7610, "Ġwednesday": 7611, "cement": 7612, "gal": 7613, "kos": 7614, "vements": 7615, "water": 7616, "Ġressourcen": 7617, "eta": 7618, "Ġalter": 7619, "Ġkommissions": 7620, "schlÃ¼ssel": 7621, "altungen": 7622, "ziele": 7623, "Ġgewesen": 7624, "azza": 7625, "forderungen": 7626, "Ġswiss": 7627, "Ġcrime": 7628, "Ġmonti": 7629, "special": 7630, "Ġstrengthen": 7631, "Ġgerecht": 7632, "Ġprofessional": 7633, "ito": 7634, "ĠhÃ¼b": 7635, "Ã¼tzen": 7636, "clusive": 7637, "joint": 7638, "Ġbereiche": 7639, "Ġregelung": 7640, "Ġanimals": 7641, "ikanen": 7642, "Ġunbedingt": 7643, "karel": 7644, "zud": 7645, "Ġpension": 7646, "Ġltd": 7647, "Ġneben": 7648, "Ġseason": 7649, "Ġvorliegen": 7650, "Ġ05": 7651, "Ġbeds": 7652, "jekte": 7653, "ziehung": 7654, "Ġschwierig": 7655, "Ġsituated": 7656, "bett": 7657, "mak": 7658, "rd": 7659, "Ġwid": 7660, "heben": 7661, "Ġpm": 7662, "Ġgives": 7663, "Ã¼bereinkommen": 7664, "Ġvergleich": 7665, "beisp": 7666, "Ġimpress": 7667, "Ġcondition": 7668, "Ġplant": 7669, "Ġadvert": 7670, "inea": 7671, "Ġfreue": 7672, "Ġmorning": 7673, "Ġwaiting": 7674, "Ġfahren": 7675, "Ġgruppen": 7676, "Ġregulations": 7677, "Ġbelgium": 7678, "ĠmaÃŁnahme": 7679, "las": 7680, "zÃ¤": 7681, "Ġfuer": 7682, "ĠbefÃ¼r": 7683, "Ġleisten": 7684, "wirtschaftliche": 7685, "Ġsuccessful": 7686, "lÃ¤ss": 7687, "Ġaktuellen": 7688, "Ġarab": 7689, "meldung": 7690, "vÃ¶lkerung": 7691, "ĠlÃ¤nger": 7692, "rest": 7693, "ĠerÃ¶ffnet": 7694, "Ġstudio": 7695, "quality": 7696, "Ġhartmut": 7697, "aign": 7698, "card": 7699, "ole": 7700, "wÃ¼n": 7701, "old": 7702, "Ġerziel": 7703, "Ġaufbauen": 7704, "Ġleute": 7705, "loss": 7706, "Ġ42": 7707, "graf": 7708, "Ġintervention": 7709, "geld": 7710, "hÃ¶ren": 7711, "Ġstellungnahme": 7712, "Ġimmediately": 7713, "cla": 7714, "Ġsle": 7715, "Ġsuff": 7716, "ichert": 7717, "Ġerzeug": 7718, "werte": 7719, "Ġbrings": 7720, "Ġbereichen": 7721, "Ġdateien": 7722, "Ġlesung": 7723, "nummer": 7724, "Ġexplanations": 7725, "fusionskontrollvorschriften": 7726, "dienste": 7727, "hens": 7728, "Ġregime": 7729, "Ġtrading": 7730, "Ġversuchen": 7731, "Ġopposite": 7732, "global": 7733, "udsman": 7734, "()": 7735, "pan": 7736, "Ġandroulla": 7737, "ktiv": 7738, "Ġsche": 7739, "Ġliikanen": 7740, "Ġdecided": 7741, "Ġguter": 7742, "Ġfestival": 7743, "Ġaims": 7744, "ĠsolidaritÃ¤t": 7745, "Ġtickets": 7746, "Ġperformance": 7747, "Ġzweifel": 7748, "iciency": 7749, "iot": 7750, "vass": 7751, "woll": 7752, "Ġkaum": 7753, "Ġly": 7754, "Ġbeob": 7755, "enditure": 7756, "Ġspricht": 7757, "Ġshown": 7758, "Ġ89": 7759, "arbeits": 7760, "Ġapproval": 7761, "Ġfinanzierung": 7762, "davon": 7763, "Ġticket": 7764, "Ġliberal": 7765, "tenegro": 7766, "bundes": 7767, "lan": 7768, "tim": 7769, "Ġcant": 7770, "asso": 7771, "Ġhen": 7772, "Ġhuge": 7773, "Ġangem": 7774, "Ġhause": 7775, "Ġ49": 7776, "Ġfragestunde": 7777, "Ġapplause": 7778, "Ġwelchen": 7779, "Ġsprach": 7780, "Ġinfrastruktur": 7781, "Ġtemp": 7782, "Ġwide": 7783, "eding": 7784, "Ġstress": 7785, "Ġrande": 7786, "apart": 7787, "Ġmyself": 7788, "Ġuseful": 7789, "preparation": 7790, "Ġerkki": 7791, "Ġcrucial": 7792, "hunder": 7793, "Ġessen": 7794, "chang": 7795, "Ġtrifft": 7796, "anas": 7797, "ascript": 7798, "iminister": 7799, "Ġministers": 7800, "Ġroy": 7801, "aufnahme": 7802, "Ġemphas": 7803, "Ġaccom": 7804, "ĠerwÃ¤hnt": 7805, "Ġevaluation": 7806, "Ġwebsites": 7807, "Ġfat": 7808, "Ġzivil": 7809, "Ġsechs": 7810, "Ġwhile": 7811, "Ġacross": 7812, "visions": 7813, "Ġ0475": 7814, "Ġoblig": 7815, "Ġmitarbeiter": 7816, "Ġbase": 7817, "aru": 7818, "Ġthreat": 7819, "Ġrene": 7820, "Ġspac": 7821, "exc": 7822, "Ġopfer": 7823, "Ġmedic": 7824, "Ġfallen": 7825, "Ġinitiatives": 7826, "Ġlargest": 7827, "Ġsales": 7828, "krise": 7829, "cul": 7830, "ganz": 7831, "sein": 7832, "iede": 7833, "Ġoben": 7834, "ickt": 7835, "bezogen": 7836, "Ġumge": 7837, "foreign": 7838, "Ġmenge": 7839, "Ġxii": 7840, "datenbank": 7841, "Ġverbesserung": 7842, "flÃ¤che": 7843, "kop": 7844, "oj": 7845, "wal": 7846, "Ġsauber": 7847, "Ġhers": 7848, "ila": 7849, "Ã¤te": 7850, "Ġweil": 7851, "Ġspring": 7852, "ensions": 7853, "Ġempf": 7854, "Ã¼ltig": 7855, "Ġsondern": 7856, "Ġcharacter": 7857, "jahres": 7858, "iffe": 7859, "oon": 7860, "tze": 7861, "Ġwet": 7862, "Ġwants": 7863, "Ġkauf": 7864, "ĠbekÃ¤mpfung": 7865, "Ġstructural": 7866, "rien": 7867, "Ġmittwoch": 7868, "immung": 7869, "Ġuntersuch": 7870, "Ġgenommen": 7871, "mÃ¶glichkeiten": 7872, "Ġentspricht": 7873, "atlant": 7874, "Ġvalle": 7875, "Ã¼ter": 7876, "Ġanna": 7877, "agentur": 7878, "Ġtrag": 7879, "cooperation": 7880, "2012": 7881, "Ġlevels": 7882, "Ġzustimmen": 7883, "Ġlebensmittel": 7884, "Ġearth": 7885, "Ġinstruments": 7886, "Ġvehicles": 7887, "otel": 7888, "Ġeffe": 7889, "omb": 7890, "Ġstri": 7891, "Ġhoffen": 7892, "ipf": 7893, "Ġherzen": 7894, "Ġverbindung": 7895, "Ġkarten": 7896, "Ã¶tig": 7897, "behÃ¶rde": 7898, "stead": 7899, "Ġ84": 7900, "Ġrichtigen": 7901, "access": 7902, "russland": 7903, "lier": 7904, "Ġbuffet": 7905, "Ġverabsch": 7906, "estic": 7907, "Ġgeeign": 7908, "ript": 7909, "Ġ56": 7910, "klus": 7911, "Ġsuite": 7912, "Ġinterests": 7913, "stellungen": 7914, "Ġbutton": 7915, "Ġaccession": 7916, "Ġwait": 7917, "Ġincreased": 7918, "Ġdangerous": 7919, "Ġespecially": 7920, "Ġcommented": 7921, "hi": 7922, "ergeb": 7923, "Ġkorea": 7924, "edu": 7925, "umn": 7926, "fortsch": 7927, "imming": 7928, "Ġrelated": 7929, "Ġpopulation": 7930, "Ġanaly": 7931, "Ġbewertung": 7932, "organisation": 7933, "dienstleistungen": 7934, "breakfast": 7935, "estelle": 7936, "atoren": 7937, "roy": 7938, "Ġkenn": 7939, "iding": 7940, "Ġzehn": 7941, "neten": 7942, "Ġhintergrund": 7943, "Ġkoordin": 7944, "green": 7945, "fordert": 7946, "Ġsozialen": 7947, "ril": 7948, "Ġknows": 7949, "Ġassemb": 7950, "john": 7951, "anderung": 7952, "Ġpalace": 7953, "verbesserung": 7954, "Ġaddressed": 7955, "Ġnahe": 7956, "Ġscreen": 7957, "Ġtw": 7958, "another": 7959, "Ġcab": 7960, "Ġcaus": 7961, "adem": 7962, "addition": 7963, "Ġ800": 7964, "Ġsoziales": 7965, "Ġdefinition": 7966, "Ġsinne": 7967, "set": 7968, "Ġrss": 7969, "agne": 7970, "ague": 7971, "Ġauftrag": 7972, "Ġmeter": 7973, "diesen": 7974, "Ġihres": 7975, "Ġboden": 7976, "attle": 7977, "Ġdefinit": 7978, "Ġuniversity": 7979, "Ġfakt": 7980, "Ġhan": 7981, "Ġgirl": 7982, "Ã¼cke": 7983, "gegeben": 7984, "istisch": 7985, "fÃ¼gt": 7986, "barkeit": 7987, "Ġprevention": 7988, "Ġgeboren": 7989, "Ġcampaign": 7990, "Ġrenov": 7991, "ĠbÃ¼ro": 7992, "Ġperspektiven": 7993, "inos": 7994, "Ġwild": 7995, "Ġjournal": 7996, "utzung": 7997, "Ġthinking": 7998, "Ġeinger": 7999, "notes": 8000, "Ġjeweil": 8001, "Ġerneut": 8002, "Ġannoun": 8003, "ĠschlÃ¤gt": 8004, "lu": 8005, "instr": 8006, "child": 8007, "ĠsÃ¤": 8008, "Ġaufgaben": 8009, "Ġclient": 8010, "Ġurspr": 8011, "Ġportal": 8012, "ĠstraÃŁen": 8013, "Ġverkehrs": 8014, "Ġsnow": 8015, "Ġfear": 8016, "Ġ53": 8017, "Ġbestand": 8018, "ĠprioritÃ¤t": 8019, "Ġeasily": 8020, "Ġactivity": 8021, "Ġlearning": 8022, "Ġrunning": 8023, "number": 8024, "Ġjacques": 8025, "ypt": 8026, "start": 8027, "thus": 8028, "Ġjour": 8029, "Ġrats": 8030, "Ġpoverty": 8031, "useful": 8032, "athan": 8033, "Ġmenschenrechte": 8034, "umweltkommissar": 8035, "initiative": 8036, "Ġkallas": 8037, "Ġham": 8038, "Ġgekommen": 8039, "Ġendlich": 8040, "Ġwichtigste": 8041, "Ġromania": 8042, "Ġsonst": 8043, "Ġconstruction": 8044, "Ġpractical": 8045, "clear": 8046, "ĠprÃ¼fen": 8047, "Ġyester": 8048, "Ġschengen": 8049, "kons": 8050, "non": 8051, "Ġforget": 8052, "Ġweak": 8053, "bezÃ¼glich": 8054, "mented": 8055, "Ġ73": 8056, "Ġsuites": 8057, "Ġladen": 8058, "Ġgetting": 8059, "trie": 8060, "Ġnorm": 8061, "1998": 8062, "Ġtourismus": 8063, "Ġincluding": 8064, "Ġluck": 8065, "bast": 8066, "rÃ¼ck": 8067, "Ġanzahl": 8068, "Ġken": 8069, "ĠunabhÃ¤ng": 8070, "Ġlszl": 8071, "arta": 8072, "prof": 8073, "Ġdeclaration": 8074, "Ġunseres": 8075, "zeiten": 8076, "Ġcars": 8077, "Ġcopy": 8078, "Ġentirely": 8079, "Ġswitzerland": 8080, "unterstÃ¼tzung": 8081, "eas": 8082, "rt": 8083, "chmal": 8084, "Ġreact": 8085, "Ġdeutsche": 8086, "ibilities": 8087, "izes": 8088, "Ġ600": 8089, "wohnung": 8090, "staff": 8091, "Ġkonzept": 8092, "Ġkomfort": 8093, "Ġvollkommen": 8094, "Ġkurze": 8095, "Ġnachhaltige": 8096, "field": 8097, "sing": 8098, "Ġverteilt": 8099, "ĠrumÃ¤nien": 8100, "Ġwege": 8101, "ĠgefÃ¼hrt": 8102, "Ġausreich": 8103, "Ġnotice": 8104, "ĠspÃ¤t": 8105, "Ġterrit": 8106, "Ġconfidence": 8107, "Ġverloren": 8108, "sprechend": 8109, "----": 8110, "fuhren": 8111, "Ġmargins": 8112, "luft": 8113, "pap": 8114, "zul": 8115, "Ġviii": 8116, "Ġstake": 8117, "Ġsports": 8118, "Ã¤nglich": 8119, "zenz": 8120, "Ġapplied": 8121, "selbe": 8122, "wÃ¤rtige": 8123, "Ġmatch": 8124, "finanzierung": 8125, "Ġkatastrop": 8126, "Ġverteidigungspolitik": 8127, "turkey": 8128, "Ġneighbour": 8129, "300": 8130, "lor": 8131, "Ġci": 8132, "Ġislands": 8133, "Ġjack": 8134, "final": 8135, "Ġnationalen": 8136, "Ġsatell": 8137, "Ġimproved": 8138, "ĠbenÃ¶tigt": 8139, "Ġfischer": 8140, "Ã¤um": 8141, "Ġverz": 8142, "Ġexhib": 8143, "Ġparte": 8144, "Ġangeboten": 8145, "Ġvisa": 8146, "Ġpayments": 8147, "Ġdienstleistungen": 8148, "opening": 8149, "Ġcecaf": 8150, "Ġseparate": 8151, "Ġdetailed": 8152, "bit": 8153, "Ġtrop": 8154, "Ġwann": 8155, "ĠerlÃ¤": 8156, "Ġconfl": 8157, "Ġleon": 8158, "auftrag": 8159, "Ġ76": 8160, "ĠunterstÃ¼tze": 8161, "Ġurteil": 8162, "Ġcorpor": 8163, "Ġeditor": 8164, "Ġreleased": 8165, "Ġcyprus": 8166, "Ġestablish": 8167, "Ġkopf": 8168, "prioritÃ¤tsachse": 8169, "*)": 8170, "brit": 8171, "dre": 8172, "seine": 8173, "enze": 8174, "Ġduty": 8175, "Ġwik": 8176, "Ġhit": 8177, "emer": 8178, "Ã¤ngen": 8179, "Ġchat": 8180, "ĠbeschrÃ¤n": 8181, "Ġkarl": 8182, "jede": 8183, "Ġbedeuten": 8184, "leitet": 8185, "Ġerfahrung": 8186, "zudem": 8187, "van": 8188, "Ġaspect": 8189, "Ġsach": 8190, "ĠmÃ¼n": 8191, "Ġinnen": 8192, "Ġlaufen": 8193, "Ġbege": 8194, "verp": 8195, "Ġabstimmungsstunde": 8196, "grÃ¼n": 8197, "losigkeit": 8198, "Ġappre": 8199, "Ġ62": 8200, "kontrolle": 8201, "reevy": 8202, "Ġproper": 8203, "Ġkonst": 8204, "orgung": 8205, "Ġ250": 8206, "Ġreservation": 8207, "Ġbehandelt": 8208, "Ġasylum": 8209, "Ġannex": 8210, "Ġklare": 8211, "kroat": 8212, "Ġdauer": 8213, "order": 8214, "Ġpain": 8215, "Ġgaller": 8216, "Ġkreat": 8217, "ffend": 8218, "Ġship": 8219, "Ġmode": 8220, "french": 8221, "Ġprime": 8222, "Ġ1992": 8223, "Ġreforms": 8224, "Ġinternationalen": 8225, "jedes": 8226, "Ġmaster": 8227, "Ġfirm": 8228, "ĠfÃ¤llen": 8229, "Ġregistered": 8230, "izienz": 8231, "did": 8232, "uh": 8233, "Ġmur": 8234, "Ġnights": 8235, "Ġvital": 8236, "Ġlogo": 8237, "treffen": 8238, "Ġsupports": 8239, "Ġsmes": 8240, "monica": 8241, "Ġequal": 8242, "Ã¤hrung": 8243, "Ġshopping": 8244, "herzlich": 8245, "Ġappropriate": 8246, "consumer": 8247, "dort": 8248, "fair": 8249, "tl": 8250, "Ġmix": 8251, "Ġky": 8252, "amel": 8253, "quer": 8254, "ibel": 8255, "Ġcool": 8256, "Ġalloc": 8257, "Ġload": 8258, "Ġdebt": 8259, "Ġgross": 8260, "Ġmaritime": 8261, "schlÃ¤ge": 8262, "Ġ1993": 8263, "Ġexpenditure": 8264, "Ġdates": 8265, "Ġkrank": 8266, "Ġpartnerschaft": 8267, "Ġschaff": 8268, "western": 8269, "Ġveget": 8270, "Ġempfehlung": 8271, "ĠarbeitsplÃ¤tze": 8272, "Ġanmerkungen": 8273, "Ġult": 8274, "iner": 8275, "ĠtrÃ¤gt": 8276, "leistet": 8277, "Ã¶hn": 8278, "ĠverstÃ¤nd": 8279, "Ġentry": 8280, "ĠnÃ¤mlich": 8281, "ilioueu": 8282, "ĠtÃ¤tig": 8283, "vassilioueu": 8284, "esa": 8285, "Ġsage": 8286, "ata": 8287, "Ġcred": 8288, "Ġhom": 8289, "enty": 8290, "Ġimplement": 8291, "ĠÃ¼berras": 8292, "Ġexerc": 8293, "nothing": 8294, "Ġfehlt": 8295, "Ġbeihilfe": 8296, "Ġverbind": 8297, "Ġstands": 8298, "Ġpasswort": 8299, "ĠerfÃ¼llt": 8300, "Ġbanner": 8301, "gers": 8302, "middle": 8303, "nÃ¼tzliche": 8304, "sachen": 8305, "Ġaspekt": 8306, "Ġsv": 8307, "uraru": 8308, "Ġlind": 8309, "Ġeinsch": 8310, "Ġstano": 8311, "Ġerror": 8312, "tschafter": 8313, "Ġregular": 8314, "Ġphys": 8315, "Ġoffic": 8316, "Ġmarketing": 8317, "Ġtotally": 8318, "Ġequipped": 8319, "Ġlinie": 8320, "Ġjemand": 8321, "Ġerlaubt": 8322, "ribute": 8323, "spunkt": 8324, "elect": 8325, "mill": 8326, "sichtig": 8327, "vier": 8328, "itude": 8329, "Ġpact": 8330, "Ġhum": 8331, "Ġzone": 8332, "Ġbein": 8333, "Ġri": 8334, "Ġconcept": 8335, "Ġhohen": 8336, "ifications": 8337, "Ġgreater": 8338, "Ġvoice": 8339, "situation": 8340, "Ġroma": 8341, "ĠnÃ¤her": 8342, "Ġpositiv": 8343, "janu": 8344, "Ġerscheint": 8345, "copyright": 8346, "fut": 8347, "Ġfro": 8348, "ĠhÃ¤lt": 8349, "akis": 8350, "Ġvorhaben": 8351, "Ġpressure": 8352, "Ġbotschaft": 8353, "Ġanderer": 8354, "Ġbanken": 8355, "vas": 8356, "olit": 8357, "Ġsektor": 8358, "Ġausgaben": 8359, "rÃ¤ger": 8360, "Ġgewinnen": 8361, "Ġsaying": 8362, "Ġdokumente": 8363, "Ġpackages": 8364, "Ġevening": 8365, "Ġkorre": 8366, "Ġdemocratic": 8367, "nevertheless": 8368, "ĠhÃ¼bner": 8369, "kroatien": 8370, "ao": 8371, "bb": 8372, "croatia": 8373, "dadurch": 8374, "lib": 8375, "making": 8376, "wen": 8377, "ĠÃ¶l": 8378, "Ġcoll": 8379, "Ġkarel": 8380, "ray": 8381, "grade": 8382, "baren": 8383, "Ġarbeitet": 8384, "Ġserviert": 8385, "Ġwood": 8386, "glÃ¼ck": 8387, "Ġgewinn": 8388, "Ġwenige": 8389, "Ġconstitution": 8390, "Ġacceptable": 8391, "Ġparticipation": 8392, "Ġcirc": 8393, "Ġglauben": 8394, "Ġpaduraru": 8395, "Ġaccommodation": 8396, "Ġmccreevy": 8397, "Ġforschungs": 8398, "aj": 8399, "drit": 8400, "Ġdut": 8401, "Ġcore": 8402, "alis": 8403, "Ġgucht": 8404, "Ġlines": 8405, "Ġstol": 8406, "Ġverhalten": 8407, "Ġcham": 8408, "ivity": 8409, "assador": 8410, "welches": 8411, "risen": 8412, "konom": 8413, "Ġmasch": 8414, "Ġborder": 8415, "Ġempfehlungen": 8416, "hannes": 8417, "hop": 8418, "Ġkurs": 8419, "Ġzypern": 8420, "Ġasia": 8421, "Ġefficient": 8422, "Ġtorres": 8423, "ĠwettbewerbsfÃ¤higkeit": 8424, "miss": 8425, "tab": 8426, "zil": 8427, "ature": 8428, "het": 8429, "Ġcele": 8430, "ental": 8431, "Ġconv": 8432, "seiten": 8433, "Ã¤nderung": 8434, "107": 8435, "ength": 8436, "Ġsignal": 8437, "Ġdistributed": 8438, "Ġempfehlen": 8439, "Ġregistration": 8440, "nern": 8441, "villa": 8442, "wenden": 8443, "Ġfis": 8444, "using": 8445, "Ġunions": 8446, "Ã¤nden": 8447, "Ġheav": 8448, "selbst": 8449, "Ġsets": 8450, "Ġtaxation": 8451, "Ġincreasing": 8452, "cast": 8453, "zed": 8454, "once": 8455, "Ġmp": 8456, "Ġczech": 8457, "Ġhour": 8458, "Ġring": 8459, "Ġriver": 8460, "Ġcoast": 8461, "duct": 8462, "Ġphil": 8463, "Ġunternehmens": 8464, "Ġadvance": 8465, "Ġelections": 8466, "Ġentschieden": 8467, "genehmigung": 8468, "government": 8469, "Ġappreci": 8470, "kinder": 8471, "mack": 8472, "make": 8473, "isions": 8474, "learn": 8475, "Ġreaktion": 8476, "verse": 8477, "meet": 8478, "Ġrock": 8479, "Ġparad": 8480, "Ġraised": 8481, "Ġ97": 8482, "stimmungen": 8483, "flanzen": 8484, "Ġoffiz": 8485, "Ġcarry": 8486, "Ġwesteren": 8487, "Ġverwaltung": 8488, "Ġswimming": 8489, "Ġmountain": 8490, "Ġerheb": 8491, "saf": 8492, "Ġsenden": 8493, "Ġbran": 8494, "Ġcos": 8495, "Ġhinge": 8496, "Ã¼g": 8497, "icas": 8498, "Ġerr": 8499, "Ġgratul": 8500, "weltsch": 8501, "full": 8502, "Ġcolle": 8503, "Ġwaffen": 8504, "Ġcritic": 8505, "jonathan": 8506, "Ġbot": 8507, "Ã¤st": 8508, "verstanden": 8509, "Ġones": 8510, "Ġschiff": 8511, "Ġvorher": 8512, "pliz": 8513, "Ġpresented": 8514, "Ġdeveloped": 8515, "Ġmodell": 8516, "Ġinvestigation": 8517, "Ġgleichen": 8518, "amerika": 8519, "Ġattack": 8520, "Ġcompetitiveness": 8521, "Ġbeschluss": 8522, "Ġdelivery": 8523, "Ġelektron": 8524, "Ġgeorgieva": 8525, "nungs": 8526, "vom": 8527, "Ġdipl": 8528, "Ġsweden": 8529, "anten": 8530, "Ġbse": 8531, "Ġchamp": 8532, "Ġdemo": 8533, "Ġcounter": 8534, "hode": 8535, "aufbau": 8536, "Ġsolchen": 8537, "handlung": 8538, "uesday": 8539, "ological": 8540, "Ġspieler": 8541, "Ġbeachten": 8542, "Ġdomain": 8543, "Ġjederzeit": 8544, "verwaltungs": 8545, "Ġdrogen": 8546, "Ġfelder": 8547, "Ġdauert": 8548, "Ġterrace": 8549, "Ġkompromiss": 8550, "protection": 8551, "545": 8552, "wahr": 8553, "repr": 8554, "ares": 8555, "Ġlif": 8556, "schauen": 8557, "indest": 8558, "bek": 8559, "Ġdemon": 8560, "Ġprinzip": 8561, "Ġmys": 8562, "Ġgebrauch": 8563, "Ġirland": 8564, "Ġgrundlegen": 8565, "Ġreformen": 8566, "Ġrecent": 8567, "wagen": 8568, "Ġprotokolls": 8569, "letzt": 8570, "Ġbitten": 8571, "Ġjavascript": 8572, "ĠschÃ¶ne": 8573, "Ġtraffic": 8574, "Ġassembly": 8575, "Ġfenster": 8576, "Ġeb": 8577, "olaf": 8578, "ĠzunÃ¤chst": 8579, "three": 8580, "bern": 8581, "Ġgeorge": 8582, "akzept": 8583, "Ġ47": 8584, "aves": 8585, "aktiv": 8586, "projekt": 8587, "Ġ79": 8588, "Ġangegeben": 8589, "gebiete": 8590, "Ġerfolgen": 8591, "pool": 8592, "Ġtechnologie": 8593, "Ġwrite": 8594, "Ġanimal": 8595, "ifizierung": 8596, "Ġbezahlen": 8597, "Ġfertig": 8598, "Ġviolence": 8599, "republik": 8600, "ĠlÃ¤ndlichen": 8601, "Ġgeeignet": 8602, "su": 8603, "ĠsÃ¼": 8604, "arten": 8605, "asb": 8606, "schw": 8607, "Ġvorbei": 8608, "Ġklim": 8609, "otherwise": 8610, "ĠverfÃ¼gen": 8611, "Ġgalileo": 8612, "sv": 8613, "sichtigt": 8614, "review": 8615, "Ġnames": 8616, "Ġconven": 8617, "adop": 8618, "iker": 8619, "Ġquar": 8620, "izin": 8621, "Ġ95": 8622, "Ġhands": 8623, "Ġmedium": 8624, "pressekontakte": 8625, "Ġeinzig": 8626, "owski": 8627, "Ġrisks": 8628, "related": 8629, "Ġschlecht": 8630, "Ġplanning": 8631, "sect": 8632, "Ġbuchen": 8633, "Ġpure": 8634, "iler": 8635, "ams": 8636, "verfasst": 8637, "Ġgegr": 8638, "rÃ¤gen": 8639, "icks": 8640, "Ġadr": 8641, "Ġnachstehen": 8642, "Ġsuc": 8643, "chtest": 8644, "Ġrelig": 8645, "Ġentwickelt": 8646, "Ġefficiency": 8647, "Ġfigure": 8648, "issionen": 8649, "Ġamerican": 8650, "Ġrecommendations": 8651, "Ġfeature": 8652, "Ġplaces": 8653, "customs": 8654, "cat": 8655, "mart": 8656, "Ġmb": 8657, "ĠkÃ¶rper": 8658, "Ġremember": 8659, "Ġprevent": 8660, "Ġmediterranean": 8661, "uerto": 8662, "Ġhold": 8663, "Ġvolk": 8664, "Ġangebote": 8665, "melden": 8666, "Ġtodd": 8667, "Ġinfluen": 8668, "Ġwhether": 8669, "Ġensure": 8670, "indeed": 8671, "Ġbyrne": 8672, "buÃŁ": 8673, "cec": 8674, "hard": 8675, "yond": 8676, "Ġtsche": 8677, "idge": 8678, "otes": 8679, "Ġproto": 8680, "uche": 8681, "Ġgeist": 8682, "erste": 8683, "Ġcollect": 8684, "Ġinside": 8685, "Ġopening": 8686, "Ġ....": 8687, "ĠmobilitÃ¤t": 8688, "Ġmajority": 8689, "Ġbelgien": 8690, "fig": 8691, "south": 8692, "voting": 8693, "ores": 8694, "Ġfach": 8695, "entwurf": 8696, "uren": 8697, "icy": 8698, "stes": 8699, "Ġstahl": 8700, "Ġdoor": 8701, "Ġ59": 8702, "izit": 8703, "Ġgesetzt": 8704, "flug": 8705, "Ġmachine": 8706, "Ġconstant": 8707, "Ġpromotion": 8708, "Ġexisting": 8709, "ĠtatsÃ¤chlich": 8710, "reprene": 8711, "japan": 8712, "rasse": 8713, "Ġkredit": 8714, "eds": 8715, "Ġalten": 8716, "Ġausgang": 8717, "Ġros": 8718, "Ġgenannt": 8719, "sprachen": 8720, "Ġdistance": 8721, "leistungs": 8722, "communication": 8723, "ĠkÃ¼che": 8724, "Ġbestimmte": 8725, "Ġadministration": 8726, "Ġkonzentr": 8727, "gy": 8728, "wiesen": 8729, "Ġsad": 8730, "Ġsuffer": 8731, "ora": 8732, "menschen": 8733, "zeigen": 8734, "Ġesc": 8735, "ardo": 8736, "const": 8737, "Ġgesp": 8738, "Ġanyone": 8739, "Ġmonetary": 8740, "Ġ!!": 8741, "daran": 8742, "mÃ¶chtest": 8743, "Ġdatenschutz": 8744, "ĠausgewÃ¤": 8745, "Ġdefault": 8746, "bably": 8747, "Ġdelivered": 8748, "Ġpakistan": 8749, "bale": 8750, "could": 8751, "hon": 8752, "zz": 8753, "Ġod": 8754, "ema": 8755, "Ġjung": 8756, "allow": 8757, "ateful": 8758, "akova": 8759, "Ġminor": 8760, "statement": 8761, "Ġworldwide": 8762, "karten": 8763, "Ġbooking": 8764, "nÃ¤heres": 8765, "approval": 8766, "bla": 8767, "Ġwom": 8768, "Ġolaf": 8769, "Ġzwar": 8770, "ĠjÃ¤hr": 8771, "Ġeuropol": 8772, "Ġspr": 8773, "Ġbedenken": 8774, "Ġbanks": 8775, "carlo": 8776, "english": 8777, "Ġanalysis": 8778, "Ġcurrency": 8779, "flich": 8780, "high": 8781, "ots": 8782, "sor": 8783, "send": 8784, "ored": 8785, "ĠfÃ¶rder": 8786, "alban": 8787, "Ġeher": 8788, "Ġrehn": 8789, "Ġzut": 8790, "Ġprovisions": 8791, "defin": 8792, "iene": 8793, "Ġausbildung": 8794, "tragen": 8795, "nock": 8796, "altic": 8797, "Ġbelarus": 8798, "Ġdevelopments": 8799, "Ġoverall": 8800, "Ġoperations": 8801, "media": 8802, "Ġseconds": 8803, "digital": 8804, "Ġeigent": 8805, "Ġabgeordneten": 8806, "fleisch": 8807, "ĠfÃ¶rdern": 8808, "gd": 8809, "tun": 8810, "onn": 8811, "omio": 8812, "Ġreduction": 8813, "anne": 8814, "Ġcontract": 8815, "Ã¶rt": 8816, "Ġwordpress": 8817, "Ġelemente": 8818, "Ġrefuge": 8819, "kommt": 8820, "erklÃ¤rungen": 8821, "lebens": 8822, "Ġborders": 8823, "documents": 8824, "wÃ¼rd": 8825, "Ġmistake": 8826, "Ġkonkrete": 8827, "Ġcelebr": 8828, "certain": 8829, "jer": 8830, "nio": 8831, "erie": 8832, "ined": 8833, "hemal": 8834, "ĠbehÃ¶r": 8835, "annen": 8836, "Ġlobby": 8837, "Ġnachricht": 8838, "nachhalt": 8839, "Ġfratt": 8840, "Ġgets": 8841, "wÃ¤lt": 8842, "Ġconsist": 8843, "should": 8844, "Ġhighly": 8845, "Ġvisitors": 8846, "Ġcontrols": 8847, "Ġoperationelles": 8848, "datum": 8849, "Ġvictims": 8850, "Ġcommercial": 8851, "Ġaufenthalt": 8852, "eec": 8853, "Ġansprechen": 8854, "Ġlicht": 8855, "ecks": 8856, "news": 8857, "Ġregret": 8858, "Ġgrateful": 8859, "Ġsuitable": 8860, "world": 8861, "Ġadvice": 8862, "Ġgesamten": 8863, "Ġtemper": 8864, "Ġlouis": 8865, "Ġappeal": 8866, "Ġconsequences": 8867, "Ġsucceed": 8868, "101": 8869, "ever": 8870, "gere": 8871, "kn": 8872, "acio": 8873, "schau": 8874, "Ġwechsel": 8875, "quin": 8876, "apter": 8877, "exam": 8878, "Ġlandes": 8879, "amburg": 8880, "Ġauthorities": 8881, "Ġtuomio": 8882, ".,": 8883, "erweise": 8884, "ĠfÃ¤lle": 8885, "Ġinsp": 8886, "abbott": 8887, "owers": 8888, "Ġhaving": 8889, "active": 8890, "Ġbesuchen": 8891, "flÃ¼": 8892, "Ġtransparent": 8893, "Ġnumbers": 8894, "ĠhÃ¶he": 8895, "zweck": 8896, "Ġconsidered": 8897, "Ġmilitary": 8898, "Ġstellvertretender": 8899, "ox": 8900, "Ġcategor": 8901, "asion": 8902, "Ġht": 8903, "Ã¼hr": 8904, "eler": 8905, "ĠstÃ¼ck": 8906, "ades": 8907, "Ġchann": 8908, "icking": 8909, "Ġ66": 8910, "ĠgesprÃ¤": 8911, "Ġmarked": 8912, "Ġcompleted": 8913, "Ġthroughout": 8914, "homepage": 8915, "Ġbulgaria": 8916, "scheinlich": 8917, "Ġberatung": 8918, "aug": 8919, "Ġnik": 8920, "fordern": 8921, "Ġjugos": 8922, "Ġ700": 8923, "Ġram": 8924, "Ġ83": 8925, "Ġbestimmt": 8926, "Ġobst": 8927, "Ġverbunden": 8928, "Ġarticles": 8929, "Ġfestgelegt": 8930, "Ġwirtschaftliche": 8931, "norweg": 8932, "ĠhÃ¶her": 8933, "zusch": 8934, "ĠeuropÃ¤er": 8935, "ĠverÃ¤ndert": 8936, "Ġinflation": 8937, "ĠgegrÃ¼ndet": 8938, "ering": 8939, "Ġfakten": 8940, "Ġbeweg": 8941, "Ġjose": 8942, "pper": 8943, "ĠgefÃ¼": 8944, "ustausch": 8945, "Ġfinally": 8946, "pressemitteilungen": 8947, "kontaktpersonen": 8948, "utzt": 8949, "Ġarbeitnehmer": 8950, "design": 8951, "Ġcarried": 8952, "market": 8953, "Ġurl": 8954, "Ġdistribution": 8955, "Ġconfirm": 8956, "Ġtechnologies": 8957, "Ġopinions": 8958, "Ġnavigation": 8959, "Ġwesentlichen": 8960, "Ġdub": 8961, "ĠbÃ¼r": 8962, "Ġcu": 8963, "used": 8964, "Ã¤cht": 8965, "iga": 8966, "Ġzimm": 8967, "ktions": 8968, "Ġleid": 8969, "mai": 8970, "mob": 8971, "commit": 8972, "standing": 8973, "aza": 8974, "Ġenterprise": 8975, "Ġcamping": 8976, "Ġcommitment": 8977, "ĠvollstÃ¤ndige": 8978, "ĠlÃ¶sen": 8979, "Ġwonderful": 8980, "Ġpurchase": 8981, "Ġplaza": 8982, "building": 8983, "brech": 8984, "Ġcow": 8985, "Ġvess": 8986, "irina": 8987, "Ġreject": 8988, "Ġforec": 8989, "Ġforms": 8990, "uly": 8991, "angel": 8992, "oking": 8993, "elson": 8994, "Ġimports": 8995, "regeln": 8996, "dennisabbott": 8997, "Ġinvestitionsbank": 8998, "haf": 8999, "setzt": 9000, "var": 9001, "anmar": 9002, "Ġimple": 9003, "ago": 9004, "endo": 9005, "Ġprec": 9006, "Ġworked": 9007, "Ġ1990": 9008, "Ġcollection": 9009, "Ġlooks": 9010, "Ġplayers": 9011, "Ġprotected": 9012, "Ġstarten": 9013, "Ġmetro": 9014, "Ġdesigned": 9015, "Ġtonnen": 9016, "schluÃŁfolgerung": 9017, "ees": 9018, "lio": 9019, "lets": 9020, "ĠnÃ¶tig": 9021, "ensichtlich": 9022, "Ġdisp": 9023, "Ġfron": 9024, "Ġbegrenz": 9025, "Ġtargets": 9026, "Ġstudie": 9027, "Ġsides": 9028, "iran": 9029, "Ġabsatz": 9030, "Ġarmut": 9031, "Ġcount": 9032, "Ġversand": 9033, "Ġprofile": 9034, "Ġrisiko": 9035, "Ġapplications": 9036, "decision": 9037, "Ġbesondere": 9038, "Ġamerikan": 9039, "Ġbenutzt": 9040, "unehmen": 9041, "ĠwÃ¤hrungs": 9042, "freiheit": 9043, "Ġcecilia": 9044, "entwicklungszusammenarbeit": 9045, "Ġexecutive": 9046, "adopted": 9047, "bad": 9048, "bio": 9049, "ekt": 9050, "ikt": 9051, "stelle": 9052, "infl": 9053, "Ġfrit": 9054, "Ġhast": 9055, "Ġschne": 9056, "prozess": 9057, "Ġaccounts": 9058, "stattung": 9059, "ologische": 9060, "Ġplaying": 9061, "Ġbrought": 9062, "Ġnovakova": 9063, "declaration": 9064, "Ġholidays": 9065, "Ġeffort": 9066, "Ġkomplex": 9067, "hÃ¤sion": 9068, "weltschutz": 9069, "nichts": 9070, "tagesordnung": 9071, "zig": 9072, "Ġwil": 9073, "Ġbade": 9074, "Ġbmw": 9075, "ĠprÃ¤sent": 9076, "Ġreference": 9077, "Ġstard": 9078, "anna": 9079, "Ġatlant": 9080, "Ġpolice": 9081, "Ġmanager": 9082, "plÃ¤tze": 9083, "Ġcasa": 9084, "Ġcash": 9085, "systeme": 9086, "ĠhÃ¤tten": 9087, "ewg": 9088, "Ġforestry": 9089, "Ġavoid": 9090, "drittens": 9091, "kts": 9092, "mac": 9093, "top": 9094, "arge": 9095, "ĠhÃ¤ngt": 9096, "igungen": 9097, "Ġrecovery": 9098, "Ã¶p": 9099, "indik": 9100, "pped": 9101, "Ġgeplant": 9102, "annual": 9103, "Ġhaut": 9104, "Ġcoffee": 9105, "Ġheim": 9106, "Ġamts": 9107, "Ġroll": 9108, "cycl": 9109, "Ġspezial": 9110, "Ġverbrauch": 9111, "Ġpolitics": 9112, "Ġzahlungs": 9113, "Ġinnovative": 9114, "ukraine": 9115, "Ġsharrock": 9116, "border": 9117, "cisely": 9118, "asbourg": 9119, "lim": 9120, "erzeugnisse": 9121, "Ġwien": 9122, "icherung": 9123, "Ġnationale": 9124, "zeption": 9125, "Ġvoran": 9126, "Ġvorgelegt": 9127, "Ġcompon": 9128, "Ġformular": 9129, "Ġfactor": 9130, "Ġmittelmeer": 9131, "Ġchristian": 9132, "ĠgrÃ¶ÃŁe": 9133, "Ġvassil": 9134, "ĠschlieÃŁlich": 9135, "Ġausgestattet": 9136, "hafter": 9137, "kil": 9138, "lab": 9139, "Ġbaum": 9140, "Ġintell": 9141, "Ġreduced": 9142, "Ġleb": 9143, "Ġfrem": 9144, "Ġfreunde": 9145, "Ġgrad": 9146, "Ġfinanzielle": 9147, "questions": 9148, "trotzdem": 9149, "juni": 9150, "fest": 9151, "malta": 9152, "ente": 9153, "Ġaqu": 9154, "Ġfresh": 9155, "Ġcup": 9156, "Ġlose": 9157, "olid": 9158, "ienna": 9159, "Ġspiele": 9160, "Ġshipping": 9161, "Ġrapid": 9162, "Ġ120": 9163, "Ġdoesnt": 9164, "richtungen": 9165, "fÃ¤llt": 9166, "better": 9167, "Ġeffects": 9168, "ĠauÃŁerdem": 9169, "Ġdimit": 9170, "internationale": 9171, "verbraucher": 9172, "Ġlimits": 9173, "Ġaudit": 9174, "Ġsonn": 9175, "Ġbesucher": 9176, "Ġarrival": 9177, "Ġbewusst": 9178, "Ġspanish": 9179, "taxation": 9180, "Ġvorbehalten": 9181, "federal": 9182, ")?": 9183, "gyp": 9184, "Ġtaten": 9185, "Ġfein": 9186, "Ġbosn": 9187, "ichern": 9188, "Ġintend": 9189, "grenz": 9190, "ĠÃ¼berall": 9191, "treten": 9192, "explan": 9193, "ovi": 9194, "Ġdrugs": 9195, "Ġrechtsvorschriften": 9196, "Ġattach": 9197, "Ġexperien": 9198, "ĠbegrÃ¼ÃŁt": 9199, "Ġverbessert": 9200, "Ġabsurd": 9201, "era": 9202, "Ġpg": 9203, "Ġcandid": 9204, "Ġtheme": 9205, "Ġinakzept": 9206, "Ġisol": 9207, "Ġtobacco": 9208, "ido": 9209, "unds": 9210, "Ġimmobil": 9211, "Ġdele": 9212, "anni": 9213, "annis": 9214, "Ġschlaf": 9215, "grenzen": 9216, "ĠÃ¼berzeug": 9217, "Ġmeters": 9218, "Ġshower": 9219, "moreover": 9220, "Ġwishes": 9221, "Ġkolleg": 9222, "Ġgallery": 9223, "four": 9224, "Ġfruit": 9225, "Ġnom": 9226, "Ġvere": 9227, "Ġanspruch": 9228, "Ġeint": 9229, "Ġiphone": 9230, "Ġimmigration": 9231, "ublin": 9232, "Ġcouncils": 9233, "Ġsecure": 9234, "ighted": 9235, "Ġconsists": 9236, "fÃ¼hrer": 9237, "Ġrepresentatives": 9238, "Ġideen": 9239, "Ġtreten": 9240, "Ġoffered": 9241, "rosoft": 9242, "meiner": 9243, "ĠpersÃ¶nlich": 9244, "Ġpremium": 9245, "Ġadvantage": 9246, "Ġwinners": 9247, "entscheidung": 9248, "Ġjugoslaw": 9249, "kal": 9250, "Ġuner": 9251, "Ġandris": 9252, "abschlieÃŁend": 9253, "Ġprospective": 9254, "dezember": 9255, "afo": 9256, "Ġdispos": 9257, "Ġcharter": 9258, "Ġstarts": 9259, "Ġimposs": 9260, "Ġkroat": 9261, "Ġvereinigten": 9262, "Ġschaden": 9263, "Ġkontaktieren": 9264, "Ġsetting": 9265, "zufÃ¼gen": 9266, "infrastruktur": 9267, "amelia": 9268, "ai": 9269, "bosn": 9270, "pdo": 9271, "itzen": 9272, "arily": 9273, "ĠgÃ¼nst": 9274, "Ġanp": 9275, "Ġunbe": 9276, "iday": 9277, "quem": 9278, "iana": 9279, "Ġweiteres": 9280, "fachung": 9281, "operations": 9282, "ĠgroÃŁes": 9283, "ĠgewÃ¼n": 9284, "1995": 9285, "erkennung": 9286, "Ġupdated": 9287, "telefon": 9288, "Ġmindestens": 9289, "pendent": 9290, "schwerpunkt": 9291, "sitzender": 9292, "gin": 9293, "ĠÃ¤r": 9294, "ask": 9295, "asilien": 9296, "Ġhes": 9297, "Ġker": 9298, "Ġzentrale": 9299, "osit": 9300, "Ġhell": 9301, "Ġfraud": 9302, "Ġeuropeans": 9303, "102": 9304, "prises": 9305, "Ġstattfinden": 9306, "ĠauswÃ¤rtigen": 9307, "Ġsecretariat": 9308, "weisung": 9309, "ĠgewÃ¤hr": 9310, "mittlung": 9311, "Ġquotas": 9312, "Ġherunterladen": 9313, "Ġimplemented": 9314, "far": 9315, "kÃ¼nft": 9316, "tÃ¼r": 9317, "tÃ¤us": 9318, "itate": 9319, "atic": 9320, "Ġmw": 9321, "Ġcell": 9322, "Ġlength": 9323, "rops": 9324, "Ġverme": 9325, "Ġib": 9326, "rij": 9327, "agn": 9328, "select": 9329, "europes": 9330, "Ġheil": 9331, "Ġraise": 9332, "Ġautom": 9333, "ariff": 9334, "Ġsorry": 9335, "Ġreferred": 9336, "Ġtonnes": 9337, "criptive": 9338, "Ġkommentare": 9339, "Ġsurvey": 9340, "Ġcities": 9341, "laut": 9342, "Ġvorauss": 9343, "Ġbestellen": 9344, "intro": 9345, "chtl": 9346, "icals": 9347, "Ġseriously": 9348, "details": 9349, "Ġtranslation": 9350, "Ġantonio": 9351, "Ġsquare": 9352, "Ġprotocol": 9353, "long": 9354, "nav": 9355, "oni": 9356, "onien": 9357, "Ġdritten": 9358, "Ġni": 9359, "wegs": 9360, "ĠjÃ¼n": 9361, "schwe": 9362, "essions": 9363, "Ġschweden": 9364, "abled": 9365, "bara": 9366, "Ġprecisely": 9367, "Ġdurchaus": 9368, "Ġsubmitted": 9369, "Ġpatient": 9370, "Ġmeetings": 9371, "Ġgolden": 9372, "Ġerstellen": 9373, "Ġlessons": 9374, "ĠstabilitÃ¤ts": 9375, "Ġbeantworten": 9376, "Ġerzielt": 9377, "tv": 9378, "Ġtief": 9379, "Ġsap": 9380, "Ġmond": 9381, "Ġbod": 9382, "Ġjur": 9383, "ctive": 9384, "Ġeurobarometer": 9385, "Ã¤lter": 9386, "Ġwichtiges": 9387, "Ġcentury": 9388, "Ġedition": 9389, "Ġletter": 9390, "Ġumfang": 9391, "ximately": 9392, "Ġwichtigen": 9393, "install": 9394, "Ġsugar": 9395, "Ġklimawandel": 9396, "Ġstardoll": 9397, "iat": 9398, "ziert": 9399, "ĠmÃ¼ndliche": 9400, "europas": 9401, "Ġ61": 9402, "Ġdeveloping": 9403, "ientific": 9404, "wendung": 9405, "Ġgarten": 9406, "priorities": 9407, "Ġungarn": 9408, "prÃ¼fung": 9409, "Ġcatalog": 9410, "Ġzustimmung": 9411, "Ġcriminal": 9412, "Ġverbessern": 9413, "Ġmodernis": 9414, "deputy": 9415, "Ġparameter": 9416, "Ġimpossible": 9417, "brauch": 9418, "hner": 9419, "ĠwÃ¤ren": 9420, "Ġfem": 9421, "Ġnied": 9422, "ils": 9423, "Ġandre": 9424, "Ġproud": 9425, "Ġerwer": 9426, "Ġauss": 9427, "Ġspot": 9428, "Ġorient": 9429, "gerufen": 9430, "Ġ63": 9431, "Ġdivers": 9432, "Ġflag": 9433, "Ġzeiten": 9434, "achstums": 9435, "Ġaktionsplan": 9436, "Ġangst": 9437, "improving": 9438, "niemand": 9439, "wto": 9440, "xx": 9441, "Ġfixed": 9442, "ufer": 9443, "search": 9444, "ikas": 9445, "Ġchurch": 9446, "ccile": 9447, "wohl": 9448, "Ġindia": 9449, "Ġconcre": 9450, "Ġplayed": 9451, "Ġsomit": 9452, "betrag": 9453, "umsetzung": 9454, "accession": 9455, "small": 9456, "produkte": 9457, "investitionen": 9458, "ĠfrÃ¼her": 9459, "Ġombudsman": 9460, "Ġsekunden": 9461, "fam": 9462, "uell": 9463, "Ġom": 9464, "outs": 9465, "Ġbeyond": 9466, "uls": 9467, "riktive": 9468, "Ġspam": 9469, "neu": 9470, "Ġfinland": 9471, "Ġworten": 9472, "Ġ71": 9473, "Ġtraum": 9474, "conn": 9475, "Ġbedro": 9476, "ĠdurchgefÃ¼hrt": 9477, "sekretariat": 9478, "darin": 9479, "Ġsurround": 9480, "prÃ¼ft": 9481, "ladim": 9482, "Ġdollar": 9483, "dorf": 9484, "Ġhungary": 9485, "Ġjourney": 9486, "fers": 9487, "know": 9488, "mult": 9489, "tnam": 9490, "Ġsir": 9491, "Ġbul": 9492, "Ġcer": 9493, "Ġnu": 9494, "Ġnick": 9495, "Ġyugos": 9496, "ahrungs": 9497, "reichen": 9498, "Ġfehl": 9499, "Ġfindings": 9500, "Ġacquis": 9501, "Ġentscheidungen": 9502, "ĠernÃ¤hrung": 9503, "Ġaktionen": 9504, "Ġdigitalen": 9505, "Ġverdient": 9506, "Ġcouple": 9507, "ĠendgÃ¼lt": 9508, "kurzbeschreibung": 9509, "ibilitÃ¤t": 9510, "inar": 9511, "Ġast": 9512, "Ġaverage": 9513, "Ġpick": 9514, "Ġhorn": 9515, "Ġiso": 9516, "ĠverhÃ¤lt": 9517, "Ġrose": 9518, "Ġstets": 9519, "Ġbelong": 9520, "achtung": 9521, "Ġgrowing": 9522, "Ġintegrated": 9523, "Ġdamage": 9524, "Ġmaterials": 9525, "Ġsanta": 9526, "Ġlicense": 9527, "Ġdeliber": 9528, "Ġvincent": 9529, "dk": 9530, "itious": 9531, "Ġmerk": 9532, "Ġislam": 9533, "igem": 9534, "georg": 9535, "Ġhahn": 9536, "Ġhof": 9537, "Ġdiscover": 9538, "ĠmenÃ¼": 9539, "Ġapprox": 9540, "Ġfarbe": 9541, "Ġproduced": 9542, "Ġpaet": 9543, "companies": 9544, "Ġdeficit": 9545, "ĠeuropÃ¤isches": 9546, "folgende": 9547, "looking": 9548, "Ġgelegenheit": 9549, "ĠkÃ¼rze": 9550, "Ġremarks": 9551, "Ġsufficient": 9552, "Ġinakzeptabel": 9553, "aa": 9554, "cm": 9555, "Ġfell": 9556, "Ġbind": 9557, "oli": 9558, "reserv": 9559, "Ġalban": 9560, "Ġado": 9561, "Ġsteuern": 9562, "Ġdarin": 9563, "Ġscope": 9564, "Ġinstance": 9565, "Ġrepresents": 9566, "Ġtourist": 9567, "everything": 9568, "Ġplanned": 9569, "Ġplatform": 9570, "wachstum": 9571, "erÃ¶ffnung": 9572, "Ġacht": 9573, "Ġsund": 9574, "Ġwald": 9575, "Ġcamera": 9576, "Ġhund": 9577, "Ġformal": 9578, "Ġprozent": 9579, "beim": 9580, "Ġenh": 9581, "Ġnachrichten": 9582, "frieden": 9583, "vorlage": 9584, "Ġanderem": 9585, "Ġmembership": 9586, "Ġfilter": 9587, "1997": 9588, "Ġcontinued": 9589, "freund": 9590, "Ġmilk": 9591, "direktion": 9592, "everyone": 9593, "Ġbestimmungen": 9594, "Ġkitchen": 9595, "additional": 9596, "Ġeingerichtet": 9597, "cp": 9598, "Ġpour": 9599, "igend": 9600, "stu": 9601, "Ġthous": 9602, "dex": 9603, "ortion": 9604, "Ġdenen": 9605, "Ġministerial": 9606, "rÃ¤fte": 9607, "Ġ77": 9608, "Ġdecor": 9609, "Ġ1991": 9610, "Ġrespekt": 9611, "besuchen": 9612, "Ġstraight": 9613, "!!!": 9614, "Ġpleasant": 9615, "political": 9616, "mlaga": 9617, "Ġlisted": 9618, "Ġappears": 9619, "englisch": 9620, "Ġnielson": 9621, "hist": 9622, "Ġtisch": 9623, "Ġsaint": 9624, "Ġvel": 9625, "Ġanlage": 9626, "Ġliter": 9627, "abstimmungsstunde": 9628, "Ġauffassung": 9629, "Ġlehr": 9630, "Ġaffected": 9631, "Ġmontenegro": 9632, "Ġrepresented": 9633, "Ġholz": 9634, "Ġmeaning": 9635, "norway": 9636, "Ġverlieren": 9637, "zusÃ¤tz": 9638, "data": 9639, "Ġrailway": 9640, "opoulou": 9641, "cin": 9642, "kamp": 9643, "zne": 9644, "inese": 9645, "Ġtages": 9646, "orary": 9647, "aries": 9648, "Ġanzu": 9649, "ĠrÃ¤": 9650, "Ġimpl": 9651, "Ġspread": 9652, "sole": 9653, "rÃ¤ume": 9654, "maja": 9655, "Ġdaraus": 9656, "Ġzeitraum": 9657, "ĠÃ¶ffnen": 9658, "Ġworlds": 9659, "Ġadoption": 9660, "Ġdepends": 9661, "Ġsanter": 9662, "zusammensetzung": 9663, "Ġwahlen": 9664, "Ġtabak": 9665, "Ġfarmers": 9666, "Ġkategorie": 9667, "wollen": 9668, "cr": 9669, "furt": 9670, "Ġswe": 9671, "Ġeco": 9672, "Ġgone": 9673, "Ġtours": 9674, "Ġeinverstanden": 9675, "verl": 9676, "Ġreserve": 9677, "Ġarms": 9678, "Ġdecide": 9679, "descriptive": 9680, "Ġconclusion": 9681, "Ġportug": 9682, "ĠgrÃ¶ÃŁten": 9683, "Ġcarefully": 9684, "Ġbriefly": 9685, "ĠÃ¼berprÃ¼ft": 9686, "Ġbelieb": 9687, "Ġtitle": 9688, "Ġaustral": 9689, "ded": 9690, "gast": 9691, "sur": 9692, "iso": 9693, "Ġpod": 9694, "Ġcart": 9695, "Ġcors": 9696, "Ġhi": 9697, "stabil": 9698, "Ġalte": 9699, "ops": 9700, "europol": 9701, "hence": 9702, "Ġ54": 9703, "Ġpressemitteilungen": 9704, "Ġ87": 9705, "Ġinterpret": 9706, "Ġkonfl": 9707, "Ġcorazza": 9708, "Ġcommunities": 9709, "Ġfamous": 9710, "Ġmilch": 9711, "Ġbalcon": 9712, "audio": 9713, "Ġdeutschen": 9714, "location": 9715, "Ġneighbourhood": 9716, "gypten": 9717, "krie": 9718, "Ġereign": 9719, "inform": 9720, "reche": 9721, "Ġfonds": 9722, "Ġziffer": 9723, "Ġverwir": 9724, "Ġverfolgen": 9725, "Ġrand": 9726, "Ġcoordination": 9727, "ifik": 9728, "Ġbesitz": 9729, "ierende": 9730, "Ġexports": 9731, "ĠgebÃ¤ude": 9732, "Ġspecies": 9733, "Ġdaniel": 9734, "drÃ¼ck": 9735, "telekommunikation": 9736, "telecommunications": 9737, "Ġinstitutionen": 9738, "ĠmilitÃ¤r": 9739, "fare": 9740, "iop": 9741, "ointed": 9742, "sustainable": 9743, "Ġtack": 9744, "onom": 9745, "oral": 9746, "Ġbak": 9747, "ionen": 9748, "temp": 9749, "Ġhamburg": 9750, "umption": 9751, "rip": 9752, "Ġschiffe": 9753, "herine": 9754, "mittag": 9755, "akete": 9756, "Ġindien": 9757, "Ġscen": 9758, "ughter": 9759, "going": 9760, "Ġspeaking": 9761, "Ġfavor": 9762, "north": 9763, "Ġabsolute": 9764, "Ġgeneration": 9765, "Ġmeeres": 9766, "rimination": 9767, "Ġconflict": 9768, "Ġstolz": 9769, "drei": 9770, "right": 9771, "Ġwolf": 9772, "rechn": 9773, "entin": 9774, "Ġkill": 9775, "schreiben": 9776, "beauftrag": 9777, "Ġmitte": 9778, "Ġentreprene": 9779, "Ġcomb": 9780, "Ġamaz": 9781, "Ġarm": 9782, "Ġarmen": 9783, "werke": 9784, "Ġ91": 9785, "Ġ98": 9786, "Ġworkshop": 9787, "Ġproposes": 9788, "Ġaccessed": 9789, "Ġzahlreiche": 9790, "Ġcontinues": 9791, "Ġverwendung": 9792, "400": 9793, "Ġlod": 9794, "Ġformer": 9795, "forum": 9796, "Ġ()": 9797, "Ġrise": 9798, "soft": 9799, "Ġunternehmer": 9800, "Ġadvis": 9801, "Ġadjust": 9802, "cost": 9803, "front": 9804, "Ġwelcher": 9805, "Ġselten": 9806, "ructures": 9807, "Ġcontinu": 9808, "Ġsalz": 9809, "Ġnahen": 9810, "Ġimprovement": 9811, "atherine": 9812, "Ġziemlich": 9813, "Ġbehandeln": 9814, "Ġfactsheet": 9815, "Ġvereinbarung": 9816, "ls": 9817, "titel": 9818, "Ġeyes": 9819, "Ġvul": 9820, "uri": 9821, "Ġunemployment": 9822, "Ġlower": 9823, "Ġtoler": 9824, "adv": 9825, "Ġcovers": 9826, "Ġwithdra": 9827, "Ġext": 9828, "Ġumgesetzt": 9829, "lose": 9830, "herrn": 9831, "youth": 9832, "Ġkonsequ": 9833, "wÃ¤rtig": 9834, "democ": 9835, "Ġeinfache": 9836, "mediterranean": 9837, "Ã¼hungen": 9838, "Ġitalian": 9839, "Ġfailed": 9840, "Ġtrying": 9841, "payments": 9842, "Ġvielfalt": 9843, "Ġvassilious": 9844, "dont": 9845, "occo": 9846, "sÃ¼d": 9847, "univers": 9848, "ĠbÃ¶": 9849, "Ġbrian": 9850, "lehen": 9851, "igner": 9852, "Ġbecomes": 9853, "Ġstrom": 9854, "Ġverf": 9855, "Ġwegen": 9856, "Ġdog": 9857, "Ġvorbereitung": 9858, "Ġcontrary": 9859, "Ġdiscount": 9860, "Ġsicherlich": 9861, "Ġstrategic": 9862, "Ġebenso": 9863, "ington": 9864, "chtenstein": 9865, "discover": 9866, "loud": 9867, "Ġfacebook": 9868, "Ġmechanism": 9869, "ĠvernÃ¼nft": 9870, "Ġangemessen": 9871, "children": 9872, "Ġchamber": 9873, "Ġconcrete": 9874, "catherine": 9875, "jos": 9876, "ĠbevÃ¶lkerung": 9877, "Ġlegen": 9878, "Ġeure": 9879, "okko": 9880, "avi": 9881, "progress": 9882, "wohner": 9883, "Ġsolar": 9884, "schlieÃŁen": 9885, "bedarf": 9886, "Ġcatherine": 9887, "Ġtodays": 9888, "Ġpremier": 9889, "Ġautomatisch": 9890, "Ġpascal": 9891, "startseite": 9892, "ergebnisse": 9893, "Ġfrattini": 9894, "commitments": 9895, "mass": 9896, "Ġfests": 9897, "Ġpi": 9898, "Ġnations": 9899, "Ġvent": 9900, "verhandlungen": 9901, "Ġdiesel": 9902, "september": 9903, "Ġchosen": 9904, "Ġmeant": 9905, "Ġmini": 9906, "258": 9907, "demokrat": 9908, "mittelmeer": 9909, "Ġnorway": 9910, "gestimmt": 9911, "Ġbrown": 9912, "ancic": 9913, "Ġinitiativen": 9914, "Ġpanor": 9915, "Ġwalking": 9916, "Ġadministrative": 9917, "juli": 9918, "Ġspoke": 9919, "54530": 9920, "call": 9921, "none": 9922, "oy": 9923, "type": 9924, "Ġwon": 9925, "Ġcroatia": 9926, "Ġgipfel": 9927, "Ġvista": 9928, "Ġanony": 9929, "emann": 9930, "ÃŁburg": 9931, "Ġlift": 9932, "izient": 9933, "control": 9934, "Ġfollowed": 9935, "Ġwelchem": 9936, "haup": 9937, "Ġkept": 9938, "Ġrichtlinien": 9939, "Ġkollege": 9940, "Ġtaste": 9941, "Ġfortschritt": 9942, "verwaltung": 9943, "Ġbecame": 9944, "Ġhilf": 9945, "Ġbulgarien": 9946, "Ġexercise": 9947, "bisher": 9948, "yt": 9949, "Ġsah": 9950, "Ġsources": 9951, "ĠÃ¼bernehmen": 9952, "Ġcombin": 9953, "Ġusd": 9954, "auswÃ¤rtige": 9955, "Ġlizenz": 9956, "Ġclients": 9957, "Ġmonaten": 9958, "Ġwellness": 9959, "zeichnis": 9960, "Ġconfigur": 9961, "Ġtaxi": 9962, "Ġsuperv": 9963, "Ġambitious": 9964, "Ġgave": 9965, "Ġhighlight": 9966, "Ġdefinitely": 9967, "Ġfrits": 9968, "during": 9969, "Ġawa": 9970, "atom": 9971, "rein": 9972, "Ġclo": 9973, "edia": 9974, "Ġbek": 9975, "Ġfordern": 9976, "forcement": 9977, "ecd": 9978, "Ġprobably": 9979, "Ġerhol": 9980, "apest": 9981, "Ġrob": 9982, "ĠgenieÃŁen": 9983, "Ġbestellung": 9984, "worum": 9985, "handelt": 9986, "Ġjahrhunder": 9987, "Ġregionale": 9988, "Ġdelay": 9989, "Ġfarben": 9990, "cij": 9991, "Ġjava": 9992, "Ġcastle": 9993, "Ġcritical": 9994, "Ġadvertising": 9995, "journ": 9996, "tained": 9997, "Ġaz": 9998, "Ġdrag": 9999, "Ġbos": 10000, "Ġcin": 10001, "Ġbequem": 10002, "Ġstunde": 10003, "0027": 10004, "weite": 10005, "Ġgeheim": 10006, "meister": 10007, "teller": 10008, "auÃŁen": 10009, "fragt": 10010, "Ġaviation": 10011, "Ġscore": 10012, "Ġgrundlage": 10013, "empfehl": 10014, "ĠmÃ¤rkte": 10015, "staatliche": 10016, "affung": 10017, "Ġhoffnung": 10018, "Ġleitlinien": 10019, "Ġroyal": 10020, "??": 10021, "sign": 10022, "inary": 10023, "Ġdark": 10024, "Ġdry": 10025, "iling": 10026, "Ġkyp": 10027, "oud": 10028, "ikal": 10029, "Ġexter": 10030, "Ġresidence": 10031, "climate": 10032, "mans": 10033, "Ġgrunde": 10034, "Ġ2016": 10035, "Ġfee": 10036, "Ġcold": 10037, "Ġmoral": 10038, "Ġexpensive": 10039, "furthermore": 10040, "Ġpalacio": 10041, "Ġstellvertreterin": 10042, "Ġflexible": 10043, "herzlichen": 10044, "Ġheutige": 10045, "Ġrestrictive": 10046, "sir": 10047, "sÃ¤tze": 10048, "Ġsis": 10049, "itale": 10050, "orah": 10051, "Ġpurs": 10052, "geiz": 10053, "ami": 10054, "Ġaufgenommen": 10055, "ĠenttÃ¤us": 10056, "while": 10057, "sprach": 10058, "Ġsold": 10059, "description": 10060, "ovina": 10061, "Ġverbesser": 10062, "Ġgebiete": 10063, "Ġsky": 10064, "object": 10065, "Ġvariety": 10066, "Ġfeedback": 10067, "Ġabgeordnete": 10068, "Ġkritik": 10069, "franzÃ¶sisch": 10070, "aw": 10071, "sara": 10072, "chinas": 10073, "Ġtitel": 10074, "Ġbzw": 10075, "Ġintended": 10076, "uste": 10077, "Ġanteil": 10078, "Ġeinig": 10079, "erefer": 10080, "Ġerweit": 10081, "beteil": 10082, "Ġimper": 10083, "Ġausdruck": 10084, "prinzip": 10085, "Ġmehrheit": 10086, "Ġkompliz": 10087, "Ġcharlie": 10088, "leistung": 10089, "Ġpromote": 10090, "ĠgefÃ¶rder": 10091, "weshalb": 10092, "ĠschlieÃŁen": 10093, "Ġstorage": 10094, "Ġheutigen": 10095, "Ġdisease": 10096, "Ġsorg": 10097, "orca": 10098, "Ġcs": 10099, "iche": 10100, "lehnt": 10101, "Ġot": 10102, "Ġanliegen": 10103, "Ġbehinder": 10104, "oda": 10105, "Ġvorge": 10106, "meas": 10107, "Ġperhaps": 10108, "Ġgratis": 10109, "Ġdeborah": 10110, "Ġinteressen": 10111, "fÃ¼hrungs": 10112, "Ġbegonnen": 10113, "Ġgestr": 10114, "Ġglobale": 10115, "Ġvolle": 10116, "Ġvolks": 10117, "Ġniemals": 10118, "Ġerfordert": 10119, "Ġcopyright": 10120, "Ġbehandlung": 10121, "rianou": 10122, "Ġmethods": 10123, "country": 10124, "ĠzÃ¤hlt": 10125, "mÃ¤rkte": 10126, "Ġfinish": 10127, "prakt": 10128, "map": 10129, "zentrum": 10130, "inal": 10131, "anteil": 10132, "Ġfeld": 10133, "Ġhaltung": 10134, "Ġjer": 10135, "eco": 10136, "Ġzucker": 10137, "ĠschÃ¤": 10138, "Ġausnahme": 10139, "lymp": 10140, "uble": 10141, "aine": 10142, "urement": 10143, "Ġquant": 10144, "Ġpolize": 10145, "managing": 10146, "Ġpunkten": 10147, "arbeitsprogramm": 10148, "Ġkocij": 10149, "hai": 10150, "Ġjuncker": 10151, "subs": 10152, "Ġtopic": 10153, "Ġsatisfied": 10154, "Ġcookies": 10155, "Ġkyprianou": 10156, "Ġkocijancic": 10157, "gub": 10158, "having": 10159, "ohl": 10160, "Ġbist": 10161, "Ġanschluss": 10162, "ilateral": 10163, "Ġunn": 10164, "Ġumgebung": 10165, "Ġunterkunft": 10166, "Ġpercent": 10167, "Ġappoint": 10168, "Ġ72": 10169, "Ġdient": 10170, "Ġtrends": 10171, "schengen": 10172, "Ġweiterer": 10173, "Ġinvestments": 10174, "Ġfranco": 10175, "Ġaids": 10176, "Ġassozi": 10177, "ĠprÃ¼fung": 10178, "stÃ¤rkung": 10179, "datei": 10180, "Ġveranstaltung": 10181, "Ġausreichend": 10182, "pla": 10183, "Ġapost": 10184, "Ġdienste": 10185, "Ġsmo": 10186, "Ġvienna": 10187, "umin": 10188, "keep": 10189, "ailand": 10190, "thats": 10191, "Ġmoving": 10192, "Ġ1989": 10193, "150": 10194, "2011": 10195, "large": 10196, "Ġromano": 10197, "Ġfaq": 10198, "Ġmandate": 10199, "Ġpedro": 10200, "Ġenormous": 10201, "Ġschreyer": 10202, "Ġuntersuchung": 10203, "Ġvessels": 10204, "410": 10205, "546": 10206, "664": 10207, "don": 10208, "pot": 10209, "Ġdeinen": 10210, "Ġsar": 10211, "Ġeleg": 10212, "Ġhop": 10213, "Ã¤ki": 10214, "wohn": 10215, "Ġrace": 10216, "Ġbedau": 10217, "Ġguard": 10218, "versammlung": 10219, "Ġwohnung": 10220, "Ġinsurance": 10221, "ĠprioritÃ¤ts": 10222, "Ġasking": 10223, "Ġcreation": 10224, "Ġmerc": 10225, "ĠgÃ¼nther": 10226, "Ġdiamant": 10227, "mess": 10228, "typ": 10229, "ying": 10230, "Ġdach": 10231, "Ġpir": 10232, "Ġolymp": 10233, "Ġrezeption": 10234, "Ġrio": 10235, "quote": 10236, "gran": 10237, "euer": 10238, "staats": 10239, "visual": 10240, "1996": 10241, "Ġapplic": 10242, "Ġdatenbank": 10243, "Ġvertrags": 10244, "Ġdivided": 10245, "christian": 10246, "choose": 10247, "rÃ¼st": 10248, "ĠschluÃŁfolgerungen": 10249, "Ġspacious": 10250, "Ġmysql": 10251, "ped": 10252, "sucht": 10253, "vivian": 10254, "Ġtiere": 10255, "hebung": 10256, "Ġinhalte": 10257, "Ġkulture": 10258, "ĠkÃ¼nst": 10259, "Ġzer": 10260, "uta": 10261, "Ġrup": 10262, "mechan": 10263, "chez": 10264, "Ġgeschaffen": 10265, "Ġpara": 10266, "wogen": 10267, "Ġmehreren": 10268, "Ġtruly": 10269, "Ġteilnahme": 10270, "Ġglass": 10271, "sichtigen": 10272, "Ġzusatz": 10273, "ausschusses": 10274, "Ġillegal": 10275, "Ġoccup": 10276, "Ġadvantages": 10277, "Ġhtml": 10278, "mol": 10279, "offen": 10280, "oktober": 10281, "Ġtuesday": 10282, "Ġdessen": 10283, "Ġspp": 10284, "Ġpill": 10285, "Ġthomas": 10286, "amend": 10287, "Ġverfassung": 10288, "vertra": 10289, "Ġweap": 10290, "ĠdiesbezÃ¼glich": 10291, "senden": 10292, "ivier": 10293, "Ġcontents": 10294, "Ġgoals": 10295, "frÃ¼h": 10296, "Ġminder": 10297, "Ġscript": 10298, "standard": 10299, "Ġdanach": 10300, "Ġrisiken": 10301, "verbind": 10302, "Ġfacing": 10303, "Ġmiguel": 10304, "ĠzusÃ¤tzliche": 10305, "verpflichtungen": 10306, "pi": 10307, "uens": 10308, "vat": 10309, "wechsel": 10310, "oster": 10311, "again": 10312, "Ġcontribut": 10313, "Ġboat": 10314, "exper": 10315, "Ġgetroffen": 10316, "Ġirish": 10317, "Ġrome": 10318, "aktionsplan": 10319, "ĠauÃŁenbeziehungen": 10320, "Ġdepartment": 10321, "Ġehrgeiz": 10322, "agreement": 10323, "apartment": 10324, "ĠgewÃ¼nsch": 10325, "craft": 10326, "figur": 10327, "wall": 10328, "Ġtill": 10329, "Ġverlassen": 10330, "Ġjes": 10331, "Ġgefallen": 10332, "Ġspok": 10333, "Ġentgegen": 10334, "bruch": 10335, "thanks": 10336, "Ġbusinesses": 10337, "november": 10338, "ously": 10339, "solche": 10340, "Ġprivacy": 10341, "Ġinstrumente": 10342, "Ġmissing": 10343, "gewicht": 10344, "Ġstrength": 10345, "Ġkonnten": 10346, "ĠzÃ¤hlen": 10347, "Ġnegative": 10348, "ĠflÃ¼chtl": 10349, "januar": 10350, "Ġdemonstr": 10351, "vit": 10352, "anen": 10353, "Ġmall": 10354, "Ġfif": 10355, "aler": 10356, "Ġearn": 10357, "ktors": 10358, "ĠschÃ¼tzen": 10359, "Ġhafen": 10360, "Ġvorrang": 10361, "Ġtray": 10362, "ishing": 10363, "Ġwelcomes": 10364, "Ġversions": 10365, "Ġhalb": 10366, "spezif": 10367, "Ġkinnock": 10368, "ĠbeschÃ¤ftigungs": 10369, "Ġdomin": 10370, "Ġdramat": 10371, "invites": 10372, "masch": 10373, "Ġproceedings": 10374, "____": 10375, "Ġprofitieren": 10376, "Ġelectricity": 10377, "Ġsleep": 10378, ".(": 10379, "fund": 10380, "korea": 10381, "sudan": 10382, "online": 10383, "itet": 10384, "Ġbattle": 10385, "Ġpflicht": 10386, "arg": 10387, "edienst": 10388, "Ġschule": 10389, "Ġsparen": 10390, "zehn": 10391, "ĠÃ¼bergang": 10392, "Ġvorange": 10393, "range": 10394, "april": 10395, "Ã¤tigkeit": 10396, "ĠgeschÃ¼tzt": 10397, "folge": 10398, "Ġproduktion": 10399, "Ġoffensichtlich": 10400, "Ġmodels": 10401, "Ġgelangen": 10402, "Ġgraf": 10403, "Ġskin": 10404, "cluding": 10405, "Ġwebcam": 10406, "Ġtelephone": 10407, "ĠhumanitÃ¤re": 10408, "Ġbeitritt": 10409, "Ġexpert": 10410, "ĠbemÃ¼hungen": 10411, "Ġmessages": 10412, "Ġshared": 10413, "Ġhilft": 10414, "Ġpenalt": 10415, "ĠgÃ¼nter": 10416, "introduction": 10417, "days": 10418, "ee": 10419, "ku": 10420, "light": 10421, "ories": 10422, "aly": 10423, "leiter": 10424, "Ġconduct": 10425, "format": 10426, "quate": 10427, "oples": 10428, "Ġuses": 10429, "Ġworse": 10430, "gericht": 10431, "moder": 10432, "Ġmodule": 10433, "Ġcarl": 10434, "Ġsanktionen": 10435, "verwenden": 10436, "louis": 10437, "Ġcommitted": 10438, "Ġparticipate": 10439, "lÃ¶sung": 10440, "schlÃ¼sselung": 10441, "Ġadobe": 10442, "zneimit": 10443, "bessere": 10444, "jean": 10445, "lis": 10446, "Ġtie": 10447, "Ġtib": 10448, "Ġdos": 10449, "Ġpret": 10450, "Ġcott": 10451, "Ġechte": 10452, "Ġstig": 10453, "achs": 10454, "Ġimag": 10455, "Ġspend": 10456, "Ġled": 10457, "Ġlebt": 10458, "Ġchinas": 10459, "odor": 10460, "Ã¼ss": 10461, "vely": 10462, "gesetz": 10463, "Ġaccident": 10464, "ĠĠĠĠĠĠĠ": 10465, "Ġwirklichkeit": 10466, "licherweise": 10467, "danach": 10468, "Ġoptionen": 10469, "instit": 10470, "elekt": 10471, "Ġbeantwortet": 10472, "ĠvollstÃ¤ndig": 10473, "Ġfitness": 10474, "artement": 10475, "Ġextension": 10476, "Ġreagieren": 10477, "frÃ¼here": 10478, "brechung": 10479, "600": 10480, "flex": 10481, "kern": 10482, "reis": 10483, "Ġeye": 10484, "Ġoce": 10485, "Ġbegan": 10486, "Ġerleben": 10487, "Ġzuvor": 10488, "ĠgeprÃ¼ft": 10489, "Ġattend": 10490, "Ġspann": 10491, "hering": 10492, "aret": 10493, "hoden": 10494, "appe": 10495, "Ġspezif": 10496, "Ġrelates": 10497, "Ġkeines": 10498, "Ã¼ndung": 10499, "Ġabgelehnt": 10500, "Ġpanel": 10501, "Ġhearing": 10502, "Ġweder": 10503, "Ġdevice": 10504, "Ġarrangements": 10505, "cer": 10506, "erte": 10507, "Ġaxis": 10508, "Ġhyp": 10509, "Ġloss": 10510, "Ġalc": 10511, "Ġruns": 10512, "ktop": 10513, "Ġleiden": 10514, "Ġusually": 10515, "wood": 10516, "maÃŁ": 10517, "Ġliechtenstein": 10518, "ĠerklÃ¤ren": 10519, "versorgung": 10520, "Ġverbre": 10521, "Ġagencies": 10522, "Ġkindern": 10523, "Ġeigenes": 10524, "without": 10525, "stock": 10526, "Ġindex": 10527, "Ġmultip": 10528, "Ġhonest": 10529, "Ġerneuer": 10530, "mÃ¤rz": 10531, "pension": 10532, "twitter": 10533, "erzeug": 10534, "anlagen": 10535, "Ġmessen": 10536, "Ġedu": 10537, "icul": 10538, "Ġstil": 10539, "Ġerzeugnisse": 10540, "Ġerkennen": 10541, "Ġchines": 10542, "ugg": 10543, "steuern": 10544, "ureau": 10545, "ellos": 10546, "prot": 10547, "Ġflat": 10548, "Ġflight": 10549, "Ġmilliar": 10550, "Ġserve": 10551, "geschichte": 10552, "Ġ2731": 10553, "Ġruhe": 10554, "ĠstraÃŁe": 10555, "Ġverwaltungs": 10556, "ĠnÃ¤here": 10557, "Ġmagaz": 10558, "Ġdiskrimin": 10559, "consider": 10560, "Ġmandelson": 10561, "Ġstellungnahmen": 10562, "ĠkÃ¤mp": 10563, "Ġverstehe": 10564, "Ġinfos": 10565, "claude": 10566, "inflation": 10567, "Ġmwst": 10568, "zneimittel": 10569, "friend": 10570, "kurs": 10571, "sw": 10572, "volle": 10573, "eration": 10574, "Ġtiron": 10575, "Ġinit": 10576, "Ġzerst": 10577, "seh": 10578, "ĠgenÃ¼": 10579, "Ġbedroom": 10580, "Ġlangfrist": 10581, "Ġposselt": 10582, "egu": 10583, "Ġestate": 10584, "prioritÃ¤ten": 10585, "Ġdefined": 10586, "Ġschuld": 10587, "Ġpleasure": 10588, "Ġhorizont": 10589, "Ġchairman": 10590, "Ġcategories": 10591, "Ġtironi": 10592, "kategor": 10593, "wettbewerb": 10594, "Ġue": 10595, "Ġdrop": 10596, "Ġwal": 10597, "Ġpuerto": 10598, "Ġgam": 10599, "Ġvitor": 10600, "Ġjen": 10601, "Ġprovision": 10602, "ulf": 10603, "Ġgep": 10604, "Ġworry": 10605, "aussch": 10606, "tellte": 10607, "Ġupgrade": 10608, "philippe": 10609, "sonder": 10610, "Ġnato": 10611, "Ġlangsam": 10612, "Ġnorwegen": 10613, "anders": 10614, "Ġsanctions": 10615, "Ġequality": 10616, "Ġpreisen": 10617, "Ġchanging": 10618, "Ġtasks": 10619, "Ġindependent": 10620, "Ġsorge": 10621, "sequently": 10622, "ĠfÃ¤h": 10623, "closure": 10624, "bundesminister": 10625, "Ġkroatien": 10626, "hÃ¤": 10627, "nimmt": 10628, "rum": 10629, "sil": 10630, "vin": 10631, "viii": 10632, "Ġtritt": 10633, "ani": 10634, "lebt": 10635, "Ġklage": 10636, "Ġkrisen": 10637, "Ġreader": 10638, "Ġseven": 10639, "ersucht": 10640, "ernt": 10641, "Ġcontribute": 10642, "Ġmarke": 10643, "Ġclosely": 10644, "Ġapproximately": 10645, "rieb": 10646, "Ġskills": 10647, "Ġglas": 10648, "ĠgrÃ¶ÃŁer": 10649, "Ġreasonable": 10650, "Ġenterprises": 10651, "Ġelectronic": 10652, "Ġperfectly": 10653, "business": 10654, "Ġlibrary": 10655, "Ġdorf": 10656, "teuerung": 10657, "Ġbirth": 10658, "Ġemployees": 10659, "Ġdus": 10660, "Ġdublin": 10661, "Ġsustain": 10662, "rey": 10663, "rehens": 10664, "team": 10665, "Ġnar": 10666, "Ġkas": 10667, "etten": 10668, "Ġeinigung": 10669, "Ġstamm": 10670, "Ġ110": 10671, "Ġries": 10672, "ruh": 10673, "Ġmovie": 10674, "herring": 10675, "Ġboy": 10676, "Ġdecla": 10677, "Ġrequests": 10678, "myanmar": 10679, "Ġtransition": 10680, "Ġhyper": 10681, "ĠfranzÃ¶s": 10682, "lebhafter": 10683, "Ġmemory": 10684, "div": 10685, "hÃ¼": 10686, "Ġsac": 10687, "anze": 10688, "Ġml": 10689, "Ã¼ÃŁ": 10690, "tert": 10691, "Ġzert": 10692, "Ġras": 10693, "Ġmittag": 10694, "vorschlÃ¤ge": 10695, "Ġguinea": 10696, "commer": 10697, "Ġwelfare": 10698, "Ġcolour": 10699, "holt": 10700, "Ġfoundation": 10701, "ĠfÃ¤llt": 10702, "Ġkernel": 10703, "Ġrechnung": 10704, "Ġgerichtshofs": 10705, "Ġdeiner": 10706, "expected": 10707, "vergence": 10708, "Ġatmosphere": 10709, "Ġkyoto": 10710, "wunsch": 10711, "zim": 10712, "oria": 10713, "Ġmu": 10714, "Ġbib": 10715, "Ġecho": 10716, "Ġhong": 10717, "Ġnos": 10718, "Ġstick": 10719, "owina": 10720, "Ġcha": 10721, "werts": 10722, "Ã¤tzung": 10723, "Ġfreie": 10724, "ĠhierfÃ¼r": 10725, "Ġantnio": 10726, "Ġbarr": 10727, "Ġkorrig": 10728, "Ġpiece": 10729, "specific": 10730, "Ġautomatically": 10731, "breakdown": 10732, "Ġerwachsen": 10733, "Ġerfahrungen": 10734, "ĠhÃ¶chst": 10735, "ĠmÃ¤nner": 10736, "explanations": 10737, "gipfel": 10738, "rent": 10739, "sup": 10740, "Ġdadurch": 10741, "Ġeis": 10742, "Ġtold": 10743, "etze": 10744, "Ġweather": 10745, "Ġgeleistet": 10746, "Ġmiteinander": 10747, "ifi": 10748, "Ġfinances": 10749, "hoch": 10750, "inken": 10751, "Ã¤nderungen": 10752, "Ġcourses": 10753, "Ġnummer": 10754, "Ġinteressant": 10755, "Ġconsumption": 10756, "Ġdienstag": 10757, "ĠzugÃ¤nglich": 10758, "somit": 10759, "verwaltungsbehÃ¶rde": 10760, "kanz": 10761, "uhr": 10762, "iny": 10763, "atible": 10764, "Ġbog": 10765, "ĠgÃ¼ltig": 10766, "Ġkde": 10767, "igent": 10768, "icate": 10769, "Ġrevie": 10770, "Ġandr": 10771, "acher": 10772, "agues": 10773, "sebast": 10774, "Ġ57": 10775, "Ġperspective": 10776, "Ġcompar": 10777, "Ġmedical": 10778, "Ġentwicklungen": 10779, "Ġcorner": 10780, "Ġeastern": 10781, "rufen": 10782, "Ġschneller": 10783, "ventions": 10784, "Ġinformed": 10785, "bestimm": 10786, "Ġoccur": 10787, "ifiziert": 10788, "Ġvergangenheit": 10789, "112": 10790, "lÃ¶": 10791, "Ġ),": 10792, "erasmus": 10793, "isms": 10794, "Ġsla": 10795, "anke": 10796, "Ġeat": 10797, "icke": 10798, "Ġtodes": 10799, "eminister": 10800, "Ġalp": 10801, "Ġhaft": 10802, "Ġdenmark": 10803, "Ġvorteil": 10804, "door": 10805, "extra": 10806, "ĠhinzufÃ¼gen": 10807, "Ġkontin": 10808, "natas": 10809, "Ġschulden": 10810, "Ġschwerpunkte": 10811, "ĠverÃ¤nderungen": 10812, "Ġrental": 10813, "christopher": 10814, "Ġvirtual": 10815, "Ġruhig": 10816, "tÃ¼rkei": 10817, "ais": 10818, "fangen": 10819, "iwan": 10820, "nice": 10821, "zunehmen": 10822, "Ġfans": 10823, "iegel": 10824, "Ġhalt": 10825, "umm": 10826, "dete": 10827, "Ġweight": 10828, "Ġvorbereit": 10829, "haltet": 10830, "Ġsupplement": 10831, "Ġgemeinschaften": 10832, "Ġoverview": 10833, "Ġfalls": 10834, "besteuerung": 10835, "zeichnen": 10836, "Ġorganised": 10837, "Ġmetres": 10838, "ĠdÃ¼rfte": 10839, "Ġengagement": 10840, "Ġfourth": 10841, "Ġbrazil": 10842, "ĠprÃ¼f": 10843, "Ġburden": 10844, "Ġfailure": 10845, "Ġbatter": 10846, "Ġanalyse": 10847, "anon": 10848, "stal": 10849, "structural": 10850, "Ġalarm": 10851, "Ġzuge": 10852, "Ġaussehen": 10853, "Ġchinese": 10854, "eltre": 10855, "Ġparalle": 10856, "Ġupload": 10857, "ierender": 10858, "Ġsysteme": 10859, "Ġmedizin": 10860, "Ġjoe": 10861, "Ġhinweis": 10862, "ĠfÃ¼le": 10863, "Ġnumer": 10864, "ĠselbstverstÃ¤ndlich": 10865, "ĠbeitrÃ¤ge": 10866, "Ġbiggest": 10867, "Ġarchive": 10868, "Ġvacation": 10869, "Ġdubois": 10870, "dri": 10871, "Ġfix": 10872, "Ġniederlande": 10873, "Ġnationen": 10874, "eline": 10875, "abstimmungen": 10876, "vec": 10877, "eca": 10878, "deleg": 10879, "ischarge": 10880, "Ġamounts": 10881, "Ġhierbei": 10882, "Ġ82": 10883, "Ġpreparation": 10884, "Ġinvite": 10885, "Ġexpand": 10886, "Ġautor": 10887, "Ġpapier": 10888, "Ġconfir": 10889, "ĠÃ¼bereinkommen": 10890, "Ġzusch": 10891, "Ġleading": 10892, "Ġdevices": 10893, "ĠerfÃ¼llen": 10894, "wiederaufnahme": 10895, "thirdly": 10896, "Ġbalcony": 10897, "aik": 10898, "bn": 10899, "civil": 10900, "hme": 10901, "jen": 10902, "site": 10903, "erwar": 10904, "igi": 10905, "Ġreisen": 10906, "Ġjunge": 10907, "allo": 10908, "annten": 10909, "Ġcontest": 10910, "hinweise": 10911, "financing": 10912, "Ġgros": 10913, "Ġmargot": 10914, "max": 10915, "Ġxp": 10916, "Ġgebracht": 10917, "Ġsmart": 10918, "ĠstÃ¤ndig": 10919, "Ġrelationship": 10920, "Ġhighest": 10921, "verbrauch": 10922, "Ġbooks": 10923, "Ġtesting": 10924, "Ġflexibility": 10925, "Ġcommitments": 10926, "Ġsinnvoll": 10927, "Ġbetrieb": 10928, "Ġperfekt": 10929, "title": 10930, "alexandre": 10931, "Ġdiamantopoulou": 10932, "535": 10933, "ibe": 10934, "rant": 10935, "tp": 10936, "orgt": 10937, "forums": 10938, "issens": 10939, "Ġlehnt": 10940, "Ġnoted": 10941, "Ġexit": 10942, "afr": 10943, "lieben": 10944, "Ġsolcher": 10945, "ĠgelÃ¶st": 10946, "reiber": 10947, "Ġentwickeln": 10948, "presidency": 10949, "Ġdeposit": 10950, "Ġlabor": 10951, "Ġerreichbar": 10952, "Ġlogin": 10953, "Ġpresentation": 10954, "Ġrecommended": 10955, "ĠÃ¤uÃŁern": 10956, "Ġbetreffend": 10957, "Ġzentralbank": 10958, "Ġmutter": 10959, "Ġberufliche": 10960, "vergenz": 10961, "wÃ¤hrend": 10962, "ĠÃ¼berein": 10963, "Ġappreciate": 10964, "oh": 10965, "sicher": 10966, "rede": 10967, "asts": 10968, "still": 10969, "ethe": 10970, "Ġbeein": 10971, "Ġandors": 10972, "Ġerinner": 10973, "formular": 10974, "Ġhair": 10975, "Ġusb": 10976, "Ġquo": 10977, "Ġlounge": 10978, "Ġfreien": 10979, "Ġtrav": 10980, "Ġbesorg": 10981, "febru": 10982, "phan": 10983, "fluss": 10984, "Ġpeoples": 10985, "Ġterrasse": 10986, "Ġsectors": 10987, "Ġstudents": 10988, "Ġkompet": 10989, "zÃ¼ge": 10990, "like": 10991, "Ġcamps": 10992, "Ġkommunal": 10993, "Ġeingesetzt": 10994, "hafte": 10995, "kÃ¼": 10996, "kter": 10997, "zes": 10998, "Ġale": 10999, "Ġtariff": 11000, "Ġcad": 11001, "altern": 11002, "Ġgib": 11003, "resumption": 11004, "Ġverlang": 11005, "Ġseat": 11006, "Ġauft": 11007, "laufen": 11008, "Ġmeat": 11009, "aux": 11010, "hoff": 11011, "Ġproduce": 11012, "Ġdankbar": 11013, "Ġstars": 11014, "decisions": 11015, "ashion": 11016, "ĠgewÃ¤hlt": 11017, "zweif": 11018, "Ġregarding": 11019, "ĠstÃ¤rker": 11020, "Ġkleiner": 11021, "Ġplugin": 11022, "ĠgrundsÃ¤tz": 11023, "ipfeltre": 11024, "Ġfiscal": 11025, "zub": 11026, "Ġice": 11027, "Ġdah": 11028, "Ġdinner": 11029, "Ġmller": 11030, "Ġnull": 11031, "Ġanhang": 11032, "Ġforgot": 11033, "Ã¶der": 11034, "scha": 11035, "Ġextended": 11036, "Ġcontrad": 11037, "Ġlots": 11038, "Ġmariann": 11039, "Ġprocurement": 11040, "Ġassist": 11041, "unterbrechung": 11042, "holders": 11043, "overview": 11044, "Ġearlier": 11045, "Ġverpflichtungen": 11046, "ĠaktivitÃ¤ten": 11047, "Ġleads": 11048, "begriffen": 11049, "Ġabstained": 11050, "Ġplenary": 11051, "Ġreplac": 11052, "ĠstÃ¤dte": 11053, "Ġrepeat": 11054, "Ġgeehrte": 11055, "Ġofficer": 11056, "596": 11057, "ouse": 11058, "pak": 11059, "vw": 11060, "votes": 11061, "esh": 11062, "Ġpix": 11063, "ĠvÃ¶l": 11064, "Ã¼se": 11065, "force": 11066, "Ġalias": 11067, "Ġrasch": 11068, "essive": 11069, "zeÃŁ": 11070, "losen": 11071, "tellungen": 11072, "Ġgenu": 11073, "Ġgenutzt": 11074, "Ġrare": 11075, "Ġfried": 11076, "Ġsym": 11077, "Ġformul": 11078, "Ġgewinner": 11079, "Ġsometimes": 11080, "Ġautob": 11081, "Ġbanking": 11082, "point": 11083, "Ġsurpr": 11084, "Ġsigned": 11085, "Ġstocks": 11086, "Ġakzeptiert": 11087, "Ġleistung": 11088, "Ġbahnhof": 11089, "hou": 11090, "ng": 11091, "uert": 11092, "xelles": 11093, "Ġtenn": 11094, "Ġpav": 11095, "Ġpsy": 11096, "Ġgain": 11097, "stieg": 11098, "Ġdesktop": 11099, "endar": 11100, "Ġwash": 11101, "Ġentries": 11102, "aufschlÃ¼sselung": 11103, "Ġcommand": 11104, "return": 11105, "Ġopens": 11106, "stands": 11107, "Ġsomeone": 11108, "Ġelection": 11109, "zahlen": 11110, "Ġeasier": 11111, "Ġmotiv": 11112, "Ġglobalisierung": 11113, "Ġrussian": 11114, "environmental": 11115, "fÃ¤hig": 11116, "Ġverpflich": 11117, "Ġgarantiert": 11118, "Ġmicrosoft": 11119, "Ġhaupts": 11120, "1000": 11121, "culture": 11122, "fp": 11123, "nutzen": 11124, "swit": 11125, "yen": 11126, "Ġmund": 11127, "Ġpierre": 11128, "riz": 11129, "essler": 11130, "Ġwerbung": 11131, "Ġgeschmack": 11132, "Ġcomprehens": 11133, "comed": 11134, "gestatten": 11135, "Ġkonto": 11136, "kunfts": 11137, "Ġcatch": 11138, "ĠfÃ¼hrte": 11139, "Ġsilence": 11140, "michel": 11141, "angebot": 11142, "Ġvalley": 11143, "ĠerlÃ¤uter": 11144, "Ġbewegung": 11145, "Ġpretty": 11146, "nn": 11147, "yb": 11148, "orient": 11149, "tek": 11150, "Ġcry": 11151, "alm": 11152, "Ġva": 11153, "Ġbeat": 11154, "Ġbecoming": 11155, "schon": 11156, "uli": 11157, "allgemein": 11158, "Ġmoved": 11159, "Ġsaw": 11160, "barbara": 11161, "Ġbusquin": 11162, "207": 11163, "regist": 11164, "Ġzahlungen": 11165, "Ġpaypal": 11166, "kommissions": 11167, "direktor": 11168, "Ġbritish": 11169, "Ġrenew": 11170, "ĠbÃ¼rgern": 11171, "fac": 11172, "side": 11173, "tats": 11174, "turn": 11175, "zure": 11176, "Ġtauch": 11177, "isminister": 11178, "islat": 11179, "Ġcro": 11180, "Ġgb": 11181, "Ġeins": 11182, "Ġverring": 11183, "Ġabsch": 11184, "Ġspreche": 11185, "ahre": 11186, "ahme": 11187, "Ġchf": 11188, "Ġextend": 11189, "Ġentwurf": 11190, "Ġdebates": 11191, "barer": 11192, "bots": 11193, "Ġinstalled": 11194, "Ġfinanziellen": 11195, "Ġrecently": 11196, "Ġplanet": 11197, "Ġlabel": 11198, "Ġposts": 11199, "Ġcalcul": 11200, "according": 11201, "adox": 11202, "afft": 11203, "Ġsubstances": 11204, "texte": 11205, "vizeprÃ¤sidentin": 11206, "Ġbetriebs": 11207, "jugend": 11208, "Ġignor": 11209, "angebote": 11210, "private": 11211, "Ġnachstehenden": 11212, "navigation": 11213, "dialog": 11214, "oire": 11215, "zip": 11216, "Ġawards": 11217, "Ġfla": 11218, "Ġfont": 11219, "roger": 11220, "ĠanhÃ¶r": 11221, "edps": 11222, "veranst": 11223, "Ġabfall": 11224, "Ġcombat": 11225, "Ġcontra": 11226, "Ġpolack": 11227, "hindern": 11228, "Ġpoten": 11229, "Ġ68": 11230, "Ġmaystadt": 11231, "Ġbegriff": 11232, "Ġgewiss": 11233, "Ġlegit": 11234, "Ġgrundsatz": 11235, "Ġbilden": 11236, "fortsetzung": 11237, "Ġemergency": 11238, "Ġagrarpolitik": 11239, "Ġwandel": 11240, "future": 11241, "Ġinzwischen": 11242, "Ã¤ck": 11243, "olas": 11244, "emissions": 11245, "Ġbewegen": 11246, "Ã¶ger": 11247, "berge": 11248, "Ġnehme": 11249, "Ġdescription": 11250, "Ã¼berschre": 11251, "ibly": 11252, "istische": 11253, "Ġexists": 11254, "Ġwhom": 11255, "Ġrobert": 11256, "pty": 11257, "izza": 11258, "Ġraums": 11259, "rats": 11260, "belarus": 11261, "banon": 11262, "Ã¤ltig": 11263, "Ġbildt": 11264, "Ġvorschlags": 11265, "roslav": 11266, "Ġplaced": 11267, "Ġrichard": 11268, "Ã¤ssig": 11269, "ĠberÃ¼cksichtigt": 11270, "Ġkeinerlei": 11271, "Ġdisposal": 11272, "leiten": 11273, "Ġanerkennung": 11274, "Ġku": 11275, "Ġausgabe": 11276, "Ġdescri": 11277, "Ġdoha": 11278, "aken": 11279, "Ġcompla": 11280, "retary": 11281, "dova": 11282, "Ġbars": 11283, "welchen": 11284, "Ġinstruct": 11285, "ĠfÃ¼hlen": 11286, "Ġadopt": 11287, "Ġteilnehmen": 11288, "generalsekretariat": 11289, "Ġplaya": 11290, "Ġsozialpolitik": 11291, "Ġakp": 11292, "Ġlatin": 11293, "Ġmassage": 11294, "Ġstrongly": 11295, "Ġnorthern": 11296, "Ġhistoric": 11297, "lastung": 11298, "ĠspÃ¤teren": 11299, "ĠverÃ¶ffentlich": 11300, "Ġtherap": 11301, "summary": 11302, "ĠdrittlÃ¤ndern": 11303, "Ġyesterday": 11304, "Ġdeliberation": 11305, "drÃ¼cklich": 11306, "zin": 11307, "ĠtÃ¶": 11308, "Ġsud": 11309, "Ġfassen": 11310, "Ġnone": 11311, "Ġoz": 11312, "Ġvene": 11313, "Ġanstreng": 11314, "Ġlv": 11315, "emissionen": 11316, "Ġdied": 11317, "Ġ112": 11318, "utral": 11319, "einer": 11320, "Ġdetermin": 11321, "Ġentsprechend": 11322, "Ġmanual": 11323, "botschafter": 11324, "comple": 11325, "Ġgering": 11326, "Ġsolve": 11327, "Ġpropose": 11328, "Ġrequested": 11329, "Ġpassieren": 11330, "Ġstarke": 11331, "systems": 11332, "Ġwesentliche": 11333, "fohlen": 11334, "Ġbudgetary": 11335, "ĠstaatssekretÃ¤rin": 11336, "Ġmindest": 11337, "Ġarbeitsmarkt": 11338, "gaard": 11339, "ĠwÃ¤hrung": 11340, "Ġsettings": 11341, "Ġsowohl": 11342, "haushaltsplan": 11343, "Ġspezielle": 11344, "nachhaltige": 11345, "kÃ¼r": 11346, "oz": 11347, "wat": 11348, "zust": 11349, "Ġdienen": 11350, "Ġwit": 11351, "aste": 11352, "Ġvin": 11353, "entdecken": 11354, "Ġreichen": 11355, "neter": 11356, "rance": 11357, "Ġbett": 11358, "Ġmario": 11359, "iums": 11360, "Ġkonkret": 11361, "Ġobjekt": 11362, "Ġweitergehen": 11363, "Ġirre": 11364, "ĠâĤ¬)": 11365, "prÃ¤sidentin": 11366, "Ġtreas": 11367, "Ġpalest": 11368, "ferner": 11369, "sagen": 11370, "Ġmetal": 11371, "Ġsoul": 11372, "Ġtarif": 11373, "Ġbundesministerin": 11374, "Ġverdienen": 11375, "Ġbike": 11376, "Ġerwart": 11377, "Ġintroduction": 11378, "Ġstaatsminister": 11379, "Ġbangemann": 11380, "ĠbehÃ¶rden": 11381, "hÃ¤sionspolitik": 11382, "Ġcandidate": 11383, "Ġrupel": 11384, "kanzler": 11385, "110": 11386, "gelt": 11387, "kw": 11388, "sn": 11389, "itage": 11390, "Ġmc": 11391, "Ġburg": 11392, "Ġaufs": 11393, "endum": 11394, "Ġusual": 11395, "mex": 11396, "Ġmanage": 11397, "ideal": 11398, "enswert": 11399, "hlte": 11400, "bring": 11401, "gebaut": 11402, "Ġbegins": 11403, "162": 11404, "Ġtaxes": 11405, "Ġintention": 11406, "Ġschulz": 11407, "ĠflexibilitÃ¤t": 11408, "Ġclassic": 11409, "ĠstÃ¤rken": 11410, "ĠstabilitÃ¤t": 11411, "Ġiceland": 11412, "ĠÃ¼berprÃ¼fung": 11413, "Ġexplanation": 11414, "beispiele": 11415, "lies": 11416, "mic": 11417, "chi": 11418, "hein": 11419, "Ġpid": 11420, "Ġpoul": 11421, "Ġcrow": 11422, "Ġverboten": 11423, "agg": 11424, "rome": 11425, "izÃ¼g": 11426, "Ġfreude": 11427, "Ġnochmals": 11428, "Ġmarc": 11429, "ĠbedÃ¼r": 11430, "Ã¤lfte": 11431, "Ġwelcomed": 11432, "403": 11433, "Ġdirectives": 11434, "Ġcreative": 11435, "ĠbemÃ¼": 11436, "Ġtopics": 11437, "straÃŁe": 11438, "Ġegypt": 11439, "Ġverantwortlich": 11440, "Ġkomplett": 11441, "Ġevalu": 11442, "strengthen": 11443, "Ġsatellite": 11444, "Ġbesorgnis": 11445, "izÃ¼gigkeit": 11446, "fight": 11447, "jac": 11448, "israel": 11449, "Ġfot": 11450, "Ġverurteil": 11451, "iern": 11452, "Ġerde": 11453, "Ġerweiter": 11454, "annte": 11455, "liegt": 11456, "iertes": 11457, "Ġfehlen": 11458, "Ġbush": 11459, "lernen": 11460, "Ġbildungs": 11461, "Ġstraf": 11462, "Ġshortly": 11463, "help": 11464, "rikan": 11465, "Ġbestimmten": 11466, "Ġphotograph": 11467, "Ġslovenia": 11468, "Ġdisplayed": 11469, "800": 11470, "hm": 11471, "hans": 11472, "ĠdÃ¤nemark": 11473, "Ġsamm": 11474, "Ġbaltic": 11475, "Ġpip": 11476, "station": 11477, "ads": 11478, "Ġschatz": 11479, "Ġabschluss": 11480, "seits": 11481, "antrag": 11482, "neuer": 11483, "soweit": 11484, "Ġnoise": 11485, "ĠÃ¼bernahme": 11486, "akter": 11487, "Ġuntersche": 11488, "Ġberichtig": 11489, "ordon": 11490, "grundlage": 11491, "Ġ81": 11492, "Ġfees": 11493, "Ġfamili": 11494, "mitgliedstaaten": 11495, "Ġfacility": 11496, "poses": 11497, "Ġarrived": 11498, "Ġgranted": 11499, "ĠhÃ¶chste": 11500, "problem": 11501, "Ġdauern": 11502, "ĠbestÃ¤tigt": 11503, "Ġsubsidiarity": 11504, "Ġeisenbahn": 11505, "single": 11506, "connect": 11507, "Ġentrepreneur": 11508, "eig": 11509, "Ġtank": 11510, "Ġsz": 11511, "Ġburn": 11512, "Ġpy": 11513, "Ġtheor": 11514, "Ġgree": 11515, "Ġderen": 11516, "ktoren": 11517, "behandlung": 11518, "space": 11519, "ikations": 11520, "Ġcooper": 11521, "steht": 11522, "Ġumweltschutz": 11523, "Ġresource": 11524, "Ġarray": 11525, "ervice": 11526, "Ġbright": 11527, "prices": 11528, "Ġjohannes": 11529, "Ġscientific": 11530, "Ġconcentr": 11531, "minute": 11532, "Ġadvent": 11533, "Ġregionalpolitik": 11534, "Ġdefizit": 11535, "484": 11536, "Ġpurposes": 11537, "Ġguaranteed": 11538, "Ġorganisations": 11539, "ponte": 11540, "Ġfrankfurt": 11541, "ĠerhÃ¶ht": 11542, "Ġdiseases": 11543, "zollunion": 11544, "Ġherzegovina": 11545, "Ġcolleagues": 11546, "ahrungsmittel": 11547, "mma": 11548, "pg": 11549, "zb": 11550, "Ġtap": 11551, "esien": 11552, "Ġszen": 11553, "Ġsudan": 11554, "Ġware": 11555, "Ġbureau": 11556, "eder": 11557, "Ġzo": 11558, "Ã¶konom": 11559, "rio": 11560, "Ġyoure": 11561, "Ġyoull": 11562, "ifikation": 11563, "Ġexclusive": 11564, "aki": 11565, "Ġalliance": 11566, "proced": 11567, "Ġbetrag": 11568, "folg": 11569, "maÃŁen": 11570, "chnet": 11571, "ĠnatÃ¼r": 11572, "Ġacp": 11573, "greif": 11574, "Ġevidence": 11575, "Ġdiscrimination": 11576, "Ġeinget": 11577, "ambassador": 11578, "Ġmesse": 11579, "viously": 11580, "Ġzustand": 11581, "Ġfirmen": 11582, "Ġbalkon": 11583, "ifying": 11584, "Ġlauten": 11585, "Ġindicators": 11586, "Ġbottom": 11587, "Ġforecast": 11588, "bir": 11589, "night": 11590, "nord": 11591, "enminister": 11592, "Ġtaus": 11593, "Ġdrit": 11594, "itag": 11595, "Ġgiving": 11596, "Ġolli": 11597, "umst": 11598, "Ġforsten": 11599, "iessen": 11600, "Ġjon": 11601, "def": 11602, "Ġgeograph": 11603, "riffe": 11604, "ctor": 11605, "Ġaussen": 11606, "ausgaben": 11607, "Ġsauna": 11608, "Ġ94": 11609, "fahrzeuge": 11610, "Ġtransit": 11611, "Ġdepend": 11612, "blue": 11613, "blatt": 11614, "Ġoperating": 11615, "waffen": 11616, "ĠpalÃ¤st": 11617, "Ġkriminal": 11618, "natur": 11619, "Ġfamilies": 11620, "regionale": 11621, "Ġuniversal": 11622, "Ġausschusses": 11623, "Ġdringlichkeit": 11624, "Ġentsprechende": 11625, "Ġpilot": 11626, "Ġlaunched": 11627, "Ġmilliarden": 11628, "tom": 11629, "ysteme": 11630, "chmark": 11631, "Ġdischarge": 11632, "Ġsd": 11633, "Ġmt": 11634, "Ġinbegriffen": 11635, "edonia": 11636, "Ġthres": 11637, "Ġbewe": 11638, "abgabe": 11639, "foren": 11640, "acov": 11641, "Ġrh": 11642, "Ġzudem": 11643, "Ġdeserv": 11644, "Ġsof": 11645, "Ġheritage": 11646, "klima": 11647, "Ġbeschlossen": 11648, "register": 11649, "egf": 11650, "Ġkontrollen": 11651, "Ġeffizient": 11652, "Ġpattern": 11653, "1994": 11654, "vereinbar": 11655, "Ġfactors": 11656, "ĠverlÃ¤nger": 11657, "ĠgrÃ¶ÃŁere": 11658, "Ġinstitute": 11659, "Ġgentoo": 11660, "Ġpractices": 11661, "Ġdestroy": 11662, "Ġvehicle": 11663, "ĠberÃ¼cksichtigen": 11664, "Ġpollution": 11665, "Ġbudapest": 11666, "Ġdiskutieren": 11667, "galileo": 11668, "Ġkoordinierung": 11669, "Ġexhibition": 11670, "ĠendgÃ¼ltigen": 11671, "Ġtraynor": 11672, "erwartete": 11673, "59667": 11674, "lag": 11675, "Ġpensions": 11676, "Ġuna": 11677, "Ġlangen": 11678, "icious": 11679, "etable": 11680, "Ġeintrag": 11681, "Ġversprechen": 11682, "Ġjar": 11683, "Ġrank": 11684, "ĠgeschÃ¤ft": 11685, "eseit": 11686, "projekte": 11687, "fraktion": 11688, "Ġlaws": 11689, "leichheit": 11690, "Ġvoller": 11691, "Ġdiscussions": 11692, "Ġmittelpunkt": 11693, "security": 11694, "Ġdriving": 11695, "59258": 11696, "sometimes": 11697, "Ġberichterstatterin": 11698, "Ġlikely": 11699, "Ġcorporate": 11700, "Ġphilos": 11701, "Ġinitial": 11702, "dauer": 11703, "fill": 11704, "much": 11705, "uit": 11706, "Ġpowers": 11707, "Ġecht": 11708, "Ġune": 11709, "spap": 11710, "hern": 11711, "ittees": 11712, "aktuelle": 11713, "iza": 11714, "vorsitz": 11715, "Ġbegann": 11716, "Ġafford": 11717, "Ġmaintain": 11718, "intervention": 11719, "Ġroman": 11720, "ĠgemÃ¼se": 11721, "currently": 11722, "Ġtabelle": 11723, "ĠpersÃ¶nlichen": 11724, "Ġreduce": 11725, "Ġsongs": 11726, "Ġmexico": 11727, "construction": 11728, "honourable": 11729, "ĠjÃ¼ng": 11730, "ji": 11731, "ui": 11732, "wf": 11733, "Ġdj": 11734, "anfragen": 11735, "Ġwachstums": 11736, "Ġfather": 11737, "Ġpag": 11738, "Ã¼p": 11739, "Ġankunft": 11740, "Ġanmelden": 11741, "Ġkunde": 11742, "iced": 11743, "acin": 11744, "acion": 11745, "Ġgefragt": 11746, "Ġsplit": 11747, "istics": 11748, "cking": 11749, "Ġfinn": 11750, "ellor": 11751, "Ġplenty": 11752, "mitglieder": 11753, "Ġ621": 11754, "Ġaffect": 11755, "Ġprepar": 11756, "Ġhandy": 11757, "Ġinvestig": 11758, "ijn": 11759, "Ġteams": 11760, "Ġtrotzdem": 11761, "Ġbeteiligung": 11762, "westliche": 11763, "begrÃ¼ÃŁ": 11764, "Ġfinished": 11765, "Ġtuomioja": 11766, "auty": 11767, "kabel": 11768, "pc": 11769, "vic": 11770, "Ġbout": 11771, "ĠhÃ¤lfte": 11772, "stan": 11773, "bergen": 11774, "Ġwirksam": 11775, "spart": 11776, "anton": 11777, "zep": 11778, "afghanistan": 11779, "iox": 11780, "klar": 11781, "Ġrab": 11782, "Ġ1040": 11783, "Ġklass": 11784, "ĠdurchfÃ¼hrung": 11785, "Ġgegenseit": 11786, "Ġgelungen": 11787, "Ġcollege": 11788, "Ġauth": 11789, "Ġmethode": 11790, "abilities": 11791, "Ġbesonderen": 11792, "Ġsatur": 11793, "zustellen": 11794, "helene": 11795, "Ġtables": 11796, "Ġschwierigkeiten": 11797, "Ġstatistiken": 11798, "Ġsounds": 11799, "Ġslowenien": 11800, "Ġillust": 11801, "Ġsuggestions": 11802, "Ġfrequently": 11803, "Ġherzegowina": 11804, "kosovo": 11805, "Ġzimmern": 11806, "ĠÃ¼berzeugt": 11807, "Ġspoken": 11808, "bc": 11809, "itect": 11810, "Ġbird": 11811, "Ġports": 11812, "Ġhimm": 11813, "urlaub": 11814, "Ġlust": 11815, "Ġthailand": 11816, "Ġbezieht": 11817, "Ġforts": 11818, "abor": 11819, "Ġalph": 11820, "Ġseg": 11821, "Ġspect": 11822, "artig": 11823, "Ġexcept": 11824, "Ġallah": 11825, "Ġplays": 11826, "Ġwarning": 11827, "Ġgeschrieben": 11828, "Ġparadox": 11829, "Ġvietnam": 11830, "worte": 11831, "Ġeurozone": 11832, "Ġoutput": 11833, "Ġhosp": 11834, "Ġundert": 11835, "Ġpossibility": 11836, "Ġslight": 11837, "prioritÃ¤t": 11838, "Ġvolume": 11839, "Ġverkaufen": 11840, "Ġstockholm": 11841, "Ġhonourable": 11842, "Ġinfringements": 11843, "Ġabstimmen": 11844, "Ġkommentar": 11845, "Ġstudies": 11846, "Ġcharacters": 11847, "Ġsuspend": 11848, "drogen": 11849, "Ġcomponents": 11850, "rÃ¼stung": 11851, "frÃ¼hstÃ¼ck": 11852, "900": 11853, "city": 11854, "Ġnation": 11855, "Ġinstead": 11856, "Ġkov": 11857, "Ġkrist": 11858, "gehend": 11859, "Ġeiniges": 11860, "idad": 11861, "amin": 11862, "Ġsieben": 11863, "ffer": 11864, "Ġdesk": 11865, "anka": 11866, "upo": 11867, "Ã¤rm": 11868, "fragestunde": 11869, "Ġfriday": 11870, "2020": 11871, "Ġmainly": 11872, "Ġprotest": 11873, "Ġpassed": 11874, "attform": 11875, "Ġputin": 11876, "Ġarbeitslosigkeit": 11877, "modell": 11878, "Ġoccasion": 11879, "Ġshops": 11880, "ĠverstÃ¤ndnis": 11881, "Ġheavy": 11882, "Ġextent": 11883, "Ġtennis": 11884, "bach": 11885, "nic": 11886, "rub": 11887, "zte": 11888, "Ġunfair": 11889, "igible": 11890, "Ġzun": 11891, "Ġjungen": 11892, "ierend": 11893, "Ġergreifen": 11894, "Ġweist": 11895, "Ġzuerst": 11896, "wirken": 11897, "Ġasien": 11898, "Ġfinnland": 11899, "Ġplants": 11900, "Ġdemands": 11901, "Ã¶rd": 11902, "Ġ78": 11903, "anzahl": 11904, "Ġmarken": 11905, "Ġenergien": 11906, "forderung": 11907, "Ġrestriktive": 11908, "Ġfalsche": 11909, "Ġarchiv": 11910, "Ġtatsache": 11911, "Ġschriftlichen": 11912, "Ġmicro": 11913, "Ġobviously": 11914, "Ġbetrug": 11915, "ĠungefÃ¤hr": 11916, "mobile": 11917, "53593": 11918, "gat": 11919, "hÃ¤r": 11920, "Ġty": 11921, "Ġfurn": 11922, "Ġgun": 11923, "genieÃŁen": 11924, "einfach": 11925, "Ġausges": 11926, "Ġchi": 11927, "Ġhoyer": 11928, "ifs": 11929, "Ġquote": 11930, "Ġquoten": 11931, "manchmal": 11932, "Ġgrant": 11933, "comment": 11934, "statt": 11935, "Ġfinanzierungs": 11936, "Ġdidnt": 11937, "Ġromp": 11938, "Ġsafegu": 11939, "quiry": 11940, "rufe": 11941, "Ġdomestic": 11942, "ebene": 11943, "kelsen": 11944, "promoting": 11945, "Ġencourage": 11946, "Ã¶ffentlicher": 11947, "glÃ¼ckwÃ¼n": 11948, "bekistan": 11949, "Ġrefugees": 11950, "africa": 11951, "210": 11952, "ae": 11953, "differ": 11954, "hus": 11955, "mach": 11956, "sem": 11957, "Ġul": 11958, "Ġah": 11959, "Ġdin": 11960, "Ġded": 11961, "Ġdick": 11962, "Ġlager": 11963, "imo": 11964, "derung": 11965, "Ġio": 11966, "Ġexem": 11967, "auso": 11968, "plus": 11969, "cohol": 11970, "Ġray": 11971, "Ġ900": 11972, "Ã¤ndler": 11973, "Ġlandwir": 11974, "Ġscale": 11975, "407": 11976, "gelassen": 11977, "bald": 11978, "beihilfen": 11979, "kodex": 11980, "Ġkombin": 11981, "Ġengland": 11982, "Ġlesson": 11983, "stood": 11984, "overall": 11985, "ĠauÃŁerhalb": 11986, "Ġluxury": 11987, "Ġdeparture": 11988, "Ġbernard": 11989, "bÃ¼ro": 11990, "Ġewr": 11991, "Ġimmobilien": 11992, "journment": 11993, "Ġsorgf": 11994, "fred": 11995, "itar": 11996, "Ġbiss": 11997, "Ã¤nen": 11998, "rain": 11999, "Ġthor": 12000, "ouminister": 12001, "utto": 12002, "einleitung": 12003, "Ġgefordert": 12004, "Ã¼berwachung": 12005, "Ġcanada": 12006, "Ġroot": 12007, "Ġrodr": 12008, "ĠgrÃ¶": 12009, "Ġherrscht": 12010, "marie": 12011, "Ġversucht": 12012, "working": 12013, "Ġamended": 12014, "gemeinschafts": 12015, "Ġsurv": 12016, "Ġsanchez": 12017, "Ġstoffe": 12018, "Ġbalanced": 12019, "Ġjuan": 12020, "Ġconstit": 12021, "Ġhardly": 12022, "liber": 12023, "Ġschools": 12024, "Ġindividu": 12025, "Ġdamals": 12026, "alender": 12027, "Ġmountains": 12028, "Ġfreundlich": 12029, "Ġgeorgievas": 12030, "Ġresolved": 12031, "habit": 12032, "Ġcauses": 12033, "britann": 12034, "tabelle": 12035, "Ġconvenient": 12036, "buÃŁen": 12037, "Ġcomprehensive": 12038, "gÃ¤": 12039, "jak": 12040, "rick": 12041, "Ġiron": 12042, "Ġsms": 12043, "Ġsatz": 12044, "Ġcamer": 12045, "Ġgaza": 12046, "Ġvit": 12047, "omer": 12048, "former": 12049, "ĠÃ¼berwachung": 12050, "werbe": 12051, "grad": 12052, "frauen": 12053, "Ġfolge": 12054, "Ġzeich": 12055, "Ġbrasilien": 12056, "ĠflÃ¤": 12057, "115": 12058, "Ġgewonnen": 12059, "Ġparliaments": 12060, "Ġsigns": 12061, "eldet": 12062, "fox": 12063, "Ġfahrt": 12064, "Ġschwerpunkt": 12065, "Ġbuchung": 12066, "Ġsouthern": 12067, "Ġmoderne": 12068, "ĠvollstÃ¤ndigen": 12069, "ĠprÃ¤z": 12070, "Ġurgently": 12071, "ĠausschuÃŁ": 12072, "Ġliked": 12073, "lÃ¤ndische": 12074, "ĠmÃ¼nchen": 12075, "Ġocean": 12076, "others": 12077, "power": 12078, "run": 12079, "onte": 12080, "Ġniger": 12081, "user": 12082, "Ã¤uÃŁ": 12083, "Ġbezeichnung": 12084, "idem": 12085, "ĠrÃ¼": 12086, "Ġwear": 12087, "Ġschmer": 12088, "Ġchile": 12089, "liefer": 12090, "Ġgender": 12091, "Ġmineral": 12092, "Ġclancy": 12093, "Ġempfohlen": 12094, "Ġfarb": 12095, "ĠâĤ¬.": 12096, "Ġcharges": 12097, "said": 12098, "Ġhealthy": 12099, "iodivers": 12100, "Ġsaved": 12101, "opoulos": 12102, "Ġfantastic": 12103, "Ġjeweils": 12104, "Ġbeinhaltet": 12105, "Ġduties": 12106, "Ġweapons": 12107, "begrÃ¼ÃŁung": 12108, "bem": 12109, "central": 12110, "facts": 12111, "ming": 12112, "Ġti": 12113, "Ġsinc": 12114, "reifen": 12115, "Ġgessler": 12116, "Ġunmittel": 12117, "Ġlunch": 12118, "Ġforth": 12119, "Ġversehen": 12120, "ierra": 12121, "sph": 12122, "Ġzuges": 12123, "adjournment": 12124, "several": 12125, "iveau": 12126, "Ġenforcement": 12127, "Ġmanaged": 12128, "garant": 12129, "Ġsubmit": 12130, "ĠfÃ¼llen": 12131, "Ġfunded": 12132, "752": 12133, "Ġspeakers": 12134, "Ġjaime": 12135, "Ġdownloads": 12136, "technologie": 12137, "Ġgovernments": 12138, "Ġausgezeichnet": 12139, "Ġausgewogen": 12140, "ĠgrÃ¼nbuch": 12141, "Ġinteressiert": 12142, "mitgliedstaat": 12143, "Ġwirtschaftsraum": 12144, "ĠfÃ¼hrung": 12145, "vollstÃ¤nd": 12146, "Ġgarantie": 12147, "Ġbalkanstaaten": 12148, "institutional": 12149, "Ġfremden": 12150, "Ġanpassung": 12151, "Ġsunday": 12152, "raten": 12153, "chair": 12154, "isc": 12155, "Ġwol": 12156, "Ġpia": 12157, "Ġing": 12158, "ominister": 12159, "Ġaner": 12160, "Ġlen": 12161, "Ġlord": 12162, "ĠeinfÃ¼hrung": 12163, "Ġandreas": 12164, "berger": 12165, "Ġjord": 12166, "Ġerinn": 12167, "Ġerleb": 12168, "rif": 12169, "ĠschwÃ¤": 12170, "Ġschauen": 12171, "ubb": 12172, "ĠÃ¼bersetz": 12173, "iva": 12174, "anges": 12175, "Ġumst": 12176, "iov": 12177, "class": 12178, "Ġbesucht": 12179, "Ġdisaster": 12180, "Ġseeing": 12181, "Ġinterview": 12182, "Ġsolches": 12183, "igerung": 12184, "Ġactual": 12185, "Ġwenigen": 12186, "serbien": 12187, "Ġdistr": 12188, "Ġbonn": 12189, "ĠverÃ¤nderung": 12190, "ĠglÃ¼ckwunsch": 12191, "Ġopposed": 12192, "Ġsitzungen": 12193, "Ġexplor": 12194, "Ġremoved": 12195, "einzelheiten": 12196, "Ġpidla": 12197, "dau": 12198, "kov": 12199, "mutzung": 12200, "ni": 12201, "Ġade": 12202, "Ġafra": 12203, "Ġwire": 12204, "Ġcopenhagen": 12205, "Ġnap": 12206, "Ġzweiter": 12207, "ĠbeglÃ¼ckwÃ¼n": 12208, "Ġverurs": 12209, "Ġera": 12210, "alli": 12211, "Ġschlagen": 12212, "Ġspons": 12213, "Ġlegt": 12214, "ĠÃ¼bersetzung": 12215, "Ġallows": 12216, "Ġusw": 12217, "afe": 12218, "izing": 12219, "together": 12220, "Ġbrenn": 12221, "Ġversuch": 12222, "present": 12223, "fÃ¤llen": 12224, "geschrieben": 12225, "ĠnÃ¤chstes": 12226, "Ġparkplatz": 12227, "Ã¶lle": 12228, "Ġkapitel": 12229, "Ġunterschiede": 12230, "Ġarrive": 12231, "groÃŁ": 12232, "Ġeinwanderung": 12233, "Ġverabschied": 12234, "Ġcriticism": 12235, "cycling": 12236, "Ġafraid": 12237, "918": 12238, "ewsa": 12239, "material": 12240, "vp": 12241, "Ġhtel": 12242, "Ġstim": 12243, "abet": 12244, "Ġ130": 12245, "berichte": 12246, "acle": 12247, "verlÃ¤ss": 12248, "Ġgehe": 12249, "quite": 12250, "Ġdeserve": 12251, "iell": 12252, "Ġregierungen": 12253, "Ġliability": 12254, "Ġpressestelle": 12255, "ilemma": 12256, "Ġgespe": 12257, "Ġcarlos": 12258, "solidar": 12259, "composition": 12260, "employ": 12261, "ĠeingefÃ¼hrt": 12262, "Ġlabelling": 12263, "Ġbeispielsweise": 12264, "Ġturned": 12265, "Ġpopul": 12266, "zimmerbeschreibung": 12267, "director": 12268, "ĠÃ¼berprÃ¼fen": 12269, "effizienz": 12270, "Ġleistungs": 12271, "Ġaktualisiert": 12272, "beteiligung": 12273, "Ġanstrengungen": 12274, "gg": 12275, "lik": 12276, "pie": 12277, "Ġwinner": 12278, "alte": 12279, "ĠnÃ¼tz": 12280, "Ġincome": 12281, "Ġvary": 12282, "Ġkaz": 12283, "Ġunfortunately": 12284, "gens": 12285, "berichterstatter": 12286, "Ġ(%)": 12287, "Ġjak": 12288, "Ġneither": 12289, "Ġconclude": 12290, "Ġthats": 12291, "gerne": 12292, "ciliation": 12293, "Ġcommittees": 12294, "Ġrain": 12295, "frank": 12296, "Ġpred": 12297, "Ġprograms": 12298, "Ġempty": 12299, "ĠgerÃ¤t": 12300, "Ġindones": 12301, "Ġtrump": 12302, "Ġreli": 12303, "insbesondere": 12304, "Ġpersonally": 12305, "Ġfinanzmittel": 12306, "Ġsurprise": 12307, "Ġgedanken": 12308, "Ġverpack": 12309, "ĠpersÃ¶nliche": 12310, "Ġhervorheben": 12311, "Ġnetzwerk": 12312, "Ġdiskutiert": 12313, "Ġwetter": 12314, "Ġhansen": 12315, "Ġgirls": 12316, "Ġconvinc": 12317, "zedonien": 12318, "etheless": 12319, "Ġrompuy": 12320, "rs": 12321, "Ġapol": 12322, "Ġtsch": 12323, "isk": 12324, "isia": 12325, "Ġwont": 12326, "Ġfi": 12327, "Ġbah": 12328, "Ġpakete": 12329, "Ġved": 12330, "Ġanlass": 12331, "Ġklaus": 12332, "ingu": 12333, "import": 12334, "Ġrevision": 12335, "ota": 12336, "uropa": 12337, "Ġerh": 12338, "Ġcondem": 12339, "Ġchris": 12340, "Ġsohn": 12341, "Ġ4379": 12342, "Ġcompatible": 12343, "cohesion": 12344, "Ġzumindest": 12345, "Ġstrict": 12346, "Ġkontext": 12347, "aterini": 12348, "Ġeverybody": 12349, "Ġrealistic": 12350, "Ġauge": 12351, "Ġaccessible": 12352, "ĠgemÃ¼t": 12353, "Ġwaite": 12354, "Ġwahrscheinlich": 12355, "disc": 12356, "Ġefovi": 12357, "ĠtÃ¤tigkeit": 12358, "Ġswitch": 12359, "Ġcomplicated": 12360, "target": 12361, "uttle": 12362,
[...]
